{
  "version": "1.0",
  "truncation": null,
  "padding": null,
  "added_tokens": [
    {
      "id": 0,
      "content": "[UNK]",
      "single_word": false,
      "lstrip": false,
      "rstrip": false,
      "normalized": false,
      "special": true
    },
    {
      "id": 1,
      "content": "[PAD]",
      "single_word": false,
      "lstrip": false,
      "rstrip": false,
      "normalized": false,
      "special": true
    },
    {
      "id": 2,
      "content": "[BOS]",
      "single_word": false,
      "lstrip": false,
      "rstrip": false,
      "normalized": false,
      "special": true
    },
    {
      "id": 3,
      "content": "[EOS]",
      "single_word": false,
      "lstrip": false,
      "rstrip": false,
      "normalized": false,
      "special": true
    }
  ],
  "normalizer": {
    "type": "NFC"
  },
  "pre_tokenizer": {
    "type": "Whitespace"
  },
  "post_processor": null,
  "decoder": null,
  "model": {
    "type": "BPE",
    "dropout": null,
    "unk_token": "[UNK]",
    "continuing_subword_prefix": null,
    "end_of_word_suffix": null,
    "fuse_unk": false,
    "byte_fallback": false,
    "ignore_merges": false,
    "vocab": {
      "[UNK]": 0,
      "[PAD]": 1,
      "[BOS]": 2,
      "[EOS]": 3,
      "!": 4,
      "\"": 5,
      "#": 6,
      "$": 7,
      "%": 8,
      "&": 9,
      "'": 10,
      "(": 11,
      ")": 12,
      "*": 13,
      "+": 14,
      ",": 15,
      "-": 16,
      ".": 17,
      "/": 18,
      "0": 19,
      "1": 20,
      "2": 21,
      "3": 22,
      "4": 23,
      "5": 24,
      "6": 25,
      "7": 26,
      "8": 27,
      "9": 28,
      ":": 29,
      ";": 30,
      "<": 31,
      "=": 32,
      ">": 33,
      "?": 34,
      "@": 35,
      "A": 36,
      "B": 37,
      "C": 38,
      "D": 39,
      "E": 40,
      "F": 41,
      "G": 42,
      "H": 43,
      "I": 44,
      "J": 45,
      "K": 46,
      "L": 47,
      "M": 48,
      "N": 49,
      "O": 50,
      "P": 51,
      "Q": 52,
      "R": 53,
      "S": 54,
      "T": 55,
      "U": 56,
      "V": 57,
      "W": 58,
      "X": 59,
      "Y": 60,
      "Z": 61,
      "[": 62,
      "\\": 63,
      "]": 64,
      "^": 65,
      "_": 66,
      "`": 67,
      "a": 68,
      "b": 69,
      "c": 70,
      "d": 71,
      "e": 72,
      "f": 73,
      "g": 74,
      "h": 75,
      "i": 76,
      "j": 77,
      "k": 78,
      "l": 79,
      "m": 80,
      "n": 81,
      "o": 82,
      "p": 83,
      "q": 84,
      "r": 85,
      "s": 86,
      "t": 87,
      "u": 88,
      "v": 89,
      "w": 90,
      "x": 91,
      "y": 92,
      "z": 93,
      "{": 94,
      "|": 95,
      "}": 96,
      "~": 97,
      "": 98,
      "": 99,
      "": 100,
      "": 101,
      "": 102,
      "": 103,
      "£": 104,
      "¤": 105,
      "¥": 106,
      "§": 107,
      "¨": 108,
      "©": 109,
      "«": 110,
      "­": 111,
      "®": 112,
      "°": 113,
      "±": 114,
      "²": 115,
      "³": 116,
      "·": 117,
      "º": 118,
      "»": 119,
      "¼": 120,
      "½": 121,
      "¾": 122,
      "¿": 123,
      "À": 124,
      "Â": 125,
      "Ä": 126,
      "Å": 127,
      "Æ": 128,
      "Ç": 129,
      "È": 130,
      "Ê": 131,
      "Ì": 132,
      "Î": 133,
      "Ñ": 134,
      "×": 135,
      "Ù": 136,
      "Ú": 137,
      "Ý": 138,
      "à": 139,
      "á": 140,
      "â": 141,
      "æ": 142,
      "ç": 143,
      "é": 144,
      "ê": 145,
      "ë": 146,
      "í": 147,
      "î": 148,
      "ï": 149,
      "ð": 150,
      "ò": 151,
      "ó": 152,
      "ö": 153,
      "÷": 154,
      "ü": 155,
      "þ": 156,
      "ā": 157,
      "č": 158,
      "ě": 159,
      "ī": 160,
      "ı": 161,
      "ń": 162,
      "ō": 163,
      "ő": 164,
      "ş": 165,
      "š": 166,
      "ū": 167,
      "Ź": 168,
      "˗": 169,
      "˚": 170,
      "˜": 171,
      "̊": 172,
      "Δ": 173,
      "Μ": 174,
      "ί": 175,
      "α": 176,
      "ε": 177,
      "ζ": 178,
      "η": 179,
      "ι": 180,
      "λ": 181,
      "μ": 182,
      "ν": 183,
      "ξ": 184,
      "ο": 185,
      "π": 186,
      "ρ": 187,
      "σ": 188,
      "υ": 189,
      "φ": 190,
      "ω": 191,
      "а": 192,
      "б": 193,
      "в": 194,
      "г": 195,
      "д": 196,
      "е": 197,
      "и": 198,
      "й": 199,
      "к": 200,
      "л": 201,
      "м": 202,
      "н": 203,
      "о": 204,
      "п": 205,
      "р": 206,
      "с": 207,
      "т": 208,
      "у": 209,
      "ч": 210,
      "ъ": 211,
      "ы": 212,
      "ю": 213,
      "я": 214,
      "і": 215,
      "إ": 216,
      "ئ": 217,
      "ا": 218,
      "ة": 219,
      "د": 220,
      "ر": 221,
      "س": 222,
      "ل": 223,
      "م": 224,
      "و": 225,
      "ي": 226,
      "َ": 227,
      "ِ": 228,
      "ْ": 229,
      "پ": 230,
      "گ": 231,
      "ہ": 232,
      "ँ": 233,
      "ं": 234,
      "ः": 235,
      "अ": 236,
      "आ": 237,
      "ई": 238,
      "उ": 239,
      "ऊ": 240,
      "ऋ": 241,
      "ए": 242,
      "ओ": 243,
      "क": 244,
      "ख": 245,
      "ग": 246,
      "घ": 247,
      "च": 248,
      "छ": 249,
      "ज": 250,
      "झ": 251,
      "ञ": 252,
      "ट": 253,
      "ड": 254,
      "ण": 255,
      "त": 256,
      "थ": 257,
      "द": 258,
      "ध": 259,
      "न": 260,
      "प": 261,
      "फ": 262,
      "ब": 263,
      "भ": 264,
      "म": 265,
      "य": 266,
      "र": 267,
      "ल": 268,
      "ळ": 269,
      "व": 270,
      "श": 271,
      "ष": 272,
      "स": 273,
      "ह": 274,
      "़": 275,
      "ऽ": 276,
      "ा": 277,
      "ि": 278,
      "ी": 279,
      "ु": 280,
      "ू": 281,
      "ृ": 282,
      "ॅ": 283,
      "े": 284,
      "ै": 285,
      "ॉ": 286,
      "ो": 287,
      "ौ": 288,
      "्": 289,
      "ॐ": 290,
      "।": 291,
      "॥": 292,
      "०": 293,
      "२": 294,
      "३": 295,
      "४": 296,
      "੨": 297,
      "ઁ": 298,
      "ં": 299,
      "ઃ": 300,
      "અ": 301,
      "આ": 302,
      "ઇ": 303,
      "ઈ": 304,
      "ઉ": 305,
      "ઊ": 306,
      "ઋ": 307,
      "ઍ": 308,
      "એ": 309,
      "ઐ": 310,
      "ઑ": 311,
      "ઓ": 312,
      "ઔ": 313,
      "ક": 314,
      "ખ": 315,
      "ગ": 316,
      "ઘ": 317,
      "ઙ": 318,
      "ચ": 319,
      "છ": 320,
      "જ": 321,
      "ઝ": 322,
      "ઞ": 323,
      "ટ": 324,
      "ઠ": 325,
      "ડ": 326,
      "ઢ": 327,
      "ણ": 328,
      "ત": 329,
      "થ": 330,
      "દ": 331,
      "ધ": 332,
      "ન": 333,
      "પ": 334,
      "ફ": 335,
      "બ": 336,
      "ભ": 337,
      "મ": 338,
      "ય": 339,
      "ર": 340,
      "઱": 341,
      "લ": 342,
      "ળ": 343,
      "વ": 344,
      "શ": 345,
      "ષ": 346,
      "સ": 347,
      "હ": 348,
      "઼": 349,
      "ા": 350,
      "િ": 351,
      "ી": 352,
      "ુ": 353,
      "ૂ": 354,
      "ૃ": 355,
      "ૄ": 356,
      "ૅ": 357,
      "ે": 358,
      "ૈ": 359,
      "ૉ": 360,
      "ો": 361,
      "ૌ": 362,
      "્": 363,
      "ૐ": 364,
      "ૠ": 365,
      "ૢ": 366,
      "૤": 367,
      "૦": 368,
      "૧": 369,
      "૨": 370,
      "૩": 371,
      "૪": 372,
      "૫": 373,
      "૬": 374,
      "૭": 375,
      "૮": 376,
      "૯": 377,
      "૱": 378,
      "ச": 379,
      "ர": 380,
      "ழ": 381,
      "ோ": 382,
      "்": 383,
      "‎": 384,
      "–": 385,
      "—": 386,
      "‘": 387,
      "’": 388,
      "‚": 389,
      "‛": 390,
      "“": 391,
      "”": 392,
      "†": 393,
      "•": 394,
      "…": 395,
      "‪": 396,
      "‬": 397,
      "′": 398,
      "″": 399,
      "‹": 400,
      "€": 401,
      "₹": 402,
      "№": 403,
      "™": 404,
      "↑": 405,
      "→": 406,
      "−": 407,
      "√": 408,
      "≈": 409,
      "≤": 410,
      "⓿": 411,
      "▪": 412,
      "▲": 413,
      "►": 414,
      "◆": 415,
      "○": 416,
      "●": 417,
      "★": 418,
      "☞": 419,
      "♡": 420,
      "♦": 421,
      "♲": 422,
      "⚫": 423,
      "✓": 424,
      "✔": 425,
      "❣": 426,
      "⦁": 427,
      "⬛": 428,
      "⭕": 429,
      "、": 430,
      "㎡": 431,
      "三": 432,
      "京": 433,
      "仏": 434,
      "北": 435,
      "合": 436,
      "国": 437,
      "大": 438,
      "学": 439,
      "宝": 440,
      "東": 441,
      "略": 442,
      "語": 443,
      "連": 444,
      "際": 445,
      "": 446,
      "": 447,
      "": 448,
      "": 449,
      "": 450,
      "": 451,
      "️": 452,
      "｜": 453,
      "ﾍ": 454,
      "ﾗ": 455,
      "ﾠ": 456,
      "�": 457,
      "🍉": 458,
      "🍋": 459,
      "🍚": 460,
      "🎹": 461,
      "🎼": 462,
      "👈": 463,
      "👉": 464,
      "👍": 465,
      "💁": 466,
      "💐": 467,
      "💫": 468,
      "📱": 469,
      "😁": 470,
      "😋": 471,
      "😲": 472,
      "🙂": 473,
      "🥑": 474,
      "મા": 475,
      "વા": 476,
      "ના": 477,
      "્ય": 478,
      "ને": 479,
      "માં": 480,
      "્ર": 481,
      "ાર": 482,
      "છે": 483,
      "ની": 484,
      "કર": 485,
      "ું": 486,
      "તા": 487,
      "તે": 488,
      "રા": 489,
      "સ્": 490,
      "ર્": 491,
      "કે": 492,
      "લા": 493,
      "થી": 494,
      "અને": 495,
      "કો": 496,
      "સા": 497,
      "નો": 498,
      "કા": 499,
      "વિ": 500,
      "રી": 501,
      "પ્ર": 502,
      "ક્": 503,
      "ન્": 504,
      "ટે": 505,
      "્યા": 506,
      "પર": 507,
      "હત": 508,
      "યા": 509,
      "વી": 510,
      "મે": 511,
      "હે": 512,
      "પા": 513,
      "કાર": 514,
      "વે": 515,
      "જે": 516,
      "લી": 517,
      "રો": 518,
      "પણ": 519,
      "જા": 520,
      "ભા": 521,
      "ત્ર": 522,
      "હો": 523,
      "ંગ": 524,
      "રે": 525,
      "શે": 526,
      "લો": 527,
      "લે": 528,
      "માટે": 529,
      "નિ": 530,
      "બા": 531,
      "કરી": 532,
      "પો": 533,
      "વામાં": 534,
      "નું": 535,
      "લ્": 536,
      "તો": 537,
      "મો": 538,
      "જો": 539,
      "તિ": 540,
      "યો": 541,
      "એક": 542,
      "ટી": 543,
      "્યો": 544,
      "જી": 545,
      "્યું": 546,
      "સે": 547,
      "તી": 548,
      "સં": 549,
      "હી": 550,
      "આવ": 551,
      "ડી": 552,
      "િયા": 553,
      "દે": 554,
      "સુ": 555,
      "ડા": 556,
      "ણી": 557,
      "રૂ": 558,
      "દા": 559,
      "હા": 560,
      "થે": 561,
      "ણા": 562,
      "તેમ": 563,
      "ક્ષ": 564,
      "મુ": 565,
      "બે": 566,
      "ધી": 567,
      "પી": 568,
      "સાથે": 569,
      "દી": 570,
      "થા": 571,
      "સી": 572,
      "ારે": 573,
      "ગા": 574,
      "દિ": 575,
      "ત્": 576,
      "દ્": 577,
      "મી": 578,
      "સિ": 579,
      "હતી": 580,
      "ખા": 581,
      "ચા": 582,
      "હિ": 583,
      "સર": 584,
      "સ્ટ": 585,
      "મિ": 586,
      "વધ": 587,
      "વર્": 588,
      "ંત": 589,
      "ણે": 590,
      "સમ": 591,
      "શા": 592,
      "ધા": 593,
      "બી": 594,
      "કી": 595,
      "સો": 596,
      "મળ": 597,
      "કરવા": 598,
      "ટા": 599,
      "રિ": 600,
      "હતા": 601,
      "રાજ": 602,
      "લિ": 603,
      "આપ": 604,
      "ટ્ર": 605,
      "હતો": 606,
      "રહ": 607,
      "નથી": 608,
      "ક્ર": 609,
      "આવે": 610,
      "ત્ય": 611,
      "શન": 612,
      "વાર": 613,
      "ગુ": 614,
      "તમા": 615,
      "પૂ": 616,
      "વો": 617,
      "દર": 618,
      "આવી": 619,
      "લોકો": 620,
      "ડિ": 621,
      "ગ્ર": 622,
      "યુ": 623,
      "રહે": 624,
      "યે": 625,
      "ષ્": 626,
      "પુ": 627,
      "ડે": 628,
      "કરવામાં": 629,
      "ારી": 630,
      "કિ": 631,
      "પે": 632,
      "ચે": 633,
      "શ્": 634,
      "પ્": 635,
      "હતું": 636,
      "દેશ": 637,
      "ાર્": 638,
      "સ્ત": 639,
      "મં": 640,
      "ન્ટ": 641,
      "બં": 642,
      "માન": 643,
      "ડો": 644,
      "ગી": 645,
      "શિ": 646,
      "વર્ષ": 647,
      "ળા": 648,
      "્યુ": 649,
      "હોય": 650,
      "બો": 651,
      "વારા": 652,
      "છી": 653,
      "દ્વારા": 654,
      "ભાર": 655,
      "અન": 656,
      "ંચ": 657,
      "તર": 658,
      "વું": 659,
      "ગે": 660,
      "ઉપ": 661,
      "ગર": 662,
      "તાં": 663,
      "મ્": 664,
      "િલ્": 665,
      "વર": 666,
      "વાની": 667,
      "દ્ર": 668,
      "ત્રી": 669,
      "વધુ": 670,
      "ફે": 671,
      "વ્ય": 672,
      "પોલી": 673,
      "સુધી": 674,
      "બાદ": 675,
      "પિ": 676,
      "્રે": 677,
      "સ્થ": 678,
      "્યાં": 679,
      "જુ": 680,
      "કેટ": 681,
      "સરકાર": 682,
      "થઈ": 683,
      "છો": 684,
      "દિવ": 685,
      "કરે": 686,
      "ન્ડ": 687,
      "પોતા": 688,
      "ચ્": 689,
      "બના": 690,
      "જણા": 691,
      "ટિ": 692,
      "શકે": 693,
      "ખે": 694,
      "કરો": 695,
      "ટર": 696,
      "સાર": 697,
      "કુ": 698,
      "કોઈ": 699,
      "પરિ": 700,
      "ંતુ": 701,
      "શો": 702,
      "ળી": 703,
      "કામ": 704,
      "પહે": 705,
      "િત": 706,
      "પરંતુ": 707,
      "હીં": 708,
      "ટો": 709,
      "સ્થા": 710,
      "ફા": 711,
      "રોના": 712,
      "20": 713,
      "તમે": 714,
      "દુ": 715,
      "ગો": 716,
      "ફો": 717,
      "રીતે": 718,
      "કરા": 719,
      "રહી": 720,
      "માંથી": 721,
      "દો": 722,
      "તેના": 723,
      "ચાર": 724,
      "જન": 725,
      "કોરોના": 726,
      "રાત": 727,
      "મને": 728,
      "હેર": 729,
      "દર્": 730,
      "્યારે": 731,
      "કહ": 732,
      "ર્ટ": 733,
      "યોગ": 734,
      "થવા": 735,
      "ધિ": 736,
      "બર": 737,
      "સામે": 738,
      "..": 739,
      "નાં": 740,
      "વવા": 741,
      "લગ": 742,
      "ત્યારે": 743,
      "હાર": 744,
      "પછી": 745,
      "નમાં": 746,
      "રાખ": 747,
      "પૂર્": 748,
      "િક": 749,
      "બંધ": 750,
      "પોલીસ": 751,
      "કં": 752,
      "મુખ": 753,
      "ચી": 754,
      "મહિ": 755,
      "ારો": 756,
      "જૂ": 757,
      "ફર": 758,
      "કહ્યું": 759,
      "ન્સ": 760,
      "સમય": 761,
      "થાય": 762,
      "ંક": 763,
      "ચો": 764,
      "કાર્ય": 765,
      "ન્દ્ર": 766,
      "લમાં": 767,
      "ગુજ": 768,
      "તેઓ": 769,
      "શ્ર": 770,
      "બિ": 771,
      "ભાગ": 772,
      "સૌ": 773,
      "જણાવ": 774,
      "ભારત": 775,
      "રહ્યા": 776,
      "લુ": 777,
      "વન": 778,
      "પડ": 779,
      "એમ": 780,
      "જ્યારે": 781,
      "વાય": 782,
      "કારણે": 783,
      "ચૂ": 784,
      "ભાઈ": 785,
      "ધો": 786,
      "વાદ": 787,
      "મૂ": 788,
      "હવે": 789,
      "કારી": 790,
      "સમા": 791,
      "શી": 792,
      "્સ": 793,
      "ખો": 794,
      "હોવા": 795,
      "કાય": 796,
      "જવા": 797,
      "તરી": 798,
      "મળી": 799,
      "તેની": 800,
      "શરૂ": 801,
      "દિવસ": 802,
      "અં": 803,
      "ઓને": 804,
      "વાત": 805,
      "તેને": 806,
      "લાક": 807,
      "મત": 808,
      "પહેલા": 809,
      "રુ": 810,
      "યું": 811,
      "નહીં": 812,
      "વારે": 813,
      "બાળ": 814,
      "ગુજરાત": 815,
      "ચિ": 816,
      "અમે": 817,
      "ધાર": 818,
      "પાસ": 819,
      "અનુ": 820,
      "જરૂ": 821,
      "અમ": 822,
      "પાસે": 823,
      "હુ": 824,
      "પ્રા": 825,
      "એસ": 826,
      "કર્": 827,
      "અથવા": 828,
      "ક્તિ": 829,
      "કલ": 830,
      "પાણી": 831,
      "કર્યો": 832,
      "00": 833,
      "શક": 834,
      "રાજ્ય": 835,
      "નિર્": 836,
      "આજે": 837,
      "બ્": 838,
      "ટકા": 839,
      "સર્": 840,
      "આપી": 841,
      "નગર": 842,
      "નોં": 843,
      "નુ": 844,
      "ઉત્": 845,
      "વિસ્ત": 846,
      "જોઈ": 847,
      "ંડ": 848,
      "દરમ": 849,
      "પની": 850,
      "સ્તા": 851,
      "જાણ": 852,
      "જિલ્": 853,
      "સૂ": 854,
      "ટના": 855,
      "પહો": 856,
      "ક્સ": 857,
      "મંત્રી": 858,
      "છા": 859,
      "જિલ્લા": 860,
      "ગ્રા": 861,
      "રૂપ": 862,
      "માર": 863,
      "દાર": 864,
      "મારી": 865,
      "િયાન": 866,
      "રમાં": 867,
      "આવ્યા": 868,
      "માર્": 869,
      "અંગ": 870,
      "કહે": 871,
      "લઈ": 872,
      "મના": 873,
      "સિં": 874,
      "બ્ર": 875,
      "આવ્યો": 876,
      "ક્ષા": 877,
      "હિત": 878,
      "તેમના": 879,
      "જય": 880,
      "બુ": 881,
      "ભૂ": 882,
      "જેમાં": 883,
      "તમારા": 884,
      "કરતા": 885,
      "ંટ": 886,
      "ભાઇ": 887,
      "ફિલ્": 888,
      "એટ": 889,
      "આરો": 890,
      "ખુ": 891,
      "અભ": 892,
      "કારણ": 893,
      "કેસ": 894,
      "થઇ": 895,
      "મમાં": 896,
      "શું": 897,
      "જણાવ્યું": 898,
      "સ્ટે": 899,
      "કરીને": 900,
      "તેમણે": 901,
      "રોજ": 902,
      "અન્ય": 903,
      "ગયા": 904,
      "થો": 905,
      "મુખ્ય": 906,
      "વચ્": 907,
      "ષ્ટ્ર": 908,
      "ઠા": 909,
      "પ્રે": 910,
      "જોવા": 911,
      "નના": 912,
      "પોતાના": 913,
      "ઉપર": 914,
      "જબ": 915,
      "ભાવ": 916,
      "નની": 917,
      "ખૂ": 918,
      "તથા": 919,
      "તમામ": 920,
      "બદ": 921,
      "દરમિયાન": 922,
      "ર્સ": 923,
      "ર્ડ": 924,
      "ંદ": 925,
      "તરીકે": 926,
      "સ્થિ": 927,
      "અધિ": 928,
      "ગત": 929,
      "સૌથી": 930,
      "પ્રતિ": 931,
      "શુ": 932,
      "ભાજ": 933,
      "માત્ર": 934,
      "દ્ધ": 935,
      "થયા": 936,
      "નિય": 937,
      "ક્ષણ": 938,
      "દૂ": 939,
      "મહા": 940,
      "ધાન": 941,
      "સુર": 942,
      "કંપની": 943,
      "પ્રો": 944,
      "ત્રણ": 945,
      "નવા": 946,
      "વચ્ચે": 947,
      "ંગ્રે": 948,
      "નામ": 949,
      "૦૦": 950,
      "લ્લા": 951,
      "ભી": 952,
      "તેમજ": 953,
      "રહ્યો": 954,
      "ભર": 955,
      "ઉપયોગ": 956,
      "વ્યા": 957,
      "અંગે": 958,
      "આવશે": 959,
      "ક્ત": 960,
      "જના": 961,
      "રસ": 962,
      "તુ": 963,
      "મહિલા": 964,
      "વખ": 965,
      "જાય": 966,
      "શહેર": 967,
      "પાર્": 968,
      "ડિયા": 969,
      "હાથ": 970,
      "પૂર્ણ": 971,
      "કોંગ્રે": 972,
      "બની": 973,
      "લોક": 974,
      "આવ્યું": 975,
      "પગ": 976,
      "તરફ": 977,
      "સાં": 978,
      "યેલા": 979,
      "લું": 980,
      "મેળ": 981,
      "રણ": 982,
      "ફિ": 983,
      "જાર": 984,
      "ખૂબ": 985,
      "આત": 986,
      "ર્થ": 987,
      "વ્યક્તિ": 988,
      "પુર": 989,
      "તેમને": 990,
      "ઝા": 991,
      "ફ્": 992,
      "વવામાં": 993,
      "જોઈએ": 994,
      "માણ": 995,
      "પક": 996,
      "ત્યાર": 997,
      "યલ": 998,
      "ત્યાં": 999,
      "થશે": 1000,
      "વાનો": 1001,
      "થયો": 1002,
      "કરોડ": 1003,
      "નિક": 1004,
      "રૂપિયા": 1005,
      "લના": 1006,
      "મદ": 1007,
      "સ્વ": 1008,
      "પહોંચ": 1009,
      "લાખ": 1010,
      "તેમની": 1011,
      "આપણ": 1012,
      "વિસ્તાર": 1013,
      "સહિત": 1014,
      "ફરી": 1015,
      "સ્થિતિ": 1016,
      "વિશે": 1017,
      "ધ્ય": 1018,
      "ઘટના": 1019,
      "ઘા": 1020,
      "શ્રી": 1021,
      "મોટા": 1022,
      "તૈ": 1023,
      "રાષ્ટ્ર": 1024,
      "અમદા": 1025,
      "જ્": 1026,
      "આગ": 1027,
      "આર": 1028,
      "માન્ય": 1029,
      "સિંહ": 1030,
      "ખ્યા": 1031,
      "કર્યું": 1032,
      "અમદાવાદ": 1033,
      "ધ્યા": 1034,
      "ચૂંટ": 1035,
      "ગાં": 1036,
      "બહાર": 1037,
      "ફળ": 1038,
      "નાર": 1039,
      "પોર્ટ": 1040,
      "કોંગ્રેસ": 1041,
      "હું": 1042,
      "ચૂંટણી": 1043,
      "કુલ": 1044,
      "ઓની": 1045,
      "જિ": 1046,
      "કૃ": 1047,
      "ખી": 1048,
      "કર્યા": 1049,
      "મોદી": 1050,
      "ભાજપ": 1051,
      "તું": 1052,
      "સ્પિ": 1053,
      "વાસ": 1054,
      "આઈ": 1055,
      "ગ્યા": 1056,
      "કરવાની": 1057,
      "મહત": 1058,
      "લાઈ": 1059,
      "આપવામાં": 1060,
      "પં": 1061,
      "દિલ્": 1062,
      "ઇન": 1063,
      "તપાસ": 1064,
      "ઘણા": 1065,
      "ત્રો": 1066,
      "િય": 1067,
      "તૈય": 1068,
      "વિશ્": 1069,
      "કોટ": 1070,
      "મેન્ટ": 1071,
      "૨૦": 1072,
      "ટ્રે": 1073,
      "પોતાની": 1074,
      "નવી": 1075,
      "સાદ": 1076,
      "પતિ": 1077,
      "રેક": 1078,
      "જરૂર": 1079,
      "બેઠ": 1080,
      "તમને": 1081,
      "શકો": 1082,
      "પટે": 1083,
      "કેન્દ્ર": 1084,
      "દિલ્હી": 1085,
      "થમ": 1086,
      "ળો": 1087,
      "મણ": 1088,
      "સ્પિટ": 1089,
      "10": 1090,
      "પ્રથમ": 1091,
      "જેટ": 1092,
      "ત્રા": 1093,
      "19": 1094,
      "ભારતી": 1095,
      "અધિકારી": 1096,
      "મળે": 1097,
      "વૃ": 1098,
      "વ્યવ": 1099,
      "મુજબ": 1100,
      "કેટલાક": 1101,
      "લાં": 1102,
      "બન": 1103,
      "જર": 1104,
      "હોસ્પિટ": 1105,
      "ધરા": 1106,
      "ટ્": 1107,
      "રહેશે": 1108,
      "ર્મ": 1109,
      "સંગ": 1110,
      "ખેડ": 1111,
      "નોંધા": 1112,
      "રહ્યું": 1113,
      "જાહેર": 1114,
      "ગઈ": 1115,
      "ચાલ": 1116,
      "ક્ટ": 1117,
      "વાન": 1118,
      "વડા": 1119,
      "મૃ": 1120,
      "મહત્": 1121,
      "હાલ": 1122,
      "ધર": 1123,
      "ખાતે": 1124,
      "પર્": 1125,
      "દરેક": 1126,
      "સ્વા": 1127,
      "સામાન્ય": 1128,
      "ગયો": 1129,
      "ીય": 1130,
      "બીજા": 1131,
      "દર્દી": 1132,
      "સભ": 1133,
      "જન્": 1134,
      "સાય": 1135,
      "શકાય": 1136,
      "ગાંધી": 1137,
      "પરિવાર": 1138,
      "ઓમાં": 1139,
      "બંને": 1140,
      "ફી": 1141,
      "અલગ": 1142,
      "દ્ય": 1143,
      "સભા": 1144,
      "ઘર": 1145,
      "ઝડ": 1146,
      "આઇ": 1147,
      "પૂર્વ": 1148,
      "બાળકો": 1149,
      "કરશે": 1150,
      "પ્રકાર": 1151,
      "નેતા": 1152,
      "પોલીસે": 1153,
      "ભે": 1154,
      "મન": 1155,
      "મદદ": 1156,
      "લઇ": 1157,
      "ંત્ર": 1158,
      "મોત": 1159,
      "તાલુ": 1160,
      "મર": 1161,
      "મહે": 1162,
      "લોકોને": 1163,
      "અહીં": 1164,
      "તમારી": 1165,
      "વણી": 1166,
      "...": 1167,
      "લેવા": 1168,
      "એટલે": 1169,
      "તાલુકા": 1170,
      "મારા": 1171,
      "નં": 1172,
      "ભારતીય": 1173,
      "અર": 1174,
      "રાંત": 1175,
      "કોઇ": 1176,
      "કમાં": 1177,
      "્યૂ": 1178,
      "દન": 1179,
      "ફિલ્મ": 1180,
      "નિર્ણ": 1181,
      "ખાસ": 1182,
      "મામ": 1183,
      "ક્ષે": 1184,
      "દવા": 1185,
      "ઇન્": 1186,
      "જીવન": 1187,
      "વતા": 1188,
      "ઓએ": 1189,
      "કરતાં": 1190,
      "યર": 1191,
      "વિધ": 1192,
      "વરસાદ": 1193,
      "ઉમે": 1194,
      "ભો": 1195,
      "પડે": 1196,
      "ઉપરાંત": 1197,
      "રાજકોટ": 1198,
      "ાર્થી": 1199,
      "ંકા": 1200,
      "ખેડૂ": 1201,
      "લગ્": 1202,
      "કૂ": 1203,
      "વધારે": 1204,
      "આં": 1205,
      "યન": 1206,
      "અનેક": 1207,
      "મનો": 1208,
      "ગ્": 1209,
      "ક્ટર": 1210,
      "નારા": 1211,
      "ભગ": 1212,
      "બાબ": 1213,
      "ટ્રા": 1214,
      "ષ્ટ": 1215,
      "પ્રધાન": 1216,
      "ુંબ": 1217,
      "ળે": 1218,
      "ખરી": 1219,
      "કોર્": 1220,
      "વેશ": 1221,
      "ઓના": 1222,
      "લગા": 1223,
      "પસં": 1224,
      "વિક": 1225,
      "ત્વ": 1226,
      "પક્ષ": 1227,
      "તમાં": 1228,
      "છેલ્લા": 1229,
      "સમયે": 1230,
      "માતા": 1231,
      "પસંદ": 1232,
      "દૂર": 1233,
      "છું": 1234,
      "અભિ": 1235,
      "મંદિ": 1236,
      "કાસ": 1237,
      "બીજી": 1238,
      "ારા": 1239,
      "નિર્ણય": 1240,
      "લેખ": 1241,
      "મોટી": 1242,
      "બધા": 1243,
      "ચર": 1244,
      "સારવાર": 1245,
      "જેમ": 1246,
      "જેના": 1247,
      "આપે": 1248,
      "માહિ": 1249,
      "આવેલા": 1250,
      "પરી": 1251,
      "નાના": 1252,
      "પડી": 1253,
      "મક": 1254,
      "દાન": 1255,
      "પ્ત": 1256,
      "દેખા": 1257,
      "પત્": 1258,
      "વતી": 1259,
      "ચારી": 1260,
      "ઘણી": 1261,
      "ડવા": 1262,
      "જ્ઞ": 1263,
      "બેન": 1264,
      "માહિતી": 1265,
      "્રા": 1266,
      "જરૂરી": 1267,
      "રામ": 1268,
      "અમેરિ": 1269,
      "ચના": 1270,
      "જેથી": 1271,
      "દેશમાં": 1272,
      "કર્મ": 1273,
      "કમ": 1274,
      "વિદ્ય": 1275,
      "પાંચ": 1276,
      "એલ": 1277,
      "તેમાં": 1278,
      "લઈને": 1279,
      "સંખ્યા": 1280,
      "પટેલ": 1281,
      "જોકે": 1282,
      "મ્બર": 1283,
      "લાગ": 1284,
      "લર": 1285,
      "તેણે": 1286,
      "ટ્રો": 1287,
      "બનાવ": 1288,
      "પૈ": 1289,
      "ગ્રામ": 1290,
      "લ્ડ": 1291,
      "પરા": 1292,
      "ગામ": 1293,
      "વિવિધ": 1294,
      "તંત્ર": 1295,
      "ડિયો": 1296,
      "વાહ": 1297,
      "પાલ": 1298,
      "રોડ": 1299,
      "તક": 1300,
      "વિદ્યાર્થી": 1301,
      "હશે": 1302,
      "થયું": 1303,
      "સત": 1304,
      "હજાર": 1305,
      "કારો": 1306,
      "કાર્": 1307,
      "તૈયાર": 1308,
      "મહત્વ": 1309,
      "મહિના": 1310,
      "પૂર": 1311,
      "નને": 1312,
      "નજી": 1313,
      "નાગ": 1314,
      "વધી": 1315,
      "છતાં": 1316,
      "કરણ": 1317,
      "આગળ": 1318,
      "કોર્ટ": 1319,
      "અંત": 1320,
      "ફરિયા": 1321,
      "મિક": 1322,
      "ર્ચા": 1323,
      "પ્લા": 1324,
      "જીવ": 1325,
      "સમાં": 1326,
      "ન્ટર": 1327,
      "ગ્ય": 1328,
      "ચુ": 1329,
      "વાહી": 1330,
      "ક્રિ": 1331,
      "ગં": 1332,
      "મુંબ": 1333,
      "ક્રિયા": 1334,
      "દિવસે": 1335,
      "રંગ": 1336,
      "માંગ": 1337,
      "વાનું": 1338,
      "15": 1339,
      "યેલી": 1340,
      "તેથી": 1341,
      "વલ": 1342,
      "વિશ્વ": 1343,
      "લાઇ": 1344,
      "જ્યાં": 1345,
      "સ્તુ": 1346,
      "આરોપી": 1347,
      "સારી": 1348,
      "કિસ્તા": 1349,
      "વિચાર": 1350,
      "જગ્યા": 1351,
      "સ્ટો": 1352,
      "પાર": 1353,
      "એન": 1354,
      "કલાક": 1355,
      "પાકિસ્તા": 1356,
      "નિયા": 1357,
      "ટીમ": 1358,
      "યેલ": 1359,
      "સંબંધ": 1360,
      "વિસ્તારમાં": 1361,
      "ઝિ": 1362,
      "વર્ષે": 1363,
      "ગીરી": 1364,
      "ધારા": 1365,
      "છીએ": 1366,
      "આગા": 1367,
      "સમગ્ર": 1368,
      "વખત": 1369,
      "યોજના": 1370,
      "અપ": 1371,
      "ભારે": 1372,
      "વિભાગ": 1373,
      "સેવા": 1374,
      "આવતા": 1375,
      "જોડા": 1376,
      "હતાં": 1377,
      "વાલ": 1378,
      "શાળા": 1379,
      "અસર": 1380,
      "ઘટા": 1381,
      "લિક": 1382,
      "સરકારે": 1383,
      "પિતા": 1384,
      "ગણ": 1385,
      "પાર્ટી": 1386,
      "ધુ": 1387,
      "પ્રમુખ": 1388,
      "ખેડૂતો": 1389,
      "ઓફ": 1390,
      "સ્ટા": 1391,
      "ટન": 1392,
      "ફૂ": 1393,
      "બને": 1394,
      "દર્શન": 1395,
      "ઉં": 1396,
      "મળશે": 1397,
      "ત્તા": 1398,
      "મીડિયા": 1399,
      "સતત": 1400,
      "યોગ્ય": 1401,
      "ધન": 1402,
      "12": 1403,
      "ગ્રી": 1404,
      "હોવાનું": 1405,
      "શિયલ": 1406,
      "અનુસાર": 1407,
      "લગ્ન": 1408,
      "સ્યા": 1409,
      "૧૯": 1410,
      "આમ": 1411,
      "સહ": 1412,
      "તેનો": 1413,
      "મુખ્યમંત્રી": 1414,
      "જેવા": 1415,
      "ચર્ચા": 1416,
      "વધારો": 1417,
      "ઉલ્": 1418,
      "હેઠ": 1419,
      "બલ": 1420,
      "સ્ટ્ર": 1421,
      "કર્મચારી": 1422,
      "ખાન": 1423,
      "કને": 1424,
      "મ્પ": 1425,
      "મોર": 1426,
      "હેઠળ": 1427,
      "લાભ": 1428,
      "મુદ્": 1429,
      "૧૦": 1430,
      "વાના": 1431,
      "આવેલ": 1432,
      "ટ્સ": 1433,
      "તેવી": 1434,
      "ઘરે": 1435,
      "જ્ઞા": 1436,
      "એક્": 1437,
      "એવી": 1438,
      "શરી": 1439,
      "દરા": 1440,
      "વિકાસ": 1441,
      "કીય": 1442,
      "વૈ": 1443,
      "રલ": 1444,
      "રના": 1445,
      "બનાવી": 1446,
      "વ્યો": 1447,
      "કેવી": 1448,
      "રાખી": 1449,
      "પ્રદેશ": 1450,
      "પત્ર": 1451,
      "કાર્યક્ર": 1452,
      "પહેલાં": 1453,
      "પદ": 1454,
      "પાછ": 1455,
      "કની": 1456,
      "લાલ": 1457,
      "મિત": 1458,
      "આવા": 1459,
      "ઝી": 1460,
      "વાળા": 1461,
      "જીત": 1462,
      "પડશે": 1463,
      "વિરો": 1464,
      "ચાલી": 1465,
      "વાઈ": 1466,
      "કત": 1467,
      "કના": 1468,
      "ફરિયાદ": 1469,
      "તમ": 1470,
      "કાર્યવાહી": 1471,
      "એન્": 1472,
      "ધું": 1473,
      "સિક": 1474,
      "રજૂ": 1475,
      "વખતે": 1476,
      "રમ": 1477,
      "ટિંગ": 1478,
      "સ્વી": 1479,
      "પહોંચી": 1480,
      "નવ": 1481,
      "એવું": 1482,
      "કલા": 1483,
      "આયો": 1484,
      "સમસ્યા": 1485,
      "નીય": 1486,
      "કાં": 1487,
      "મીન": 1488,
      "હુમ": 1489,
      "દાખ": 1490,
      "ટમાં": 1491,
      "નોંધ": 1492,
      "સફળ": 1493,
      "વીડિયો": 1494,
      "સ્મા": 1495,
      "શ્કે": 1496,
      "રેન્દ્ર": 1497,
      "ત્રે": 1498,
      "ટિવ": 1499,
      "શક્ય": 1500,
      "પ્રિ": 1501,
      "એવા": 1502,
      "ષ્ઠ": 1503,
      "ઉત્પા": 1504,
      "પરિણા": 1505,
      "ચૂક": 1506,
      "જનો": 1507,
      "દેવ": 1508,
      "લ્સ": 1509,
      "કામગીરી": 1510,
      "ઠી": 1511,
      "વત": 1512,
      "આપણે": 1513,
      "પ્રયા": 1514,
      "ડાઉ": 1515,
      "ફોન": 1516,
      "ઈન્": 1517,
      "એર": 1518,
      "લની": 1519,
      "ટેસ્ટ": 1520,
      "વિષ": 1521,
      "કાળ": 1522,
      "ચ્છ": 1523,
      "અમેરિકા": 1524,
      "લાગે": 1525,
      "શેર": 1526,
      "પરે": 1527,
      "18": 1528,
      "ખર્": 1529,
      "ચાલુ": 1530,
      "ંગા": 1531,
      "ફ્ર": 1532,
      "જેને": 1533,
      "સુરત": 1534,
      "વસ્તુ": 1535,
      "જવાબ": 1536,
      "અગા": 1537,
      "નીક": 1538,
      "કિં": 1539,
      "નાણા": 1540,
      "લાય": 1541,
      "ધે": 1542,
      "થતા": 1543,
      "બનાવવા": 1544,
      "પત્ની": 1545,
      "જેવી": 1546,
      "ષણ": 1547,
      "વાયરસ": 1548,
      "કપ": 1549,
      "જાણી": 1550,
      "લખ": 1551,
      "in": 1552,
      "કોને": 1553,
      "ંકી": 1554,
      "માર્ગ": 1555,
      "લગભગ": 1556,
      "સંપૂર્ણ": 1557,
      "શાન": 1558,
      "યાદ": 1559,
      "મેચ": 1560,
      "થ્": 1561,
      "સદ": 1562,
      "આગામી": 1563,
      "વુ": 1564,
      "શ્રે": 1565,
      "ar": 1566,
      "ઢી": 1567,
      "ન્યુ": 1568,
      "આપવા": 1569,
      "હર": 1570,
      "વાસી": 1571,
      "જોઇ": 1572,
      "જામ": 1573,
      "જશે": 1574,
      "ઇલ": 1575,
      "મુશ્કે": 1576,
      "આરોગ્ય": 1577,
      "જાહે": 1578,
      "શર": 1579,
      "પાછળ": 1580,
      "અગાઉ": 1581,
      "ભુ": 1582,
      "પકડ": 1583,
      "કસ": 1584,
      "મુંબઈ": 1585,
      "સલા": 1586,
      "કાત": 1587,
      "યત": 1588,
      "રિક": 1589,
      "ઝો": 1590,
      "સાન": 1591,
      "નાની": 1592,
      "30": 1593,
      "અર્": 1594,
      "માણે": 1595,
      "સપ્": 1596,
      "પાડ": 1597,
      "જિલ્લામાં": 1598,
      "અવ": 1599,
      "ગૃ": 1600,
      "લેન્ડ": 1601,
      "નુક": 1602,
      "ટલ": 1603,
      "50": 1604,
      "જઈ": 1605,
      "ગુજરાતમાં": 1606,
      "હજુ": 1607,
      "નીચે": 1608,
      "સવારે": 1609,
      "બ્રા": 1610,
      "રોકા": 1611,
      "આધાર": 1612,
      "સ્ત્રી": 1613,
      "લિકા": 1614,
      "વિજય": 1615,
      "પોરે": 1616,
      "મુલા": 1617,
      "ંચા": 1618,
      "ધરી": 1619,
      "સરળ": 1620,
      "ઉલ્લેખ": 1621,
      "ણો": 1622,
      "બાજુ": 1623,
      "કરવાનો": 1624,
      "પાસેથી": 1625,
      "શરૂઆત": 1626,
      "હોવાથી": 1627,
      "તન": 1628,
      "યોજા": 1629,
      "14": 1630,
      "અત્યાર": 1631,
      "કાન": 1632,
      "ત્યુ": 1633,
      "ગર્": 1634,
      "ફેર": 1635,
      "કાઉ": 1636,
      "ફાય": 1637,
      "હાલમાં": 1638,
      "સભ્યો": 1639,
      "પ્લે": 1640,
      "યુનિ": 1641,
      "રાજ્યમાં": 1642,
      "ક્સિ": 1643,
      "મંદિર": 1644,
      "મની": 1645,
      "ગંભી": 1646,
      "પ્રમાણે": 1647,
      "ક્યારે": 1648,
      "ધ્યાન": 1649,
      "રોગ": 1650,
      "જરી": 1651,
      "શિયા": 1652,
      "ક્કી": 1653,
      "રહ્યાં": 1654,
      "11": 1655,
      "જાહેરાત": 1656,
      "આરી": 1657,
      "ટુ": 1658,
      "જન્મ": 1659,
      "નેટ": 1660,
      "બેઠક": 1661,
      "હારા": 1662,
      "મૃત્યુ": 1663,
      "દાય": 1664,
      "ગંભીર": 1665,
      "વીને": 1666,
      "કમિ": 1667,
      "રસી": 1668,
      "પ્રિય": 1669,
      "રિપોર્ટ": 1670,
      "ધ્": 1671,
      "સ્થિત": 1672,
      "ભારતમાં": 1673,
      "માલ": 1674,
      "ચલા": 1675,
      "કેટલી": 1676,
      "પ્રમાણ": 1677,
      "રહેલા": 1678,
      "દેશો": 1679,
      "શોધ": 1680,
      "સોશિયલ": 1681,
      "હં": 1682,
      "કેમ": 1683,
      "જતા": 1684,
      "બાઈ": 1685,
      "રહેતા": 1686,
      "અનુભ": 1687,
      "નંદ": 1688,
      "નેશન": 1689,
      "હાઈ": 1690,
      "સરકારી": 1691,
      "અપા": 1692,
      "હતુ": 1693,
      "મહારા": 1694,
      "ઓળ": 1695,
      "ત્મક": 1696,
      "વડો": 1697,
      "ત્રિ": 1698,
      "ઓછા": 1699,
      "સના": 1700,
      "થોડા": 1701,
      "લીધો": 1702,
      "હિં": 1703,
      "મામલે": 1704,
      "ંતિ": 1705,
      "સ્ટેશન": 1706,
      "ડું": 1707,
      "પના": 1708,
      "આંક": 1709,
      "પાલિકા": 1710,
      "ઉદ": 1711,
      "કરવું": 1712,
      "નક": 1713,
      "આજ": 1714,
      "અભ્યા": 1715,
      "સભ્ય": 1716,
      "વ્યવસ્થા": 1717,
      "નંબર": 1718,
      "નર": 1719,
      "ડર": 1720,
      "મધ્ય": 1721,
      "સ્પે": 1722,
      "પ્રી": 1723,
      "સુધીમાં": 1724,
      "કરવો": 1725,
      "સંસ્થા": 1726,
      "શિક્ષણ": 1727,
      "at": 1728,
      "ઉત્તર": 1729,
      "વિરોધ": 1730,
      "કહી": 1731,
      "ચ્ચ": 1732,
      "વાઇ": 1733,
      "શ્ય": 1734,
      "રાષ્ટ્રીય": 1735,
      "સ્ટ્રે": 1736,
      "બાર": 1737,
      "વર્ષની": 1738,
      "વેલ": 1739,
      "લેવામાં": 1740,
      "ડીને": 1741,
      "નિષ્": 1742,
      "રવિ": 1743,
      "રોક": 1744,
      "સંક્ર": 1745,
      "ટૂ": 1746,
      "આયોજન": 1747,
      "સ્પ": 1748,
      "16": 1749,
      "વળ": 1750,
      "સાઇ": 1751,
      "મોરબી": 1752,
      "પુરા": 1753,
      "હોસ્પિટલમાં": 1754,
      "હાઇ": 1755,
      "નલ": 1756,
      "17": 1757,
      "કિંગ": 1758,
      "પ્રક્રિયા": 1759,
      "આપ્યો": 1760,
      "પ્રશ્": 1761,
      "બજાર": 1762,
      "શહેરમાં": 1763,
      "નક્કી": 1764,
      "અલ": 1765,
      "સું": 1766,
      "અંદર": 1767,
      "નજીક": 1768,
      "કરવાનું": 1769,
      "સારા": 1770,
      "પોસ્ટ": 1771,
      "ગયું": 1772,
      "જૂરી": 1773,
      "દાખલ": 1774,
      "ખ્": 1775,
      "સન": 1776,
      "અરજી": 1777,
      "દીધી": 1778,
      "મુક": 1779,
      "સિટી": 1780,
      "ધારે": 1781,
      "વિધા": 1782,
      "લીધી": 1783,
      "આંત": 1784,
      "વડોદરા": 1785,
      "ખરા": 1786,
      "પાટી": 1787,
      "કટ": 1788,
      "ડ્ર": 1789,
      "થતાં": 1790,
      "દારો": 1791,
      "બ્રિ": 1792,
      "સાઈ": 1793,
      "અર્થ": 1794,
      "ખરે": 1795,
      "મ્યુ": 1796,
      "વિસ્તારો": 1797,
      "સ્સા": 1798,
      "બેન્": 1799,
      "કુમાર": 1800,
      "સમાવેશ": 1801,
      "21": 1802,
      "તમારે": 1803,
      "યુવ": 1804,
      "સમયમાં": 1805,
      "000": 1806,
      "ખર્ચ": 1807,
      "એફ": 1808,
      "સની": 1809,
      "નીતિ": 1810,
      "સ્ક": 1811,
      "200": 1812,
      "શાહ": 1813,
      "દેશના": 1814,
      "નરેન્દ્ર": 1815,
      "પૈસા": 1816,
      "તરફથી": 1817,
      "વગર": 1818,
      "વિડ": 1819,
      "ઓફિ": 1820,
      "સ્થાન": 1821,
      "બાં": 1822,
      "બોર્ડ": 1823,
      "હત્યા": 1824,
      "પંચા": 1825,
      "ધરપકડ": 1826,
      "કાશ": 1827,
      "ત્યારબાદ": 1828,
      "કિંમત": 1829,
      "લોકોએ": 1830,
      "પ્રયાસ": 1831,
      "મતા": 1832,
      "તેનું": 1833,
      "બોલ": 1834,
      "૧૫": 1835,
      "દુનિયા": 1836,
      "ઓનો": 1837,
      "કરવી": 1838,
      "બચા": 1839,
      "સુરક્ષા": 1840,
      "લક્ષ": 1841,
      "બહે": 1842,
      "ઝે": 1843,
      "ચં": 1844,
      "પણે": 1845,
      "ન્ડિયા": 1846,
      "ક્રિકેટ": 1847,
      "રોકાણ": 1848,
      "ંતા": 1849,
      "કલે": 1850,
      "હોઈ": 1851,
      "રેલી": 1852,
      "વિદેશ": 1853,
      "સત્તા": 1854,
      "વાળી": 1855,
      "તારી": 1856,
      "નહો": 1857,
      "લાગી": 1858,
      "ભૂમિ": 1859,
      "ચાર્": 1860,
      "રાહુ": 1861,
      "મેન": 1862,
      "અક": 1863,
      "ગેરે": 1864,
      "ગાર": 1865,
      "પારી": 1866,
      "er": 1867,
      "ગઇ": 1868,
      "રની": 1869,
      "પ્રાપ્ત": 1870,
      "ટક": 1871,
      "વહે": 1872,
      "24": 1873,
      "પરથી": 1874,
      "ર્ષ": 1875,
      "ંભ": 1876,
      "લઇને": 1877,
      "રન": 1878,
      "દિવસો": 1879,
      "બેંક": 1880,
      "સલ": 1881,
      "ક્રે": 1882,
      "સમાજ": 1883,
      "13": 1884,
      "પ્રેમ": 1885,
      "ંગ્": 1886,
      "સ્થાનિક": 1887,
      "નોકરી": 1888,
      "પોઝિ": 1889,
      "ઝડપી": 1890,
      "એવો": 1891,
      "મેં": 1892,
      "સ્પષ્ટ": 1893,
      "ગ્રાહ": 1894,
      "ડની": 1895,
      "સુવિધા": 1896,
      "મેળવી": 1897,
      "an": 1898,
      "ખુબ": 1899,
      "કરતી": 1900,
      "વિધાન": 1901,
      "લય": 1902,
      "સિવાય": 1903,
      "સ્કૂ": 1904,
      "જાણવા": 1905,
      "૧૮": 1906,
      "બૂ": 1907,
      "on": 1908,
      "રસ્તા": 1909,
      "કન": 1910,
      "આવેલી": 1911,
      "સમાચાર": 1912,
      "કાલે": 1913,
      "બાકી": 1914,
      "કાયદા": 1915,
      "લાંબા": 1916,
      "મંડ": 1917,
      "પગલે": 1918,
      "અધ્ય": 1919,
      "રોમાં": 1920,
      "કોઈપણ": 1921,
      "મિનિ": 1922,
      "વાળ": 1923,
      "પરીક્ષા": 1924,
      "હાર્": 1925,
      "મુલાકાત": 1926,
      "ખર": 1927,
      "સામ": 1928,
      "હન": 1929,
      "વડાપ્રધાન": 1930,
      "૧૨": 1931,
      "ભાગે": 1932,
      "ફાઈ": 1933,
      "મંગ": 1934,
      "રેલ": 1935,
      "જમીન": 1936,
      "ડમાં": 1937,
      "ન્ન": 1938,
      "આર્થ": 1939,
      "ખરીદી": 1940,
      "25": 1941,
      "દેવામાં": 1942,
      "હોવાની": 1943,
      "કોન્": 1944,
      "આવતી": 1945,
      "કોર્ટે": 1946,
      "ડાઉન": 1947,
      "છૂ": 1948,
      "ક્શન": 1949,
      "આધારે": 1950,
      "શ્વર": 1951,
      "વરણ": 1952,
      "વિરુ": 1953,
      "ભાજપના": 1954,
      "લાડી": 1955,
      "વિના": 1956,
      "કોરોનાના": 1957,
      "નહિ": 1958,
      "સૈ": 1959,
      "ક્રો": 1960,
      "ક્ષેત્ર": 1961,
      "ગરી": 1962,
      "વાંચ": 1963,
      "ગામમાં": 1964,
      "ફરજ": 1965,
      "ઓછી": 1966,
      "બળ": 1967,
      "લોકોના": 1968,
      "આત્": 1969,
      "શિક્ષ": 1970,
      "ઘે": 1971,
      "મેશા": 1972,
      "ભાવના": 1973,
      "હવા": 1974,
      "વવાની": 1975,
      "અભ્યાસ": 1976,
      "થયેલા": 1977,
      "મોટો": 1978,
      "કરીએ": 1979,
      "જણાવી": 1980,
      "ઠવા": 1981,
      "દ્ધિ": 1982,
      "જબૂ": 1983,
      "લોકોની": 1984,
      "ચિંતા": 1985,
      "મજબૂ": 1986,
      "ચોક્": 1987,
      "પસાર": 1988,
      "ગણા": 1989,
      "ષા": 1990,
      "ગેર": 1991,
      "કોલે": 1992,
      "એન્ડ": 1993,
      "બતા": 1994,
      "વેચા": 1995,
      "તને": 1996,
      "સુંદર": 1997,
      "હાજર": 1998,
      "ઘો": 1999,
      "ગ્રે": 2000,
      "મૂળ": 2001,
      "આર્થિક": 2002,
      "લૂ": 2003,
      "લં": 2004,
      "ંડી": 2005,
      "શક્તિ": 2006,
      "જિલ્લાના": 2007,
      "પાલન": 2008,
      "),": 2009,
      "કારા": 2010,
      "નિવે": 2011,
      "રાશિ": 2012,
      "કૃતિ": 2013,
      "પલ": 2014,
      "૩૦": 2015,
      "ન્યૂ": 2016,
      "લન": 2017,
      "લિંગ": 2018,
      "યુવતી": 2019,
      "es": 2020,
      "વેપારી": 2021,
      "શિવ": 2022,
      "ક્રા": 2023,
      "માગ": 2024,
      "રકમ": 2025,
      "પંચ": 2026,
      "ટું": 2027,
      "ઉજ": 2028,
      "નિંગ": 2029,
      "હંમેશા": 2030,
      "વિધાનસભા": 2031,
      "માર્કેટ": 2032,
      "ભૂત": 2033,
      "હરણ": 2034,
      "ફુ": 2035,
      "શૈ": 2036,
      "દારૂ": 2037,
      "જોઇએ": 2038,
      "અંદા": 2039,
      "ઘરમાં": 2040,
      "લીધા": 2041,
      "વાથી": 2042,
      "ગૌ": 2043,
      "અધ્યક્ષ": 2044,
      "રાજ્યના": 2045,
      "શ્મી": 2046,
      "ક્ષિ": 2047,
      "જમા": 2048,
      "મૂક": 2049,
      "વ્યું": 2050,
      "વીર": 2051,
      "મીટર": 2052,
      "રાહુલ": 2053,
      "બહુ": 2054,
      "ચોક્કસ": 2055,
      "પાત્ર": 2056,
      "મળ્યા": 2057,
      "પરિસ્થિતિ": 2058,
      "સિંગ": 2059,
      "પુત્ર": 2060,
      "રિયા": 2061,
      "લીધે": 2062,
      "દબા": 2063,
      "રાખવામાં": 2064,
      "તૈયારી": 2065,
      "ઠે": 2066,
      "ડાય": 2067,
      "તેવા": 2068,
      "દર્શા": 2069,
      "ઘટાડો": 2070,
      "રાત્રે": 2071,
      "બસ": 2072,
      "વગેરે": 2073,
      "સહિતના": 2074,
      "શનિ": 2075,
      "અડ": 2076,
      "ચીન": 2077,
      "ભરા": 2078,
      "આસ": 2079,
      "મંજૂરી": 2080,
      "ડિંગ": 2081,
      "ઝન": 2082,
      "સેના": 2083,
      "મ્બ": 2084,
      "સ્ટી": 2085,
      "ઓન": 2086,
      "કેટલીક": 2087,
      "સવા": 2088,
      "હાય": 2089,
      "નહી": 2090,
      "પરત": 2091,
      "શ્રેષ્ઠ": 2092,
      "કિલો": 2093,
      "વિરુદ્ધ": 2094,
      "ગતિ": 2095,
      "ઉન્ડ": 2096,
      "૧૧": 2097,
      "પેટ્રો": 2098,
      "અહે": 2099,
      "ગાંધીનગર": 2100,
      "નદી": 2101,
      "સામેલ": 2102,
      "ખરાબ": 2103,
      "ફોટો": 2104,
      "તસ": 2105,
      "ફક્ત": 2106,
      "રને": 2107,
      "ગામના": 2108,
      "વૃત્": 2109,
      "કું": 2110,
      "કેશ": 2111,
      "યાત્રા": 2112,
      "ફોર્મ": 2113,
      "તાલુકાના": 2114,
      "મહારાષ્ટ્ર": 2115,
      "ઢા": 2116,
      "કોંગ્રેસના": 2117,
      "જયારે": 2118,
      "છુ": 2119,
      "લિયા": 2120,
      "ંડા": 2121,
      "એના": 2122,
      "જેટલા": 2123,
      "દૂધ": 2124,
      "હેરા": 2125,
      "કોર્પોરે": 2126,
      "ખાનગી": 2127,
      "પ્રવેશ": 2128,
      "લાઇન": 2129,
      "હોસ્પિટલ": 2130,
      "ટેક": 2131,
      "કાર્ડ": 2132,
      "ટની": 2133,
      "કેસમાં": 2134,
      "ચિત": 2135,
      "સ્તી": 2136,
      "કોવિડ": 2137,
      "સિસ્ટ": 2138,
      "ડ્રા": 2139,
      "પ્રાથ": 2140,
      "કન્": 2141,
      "ર્ન": 2142,
      "સંપર્": 2143,
      "ઝડપ": 2144,
      "સાંજે": 2145,
      "ટીવી": 2146,
      "ગાળા": 2147,
      "નેશનલ": 2148,
      "ડૉ": 2149,
      "ક્યાં": 2150,
      "અકસ્મા": 2151,
      "બનાવવામાં": 2152,
      "ન્ને": 2153,
      "કંઈ": 2154,
      "ડીયા": 2155,
      "યમ": 2156,
      "શં": 2157,
      "ઉલ્લેખનીય": 2158,
      "સાત": 2159,
      "રાજય": 2160,
      "વાતા": 2161,
      "કાશ્મી": 2162,
      "નુકસાન": 2163,
      "મળ્યો": 2164,
      "્યોગ": 2165,
      "ધરાવે": 2166,
      "ધમ": 2167,
      "સોમ": 2168,
      "સ્ટ્રી": 2169,
      "ડવામાં": 2170,
      "સફળતા": 2171,
      "ટેડ": 2172,
      "શહેરના": 2173,
      "વિસ્તારોમાં": 2174,
      "પીએમ": 2175,
      "પશ્": 2176,
      "સમિ": 2177,
      "ગુરુ": 2178,
      "પૂછ": 2179,
      "પંચાયત": 2180,
      "૧૪": 2181,
      "રાજી": 2182,
      "તરમાં": 2183,
      "ખેતી": 2184,
      "સ્થળે": 2185,
      "એચ": 2186,
      "ખેલાડી": 2187,
      "સાંભ": 2188,
      "આદેશ": 2189,
      "ચોરી": 2190,
      "કેશન": 2191,
      "વર્ષના": 2192,
      "અના": 2193,
      "ગઢ": 2194,
      "આવક": 2195,
      "વધુમાં": 2196,
      "આનંદ": 2197,
      "ડુ": 2198,
      "તાર": 2199,
      "મુશ્કેલી": 2200,
      "કૌ": 2201,
      "જામનગર": 2202,
      "વ્": 2203,
      "આસપાસ": 2204,
      "લ્પ": 2205,
      "રાહત": 2206,
      "તિહા": 2207,
      "પ્રાથમિક": 2208,
      "નારી": 2209,
      "વિશેષ": 2210,
      "પ્રકારની": 2211,
      "ઠો": 2212,
      "રાજ્યો": 2213,
      "તબ": 2214,
      "પહેલી": 2215,
      "જન્સી": 2216,
      "ખબર": 2217,
      "એક્સ": 2218,
      "રોને": 2219,
      "ફ્રે": 2220,
      "આશ": 2221,
      "તના": 2222,
      "જણાવ્યા": 2223,
      "બદલ": 2224,
      "આપણા": 2225,
      "બ્રે": 2226,
      "લબ્": 2227,
      "જેની": 2228,
      "સ્વાસ્થ": 2229,
      "ક્કા": 2230,
      "દક્ષિ": 2231,
      "મારે": 2232,
      "શબ્": 2233,
      "વાદી": 2234,
      "મેને": 2235,
      "યોગી": 2236,
      "સંખ્યામાં": 2237,
      "તરા": 2238,
      "કેસો": 2239,
      "પોઝિટિવ": 2240,
      "ફેલા": 2241,
      "કટર": 2242,
      "કમા": 2243,
      "ચ્છા": 2244,
      "ટ્રી": 2245,
      "તાજે": 2246,
      "ણું": 2247,
      "ઉપલબ્": 2248,
      "દિવસમાં": 2249,
      "બાળક": 2250,
      "૫૦": 2251,
      "પૂરી": 2252,
      "કિસ્સા": 2253,
      "વર્ષો": 2254,
      "કોર્ટમાં": 2255,
      "ઉત્પાદન": 2256,
      "સાફ": 2257,
      "જોખ": 2258,
      "થતી": 2259,
      "ઈન": 2260,
      "બોલા": 2261,
      "મોદીએ": 2262,
      "ઉચ્ચ": 2263,
      "શહે": 2264,
      "ષ્ટિ": 2265,
      "૦૦૦": 2266,
      "કાઢ": 2267,
      "ગામે": 2268,
      "કહેવામાં": 2269,
      "ગૃહ": 2270,
      "ગુજરાતના": 2271,
      "સને": 2272,
      "૧૭": 2273,
      "ડામાં": 2274,
      "ચેરી": 2275,
      "કાઉન્ટ": 2276,
      "સ્પર્": 2277,
      "મેળવવા": 2278,
      "પશ્ચિ": 2279,
      "સહાય": 2280,
      "યુનિવર્": 2281,
      "વનગર": 2282,
      "લ્લી": 2283,
      "વીજ": 2284,
      "ભાગના": 2285,
      "ભાગી": 2286,
      "મગ": 2287,
      "લાઈન": 2288,
      "કરનાર": 2289,
      "૧૬": 2290,
      "મહામારી": 2291,
      "મળ્યું": 2292,
      "હળ": 2293,
      "આપ્યું": 2294,
      "મજબૂત": 2295,
      "વેચાણ": 2296,
      "આર્": 2297,
      "પ્રોજે": 2298,
      "ઓવર": 2299,
      "તાપ": 2300,
      "મંગળ": 2301,
      "થવાની": 2302,
      "રાખે": 2303,
      "બાબત": 2304,
      "or": 2305,
      "જાણકારી": 2306,
      "વિત": 2307,
      "સ્વાસ્થ્ય": 2308,
      "કોલ": 2309,
      "રિંગ": 2310,
      "મૃત": 2311,
      "ધ્યાનમાં": 2312,
      "િંગ": 2313,
      "રાહ": 2314,
      "વર્ષથી": 2315,
      "આશા": 2316,
      "કોની": 2317,
      "પ્રજા": 2318,
      "વ્યવસાય": 2319,
      "દક્ષિણ": 2320,
      "ભાવનગર": 2321,
      "દ્ધા": 2322,
      "વધાર": 2323,
      "ડક": 2324,
      "્યાન": 2325,
      "વાડી": 2326,
      "બદલે": 2327,
      "બંધી": 2328,
      "સૂર": 2329,
      "ઉપલબ્ધ": 2330,
      "સેન્": 2331,
      "એપ્રિ": 2332,
      "અઠવા": 2333,
      "જમાં": 2334,
      "જગ્યાએ": 2335,
      "શક્યતા": 2336,
      "ઓગ": 2337,
      "તિમ": 2338,
      "ાર્થ": 2339,
      "ડતા": 2340,
      "જુદા": 2341,
      "ઉમેદવા": 2342,
      "ઉદા": 2343,
      "ભારતના": 2344,
      "શાક": 2345,
      "પૈકી": 2346,
      "હુમલા": 2347,
      "જંગ": 2348,
      "ષિ": 2349,
      "હ્": 2350,
      "સામા": 2351,
      "ઓનું": 2352,
      "નવે": 2353,
      "જની": 2354,
      "શુક્ર": 2355,
      "ચંદ્ર": 2356,
      "બાબતે": 2357,
      "પાકિસ્તાન": 2358,
      "ચુક": 2359,
      "મિત્રો": 2360,
      "શાંત": 2361,
      "અંતિમ": 2362,
      "સમાન": 2363,
      "સ્થળ": 2364,
      "ક્ટો": 2365,
      "વિશ્વાસ": 2366,
      "ટાઇ": 2367,
      "ફેરફ": 2368,
      "વ્યક્ત": 2369,
      "લક્ષણ": 2370,
      "ગુણ": 2371,
      "શકશે": 2372,
      "જાળ": 2373,
      "સુખ": 2374,
      "બિન": 2375,
      "en": 2376,
      "નાખ": 2377,
      "સમર્થ": 2378,
      "મતી": 2379,
      "યુક્ત": 2380,
      "વધારા": 2381,
      "રાજકીય": 2382,
      "પરિણામ": 2383,
      "પ્રકારના": 2384,
      "સવાર": 2385,
      "માની": 2386,
      "પ્રતિબંધ": 2387,
      "સમી": 2388,
      "ટરી": 2389,
      "આપતા": 2390,
      "મૂલ": 2391,
      "ઉપા": 2392,
      "યૂ": 2393,
      "આરોપ": 2394,
      "સંક્રમણ": 2395,
      "કિત": 2396,
      "કાર્યક્રમ": 2397,
      "અમારી": 2398,
      "દીધો": 2399,
      "મચી": 2400,
      "નાથ": 2401,
      "દિશા": 2402,
      "ક્રી": 2403,
      "ગ્રહ": 2404,
      "ચાર્જ": 2405,
      "સામનો": 2406,
      "ગુમા": 2407,
      "ફટ": 2408,
      "સંક": 2409,
      "વાહન": 2410,
      "40": 2411,
      "ઘુ": 2412,
      "પ્રકાશ": 2413,
      "નિયમો": 2414,
      "ઉત્પાદ": 2415,
      "સ્ટાફ": 2416,
      "યુનિવર્સિટી": 2417,
      "વિવાદ": 2418,
      "અફ": 2419,
      "વર્ગ": 2420,
      "100": 2421,
      "વાયરલ": 2422,
      "વાનગી": 2423,
      "આઉ": 2424,
      "વણ": 2425,
      "ધરાવતા": 2426,
      "નોંધાયા": 2427,
      "સાબ": 2428,
      "હિન્": 2429,
      "મેડિ": 2430,
      "માર્ચ": 2431,
      "તેલ": 2432,
      "સચિ": 2433,
      "ગુજરા": 2434,
      "સૌરાષ્ટ્ર": 2435,
      "ગાય": 2436,
      "યુવા": 2437,
      "સુપ્રી": 2438,
      "તેનાથી": 2439,
      "મંત્રા": 2440,
      "લોજી": 2441,
      "ડાં": 2442,
      "દાવો": 2443,
      "નાગઢ": 2444,
      "ધારાસભ્ય": 2445,
      "રેલવે": 2446,
      "અગ્ર": 2447,
      "શૂ": 2448,
      "સપ્ટે": 2449,
      "રચના": 2450,
      "મોકલ": 2451,
      "સજા": 2452,
      "સલાહ": 2453,
      "વૃત્તિ": 2454,
      "શર્": 2455,
      "મેલ": 2456,
      "જાન્યુ": 2457,
      "કૉ": 2458,
      "રૂપે": 2459,
      "માનવામાં": 2460,
      "મથ": 2461,
      "સંઘ": 2462,
      "અમારા": 2463,
      "પ્રદર્શન": 2464,
      "ટેક્સ": 2465,
      "સર્જા": 2466,
      "અધિકારીઓ": 2467,
      "જિક": 2468,
      "ઝને": 2469,
      "ભરમાં": 2470,
      "જતાં": 2471,
      "ન્યા": 2472,
      "નજર": 2473,
      "યાદી": 2474,
      "ગુનો": 2475,
      "રાખવા": 2476,
      "કરવાના": 2477,
      "સંગઠ": 2478,
      "પ્રાર": 2479,
      "પ્રત્ય": 2480,
      "ફરીથી": 2481,
      "ડિસે": 2482,
      "હુમલો": 2483,
      "પ્રસંગ": 2484,
      "બન્ને": 2485,
      "જવાબદ": 2486,
      "આંતર": 2487,
      "છોડ": 2488,
      "માટેની": 2489,
      "ડોલર": 2490,
      "હોલ": 2491,
      "ડલ": 2492,
      "સવ": 2493,
      "ડિઝા": 2494,
      "પ્રય": 2495,
      "હકી": 2496,
      "ઉર્": 2497,
      "જુઓ": 2498,
      "સાધ": 2499,
      "સીબી": 2500,
      "ઓળખ": 2501,
      "થયેલ": 2502,
      "કાલ": 2503,
      "દરમ્યાન": 2504,
      "પ્રયત્": 2505,
      "કોર": 2506,
      "સંભા": 2507,
      "વર્લ્ડ": 2508,
      "જાન્યુઆરી": 2509,
      "22": 2510,
      "ઇન્ટર": 2511,
      "ઘટ": 2512,
      "જાણો": 2513,
      "પસંદગી": 2514,
      "ઉઠા": 2515,
      "કચ્છ": 2516,
      "વર્ષમાં": 2517,
      "નિર્માણ": 2518,
      "આંદો": 2519,
      "વિગ": 2520,
      "પોર": 2521,
      "કેપ્": 2522,
      "ન્ચ": 2523,
      "સ્ટર": 2524,
      "લેટ": 2525,
      "જનતા": 2526,
      "દીપ": 2527,
      "પૂર્વક": 2528,
      "મણી": 2529,
      "મુદ્દે": 2530,
      "કેલ": 2531,
      "ષ્ણ": 2532,
      "સારું": 2533,
      "જળ": 2534,
      "લાગુ": 2535,
      "ગિ": 2536,
      "સબ": 2537,
      "બુધ": 2538,
      "ઝડપથી": 2539,
      "કચેરી": 2540,
      "બધી": 2541,
      "સન્": 2542,
      "એડ": 2543,
      "તૃ": 2544,
      ".’": 2545,
      "તેજ": 2546,
      "મુદ્દા": 2547,
      "વાતચી": 2548,
      "પહોંચા": 2549,
      "આટ": 2550,
      "સાવ": 2551,
      "દર્દીઓ": 2552,
      "કેન્દ્રીય": 2553,
      "તળા": 2554,
      "સ્તો": 2555,
      "જવાબદારી": 2556,
      "ખંડ": 2557,
      "ક્ષમતા": 2558,
      "પશુ": 2559,
      "પોતે": 2560,
      "એને": 2561,
      "ચૌ": 2562,
      "િયાત": 2563,
      "સૂત્રો": 2564,
      "લખ્યું": 2565,
      "લિવ": 2566,
      "થયેલી": 2567,
      "ફ્ટ": 2568,
      "ફેબ્ર": 2569,
      "સિવિ": 2570,
      "ફાઇ": 2571,
      "દુર": 2572,
      "નગરપાલિકા": 2573,
      "પશ્ચિમ": 2574,
      "ગાડી": 2575,
      "શુભ": 2576,
      "લડ": 2577,
      "વાતાવરણ": 2578,
      "ટ્વિ": 2579,
      "૧૩": 2580,
      "વાગ્યા": 2581,
      "ડના": 2582,
      "આઉટ": 2583,
      "માળ": 2584,
      "કર્તા": 2585,
      "સાયટી": 2586,
      "ઉદ્યોગ": 2587,
      "મળતી": 2588,
      "આઠ": 2589,
      "તેવું": 2590,
      "અનિ": 2591,
      "હાજરી": 2592,
      "રહેલી": 2593,
      "આદિ": 2594,
      "ઝર": 2595,
      "ડાના": 2596,
      "સોસાયટી": 2597,
      "સ્વામી": 2598,
      "મહિનામાં": 2599,
      "કોએ": 2600,
      "પ્રારંભ": 2601,
      "રૃ": 2602,
      "માને": 2603,
      "વાજ": 2604,
      "પાન": 2605,
      "સમિતિ": 2606,
      "વજન": 2607,
      "હૈ": 2608,
      "જારો": 2609,
      "વપરા": 2610,
      "દેવા": 2611,
      "શાંતિ": 2612,
      "કારક": 2613,
      "આપ્યા": 2614,
      "પુરુ": 2615,
      "ખોરા": 2616,
      "જાત": 2617,
      "શરીર": 2618,
      "દંડ": 2619,
      "બાદમાં": 2620,
      "લિત": 2621,
      "ફિલ્મો": 2622,
      "સમુ": 2623,
      "પુન": 2624,
      "લોકસભા": 2625,
      "ધર્મ": 2626,
      "કાયદે": 2627,
      "ઉજવણી": 2628,
      "સંભ": 2629,
      "સપ્તા": 2630,
      "ખસે": 2631,
      "સ્ટિ": 2632,
      "ંચી": 2633,
      "મરા": 2634,
      "વોર્ડ": 2635,
      "સારો": 2636,
      "કેટલા": 2637,
      "ભોગ": 2638,
      "ઓપરે": 2639,
      "વેક્સિ": 2640,
      "છોડી": 2641,
      "હાઉ": 2642,
      "વાસ્ત": 2643,
      "સંસ્": 2644,
      "તાજેતરમાં": 2645,
      "વ્ર": 2646,
      "વિદ્યાર્થીઓ": 2647,
      "ક્યારેય": 2648,
      "ઉદાહરણ": 2649,
      "કહેવાય": 2650,
      "નિયમ": 2651,
      "કોણ": 2652,
      "સરકારના": 2653,
      "દય": 2654,
      "ટાઈ": 2655,
      "પોલીસને": 2656,
      "મોં": 2657,
      "કરવાથી": 2658,
      "આપશે": 2659,
      "વિગતો": 2660,
      "એજન્સી": 2661,
      "સુપ્રીમ": 2662,
      "લીમ": 2663,
      "નાણાં": 2664,
      "મિશ્ર": 2665,
      "સ્સો": 2666,
      "દારી": 2667,
      "ભય": 2668,
      "ચૂંટણીમાં": 2669,
      "ટને": 2670,
      "ત્કા": 2671,
      "અમદાવાદમાં": 2672,
      "બનાવે": 2673,
      "વાહનો": 2674,
      "કલી": 2675,
      "મારો": 2676,
      "રાષ્ટ્રપતિ": 2677,
      "પાં": 2678,
      "મ્સ": 2679,
      "વિદેશી": 2680,
      "ભૂમિકા": 2681,
      "ધોરણ": 2682,
      "પાડી": 2683,
      "વિશા": 2684,
      "૨૧": 2685,
      "ખાતા": 2686,
      "પૂજા": 2687,
      "સરકારની": 2688,
      "આકર્": 2689,
      "સ્થિતિમાં": 2690,
      "આગે": 2691,
      "અંતર્": 2692,
      "અનુભવ": 2693,
      "અમિત": 2694,
      "પાઠ": 2695,
      "હજી": 2696,
      "તાથી": 2697,
      "ણમાં": 2698,
      "કોરોનાની": 2699,
      "જેટલી": 2700,
      "વાર્": 2701,
      "જલ": 2702,
      "તબી": 2703,
      "ન્સર": 2704,
      "અમુક": 2705,
      "૨૫": 2706,
      "પોતાનો": 2707,
      "આતંક": 2708,
      "ઇન્ડિયા": 2709,
      "આંગ": 2710,
      "કરાવી": 2711,
      "શંકા": 2712,
      "ધ્ધ": 2713,
      "નિવેદન": 2714,
      "કર્યુ": 2715,
      "ડીઝ": 2716,
      "કમિશન": 2717,
      "ચન": 2718,
      "હેલ્": 2719,
      "પુસ્ત": 2720,
      "વેબ": 2721,
      "વડ": 2722,
      "પ્રવાસ": 2723,
      "ચું": 2724,
      "ખરીદ": 2725,
      "બાંધ": 2726,
      "ંપ": 2727,
      "તૂ": 2728,
      "ગરમ": 2729,
      "કરાઈ": 2730,
      "થોડી": 2731,
      "પાટ": 2732,
      "સ્માર્ટ": 2733,
      "સપ્ટેમ્બર": 2734,
      "અંતર્ગત": 2735,
      "સમયથી": 2736,
      "ભાજી": 2737,
      "બોલી": 2738,
      ".\"": 2739,
      "ઇડ": 2740,
      "નાય": 2741,
      "દિક": 2742,
      "આપવાની": 2743,
      "જનક": 2744,
      "પુરુષ": 2745,
      "સાબિત": 2746,
      "ફિક": 2747,
      "બન્યા": 2748,
      "રીને": 2749,
      "ક્સી": 2750,
      "કોર્ડ": 2751,
      "રોની": 2752,
      "યાં": 2753,
      "બાળકોને": 2754,
      "દુર્": 2755,
      "al": 2756,
      "માધ્ય": 2757,
      "નીકળ": 2758,
      "એપ": 2759,
      "જવાનો": 2760,
      "સામગ્રી": 2761,
      "બચ": 2762,
      "રાખો": 2763,
      "કારાત્મક": 2764,
      "દેશની": 2765,
      "st": 2766,
      "ચેર": 2767,
      "વસ્તુઓ": 2768,
      "રૂપાણી": 2769,
      "લોકપ્રિય": 2770,
      "એની": 2771,
      "પિત": 2772,
      "વમાં": 2773,
      "પંજા": 2774,
      "કલાકમાં": 2775,
      "અટકા": 2776,
      "કરેલ": 2777,
      "વર્ક": 2778,
      "કહેવું": 2779,
      "ઈએ": 2780,
      "સીસી": 2781,
      "નામાં": 2782,
      "2020": 2783,
      "કલ્": 2784,
      "અલ્": 2785,
      "રીયા": 2786,
      "મિત્ર": 2787,
      "પહોંચ્યા": 2788,
      "મતદાન": 2789,
      "શકા": 2790,
      "સંપર્ક": 2791,
      "બિલ્": 2792,
      "રાજા": 2793,
      "મૂકી": 2794,
      "મિનિટ": 2795,
      "શરુ": 2796,
      "સપાટી": 2797,
      "નેત્રી": 2798,
      "દીધા": 2799,
      "કારણો": 2800,
      "૨૪": 2801,
      "પ્રમાણમાં": 2802,
      "અમને": 2803,
      "અભિનેત્રી": 2804,
      "નાગરિ": 2805,
      "ગુજરાતી": 2806,
      "નામે": 2807,
      "ભોજન": 2808,
      "મુશ્કેલ": 2809,
      "રજા": 2810,
      "ભગવાન": 2811,
      "ટ્રાન્સ": 2812,
      "પ્રોજેક્ટ": 2813,
      "શને": 2814,
      "કરતો": 2815,
      "રહેવા": 2816,
      "ભાષા": 2817,
      "આવું": 2818,
      "અટ": 2819,
      "ધીમે": 2820,
      "સરે": 2821,
      "જીલ્લા": 2822,
      "તેમનું": 2823,
      "સેક્સ": 2824,
      "છોકરી": 2825,
      "લોકડાઉન": 2826,
      "સોમવારે": 2827,
      "શાકભાજી": 2828,
      "ક્ષિત": 2829,
      "વશે": 2830,
      "માથા": 2831,
      "ઓક્ટો": 2832,
      "વિકેટ": 2833,
      "સંબંધિત": 2834,
      "દમ": 2835,
      "ધં": 2836,
      "બધું": 2837,
      "લને": 2838,
      "કાનો": 2839,
      "2019": 2840,
      "મોબાઈ": 2841,
      "યુવાન": 2842,
      "ગમ": 2843,
      "વારં": 2844,
      "ન્ટિ": 2845,
      "ક્રિય": 2846,
      "રાખીને": 2847,
      "ફેબ્રુ": 2848,
      "જઇ": 2849,
      "તેમનો": 2850,
      "નનો": 2851,
      "ફ્રા": 2852,
      "સંચાલ": 2853,
      "ડોઝ": 2854,
      "વિષ્ય": 2855,
      "શભાઈ": 2856,
      "ભવિષ્ય": 2857,
      "ઉમેદ": 2858,
      "બજેટ": 2859,
      "યી": 2860,
      "વહી": 2861,
      "અક્ષ": 2862,
      "શખ્": 2863,
      "વ્યવહાર": 2864,
      "સદી": 2865,
      "વારંવાર": 2866,
      "ઘટી": 2867,
      "રક્ષણ": 2868,
      "બદલી": 2869,
      "જીવનમાં": 2870,
      "લામાં": 2871,
      "સુપર": 2872,
      "60": 2873,
      "ળના": 2874,
      "વેચ": 2875,
      "મેડિકલ": 2876,
      "કેર": 2877,
      "પોતાનું": 2878,
      "ભારતની": 2879,
      "લક્ષણો": 2880,
      "ગણતરી": 2881,
      "યુવાનો": 2882,
      "પટેલે": 2883,
      "ફેબ્રુઆરી": 2884,
      "સંભાવના": 2885,
      "કરાયો": 2886,
      "તારીખ": 2887,
      "જથ્": 2888,
      "બંગા": 2889,
      "બજારમાં": 2890,
      "23": 2891,
      "કદા": 2892,
      "સ્તર": 2893,
      "વાતો": 2894,
      "ત્ત": 2895,
      "ળામાં": 2896,
      "કપૂર": 2897,
      "જમ્": 2898,
      "સ્ત્ર": 2899,
      "દીધું": 2900,
      "ફાળ": 2901,
      "લાગણી": 2902,
      "પ્રત્યે": 2903,
      "રેકોર્ડ": 2904,
      "ખાલી": 2905,
      "મર્યા": 2906,
      "સાથી": 2907,
      "પહેર": 2908,
      "ચક": 2909,
      "ડ્રે": 2910,
      "બાઇ": 2911,
      "શીલ": 2912,
      "સ્લિ": 2913,
      "કોના": 2914,
      "મ્યુનિ": 2915,
      "નામના": 2916,
      "કંપનીઓ": 2917,
      "દના": 2918,
      "તાને": 2919,
      "મહત્વપૂર્ણ": 2920,
      "વેસ્ટ": 2921,
      "આંકડા": 2922,
      "શર્મા": 2923,
      "ડિસેમ્બર": 2924,
      "વારી": 2925,
      "દૃ": 2926,
      "ધૂ": 2927,
      "વર્તન": 2928,
      "ઇન્ટ": 2929,
      "સાહ": 2930,
      "કાર્યો": 2931,
      "ફાયર": 2932,
      "કાંઠા": 2933,
      "માનવ": 2934,
      "ટીના": 2935,
      "સ્ટાર": 2936,
      "રીઝ": 2937,
      "અતિ": 2938,
      "ત્યા": 2939,
      "તેઓએ": 2940,
      "વર્તમા": 2941,
      "ઉંમર": 2942,
      "સવાલ": 2943,
      "કહ્યુ": 2944,
      "તહે": 2945,
      "જાણે": 2946,
      "બીજ": 2947,
      "ધમકી": 2948,
      "અદા": 2949,
      "ઓસ્ટ્રે": 2950,
      "ઘન": 2951,
      "લોન": 2952,
      "ચોક": 2953,
      "વિષય": 2954,
      "70": 2955,
      "ફેસ": 2956,
      "કુદર": 2957,
      "આક્ષે": 2958,
      "મ્પિ": 2959,
      "બેઠકો": 2960,
      "ટિક": 2961,
      "આશરે": 2962,
      "માસ્ક": 2963,
      "તાની": 2964,
      "ફેરફાર": 2965,
      "સપ્તાહ": 2966,
      "ણાં": 2967,
      "કાઢી": 2968,
      "સેન્ટર": 2969,
      "કદાચ": 2970,
      "દીકરી": 2971,
      "સ્થાને": 2972,
      "ટ્વી": 2973,
      "સામાજિક": 2974,
      "28": 2975,
      "ધર્": 2976,
      "બારી": 2977,
      "કિટ": 2978,
      "પેટ": 2979,
      "કોમ": 2980,
      "એટલું": 2981,
      "અપી": 2982,
      "ઉમેદવાર": 2983,
      "26": 2984,
      "કઈ": 2985,
      "રમત": 2986,
      "રજૂઆત": 2987,
      "સ્પી": 2988,
      "બુક": 2989,
      "તાના": 2990,
      "બળા": 2991,
      "લીઝ": 2992,
      "પરં": 2993,
      "જોર": 2994,
      "ચેક": 2995,
      "સિસ્ટમ": 2996,
      "ખરેખર": 2997,
      "દેવી": 2998,
      "સિદ્ધ": 2999,
      "ગ્રસ્ત": 3000,
      "બેઠકમાં": 3001,
      "રવિવારે": 3002,
      "પદ્ધ": 3003,
      "રમા": 3004,
      "રેડ": 3005,
      "કર્મચારીઓ": 3006,
      "રું": 3007,
      "વય": 3008,
      "લેક": 3009,
      "વર્ષીય": 3010,
      "મહિલાઓ": 3011,
      "યણ": 3012,
      "રૂમ": 3013,
      "ડિગ્રી": 3014,
      "વૃક્ષ": 3015,
      "અત્યારે": 3016,
      "ડાઈ": 3017,
      "ic": 3018,
      "ઉપસ્થિત": 3019,
      "નવેમ્બર": 3020,
      "રિઝ": 3021,
      "સાંસદ": 3022,
      "બિઝને": 3023,
      "શકી": 3024,
      "ટેલ": 3025,
      "સમજ": 3026,
      "ડેજા": 3027,
      "બનશે": 3028,
      "પ્લાન્ટ": 3029,
      "પેટ્રોલ": 3030,
      "પરંપરા": 3031,
      "ટમેન્ટ": 3032,
      "ડાની": 3033,
      "બંદર": 3034,
      "દબાણ": 3035,
      "અકસ્માત": 3036,
      "મળતા": 3037,
      "ભાગમાં": 3038,
      "ન્સી": 3039,
      "જાડેજા": 3040,
      "હોવાનો": 3041,
      "પદ્ધતિ": 3042,
      "જૈ": 3043,
      "લેક્": 3044,
      "દ્વાર": 3045,
      "પૃ": 3046,
      "તાત્કા": 3047,
      "જ્ઞાન": 3048,
      "તાપમાન": 3049,
      "ક્કર": 3050,
      "બિલ": 3051,
      "પ્રોડ": 3052,
      "કૃષિ": 3053,
      "અચા": 3054,
      "એકાઉન્ટ": 3055,
      "દિવસોમાં": 3056,
      "ઠ્": 3057,
      "બેડ": 3058,
      "મુંબઇ": 3059,
      "પ્રશ્નો": 3060,
      "બજા": 3061,
      "અચાનક": 3062,
      "મશી": 3063,
      "૪૦": 3064,
      "એરપોર્ટ": 3065,
      "લિયન": 3066,
      "ખુશ": 3067,
      "કેન્સર": 3068,
      "એકવાર": 3069,
      "ળમાં": 3070,
      "ચાં": 3071,
      "ડેટા": 3072,
      "પગલાં": 3073,
      "ઓગસ્ટ": 3074,
      "વટ": 3075,
      "નર્મ": 3076,
      "રજુ": 3077,
      "વેરા": 3078,
      "સંજય": 3079,
      "સ્થળો": 3080,
      "ટિસ": 3081,
      "it": 3082,
      "ફંડ": 3083,
      "સક્રિય": 3084,
      "ક્રમ": 3085,
      "ગોમાં": 3086,
      "વવાનો": 3087,
      "કરાશે": 3088,
      "અઠવાડિયા": 3089,
      "થિ": 3090,
      "યુદ્ધ": 3091,
      "વાતચીત": 3092,
      "રં": 3093,
      "ચિત્ર": 3094,
      "આથી": 3095,
      "ઇજા": 3096,
      "સિવિલ": 3097,
      "મેરા": 3098,
      "ગરમી": 3099,
      "ત્રીજા": 3100,
      "ન્ય": 3101,
      "લેતા": 3102,
      "ાર્ડ": 3103,
      "પ્રભા": 3104,
      "તબક્કા": 3105,
      "ન્ડર": 3106,
      "કડક": 3107,
      "ટ્રેન": 3108,
      "ed": 3109,
      "ભ્ર": 3110,
      "વાગ્ય": 3111,
      "સર્વે": 3112,
      "વર્તમાન": 3113,
      "ળીને": 3114,
      "નર્મદા": 3115,
      "પન": 3116,
      "સંબંધો": 3117,
      "એપ્રિલ": 3118,
      "માસ": 3119,
      "ટીમે": 3120,
      "મુસ્લિ": 3121,
      "શનમાં": 3122,
      "વાગ્યે": 3123,
      "િકા": 3124,
      "છૂટ": 3125,
      "ંડો": 3126,
      "લગાવી": 3127,
      "તસવી": 3128,
      "સૂર્ય": 3129,
      "મોબાઈલ": 3130,
      "હરા": 3131,
      "કરનારા": 3132,
      "અપીલ": 3133,
      "તિક": 3134,
      "મળીને": 3135,
      "ચલ": 3136,
      "સરકારને": 3137,
      "જૂનાગઢ": 3138,
      "સ્વીકાર": 3139,
      "નિધિ": 3140,
      "અંબા": 3141,
      "શુક્રવારે": 3142,
      "ધામ": 3143,
      "તરત": 3144,
      "દ્રા": 3145,
      "પડ્યો": 3146,
      "માંડ": 3147,
      "સ્ના": 3148,
      "ટ્રાફિક": 3149,
      "સંતો": 3150,
      "સંપૂર્ણપણે": 3151,
      "શનિવારે": 3152,
      "ર્જી": 3153,
      "પાછા": 3154,
      "ભલા": 3155,
      "દેખાય": 3156,
      ".”": 3157,
      "રત": 3158,
      "સંતા": 3159,
      "શૈલી": 3160,
      "ઈન્ડિયા": 3161,
      "પાણીની": 3162,
      "એકબીજા": 3163,
      "લોટ": 3164,
      "માનસિક": 3165,
      "હવામાન": 3166,
      "માઇ": 3167,
      "લોકોમાં": 3168,
      "ફોર્": 3169,
      "પ્રવાસી": 3170,
      "હોવાના": 3171,
      "ગીર": 3172,
      "ખેડૂત": 3173,
      "જારી": 3174,
      "પ્રવૃત્તિ": 3175,
      "2021": 3176,
      "કેપ્ટન": 3177,
      "સોલ": 3178,
      "મોટાભાગના": 3179,
      "ફાયદો": 3180,
      "વં": 3181,
      "વિસ": 3182,
      "ંગી": 3183,
      "ફિલ્મમાં": 3184,
      "ખોરાક": 3185,
      "ત્રણે": 3186,
      "ગર્ભ": 3187,
      "વિશાળ": 3188,
      "રાશ": 3189,
      "ફાયદા": 3190,
      "વાં": 3191,
      "કોહ": 3192,
      "મનાથ": 3193,
      "વિરા": 3194,
      "દિવાળી": 3195,
      "પથ": 3196,
      "મોકલી": 3197,
      "રવ": 3198,
      "પોલિ": 3199,
      "એસટી": 3200,
      "મંત્રાલય": 3201,
      "ગ્રુ": 3202,
      "કલમ": 3203,
      "જમ્મુ": 3204,
      "80": 3205,
      "પાક": 3206,
      "સંભાળ": 3207,
      "હૂ": 3208,
      "હેતુ": 3209,
      "સ્ત્રો": 3210,
      "પ્રશ્ન": 3211,
      "દરરોજ": 3212,
      "જમી": 3213,
      "27": 3214,
      "તત્": 3215,
      "બાળકી": 3216,
      "નેતાઓ": 3217,
      "રાજે": 3218,
      "એજ": 3219,
      "વેપાર": 3220,
      "ખાતરી": 3221,
      "સમજા": 3222,
      "પુત્રી": 3223,
      "સુના": 3224,
      "શકતા": 3225,
      "અબ": 3226,
      "જને": 3227,
      "પામ": 3228,
      "આતંકી": 3229,
      "આરામ": 3230,
      "વકી": 3231,
      "રાય": 3232,
      "બેસી": 3233,
      "બીમારી": 3234,
      "ing": 3235,
      "કિસ્સામાં": 3236,
      "સંદર્": 3237,
      "આધારિત": 3238,
      "દેહ": 3239,
      "ચેરમેન": 3240,
      "પમાં": 3241,
      "મરી": 3242,
      "દરવા": 3243,
      "વિભાગના": 3244,
      "બુધવારે": 3245,
      "કૃત": 3246,
      "આના": 3247,
      "નવો": 3248,
      "હદ": 3249,
      "વધે": 3250,
      "પ્સ": 3251,
      "સૂચના": 3252,
      "્રો": 3253,
      "તાલુકામાં": 3254,
      "ર્તિ": 3255,
      "યાત": 3256,
      "મુકા": 3257,
      "જુલાઈ": 3258,
      "ઘણાં": 3259,
      "ડાયા": 3260,
      "પુલ": 3261,
      "માનો": 3262,
      "શોક": 3263,
      "સેટ": 3264,
      "સાથ": 3265,
      "પુરી": 3266,
      "પ્રાણી": 3267,
      "ભરી": 3268,
      "ડીયો": 3269,
      "સ્ટેટ": 3270,
      "નોલોજી": 3271,
      "ઓક્ટોબર": 3272,
      "ઊં": 3273,
      "રદ": 3274,
      "નમ": 3275,
      "ટેલિ": 3276,
      "એટલા": 3277,
      "રેન્": 3278,
      "તરણ": 3279,
      "બહેન": 3280,
      "મંગળવારે": 3281,
      "કતા": 3282,
      "સીએ": 3283,
      "કોહલી": 3284,
      "અલી": 3285,
      "દઈએ": 3286,
      "ઈજા": 3287,
      "હોમ": 3288,
      "મેચમાં": 3289,
      "અહેવાલ": 3290,
      "સરો": 3291,
      "વિધિ": 3292,
      "વિંદ": 3293,
      "સન્માન": 3294,
      "મોબા": 3295,
      "ણીએ": 3296,
      "જતી": 3297,
      "વર્ણ": 3298,
      "શોધી": 3299,
      "શખ્સો": 3300,
      "શભાઇ": 3301,
      "માટેના": 3302,
      "ગોઠ": 3303,
      "પત્તિ": 3304,
      "સ્પર્ધા": 3305,
      "મોબાઇલ": 3306,
      "એસો": 3307,
      "થતો": 3308,
      "અભિયાન": 3309,
      "ro": 3310,
      "ગણે": 3311,
      "રાં": 3312,
      "લાસ": 3313,
      "મદદથી": 3314,
      "ઘી": 3315,
      "તોને": 3316,
      "પર્યા": 3317,
      "પકડી": 3318,
      "દિલ્હીમાં": 3319,
      "ઓસ્ટ્રેલિયા": 3320,
      "29": 3321,
      "બપોરે": 3322,
      "માલિ": 3323,
      "નિષ્ફળ": 3324,
      "ખત": 3325,
      "મુક્ત": 3326,
      "ઉના": 3327,
      "દિવસની": 3328,
      "વારો": 3329,
      "સાંભળ": 3330,
      "રસો": 3331,
      "વાલી": 3332,
      "જોગ": 3333,
      "ટીવ": 3334,
      "પીએસ": 3335,
      "ડિઝાઇન": 3336,
      "કડા": 3337,
      "રાવ": 3338,
      "ન્ના": 3339,
      "મોહ": 3340,
      "મોટું": 3341,
      "બેં": 3342,
      "શ્વાસ": 3343,
      "નિયં": 3344,
      "કાયદેસર": 3345,
      "ફર્": 3346,
      "સુધ": 3347,
      "ટ્ટી": 3348,
      "હાર્દિક": 3349,
      "ર્વ": 3350,
      "વારના": 3351,
      "ઘાત": 3352,
      "પરછ": 3353,
      "ફૂટ": 3354,
      "31": 3355,
      "જિત": 3356,
      "સરખા": 3357,
      "ચેત": 3358,
      "35": 3359,
      "દરો": 3360,
      "સાણા": 3361,
      "દરિયા": 3362,
      "નોંધાયો": 3363,
      "હેલ્થ": 3364,
      "જીતી": 3365,
      "કરાયા": 3366,
      "દોષ": 3367,
      "નિયમિત": 3368,
      "ત્વચા": 3369,
      "હિન્દુ": 3370,
      "આંદોલન": 3371,
      "ભલામણ": 3372,
      "નિયંત્રણ": 3373,
      "એમાં": 3374,
      "બદલા": 3375,
      "ફ્રી": 3376,
      "ઉકેલ": 3377,
      "નાણાકીય": 3378,
      "ફ્લો": 3379,
      "પ્રધાનમંત્રી": 3380,
      "મિલ": 3381,
      "રૂમમાં": 3382,
      "ધરવામાં": 3383,
      "કુદરતી": 3384,
      "ફેદ": 3385,
      "પોતાને": 3386,
      "તારા": 3387,
      "આવશ્ય": 3388,
      "કરાયું": 3389,
      "ૂડ": 3390,
      "ગુરૂ": 3391,
      "પજ": 3392,
      "સ્ટિક": 3393,
      "ગમે": 3394,
      "બરા": 3395,
      "કાળા": 3396,
      "ધુનિક": 3397,
      "સીપી": 3398,
      "ચ્યુ": 3399,
      "નાખી": 3400,
      "વિદ": 3401,
      "ક્ષી": 3402,
      "ઓથી": 3403,
      "મોડે": 3404,
      "માણસ": 3405,
      "૨૨": 3406,
      "ંગના": 3407,
      "ડિટ": 3408,
      "ખેડૂતોને": 3409,
      "રાત્રી": 3410,
      "વિપક્ષ": 3411,
      "સ્વરૂપ": 3412,
      "ઓછું": 3413,
      "જીની": 3414,
      "કિશો": 3415,
      "ઓક્સિ": 3416,
      "સ્ય": 3417,
      "બિહાર": 3418,
      "પગાર": 3419,
      "સંગી": 3420,
      "આંતરરાષ્ટ્રીય": 3421,
      "સફેદ": 3422,
      "લક્ષ્": 3423,
      "દસ": 3424,
      "છતા": 3425,
      "ત્સા": 3426,
      "૨૦૦": 3427,
      "મહાન": 3428,
      "ક્લિક": 3429,
      "હોત": 3430,
      "મૂલ્ય": 3431,
      "અમરેલી": 3432,
      "આદ": 3433,
      "સર્ચ": 3434,
      "ઘરની": 3435,
      "હકીકત": 3436,
      "જાતિ": 3437,
      "સૂચ": 3438,
      "આંખ": 3439,
      "આંખો": 3440,
      "માંગણી": 3441,
      "ati": 3442,
      "નોટ": 3443,
      "મોડી": 3444,
      "ક્ષેત્રમાં": 3445,
      "ચહેરા": 3446,
      "વત્તા": 3447,
      "સંકે": 3448,
      "રિય": 3449,
      "કરેલા": 3450,
      "નામની": 3451,
      "બેન્ક": 3452,
      "as": 3453,
      "જેઓ": 3454,
      "વડી": 3455,
      "હૃ": 3456,
      "પરિવારના": 3457,
      "પોરબંદર": 3458,
      "કથા": 3459,
      "તકલી": 3460,
      "કક્ષા": 3461,
      "કામો": 3462,
      "વૈજ્ઞા": 3463,
      "સલમાન": 3464,
      "પ્રયત્ન": 3465,
      "ટેક્": 3466,
      "જેનો": 3467,
      "ક્યારેક": 3468,
      "45": 3469,
      "સતા": 3470,
      "સંગ્ર": 3471,
      "જોખમ": 3472,
      "તાત્કાલિક": 3473,
      "ખિ": 3474,
      "ન્ડે": 3475,
      "સેલ": 3476,
      "હાથમાં": 3477,
      "અફઘા": 3478,
      "કયા": 3479,
      "બનવા": 3480,
      "દુઃ": 3481,
      "ગલ": 3482,
      "બૉ": 3483,
      "લેવાની": 3484,
      "સર્વ": 3485,
      "વધીને": 3486,
      "ઉભી": 3487,
      "જાગૃ": 3488,
      "ભૂલ": 3489,
      "થ્થ": 3490,
      "આવો": 3491,
      "વૃદ્ધિ": 3492,
      "મજા": 3493,
      "ધારાસભ્યો": 3494,
      "સુનાવણી": 3495,
      "પત": 3496,
      "ભારતે": 3497,
      "ur": 3498,
      "નિકો": 3499,
      "ક્ષણિક": 3500,
      "ડ્રગ": 3501,
      "અસરકાર": 3502,
      "સંયુક્ત": 3503,
      "પ્લેટ": 3504,
      "આકર્ષ": 3505,
      "ખુશી": 3506,
      "સાધનો": 3507,
      "ઊંચા": 3508,
      "અગ્રણી": 3509,
      "કચ": 3510,
      "પાવર": 3511,
      "સંબો": 3512,
      "બીજો": 3513,
      "ભાગ્ય": 3514,
      "ઉભા": 3515,
      "શીખ": 3516,
      "મેનેજ": 3517,
      "વિગત": 3518,
      "દાસ": 3519,
      "કબ": 3520,
      "પડા": 3521,
      "લૉ": 3522,
      "પ્રેમી": 3523,
      "મહેન": 3524,
      "નીકળી": 3525,
      "અંતે": 3526,
      "આપણી": 3527,
      "રાજકોટમાં": 3528,
      "કાળજી": 3529,
      "કોર્પોરેશન": 3530,
      "બગ": 3531,
      "મકા": 3532,
      "તાઓ": 3533,
      "મથી": 3534,
      "વેર": 3535,
      "રેક્ટર": 3536,
      "ડિયન": 3537,
      "ડેરી": 3538,
      "લત": 3539,
      "સહી": 3540,
      "યેલો": 3541,
      "વાયરસના": 3542,
      "નિષ્ણા": 3543,
      "આખા": 3544,
      "વવાનું": 3545,
      "કર્મી": 3546,
      "સંકળા": 3547,
      "ઓફર": 3548,
      "બિઝનેસ": 3549,
      "ટીંગ": 3550,
      "સમક્ષ": 3551,
      "રૂપિયાની": 3552,
      "90": 3553,
      "પ્રદ": 3554,
      "જોઈને": 3555,
      "સાથેની": 3556,
      "ત્સવ": 3557,
      "સત્ય": 3558,
      "ચેપ": 3559,
      "ઝડપા": 3560,
      "ન્સિ": 3561,
      "દસ્તા": 3562,
      "કરેલી": 3563,
      "ધોની": 3564,
      "બાયો": 3565,
      "અભિનેતા": 3566,
      "માહોલ": 3567,
      "સુરક્ષિત": 3568,
      "ભરત": 3569,
      "le": 3570,
      "ફસા": 3571,
      "તમારું": 3572,
      "સુરતમાં": 3573,
      "ફાર્": 3574,
      "વિતરણ": 3575,
      "દિવસથી": 3576,
      "કેમ્પ": 3577,
      "આપીને": 3578,
      "સ્કી": 3579,
      "લાખો": 3580,
      "જોતા": 3581,
      "ગોળી": 3582,
      "શબ્દો": 3583,
      "જ્યો": 3584,
      "સ્વસ્થ": 3585,
      "કાના": 3586,
      "લોહી": 3587,
      "વિચારો": 3588,
      "ધાર્": 3589,
      "ડ્રો": 3590,
      "જથ્થો": 3591,
      "વધારી": 3592,
      "શ્રેણી": 3593,
      "પરવાનગી": 3594,
      "ધારણ": 3595,
      "વ્યાજ": 3596,
      "ગ્રામ્ય": 3597,
      "રમી": 3598,
      "હોટ": 3599,
      "ઉમેર": 3600,
      "દસ્તાવે": 3601,
      "ભાવમાં": 3602,
      "ch": 3603,
      "ઘૂ": 3604,
      "તીવ્ર": 3605,
      "ઘણો": 3606,
      "કરાર": 3607,
      "ગીત": 3608,
      "વ્યૂ": 3609,
      "આતંકવાદી": 3610,
      "સોમનાથ": 3611,
      "નોંધી": 3612,
      "ંગ્લેન્ડ": 3613,
      "સ્કૂલ": 3614,
      "ક્યુ": 3615,
      "ભજ": 3616,
      "કૂળ": 3617,
      "ઓછામાં": 3618,
      "સંપત્તિ": 3619,
      "બાબતો": 3620,
      "દર્શ": 3621,
      "પાણીમાં": 3622,
      "વહેલી": 3623,
      "માઈ": 3624,
      "સાઉ": 3625,
      "વિરૂ": 3626,
      "ચારે": 3627,
      "ગામો": 3628,
      "ક્વો": 3629,
      "કરોડની": 3630,
      "ંચે": 3631,
      "આધુનિક": 3632,
      "શારી": 3633,
      "માલિક": 3634,
      "સ્વચ્": 3635,
      "પ્રદેશમાં": 3636,
      "મિશન": 3637,
      "સ્થાપિત": 3638,
      "હટા": 3639,
      "રિલીઝ": 3640,
      "દુકાન": 3641,
      "વ્યક્તિને": 3642,
      "ળુ": 3643,
      "રહેતી": 3644,
      "અત્ય": 3645,
      "તણા": 3646,
      "દિત": 3647,
      "ગુલા": 3648,
      "યુવક": 3649,
      "ન્ડસ્ટ્રી": 3650,
      "કૌભા": 3651,
      "લાગ્યો": 3652,
      "રેજ": 3653,
      "હૃદય": 3654,
      "વાયુ": 3655,
      "પાર્ક": 3656,
      "કાર્યક્રમમાં": 3657,
      "જવાબદાર": 3658,
      "ભલે": 3659,
      "ચોમા": 3660,
      "શ્રદ્ધા": 3661,
      "વિકલ્પ": 3662,
      "વાયું": 3663,
      "સ્ટોર": 3664,
      "ગુણવત્તા": 3665,
      "જણાવ્યુ": 3666,
      "પ્રસંગે": 3667,
      "સ્પદ": 3668,
      "નોંધાવી": 3669,
      "પ્રદેશના": 3670,
      "કંઈક": 3671,
      "અગ": 3672,
      "ધારી": 3673,
      "પ્રતિનિધિ": 3674,
      "ધાર્મિક": 3675,
      "ઠું": 3676,
      "પ્રચાર": 3677,
      "મેસે": 3678,
      "આક્ષેપ": 3679,
      "જરે": 3680,
      "મારફ": 3681,
      "અત્યંત": 3682,
      "500": 3683,
      "વની": 3684,
      "વટી": 3685,
      "સાહે": 3686,
      "હેડ": 3687,
      "જુદી": 3688,
      "મામલો": 3689,
      "ઓફિસ": 3690,
      "અજાણ": 3691,
      "અંગેની": 3692,
      "કોમાં": 3693,
      "રોએ": 3694,
      "આવ્યુ": 3695,
      "કલેકટર": 3696,
      "ઉમ": 3697,
      "પિયા": 3698,
      "સોના": 3699,
      "નિયર": 3700,
      "નામું": 3701,
      "સ્ટ્રો": 3702,
      "લાગ્યા": 3703,
      "રિયલ": 3704,
      "કાર્યકરો": 3705,
      "મહેસાણા": 3706,
      "એન્જિ": 3707,
      "ઈન્ટર": 3708,
      "ઉદ્": 3709,
      "કાપી": 3710,
      "માર્ગદર્શન": 3711,
      "ગેસ": 3712,
      "વડે": 3713,
      "વળી": 3714,
      "આવેલું": 3715,
      "સણ": 3716,
      "રાઈ": 3717,
      "કેમેરા": 3718,
      "ક્લિ": 3719,
      "પ્રેસ": 3720,
      "કપડાં": 3721,
      "ખં": 3722,
      "ણંદ": 3723,
      "વવું": 3724,
      "સાગર": 3725,
      "ખ્યાત": 3726,
      "ઓક્સિજન": 3727,
      "ૃત": 3728,
      "ક્ષમ": 3729,
      "મીના": 3730,
      "મૌ": 3731,
      "સરદાર": 3732,
      "આખરે": 3733,
      "શખ": 3734,
      "લોન્ચ": 3735,
      "બોલિવ": 3736,
      "તસવીર": 3737,
      "ન્યાય": 3738,
      "ઉપયોગી": 3739,
      "ગારી": 3740,
      "ભંગ": 3741,
      "પાડવામાં": 3742,
      "આત્મ": 3743,
      "ઠેર": 3744,
      "જવાની": 3745,
      "૨૮": 3746,
      "શિયન": 3747,
      "આયુ": 3748,
      "ઓલ": 3749,
      "વિડીયો": 3750,
      "શ્ચિત": 3751,
      "ઠંડી": 3752,
      "તેવો": 3753,
      "બન્યો": 3754,
      "આભાર": 3755,
      "ભવ્ય": 3756,
      "વરી": 3757,
      "વાને": 3758,
      "દિગ્": 3759,
      "ખુલા": 3760,
      "ગૂ": 3761,
      "ડૂ": 3762,
      "કંપનીના": 3763,
      "શરીરમાં": 3764,
      "મુસ્લિમ": 3765,
      "તાલીમ": 3766,
      "પીડિ": 3767,
      "એવોર્ડ": 3768,
      "૬૦": 3769,
      "નારાયણ": 3770,
      "ોમાં": 3771,
      "તાએ": 3772,
      "અધિકાર": 3773,
      "પગલા": 3774,
      "ઝોન": 3775,
      "શબ્દ": 3776,
      "ખું": 3777,
      "ખાને": 3778,
      "વ્યક્તિગત": 3779,
      "શારીરિક": 3780,
      "વના": 3781,
      "રોલ": 3782,
      "વિદ્યાર્થીઓને": 3783,
      "કાગ": 3784,
      "આવતાં": 3785,
      "મુસા": 3786,
      "ભરતી": 3787,
      "am": 3788,
      "ખોલ": 3789,
      "એકા": 3790,
      "ભટ્": 3791,
      "નાઇ": 3792,
      "લેશન": 3793,
      "ટોક": 3794,
      "નહોતી": 3795,
      "રિટી": 3796,
      "૭૦": 3797,
      "કરશો": 3798,
      "કૃષ્ણ": 3799,
      "પ્રિયંકા": 3800,
      "અસરકારક": 3801,
      "દુષ્": 3802,
      "અમલ": 3803,
      "ડિસ્": 3804,
      "તરના": 3805,
      "સહિતની": 3806,
      "જગ": 3807,
      "ટણી": 3808,
      "હજારો": 3809,
      "હાં": 3810,
      "કંપનીએ": 3811,
      "ઢો": 3812,
      "મકાન": 3813,
      "સુરેન્દ્ર": 3814,
      "વાવા": 3815,
      "આશ્ર": 3816,
      "પરમાર": 3817,
      "અપના": 3818,
      "લાવી": 3819,
      "રીત": 3820,
      "ઓનલાઇન": 3821,
      "વિમાન": 3822,
      "ચર્ય": 3823,
      "સમીક્ષા": 3824,
      "મહત્ત્વ": 3825,
      "અમેરિકન": 3826,
      "ટ્રોલ": 3827,
      "આગાહી": 3828,
      "થિય": 3829,
      "લેશે": 3830,
      "તલ": 3831,
      "વધતા": 3832,
      "૨૩": 3833,
      "રેટ": 3834,
      "પરિણામે": 3835,
      "વાસ્તવિક": 3836,
      "જમ": 3837,
      "રોગો": 3838,
      "પણી": 3839,
      "દોડી": 3840,
      "is": 3841,
      "નવું": 3842,
      "વિભાગે": 3843,
      "કલાકે": 3844,
      "99": 3845,
      "આશ્": 3846,
      "ભિ": 3847,
      "સરા": 3848,
      "ચાઇ": 3849,
      "પામી": 3850,
      "વેટ": 3851,
      "પ્રતિક્રિયા": 3852,
      "સુધારો": 3853,
      "અશ્": 3854,
      "ૈયા": 3855,
      "પરિણામો": 3856,
      "દેશોમાં": 3857,
      "ઝુ": 3858,
      "હલ": 3859,
      "વપરાશ": 3860,
      "મર્યાદા": 3861,
      "તેમાંથી": 3862,
      "લોડ": 3863,
      "લિસ્ટ": 3864,
      "જનરલ": 3865,
      "આકાર": 3866,
      "જાે": 3867,
      "રહેલ": 3868,
      "દેખાવ": 3869,
      "આપો": 3870,
      "રણા": 3871,
      "લોમાં": 3872,
      "શાહી": 3873,
      "સહે": 3874,
      "કોશિ": 3875,
      "સંત": 3876,
      "ટોચ": 3877,
      "પોલીસની": 3878,
      "જેનાથી": 3879,
      "ચૂક્યા": 3880,
      "લોકડાઉ": 3881,
      "શાળી": 3882,
      "રસીકરણ": 3883,
      "જવામાં": 3884,
      "ગરીબ": 3885,
      "અનામત": 3886,
      "અપે": 3887,
      "ભાવે": 3888,
      "રિત": 3889,
      "કાયદો": 3890,
      "બર્": 3891,
      "લવ": 3892,
      "ષ્ય": 3893,
      "વાંચો": 3894,
      "તસવીરો": 3895,
      "સંબંધી": 3896,
      "th": 3897,
      "તામાં": 3898,
      "હોઇ": 3899,
      "સમજી": 3900,
      "ત્રણેય": 3901,
      "આફ્ર": 3902,
      "જેલ": 3903,
      "ટોપ": 3904,
      "વિરોધી": 3905,
      "૨૬": 3906,
      "રાત્રિ": 3907,
      "ડીએ": 3908,
      "ગેટ": 3909,
      "ઓછો": 3910,
      "પુરમાં": 3911,
      "જૂન": 3912,
      "પરિવારજનો": 3913,
      "સિંહે": 3914,
      "સ્ક્રી": 3915,
      "તોડ": 3916,
      "ગોલ્ડ": 3917,
      "ટલી": 3918,
      "રાઇ": 3919,
      "કિર્": 3920,
      "સ્તરે": 3921,
      "બનાવ્યા": 3922,
      "દોડ": 3923,
      "સરેરાશ": 3924,
      "અવાજ": 3925,
      "દિન": 3926,
      "પરીક્ષણ": 3927,
      "અમેરિકાના": 3928,
      "રક્ત": 3929,
      "સ્વાદ": 3930,
      "લાવવા": 3931,
      "બાત": 3932,
      "દિશામાં": 3933,
      "તં": 3934,
      "સિસ": 3935,
      "ઉત્તમ": 3936,
      "મૃતદેહ": 3937,
      "વિદ્યા": 3938,
      "આશ્ચર્ય": 3939,
      "રશિયા": 3940,
      "નિસ્તા": 3941,
      "કોઈને": 3942,
      "દની": 3943,
      "ટીસ": 3944,
      "ચાલે": 3945,
      "તમારો": 3946,
      "બાળકને": 3947,
      "કાર્યક્રમો": 3948,
      "આગેવાનો": 3949,
      "૧૦૦": 3950,
      "મહેનત": 3951,
      "વાવાઝો": 3952,
      "વરિ": 3953,
      "ોને": 3954,
      "ર્ક": 3955,
      "2018": 3956,
      "2017": 3957,
      "ટૂંક": 3958,
      "પૃથ્": 3959,
      "સરખામણી": 3960,
      "ઇતિહા": 3961,
      "રમે": 3962,
      "વૉ": 3963,
      "રાજસ્થાન": 3964,
      "જૂથ": 3965,
      "વૈશ્": 3966,
      "ખાણ": 3967,
      "સમર્થન": 3968,
      "સચિવ": 3969,
      "સેસ": 3970,
      "સંસદ": 3971,
      "સમાજના": 3972,
      "રોકડ": 3973,
      "નાયબ": 3974,
      "કૌભાંડ": 3975,
      "વવી": 3976,
      "ટ્રમ્પ": 3977,
      "મૃતક": 3978,
      "જાતે": 3979,
      "ત્રીજી": 3980,
      "ગણેશ": 3981,
      "રીના": 3982,
      "લીલા": 3983,
      "રોહિત": 3984,
      "ડીમાં": 3985,
      "ક્રેડિટ": 3986,
      "સક": 3987,
      "પાઇ": 3988,
      "લીધું": 3989,
      "મુસાફ": 3990,
      "રહેવું": 3991,
      "વિંગ": 3992,
      "તોડી": 3993,
      "નગરમાં": 3994,
      "પ્લાન": 3995,
      "પંજાબ": 3996,
      "વિન": 3997,
      "પ્રકા": 3998,
      "પાર્ટીના": 3999,
      "કમિશનર": 4000,
      "ઇમ": 4001,
      "લ્યુ": 4002,
      "પીડા": 4003,
      "સીએમ": 4004,
      "જાણીતા": 4005,
      "વનાર": 4006,
      "લાની": 4007,
      "પાર્ટમેન્ટ": 4008,
      "લાખની": 4009,
      "સાઇટ": 4010,
      "ંજ": 4011,
      "દમાં": 4012,
      "રીમાં": 4013,
      "ન્શન": 4014,
      "સેવ": 4015,
      "ઉપકરણ": 4016,
      "પ્રોત્સા": 4017,
      "લીપ": 4018,
      "બાપુ": 4019,
      "અંદાજ": 4020,
      "ઉત્પાદનો": 4021,
      "વેક્સિન": 4022,
      "મસા": 4023,
      "ળની": 4024,
      "રાઉન્ડ": 4025,
      "પાઈ": 4026,
      "આચાર": 4027,
      "રક્ષા": 4028,
      "લખી": 4029,
      "લોકોનો": 4030,
      "ઓનલાઈન": 4031,
      "હારી": 4032,
      "ચીફ": 4033,
      "જૂના": 4034,
      "મિશ્રણ": 4035,
      "વિરાટ": 4036,
      "વાણી": 4037,
      "સેક": 4038,
      "સ્થિર": 4039,
      "જરૂરિયાત": 4040,
      "બેક": 4041,
      "ખાય": 4042,
      "મ્બરે": 4043,
      "લક્ષ્મી": 4044,
      "રોધ": 4045,
      "મંજુ": 4046,
      "કુશ": 4047,
      "સ્વતંત્ર": 4048,
      "મહત્વનું": 4049,
      "રાજસ્થા": 4050,
      "લાંબી": 4051,
      "શકાશે": 4052,
      "ટેબલ": 4053,
      "બોટ": 4054,
      "મૂર્તિ": 4055,
      "પંથ": 4056,
      "પૂછપરછ": 4057,
      "આવ્યાં": 4058,
      "ત્કાર": 4059,
      "સ્થાપના": 4060,
      "લાયન્સ": 4061,
      "પથ્થ": 4062,
      "થોડો": 4063,
      "પૃથ્વી": 4064,
      "મિતા": 4065,
      "ડોક્ટર": 4066,
      "હિંસા": 4067,
      "75": 4068,
      "સ્કો": 4069,
      "તેઓને": 4070,
      "ઘણીવાર": 4071,
      "સ્ટેશનમાં": 4072,
      "એકદમ": 4073,
      "સમયગાળા": 4074,
      "યુરો": 4075,
      "શરૂઆતમાં": 4076,
      "શહેરી": 4077,
      "છત": 4078,
      "નારાજ": 4079,
      "ચાહ": 4080,
      "ઘણું": 4081,
      "ર૦": 4082,
      "ક્લ": 4083,
      "જીના": 4084,
      "સંજો": 4085,
      "મળવા": 4086,
      "નોંધપાત્ર": 4087,
      "વૈશ્વિક": 4088,
      "પહોંચ્યો": 4089,
      "ટિકિટ": 4090,
      "of": 4091,
      "ઝર્સ": 4092,
      "જામીન": 4093,
      "કેસની": 4094,
      "કિલોમીટર": 4095,
      "કરાવવા": 4096,
      "સર્જન": 4097,
      "આખી": 4098,
      "હનુ": 4099,
      "સાથેના": 4100,
      "શંકર": 4101,
      "પેદા": 4102,
      "જૂર": 4103,
      "આંકડો": 4104,
      "ઈડ": 4105,
      "પ્રશં": 4106,
      "કમિટી": 4107,
      "જોડાયેલા": 4108,
      "om": 4109,
      "અંક": 4110,
      "ફળી": 4111,
      "૩૧": 4112,
      "જુગાર": 4113,
      "36": 4114,
      "રેશ": 4115,
      "દોઢ": 4116,
      "અફઘાનિસ્તા": 4117,
      "સીટી": 4118,
      "કંઇ": 4119,
      "ભરવા": 4120,
      "હાઉસ": 4121,
      "કરોડો": 4122,
      "ફોટા": 4123,
      "નાગરિક": 4124,
      "તકલીફ": 4125,
      "ટ્રસ્ટ": 4126,
      "તોની": 4127,
      "મહત્યા": 4128,
      "ઓપરેશન": 4129,
      "ટ્વીટ": 4130,
      "આવશ્યક": 4131,
      "ધ્ર": 4132,
      "પવન": 4133,
      "હર્ષ": 4134,
      "સ્તે": 4135,
      "વિટા": 4136,
      "પ્રભાવ": 4137,
      "પરના": 4138,
      "િયાણા": 4139,
      "ક્ષેત્રે": 4140,
      "ગામની": 4141,
      "આત્મહત્યા": 4142,
      "મય": 4143,
      "રેખા": 4144,
      "સમસ્યાઓ": 4145,
      "તસ્વી": 4146,
      "દીના": 4147,
      "ad": 4148,
      "આજના": 4149,
      "૨૭": 4150,
      "જેલમાં": 4151,
      "વરસા": 4152,
      "ખોટી": 4153,
      "ઓટો": 4154,
      "ફાઇન": 4155,
      "ફોર": 4156,
      "દર્દીઓને": 4157,
      "ગયેલા": 4158,
      "મિન": 4159,
      "મહિને": 4160,
      "જ્જ": 4161,
      "અમેરિકામાં": 4162,
      "રાજ્યોમાં": 4163,
      "ગન": 4164,
      "રાજુ": 4165,
      "સંક્રમિત": 4166,
      "સુધાર": 4167,
      "સ્વાગત": 4168,
      "એન્ટી": 4169,
      "જેવું": 4170,
      "પડ્યા": 4171,
      "ન્યૂઝ": 4172,
      "ચામ": 4173,
      "નુકશાન": 4174,
      "ળું": 4175,
      "સર્વિસ": 4176,
      "બરાબર": 4177,
      "અશોક": 4178,
      "લીં": 4179,
      "વલસા": 4180,
      "ગોંડ": 4181,
      "આઈપી": 4182,
      "વિશ્વમાં": 4183,
      "કાશ્મીર": 4184,
      "ષે": 4185,
      "લ્લે": 4186,
      "ઉર્ફે": 4187,
      "ષી": 4188,
      "વાર્ષ": 4189,
      "કરું": 4190,
      "ષ્ટા": 4191,
      "પ્રવ": 4192,
      "ગુના": 4193,
      "પેટા": 4194,
      "ફેન્સ": 4195,
      "માત્રા": 4196,
      "કર્ણા": 4197,
      "ક્રાઈ": 4198,
      "તકે": 4199,
      "જેમાંથી": 4200,
      "સંવે": 4201,
      "ચાઈ": 4202,
      "જણાવે": 4203,
      "રસપ્રદ": 4204,
      "આમાં": 4205,
      "આઝા": 4206,
      "લહેર": 4207,
      "દીકરા": 4208,
      "બ્રહ્": 4209,
      "ગળી": 4210,
      "મચા": 4211,
      "મંત્ર": 4212,
      "ચમચી": 4213,
      "મહો": 4214,
      "....": 4215,
      "એસપી": 4216,
      "કલ્યા": 4217,
      "અંગ્રે": 4218,
      "વિસ્તારના": 4219,
      "સરળતાથી": 4220,
      "હોવું": 4221,
      "આવવા": 4222,
      "ક્રમે": 4223,
      "મંદિરમાં": 4224,
      "લેશ": 4225,
      "મોહન": 4226,
      "કહેવા": 4227,
      "બ્રો": 4228,
      "રોજગાર": 4229,
      "આંતરિક": 4230,
      "કોલેજ": 4231,
      "જવું": 4232,
      "શય": 4233,
      "હથિય": 4234,
      "પાડે": 4235,
      "નિવેદ": 4236,
      "કડી": 4237,
      "બ્લેક": 4238,
      "ધંધા": 4239,
      "ચક્ર": 4240,
      "મારું": 4241,
      "લાઇટ": 4242,
      "મુલાકા": 4243,
      "શિત": 4244,
      "તાલિ": 4245,
      "લ્ટ": 4246,
      "કાર્યરત": 4247,
      "બન્યું": 4248,
      "દરવાજા": 4249,
      "el": 4250,
      "રસ્તો": 4251,
      "દવાઓ": 4252,
      "વલણ": 4253,
      "ંતી": 4254,
      "સુધીની": 4255,
      "વસા": 4256,
      "ચૂકી": 4257,
      "૮૦": 4258,
      "નેતૃ": 4259,
      "ટીમો": 4260,
      "દુકાનો": 4261,
      "જઈને": 4262,
      "ઓર્ડ": 4263,
      "સત્ર": 4264,
      "લિટી": 4265,
      "કાળમાં": 4266,
      "દાયક": 4267,
      "બહેનો": 4268,
      "મુસાફરી": 4269,
      "ol": 4270,
      "હરી": 4271,
      "હોવી": 4272,
      "હાલત": 4273,
      "સમુદ્ર": 4274,
      "બાંધકામ": 4275,
      "ળતા": 4276,
      "વને": 4277,
      "ફરાર": 4278,
      "થવું": 4279,
      "મલ": 4280,
      "સીની": 4281,
      "દિને": 4282,
      "દુનિયામાં": 4283,
      "સંગીત": 4284,
      "વતો": 4285,
      "વસ્તી": 4286,
      "રાની": 4287,
      "નિમણ": 4288,
      "સેન્ટ": 4289,
      "કરાઇ": 4290,
      "સાહિ": 4291,
      "વિશિ": 4292,
      "સંશો": 4293,
      "એટલી": 4294,
      "ટાઉ": 4295,
      "જૂની": 4296,
      "ગઈકાલે": 4297,
      "પ્રધા": 4298,
      "કાર્યા": 4299,
      "શૂટિંગ": 4300,
      "ગું": 4301,
      "ર્વે": 4302,
      "બીજે": 4303,
      "ફેશન": 4304,
      "કરોડના": 4305,
      "અમદાવાદના": 4306,
      "ગાંધીએ": 4307,
      "કોર્ટના": 4308,
      "અણ": 4309,
      "ટ્રક": 4310,
      "ંદગી": 4311,
      "ઊભી": 4312,
      "મેદા": 4313,
      "બાય": 4314,
      "વરસાદની": 4315,
      "ડ્રાઇ": 4316,
      "ઉપાય": 4317,
      "મશીન": 4318,
      "સંશોધન": 4319,
      "એપ્": 4320,
      "સક્ષમ": 4321,
      "જાન": 4322,
      "પેપર": 4323,
      "ov": 4324,
      "વીમા": 4325,
      "ડીંગ": 4326,
      "ગ્લો": 4327,
      "વાયા": 4328,
      "ડાઇ": 4329,
      "ખાંડ": 4330,
      "સત્તાવાર": 4331,
      "ડૉક્ટર": 4332,
      "કોનો": 4333,
      "લીન": 4334,
      "સીન": 4335,
      "હનુમાન": 4336,
      "ટર્સ": 4337,
      "યેલું": 4338,
      "તુલ": 4339,
      "અર્થે": 4340,
      "વળતર": 4341,
      "કારકિર્": 4342,
      "નિશ્ચિત": 4343,
      "પ્રાઇ": 4344,
      "ગુરુવારે": 4345,
      "કમાણી": 4346,
      "કેટલાંક": 4347,
      "આણંદ": 4348,
      "ઇલેક્": 4349,
      "મલ્": 4350,
      "રજી": 4351,
      "વાલો": 4352,
      "અપેક્ષા": 4353,
      "ઈન્ટ": 4354,
      "દિલ": 4355,
      "જગત": 4356,
      "રજ": 4357,
      "માછ": 4358,
      "સરપંચ": 4359,
      "પહોંચે": 4360,
      "પક્ષો": 4361,
      "સોલંકી": 4362,
      "વાર્ષિક": 4363,
      "યાર": 4364,
      "મીડિયામાં": 4365,
      "બ્રાન્ડ": 4366,
      "ક્લા": 4367,
      "લીયા": 4368,
      "કોરોનાને": 4369,
      "કોરોનાથી": 4370,
      "રીંગ": 4371,
      "હાણ": 4372,
      "પડતા": 4373,
      "બેઠા": 4374,
      "રાજ્યની": 4375,
      "ખુલાસો": 4376,
      "કલ્યાણ": 4377,
      "ઊભા": 4378,
      "બેગ": 4379,
      "વધા": 4380,
      "ડેમ": 4381,
      "કોંગ્રેસે": 4382,
      "ફ્રેન્ડ": 4383,
      "નોટિસ": 4384,
      "બાગ": 4385,
      "બનાસ": 4386,
      "re": 4387,
      "કૈ": 4388,
      "ઘાટ": 4389,
      "મેટ": 4390,
      "સીના": 4391,
      "અંદાજે": 4392,
      "રંજન": 4393,
      "ઓર્": 4394,
      "માંગે": 4395,
      "ગુજરાતની": 4396,
      "રોકાણકારો": 4397,
      "દ્વારકા": 4398,
      "દેશી": 4399,
      "પ્રેરણા": 4400,
      "ઘાયલ": 4401,
      "પન્ન": 4402,
      "હરિ": 4403,
      "ત્વે": 4404,
      "બનાવો": 4405,
      "દિવસના": 4406,
      "પ્રયાસો": 4407,
      "અથ": 4408,
      "શાખા": 4409,
      "ડોક્ટ": 4410,
      "નજીકના": 4411,
      "સહયોગ": 4412,
      "નિશાન": 4413,
      "એકત્ર": 4414,
      "સિત": 4415,
      "વધારવા": 4416,
      "મેનેજમેન્ટ": 4417,
      "જ્ય": 4418,
      "૨૯": 4419,
      "ંતર": 4420,
      "પેશ": 4421,
      "દિલ્હીઃ": 4422,
      ").": 4423,
      "કારમાં": 4424,
      "સેક્ટર": 4425,
      "પુરવ": 4426,
      "દર્દીઓની": 4427,
      "બનાવવાની": 4428,
      "યાદીમાં": 4429,
      "હમ": 4430,
      "નિરા": 4431,
      "મોટર": 4432,
      "જાળવી": 4433,
      "ટ્વિટર": 4434,
      "પાડવા": 4435,
      "મુકેશ": 4436,
      "પક્ષી": 4437,
      "મહત્વની": 4438,
      "હિંમત": 4439,
      "ંદા": 4440,
      "કપાસ": 4441,
      "કોચ": 4442,
      "વરિષ્ઠ": 4443,
      "ઇંચ": 4444,
      "સેવાઓ": 4445,
      "ફૂડ": 4446,
      "યથા": 4447,
      "રાઠો": 4448,
      "દોર": 4449,
      "ભારતને": 4450,
      "ઘરના": 4451,
      "ટૂંકા": 4452,
      "ગ્રુપ": 4453,
      "ભણ": 4454,
      "વાડા": 4455,
      "સીટ": 4456,
      "પૂરા": 4457,
      "ખેડુ": 4458,
      "એશન": 4459,
      "સુશાંત": 4460,
      "શાસ્ત્રી": 4461,
      "ટેકનોલોજી": 4462,
      "!!": 4463,
      "ઉતર": 4464,
      "બચ્ચ": 4465,
      "મીઠા": 4466,
      "ઉપયોગમાં": 4467,
      "કવિ": 4468,
      "નજરે": 4469,
      "બ્યુ": 4470,
      "છેતર": 4471,
      "બેસ": 4472,
      "ગ્રાહકો": 4473,
      "પંડ": 4474,
      "લાશ": 4475,
      "પેઢી": 4476,
      "ત્યાંથી": 4477,
      "વીજળી": 4478,
      "કારકિર્દી": 4479,
      "રાના": 4480,
      "લેથી": 4481,
      "પર્યાવરણ": 4482,
      "બચાવવા": 4483,
      "કોન્ટ્રા": 4484,
      "કન્ટે": 4485,
      "પ્રોડક્ટ": 4486,
      "બહા": 4487,
      "૩૫": 4488,
      "સાબર": 4489,
      "રિલાયન્સ": 4490,
      "ચર્ચામાં": 4491,
      "અક્ષય": 4492,
      "iv": 4493,
      "ઝઘ": 4494,
      "ઝિક": 4495,
      "પાત": 4496,
      "વધશે": 4497,
      "લૂંટ": 4498,
      "મેસેજ": 4499,
      "નેતૃત્વ": 4500,
      "મું": 4501,
      "શ્યા": 4502,
      "રેશન": 4503,
      "દીઠ": 4504,
      "વુડ": 4505,
      "અંતર": 4506,
      "એક્ટ્રે": 4507,
      "ચેતવણી": 4508,
      "લભ": 4509,
      "તેણી": 4510,
      "પ્રસાદ": 4511,
      "પીપ": 4512,
      "પડકાર": 4513,
      "બીજું": 4514,
      "પ્રભાવિત": 4515,
      "માછલી": 4516,
      "ફ્ટી": 4517,
      "જેટલો": 4518,
      "અધિકારીએ": 4519,
      "અલબ": 4520,
      "વહીવટી": 4521,
      "ટુંબ": 4522,
      "સ્તિ": 4523,
      "ળીયા": 4524,
      "ંટી": 4525,
      "તબીબી": 4526,
      "સળ": 4527,
      "ટીમના": 4528,
      "યુપી": 4529,
      "પરિષ": 4530,
      "પરેશાન": 4531,
      "દર્શાવે": 4532,
      "ડ્રાઈ": 4533,
      "એમને": 4534,
      "મુકી": 4535,
      "ખાઈ": 4536,
      "સંકેત": 4537,
      "સુરેન્દ્રનગર": 4538,
      "32": 4539,
      "પોઇન્ટ": 4540,
      "મીઠું": 4541,
      "પ્તિ": 4542,
      "મૂકવામાં": 4543,
      "એસોસિ": 4544,
      "ટર્": 4545,
      "વાવે": 4546,
      "વેક્સી": 4547,
      "થઈને": 4548,
      "તપાસમાં": 4549,
      "શાનદાર": 4550,
      "કન્યા": 4551,
      "તાલિબા": 4552,
      "પ્રવાહ": 4553,
      "જીવી": 4554,
      "ડાંગ": 4555,
      "આપવાનું": 4556,
      "પેન": 4557,
      "એમના": 4558,
      "કર્મચારીઓને": 4559,
      "બચાવ": 4560,
      "ent": 4561,
      "તત્વો": 4562,
      "એમ્": 4563,
      "છબી": 4564,
      "ગણવામાં": 4565,
      "મારફતે": 4566,
      "ગાર્ડ": 4567,
      "સફાઈ": 4568,
      "માટી": 4569,
      "કેલા": 4570,
      "રોજગારી": 4571,
      "સંભવિત": 4572,
      "us": 4573,
      "અજય": 4574,
      "ટ્યુ": 4575,
      "મિંગ": 4576,
      "ન્સમાં": 4577,
      "ચૌધરી": 4578,
      "37": 4579,
      "ંસ": 4580,
      "વસ": 4581,
      "વિવા": 4582,
      "લીક": 4583,
      "શાની": 4584,
      "પ્લાસ્ટિક": 4585,
      "સંતોષ": 4586,
      "ભરે": 4587,
      "રાખવું": 4588,
      "જોડાયા": 4589,
      ".'": 4590,
      "ગઠ": 4591,
      "ભક્": 4592,
      "મહેતા": 4593,
      "નોંધનીય": 4594,
      "આપવાનો": 4595,
      "નિર્દેશ": 4596,
      "સાજા": 4597,
      "સિડ": 4598,
      "ટ્રિક": 4599,
      "પડતી": 4600,
      "આજથી": 4601,
      "uj": 4602,
      "વિજે": 4603,
      "સોંપ": 4604,
      "કસ્ટ": 4605,
      "પ્રમો": 4606,
      "પુરૂ": 4607,
      "ઇચ્છા": 4608,
      "ડબલ": 4609,
      "મનુ": 4610,
      "ન્જ": 4611,
      "ચાલક": 4612,
      "ભેદ": 4613,
      "શ્યલ": 4614,
      "ઉમેદવારો": 4615,
      "જેવો": 4616,
      "આવતો": 4617,
      "સુધીના": 4618,
      "પિંગ": 4619,
      "ભાજપે": 4620,
      "ટીમને": 4621,
      "રાજકારણ": 4622,
      "માગણી": 4623,
      "મસ": 4624,
      "સાચી": 4625,
      "સમૂ": 4626,
      "રોકવા": 4627,
      "સંસ્કૃતિ": 4628,
      "પુસ્તક": 4629,
      "કાની": 4630,
      "લ્વે": 4631,
      "ખાવો": 4632,
      "સમાપ્ત": 4633,
      "વ્યાપક": 4634,
      "દુઃખ": 4635,
      "ણની": 4636,
      "શાસન": 4637,
      "મુખ્યત્વે": 4638,
      "એન્ટ્રી": 4639,
      "રાણી": 4640,
      "કેટે": 4641,
      "યુગ": 4642,
      "મંડળ": 4643,
      "આદિવાસી": 4644,
      "અબજ": 4645,
      "ac": 4646,
      "રજિ": 4647,
      "શામેલ": 4648,
      "શ્ર્": 4649,
      "અરવિંદ": 4650,
      "રંગો": 4651,
      "વર્ષોથી": 4652,
      "દૈ": 4653,
      "કેબિ": 4654,
      "ભાગો": 4655,
      "સીધી": 4656,
      "પોલીસના": 4657,
      "લાખથી": 4658,
      "ભેટ": 4659,
      "એક્ટ": 4660,
      "ઝૂ": 4661,
      "સ્ફો": 4662,
      "કેના": 4663,
      "માન્યતા": 4664,
      "પટ": 4665,
      "મતે": 4666,
      "યં": 4667,
      "લઘુ": 4668,
      "અલબત્ત": 4669,
      "કતમાં": 4670,
      "તની": 4671,
      "થતું": 4672,
      "કાબુ": 4673,
      "સ્વપ્": 4674,
      "ફૂલ": 4675,
      "પુનઃ": 4676,
      "આવરી": 4677,
      "રાખવી": 4678,
      "બાકીના": 4679,
      "છુપા": 4680,
      "શખ્સ": 4681,
      "ST": 4682,
      "મનમાં": 4683,
      "શહી": 4684,
      "લેવી": 4685,
      "ટ્રિ": 4686,
      "શિકાર": 4687,
      "માસિક": 4688,
      "નાઈ": 4689,
      "વિત્ર": 4690,
      "મધ્યમ": 4691,
      "હેન્ડ": 4692,
      "દેશભરમાં": 4693,
      "ઉમેરો": 4694,
      "શાળામાં": 4695,
      "નાનો": 4696,
      "સ્કે": 4697,
      "લાના": 4698,
      "મેટા": 4699,
      "લોની": 4700,
      "દાદા": 4701,
      "એમની": 4702,
      "પાણીના": 4703,
      "ઓફિસર": 4704,
      "શિક્ષક": 4705,
      "છેલ્લી": 4706,
      "પ્રભુ": 4707,
      "પ્રગતિ": 4708,
      "કોઇપણ": 4709,
      "સંગ્રહ": 4710,
      "ટર્ન": 4711,
      "પર્સ": 4712,
      "જીએસટી": 4713,
      "ચુકા": 4714,
      "સીઝ": 4715,
      "સિરીઝ": 4716,
      "સમૃ": 4717,
      "થોડું": 4718,
      "સ્ટ્રેશન": 4719,
      "ઉઠ": 4720,
      "ભરૂ": 4721,
      "સ્વિ": 4722,
      "આવનાર": 4723,
      "સીમા": 4724,
      "રહ્યુ": 4725,
      "ખરીદવા": 4726,
      "બનાસકાંઠા": 4727,
      "બંધાર": 4728,
      "પગલું": 4729,
      "એક્ટિવ": 4730,
      "સોં": 4731,
      "ખોટા": 4732,
      "ભીડ": 4733,
      "શહેરની": 4734,
      "આફ્રિકા": 4735,
      "ઉડા": 4736,
      "સ્પો": 4737,
      "ટીન": 4738,
      "સંગઠન": 4739,
      "વિશિષ્ટ": 4740,
      "દાહો": 4741,
      "ચાલો": 4742,
      "ચલાવી": 4743,
      "ગૌરવ": 4744,
      "તેજસ્વી": 4745,
      "તહેવાર": 4746,
      "ઐતિહા": 4747,
      "ડતી": 4748,
      "સફર": 4749,
      "સામાં": 4750,
      "નિમિ": 4751,
      "શાહે": 4752,
      "લિમિ": 4753,
      "બ્લડ": 4754,
      "આપણને": 4755,
      "મહત્વના": 4756,
      "ગંધ": 4757,
      "તણાવ": 4758,
      "અનુકૂળ": 4759,
      "સ્ટાગ્રામ": 4760,
      "અજાણ્યા": 4761,
      "પવિત્ર": 4762,
      "મોટે": 4763,
      "સેલ્": 4764,
      "સ્માર્ટફોન": 4765,
      "બાઇક": 4766,
      "33": 4767,
      "ઈંચ": 4768,
      "કાપ": 4769,
      "લીના": 4770,
      "લેટર": 4771,
      "તોમાં": 4772,
      "સોની": 4773,
      "વર્ષનો": 4774,
      "થયાં": 4775,
      "બનેલી": 4776,
      "ફેસબુક": 4777,
      "માફ": 4778,
      "દાતા": 4779,
      "મ્પ્યુ": 4780,
      "ujar": 4781,
      "એનો": 4782,
      "લનો": 4783,
      "૯૦": 4784,
      "બાંગ્": 4785,
      "આવીને": 4786,
      "વ્યકિત": 4787,
      "ચ્છે": 4788,
      "પરિવર્તન": 4789,
      "ફાં": 4790,
      "પડ્યું": 4791,
      "સંઘર્ષ": 4792,
      "48": 4793,
      "ઉતાર": 4794,
      "ળવા": 4795,
      "પ્રસ્તા": 4796,
      "ડીના": 4797,
      "હિક": 4798,
      "ધાની": 4799,
      "પૂરો": 4800,
      "અધિકારીઓએ": 4801,
      "મુદ્દો": 4802,
      "પુરાવા": 4803,
      "ફત": 4804,
      "ફેક્ટ": 4805,
      "ગુમાવી": 4806,
      "આને": 4807,
      "પહેલેથી": 4808,
      "મગફળી": 4809,
      "૪૫": 4810,
      "વાયો": 4811,
      "ડિજિ": 4812,
      "બનેલા": 4813,
      "નેટવર્ક": 4814,
      "નીતિન": 4815,
      "એશિયા": 4816,
      "સરી": 4817,
      "વેન્ટ": 4818,
      "મ્પે": 4819,
      "પાકિસ્તાનના": 4820,
      "પત્રકાર": 4821,
      "બાંગ્લા": 4822,
      "કસર": 4823,
      "મીએ": 4824,
      "સ્ટાર્": 4825,
      "જુન": 4826,
      "ગ્રાઉન્ડ": 4827,
      "હાલતમાં": 4828,
      "અરજ": 4829,
      "જોરદાર": 4830,
      "દ્દ": 4831,
      "ઉપચાર": 4832,
      "2016": 4833,
      "ચીની": 4834,
      "શકશો": 4835,
      "નહોતો": 4836,
      "સામાન": 4837,
      "કામના": 4838,
      "૨૦૧૯": 4839,
      "હોવ": 4840,
      "રૂા": 4841,
      "હિસ્સો": 4842,
      "ત્યારથી": 4843,
      "કલાકારો": 4844,
      "and": 4845,
      "વિધાનસભાની": 4846,
      "et": 4847,
      "ડ્": 4848,
      "નવાર": 4849,
      "હરિયાણા": 4850,
      "અનિલ": 4851,
      "લીમાં": 4852,
      "રાખવાની": 4853,
      "ઉત્સાહ": 4854,
      "નવસારી": 4855,
      "ડુંગળી": 4856,
      "ગ્રાહક": 4857,
      "અત્રે": 4858,
      "મધ": 4859,
      "સપોર્ટ": 4860,
      "ગ્રીન": 4861,
      "વ્હી": 4862,
      "ir": 4863,
      "અખ": 4864,
      "ઇચ્છ": 4865,
      "જપ્ત": 4866,
      "વાણ": 4867,
      "ડિય": 4868,
      "મળેલી": 4869,
      "પૂરું": 4870,
      "હિંદુ": 4871,
      "સાની": 4872,
      "પ્રાઈ": 4873,
      "મોદીના": 4874,
      "ંદર": 4875,
      "દલી": 4876,
      "વ્યુ": 4877,
      "ન્દ્રસિંહ": 4878,
      "શક્યા": 4879,
      "કલેક્ટર": 4880,
      "આકાશ": 4881,
      "ટકી": 4882,
      "મેડી": 4883,
      "વર્ત": 4884,
      "કોરોનાનો": 4885,
      "પરિવારને": 4886,
      "સુરતના": 4887,
      "સુવિધાઓ": 4888,
      "ટ્વિટ": 4889,
      "માધ્યમથી": 4890,
      "પરંપરાગત": 4891,
      "અવાર": 4892,
      "ખુલ્લા": 4893,
      "ઘટનામાં": 4894,
      "રાણ": 4895,
      "રાજકો": 4896,
      "યુએસ": 4897,
      "૨૦૨૦": 4898,
      "પાકિસ્તાની": 4899,
      "ખર્ચે": 4900,
      "વેપારીઓ": 4901,
      "ભ્રષ્ટા": 4902,
      "ોની": 4903,
      "વ્યસ્ત": 4904,
      "મંદિરના": 4905,
      "હાઇવે": 4906,
      "ધીરે": 4907,
      "ટકાનો": 4908,
      "રાશિના": 4909,
      "લાએ": 4910,
      "પ્લો": 4911,
      "ટિલ": 4912,
      "ખેંચ": 4913,
      "ધ્યાને": 4914,
      "મમતા": 4915,
      "લમ": 4916,
      "જોડી": 4917,
      "આસપાસના": 4918,
      "બ્રેક": 4919,
      "મોકલવામાં": 4920,
      "પબ્": 4921,
      "સુધારા": 4922,
      "કીટ": 4923,
      "તુર": 4924,
      "લક્ષી": 4925,
      "પાટણ": 4926,
      "જેનું": 4927,
      "વોટ્સ": 4928,
      "ઠાકોર": 4929,
      "આંગણ": 4930,
      "વાડ": 4931,
      "શ્રીલ": 4932,
      "વાર્તા": 4933,
      "વહન": 4934,
      "કાર્યકર્તા": 4935,
      "પ્લાય": 4936,
      "મેનેજર": 4937,
      "સગી": 4938,
      "તીય": 4939,
      "ઐતિહાસિક": 4940,
      "રેલ્વે": 4941,
      "ચીનના": 4942,
      "વિરૂદ્ધ": 4943,
      "44": 4944,
      "id": 4945,
      "કથ": 4946,
      "જલ્": 4947,
      "જતો": 4948,
      "વિઝન": 4949,
      "આપઘાત": 4950,
      "પ્તા": 4951,
      "છોકરા": 4952,
      "દોરી": 4953,
      "પ્રયત્નો": 4954,
      "ક્તા": 4955,
      "વેક": 4956,
      "સેવન": 4957,
      "ક્ષક": 4958,
      "મામલત": 4959,
      "પક્ષના": 4960,
      "ડ્રગ્સ": 4961,
      "38": 4962,
      "ઈલ": 4963,
      "જીને": 4964,
      "ધોર": 4965,
      "199": 4966,
      "લાગશે": 4967,
      "બાઈક": 4968,
      "તૂટી": 4969,
      "આંગણવાડી": 4970,
      "સખત": 4971,
      "માંગો": 4972,
      "પ્રયોગ": 4973,
      "મીની": 4974,
      "મંજૂર": 4975,
      "il": 4976,
      "વાપર": 4977,
      "પામે": 4978,
      "સંતુ": 4979,
      "ચાવડા": 4980,
      "મ્મદ": 4981,
      "મહત્તમ": 4982,
      "રાતે": 4983,
      "કરાયેલા": 4984,
      "ંકાને": 4985,
      "અનુભવી": 4986,
      "પ્રારંભિક": 4987,
      "જ્યોતિ": 4988,
      "પથ્થર": 4989,
      "55": 4990,
      "ચકાસ": 4991,
      "વસૂ": 4992,
      "નીચા": 4993,
      "શ્રા": 4994,
      "ભેગા": 4995,
      "વિષે": 4996,
      "સ્ત્રીઓ": 4997,
      "મહારાષ્ટ્રમાં": 4998,
      "2014": 4999,
      "ફોર્સ": 5000,
      "જિંગ": 5001,
      "પ્ય": 5002,
      "રહો": 5003,
      "લયે": 5004,
      "ભાવો": 5005,
      "બેટ્સ": 5006,
      "રિસર્ચ": 5007,
      "લિન": 5008,
      "ભાજપની": 5009,
      "મહિનાથી": 5010,
      "સાઉથ": 5011,
      "આચાર્ય": 5012,
      "માન્ડ": 5013,
      "મેક": 5014,
      "રહેવાની": 5015,
      "થવાના": 5016,
      "સભામાં": 5017,
      "કોન્ફર": 5018,
      "નકારાત્મક": 5019,
      "પ્યુ": 5020,
      "દિલીપ": 5021,
      "પુષ્": 5022,
      "ડોના": 5023,
      "ઘટનાઓ": 5024,
      "ઊંઘ": 5025,
      "ઓર્ડર": 5026,
      "સાહિત્ય": 5027,
      "વિજેતા": 5028,
      "ઇન્ડસ્ટ્રી": 5029,
      "સાધન": 5030,
      "ન્ટે": 5031,
      "લ્લો": 5032,
      "મોડ": 5033,
      "આવનારા": 5034,
      "રહેતો": 5035,
      "વીડિયોમાં": 5036,
      "ગ્રાહકોને": 5037,
      "ાર્થના": 5038,
      "સાહેબ": 5039,
      "સીધા": 5040,
      "ન્સના": 5041,
      "પાટીદાર": 5042,
      "કૃતિક": 5043,
      "અટક": 5044,
      "થયુ": 5045,
      "માંગી": 5046,
      "તાવ": 5047,
      "પાની": 5048,
      "હાલના": 5049,
      "આરોપીઓ": 5050,
      "ર્ણ": 5051,
      "ર્ના": 5052,
      "સીબ": 5053,
      "રહેવાસી": 5054,
      "દ્રષ્ટિ": 5055,
      "હજારથી": 5056,
      "બનાવીને": 5057,
      "ઠ્ઠી": 5058,
      "તબક્કામાં": 5059,
      "વાવેતર": 5060,
      "જયે": 5061,
      "પ્શન": 5062,
      "મહિલાને": 5063,
      "સંસ્થાઓ": 5064,
      "માર્કેટમાં": 5065,
      "ગ્રહણ": 5066,
      "રજુઆત": 5067,
      "પ્રોત્સાહન": 5068,
      "લશ્": 5069,
      "શાસ્ત્ર": 5070,
      "ડોશી": 5071,
      "કારણોસર": 5072,
      "બટા": 5073,
      "વતાં": 5074,
      "રાજધાની": 5075,
      "ભૂલી": 5076,
      "પરિવારમાં": 5077,
      "કપડા": 5078,
      "કિશોર": 5079,
      "ગટ": 5080,
      "નબળા": 5081,
      "વિનં": 5082,
      "હાઈવે": 5083,
      "ખસેડવામાં": 5084,
      "ભવિષ્યમાં": 5085,
      "પ્લેટફોર્મ": 5086,
      "દળો": 5087,
      "ળાના": 5088,
      "મહાદેવ": 5089,
      "મહાનગરપાલિકા": 5090,
      "સમૂહ": 5091,
      "દયા": 5092,
      "પૌ": 5093,
      "રોહ": 5094,
      "લગાવ્યો": 5095,
      "ગ્રામજનો": 5096,
      "વાર્ટર": 5097,
      "માફી": 5098,
      "કરીશું": 5099,
      "સરહદ": 5100,
      "પ્પણી": 5101,
      "રોષ": 5102,
      "સેનાના": 5103,
      "લોકોનું": 5104,
      "ફુલ": 5105,
      "મરાન": 5106,
      "શ્યો": 5107,
      "વિચારી": 5108,
      "બાળકોના": 5109,
      "મુંબઈમાં": 5110,
      "વજ": 5111,
      "લેસ": 5112,
      "ગાવી": 5113,
      "હિલ": 5114,
      "્સમાં": 5115,
      "65": 5116,
      "આક્ર": 5117,
      "ઈરા": 5118,
      "કબ્": 5119,
      "ચેનલ": 5120,
      "હોસ્પિટલના": 5121,
      "સંવેદન": 5122,
      "ધોરણે": 5123,
      "ઉઠી": 5124,
      "પીઠ": 5125,
      "આપવી": 5126,
      "બિં": 5127,
      "યોજાશે": 5128,
      "શહેરોમાં": 5129,
      "આદિત્ય": 5130,
      "બદ્ધ": 5131,
      "ચેમ્પિ": 5132,
      "કૃપા": 5133,
      "આહાર": 5134,
      "બળો": 5135,
      "રાણા": 5136,
      "મતદારો": 5137,
      "લાઈટ": 5138,
      "શૈક્ષણિક": 5139,
      "માના": 5140,
      "કામાં": 5141,
      "વધતી": 5142,
      "જવાનું": 5143,
      "બતાવી": 5144,
      "સ્લા": 5145,
      "સંકટ": 5146,
      "ડોર": 5147,
      "અટકાય": 5148,
      "૭૫": 5149,
      "નાશ": 5150,
      "દીન": 5151,
      "શરૃ": 5152,
      "બાંધી": 5153,
      "ભૂતપૂર્વ": 5154,
      "તૈયારીઓ": 5155,
      "સંજોગોમાં": 5156,
      "પ્રશંસા": 5157,
      "રાજકોટના": 5158,
      "ભ્રષ્ટાચાર": 5159,
      "In": 5160,
      "ઢે": 5161,
      "૩૩": 5162,
      "સ્મ": 5163,
      "પાય": 5164,
      "પોઝી": 5165,
      "પોઈન્ટ": 5166,
      "પૂરતી": 5167,
      "વિશ્વના": 5168,
      "પદાર્": 5169,
      "ઠીક": 5170,
      "જાણીએ": 5171,
      "નૌ": 5172,
      "લક": 5173,
      "લગાવવામાં": 5174,
      "અપહરણ": 5175,
      "ખેલાડીઓ": 5176,
      "દુષ્કર્મ": 5177,
      "વલસાડ": 5178,
      "સજ્જ": 5179,
      "તાનો": 5180,
      "ણીય": 5181,
      "ખુલ": 5182,
      "આખો": 5183,
      "સ્યો": 5184,
      "ચીને": 5185,
      "ખુદ": 5186,
      "ઘટનાની": 5187,
      "અટકાવવા": 5188,
      "જલ્દી": 5189,
      "અનો": 5190,
      "અમિતા": 5191,
      "નોને": 5192,
      "જીભાઈ": 5193,
      "બેટિંગ": 5194,
      "શુભે": 5195,
      "અધિકારીઓને": 5196,
      "કુંડ": 5197,
      "વકીલ": 5198,
      "મેઘ": 5199,
      "ટીએમ": 5200,
      "રૂપિયાનો": 5201,
      "સંદર્ભ": 5202,
      "ation": 5203,
      "ંટા": 5204,
      "પ્રખ્યાત": 5205,
      "નિકલ": 5206,
      "પેટમાં": 5207,
      "દર્શકો": 5208,
      "જિંદગી": 5209,
      "PM": 5210,
      "આશી": 5211,
      "સ્પતિ": 5212,
      "પ્રસિદ્ધ": 5213,
      "એવામાં": 5214,
      "ફ્યુ": 5215,
      "પ્રવાહી": 5216,
      "સંરક્ષણ": 5217,
      "સીડી": 5218,
      "સ્ટ્રા": 5219,
      "પૂર્વે": 5220,
      "લંબ": 5221,
      "રાજીનામું": 5222,
      "જોગવાઈ": 5223,
      "un": 5224,
      "અમી": 5225,
      "નાંખ": 5226,
      "જણાવવામાં": 5227,
      "રૂપાણીએ": 5228,
      "સંબોધ": 5229,
      "દૈનિક": 5230,
      "ડિજિટલ": 5231,
      ".)": 5232,
      "આલ્": 5233,
      "હડતા": 5234,
      "મેયર": 5235,
      "ભાવિ": 5236,
      "વોટર": 5237,
      "દિલ્હીના": 5238,
      "અંબાણી": 5239,
      "સ્વચ્છ": 5240,
      "એપ્લિ": 5241,
      "આની": 5242,
      "બંગ": 5243,
      "મિલિયન": 5244,
      "ળાની": 5245,
      "સ્વયં": 5246,
      "મોદીની": 5247,
      ".,": 5248,
      "34": 5249,
      "ul": 5250,
      "કાઈ": 5251,
      "પ્રસાર": 5252,
      "મુક્તિ": 5253,
      "ન્દ્રા": 5254,
      "માર્ક": 5255,
      "ગ્યુ": 5256,
      "ઘઉં": 5257,
      "સાઈટ": 5258,
      "સંપર્કમાં": 5259,
      "સ્થળોએ": 5260,
      "રાઠોડ": 5261,
      "વિજ્ઞાન": 5262,
      "મેગા": 5263,
      "હેરો": 5264,
      "નિત": 5265,
      "ધરાવતી": 5266,
      "સૈન્ય": 5267,
      "બીજેપી": 5268,
      "વિનંતી": 5269,
      "મર્": 5270,
      "સસ્પે": 5271,
      "વાંકાને": 5272,
      "લાવવામાં": 5273,
      "નિપજ": 5274,
      "ડાન્સ": 5275,
      "જુનાગઢ": 5276,
      "ફિટ": 5277,
      "માણસો": 5278,
      "સહન": 5279,
      "મોહમ્મદ": 5280,
      "નિમણૂ": 5281,
      "Gujar": 5282,
      "બરે": 5283,
      "મહ": 5284,
      "વાઘે": 5285,
      "સ્કાર": 5286,
      "ખ્ત": 5287,
      "બોલાવી": 5288,
      "ભરૂચ": 5289,
      "ચિક": 5290,
      "મહી": 5291,
      "ર્વાદ": 5292,
      "બાથ": 5293,
      "બીએસ": 5294,
      "આપને": 5295,
      "જેટલું": 5296,
      "ટકો": 5297,
      "કેજરી": 5298,
      "બાબા": 5299,
      "બેસ્ટ": 5300,
      "ફરીયાદ": 5301,
      "ખાવા": 5302,
      "સરસ": 5303,
      "મિક્સ": 5304,
      "હુકમ": 5305,
      "મહિલાએ": 5306,
      "ચાલતી": 5307,
      "ઉંમ": 5308,
      "કાનૂ": 5309,
      "શિક્ષકો": 5310,
      "ગણી": 5311,
      "જહા": 5312,
      "આવેદન": 5313,
      "તેનાં": 5314,
      "ચોથા": 5315,
      "ભાગની": 5316,
      "ભાજપને": 5317,
      "રોગચા": 5318,
      "શોધવા": 5319,
      "અડધા": 5320,
      "નદીમાં": 5321,
      "ફટકારી": 5322,
      "સંદર્ભે": 5323,
      "ઈચ્છા": 5324,
      "ભારી": 5325,
      "નિદાન": 5326,
      "દીપિ": 5327,
      "આગળની": 5328,
      "ઉલ્લં": 5329,
      "ચૂકવણી": 5330,
      "હળવા": 5331,
      "હૈદરા": 5332,
      "સીસીટીવી": 5333,
      "બળાત્કાર": 5334,
      "મ્પ્યુટર": 5335,
      "મતિ": 5336,
      "જાતને": 5337,
      "પેકે": 5338,
      "વિકલ્": 5339,
      "વિભાગની": 5340,
      "ત્મા": 5341,
      "લાગ્યું": 5342,
      "હેરાન": 5343,
      "સંવેદનશીલ": 5344,
      "જણ": 5345,
      "થુ": 5346,
      "પ્રાર્થના": 5347,
      "ગ્રો": 5348,
      "છુટ": 5349,
      "ગાળો": 5350,
      "ઘટીને": 5351,
      "જૈન": 5352,
      "પ્રદાન": 5353,
      "માટેનો": 5354,
      "સિને": 5355,
      "બોટલ": 5356,
      "વૃદ્ધ": 5357,
      "અવસાન": 5358,
      "સાર્": 5359,
      "ક્વિ": 5360,
      "સંશોધ": 5361,
      "ગેંગ": 5362,
      "સ્ટોક": 5363,
      "ઊર્": 5364,
      "ચંદ": 5365,
      "સગા": 5366,
      "સન્સ": 5367,
      "ડેક્સ": 5368,
      "ઉપરથી": 5369,
      "૨૦૨૧": 5370,
      "ટ્રેડ": 5371,
      "પુરુષો": 5372,
      "ભટ્ટ": 5373,
      "વરસાદી": 5374,
      "શ્રીલંકા": 5375,
      "પદાર્થો": 5376,
      "મસ્": 5377,
      "ન્ટા": 5378,
      "જેણે": 5379,
      "બીર": 5380,
      "આઇપી": 5381,
      "જેમણે": 5382,
      "પંચાય": 5383,
      "ઇતિહાસ": 5384,
      "નારે": 5385,
      "લાત": 5386,
      "મેડલ": 5387,
      "સોફ્ટ": 5388,
      "ગયાં": 5389,
      "ચૌહાણ": 5390,
      "અગત્ય": 5391,
      "મેદાનમાં": 5392,
      "લીગ": 5393,
      "્યુલ": 5394,
      "ઝીલેન્ડ": 5395,
      "વધારાની": 5396,
      "આંદોલ": 5397,
      "અથડા": 5398,
      "''": 5399,
      "હસ્ત": 5400,
      "માંસ": 5401,
      "બાલ": 5402,
      "પુરના": 5403,
      "માંગતા": 5404,
      "શ્યામ": 5405,
      "મામલતદાર": 5406,
      "ઇસ": 5407,
      "ટિપ્પણી": 5408,
      "વડોદરામાં": 5409,
      "ia": 5410,
      "ઊંચી": 5411,
      "ચય": 5412,
      "કેને": 5413,
      "લીને": 5414,
      "પોષણ": 5415,
      "રહીને": 5416,
      "દેખાઈ": 5417,
      "મંત્રાલયે": 5418,
      "તેટ": 5419,
      "જાઓ": 5420,
      "ંગો": 5421,
      "શિપ": 5422,
      "ઉઠાવી": 5423,
      "બાતમી": 5424,
      "ઠંડા": 5425,
      "મધુ": 5426,
      "વેલા": 5427,
      "તબક્": 5428,
      "તબિ": 5429,
      "ટીકા": 5430,
      "સમારોહ": 5431,
      "બ્લોક": 5432,
      "ફરજિયાત": 5433,
      "સમુદાય": 5434,
      "પુરૂષ": 5435,
      "ti": 5436,
      "ઇએ": 5437,
      "ચમ": 5438,
      "જરુ": 5439,
      "હૉ": 5440,
      "રાગ": 5441,
      "સાડી": 5442,
      "વ્યક્તિઓ": 5443,
      "પટેલની": 5444,
      "ગર્ભા": 5445,
      "બ્રિજ": 5446,
      "એન્ટિ": 5447,
      "ટેન્": 5448,
      "સીને": 5449,
      "ત્તે": 5450,
      "સિઝ": 5451,
      "સુધીનો": 5452,
      "બંધન": 5453,
      "બિગ": 5454,
      "એમણે": 5455,
      "નાગરિકો": 5456,
      "દસ્તાવેજો": 5457,
      "અંગ્રેજી": 5458,
      "જર્મ": 5459,
      "સાડા": 5460,
      "હોટલ": 5461,
      "ધિકારી": 5462,
      "૨૦૧૮": 5463,
      "સલામતી": 5464,
      "બાજુમાં": 5465,
      "કાશ્મીરમાં": 5466,
      "કલ્પના": 5467,
      "પ્રકાશિત": 5468,
      "જસ્ટિ": 5469,
      "લડી": 5470,
      "વચ": 5471,
      "જોશી": 5472,
      "હાનિ": 5473,
      "ડિરેક્ટર": 5474,
      "સહકાર": 5475,
      "મ્પલ": 5476,
      "શંકાસ્પદ": 5477,
      "ઇરા": 5478,
      "માગે": 5479,
      "પાના": 5480,
      "જીએ": 5481,
      "રાજપૂ": 5482,
      "પરિવારની": 5483,
      "સલામત": 5484,
      "યથાવત": 5485,
      "એક્ટ્રેસ": 5486,
      "47": 5487,
      "IP": 5488,
      "નૈ": 5489,
      "ભવન": 5490,
      "ક્રૂ": 5491,
      "કુટુંબ": 5492,
      "છેલ્લાં": 5493,
      "ઇંગ્લેન્ડ": 5494,
      "દહે": 5495,
      "શની": 5496,
      "નીલ": 5497,
      "રોકી": 5498,
      "આવતું": 5499,
      "ગુપ્ત": 5500,
      "બોક્સ": 5501,
      "ટિફિ": 5502,
      "ઉગ્ર": 5503,
      "ટ્યૂ": 5504,
      "થકી": 5505,
      "યાર્": 5506,
      "વરા": 5507,
      "વવો": 5508,
      "જોયું": 5509,
      "ત્તી": 5510,
      "બોડી": 5511,
      "લાઈફ": 5512,
      "પાંદ": 5513,
      "નિધન": 5514,
      "સુચના": 5515,
      "ડાને": 5516,
      "થવાનું": 5517,
      "ફિલ્મના": 5518,
      "સંચાલન": 5519,
      "મિલકત": 5520,
      "ડોનાલ્ડ": 5521,
      "અસ્તિ": 5522,
      "કદ": 5523,
      "જરા": 5524,
      "ભૌ": 5525,
      "મૈ": 5526,
      "કાને": 5527,
      "જોયા": 5528,
      "લિટર": 5529,
      "દેશને": 5530,
      "મંદી": 5531,
      "કામકા": 5532,
      "વનસ્પતિ": 5533,
      "વિચારણા": 5534,
      "ગોંડલ": 5535,
      "em": 5536,
      "આંચ": 5537,
      "કળ": 5538,
      "રવાના": 5539,
      "સ્પોર્ટ": 5540,
      "મંત્રણ": 5541,
      "બાળકોની": 5542,
      "તંદુર": 5543,
      "CB": 5544,
      "વિસ્ફો": 5545,
      "સીલ": 5546,
      "વોટ": 5547,
      "બ્લા": 5548,
      "ભાગીદારી": 5549,
      "સવારથી": 5550,
      "આટલી": 5551,
      "વાતાવરણમાં": 5552,
      "પ્રવાસીઓ": 5553,
      "શુભેચ્છા": 5554,
      "હિતે": 5555,
      "સામેની": 5556,
      "ચોંકા": 5557,
      "શ્રમ": 5558,
      "પહેલાથી": 5559,
      "નંદન": 5560,
      "ક્રાઇમ": 5561,
      "કોર્પોરેટ": 5562,
      "પશુપાલન": 5563,
      "39": 5564,
      "ડ્સ": 5565,
      "શલ": 5566,
      "પ્રતી": 5567,
      "રહેતાં": 5568,
      "આરતી": 5569,
      "સાયકલ": 5570,
      "લાયક": 5571,
      "લક્ષ્ય": 5572,
      "રસ્તાઓ": 5573,
      "અબ્": 5574,
      "જટિલ": 5575,
      "૫૦૦": 5576,
      "છોડીને": 5577,
      "ઉપરો": 5578,
      "સ્પેશિયલ": 5579,
      "ઓવરમાં": 5580,
      "હકીકતમાં": 5581,
      "ચુંટણી": 5582,
      "અરે": 5583,
      "લેબ": 5584,
      "દાંત": 5585,
      "સમાધાન": 5586,
      "નોંધણી": 5587,
      "ફિલ્મોમાં": 5588,
      "જાગૃતિ": 5589,
      "ગજ": 5590,
      "મજ": 5591,
      "પ્રાચીન": 5592,
      "ચકચાર": 5593,
      "અદાલ": 5594,
      "અમિતાભ": 5595,
      "ખડ": 5596,
      "તસ્": 5597,
      "નય": 5598,
      "નેગે": 5599,
      "તોફા": 5600,
      "દેશે": 5601,
      "ખેત": 5602,
      "કંટ્રોલ": 5603,
      "આરટી": 5604,
      "ફેરફારો": 5605,
      "ર્નામેન્ટ": 5606,
      "ew": 5607,
      "ડવાની": 5608,
      "હસ્તે": 5609,
      "દર્શક": 5610,
      "અંગત": 5611,
      "વાંચવા": 5612,
      "સવાલો": 5613,
      "લિમિટેડ": 5614,
      "અટકાયત": 5615,
      "આદર્શ": 5616,
      "ઉછા": 5617,
      "ગડ": 5618,
      "ઠંડ": 5619,
      "૩૬": 5620,
      "વિક્રમ": 5621,
      "નિવાસ": 5622,
      "તોના": 5623,
      "ટીમાં": 5624,
      "દરખા": 5625,
      "નિર્ભર": 5626,
      "ઘટનાસ્થળે": 5627,
      "લાઇફ": 5628,
      "આકર્ષક": 5629,
      "પંથકમાં": 5630,
      "ખર્ચા": 5631,
      "ગંગા": 5632,
      "કાળી": 5633,
      "ગ્નિ": 5634,
      "સંકળાયેલા": 5635,
      "વિકલ્પો": 5636,
      "એક્ટર": 5637,
      "કાબૂ": 5638,
      "વરસાદના": 5639,
      "એજન્ટ": 5640,
      "અસ્તિત્વ": 5641,
      "av": 5642,
      "નસ": 5643,
      "હોદ્": 5644,
      "બાબુ": 5645,
      "ટીમમાં": 5646,
      "ડિઝ": 5647,
      "ખેડા": 5648,
      "ગોળ": 5649,
      "બિમારી": 5650,
      "પાણીનો": 5651,
      "મહિલાઓને": 5652,
      "હાંસલ": 5653,
      "300": 5654,
      "અભાવ": 5655,
      "લીંબુ": 5656,
      "લખે": 5657,
      "દિષ્ટ": 5658,
      "સિદ્ધિ": 5659,
      "પાર્ટન": 5660,
      "પકડા": 5661,
      "યાદવ": 5662,
      "85": 5663,
      "લડાઈ": 5664,
      "કરતું": 5665,
      "રીની": 5666,
      "ટ્રલ": 5667,
      "પ્રાંત": 5668,
      "માર્યો": 5669,
      "મનોજ": 5670,
      "ટક્કર": 5671,
      "ફેડ": 5672,
      "ત્રિવે": 5673,
      "બચત": 5674,
      "ચાંદી": 5675,
      "ખતરના": 5676,
      "ક્વાર્ટર": 5677,
      "ભાઈએ": 5678,
      "ખતરનાક": 5679,
      "ઊંડા": 5680,
      "તદ્": 5681,
      "મજૂ": 5682,
      "આપતાં": 5683,
      "ખ્યાલ": 5684,
      "શન્સ": 5685,
      "શેખ": 5686,
      "લ્ક": 5687,
      "બેદર": 5688,
      "કિરણ": 5689,
      "ચીનની": 5690,
      "ભૂકં": 5691,
      "કંપનીની": 5692,
      "નિર્ણયો": 5693,
      "વિકસા": 5694,
      "આવતીકાલે": 5695,
      "અહી": 5696,
      "ડિસ્ટ": 5697,
      "થવાનો": 5698,
      "તળાવ": 5699,
      "કપિ": 5700,
      "નાત": 5701,
      "કાપડ": 5702,
      "પ્રહાર": 5703,
      "મેળવો": 5704,
      "ઝેરી": 5705,
      "મૂળભૂત": 5706,
      "શિવસેના": 5707,
      "ચુકવણી": 5708,
      "ઊર્જા": 5709,
      "ઉતરી": 5710,
      "એપાર્ટમેન્ટ": 5711,
      "તફા": 5712,
      "શના": 5713,
      "તાકાત": 5714,
      "નિકાસ": 5715,
      "કીંગ": 5716,
      "સોશ્યલ": 5717,
      "વવાના": 5718,
      "માર્ગો": 5719,
      "એલર્ટ": 5720,
      "ઘટાડવા": 5721,
      "રિઝર્વ": 5722,
      "મહોત્સવ": 5723,
      "તલા": 5724,
      "કર્સ": 5725,
      "કાંડ": 5726,
      "કરીના": 5727,
      "લેવાનું": 5728,
      "શાળાના": 5729,
      "ખેડૂતોના": 5730,
      "ખેડૂતોની": 5731,
      "ઘોષ": 5732,
      "ક્યાંક": 5733,
      "રાજીના": 5734,
      "મ્યુનિસિ": 5735,
      "સ્નાન": 5736,
      "આદમી": 5737,
      "શસ્ત્ર": 5738,
      "હકારાત્મક": 5739,
      "છેલ્લે": 5740,
      "નિકાલ": 5741,
      "સીમાં": 5742,
      "સમાર": 5743,
      "વ્યક્તિની": 5744,
      "નકલી": 5745,
      "ya": 5746,
      "કશન": 5747,
      "યસ": 5748,
      "માછી": 5749,
      "ક્લો": 5750,
      "એકમાત્ર": 5751,
      "સુત્રો": 5752,
      "ચેતી": 5753,
      "કાયમી": 5754,
      "વાઇરસ": 5755,
      "બોલિવૂડ": 5756,
      "કંગના": 5757,
      "ચરણ": 5758,
      "૩૭": 5759,
      "૪૮": 5760,
      "નોટો": 5761,
      "હાડ": 5762,
      "2015": 5763,
      "ધરતી": 5764,
      "ટ્રાન્સફર": 5765,
      "ફલો": 5766,
      "બળી": 5767,
      "વાગે": 5768,
      "પાળ": 5769,
      "દેવું": 5770,
      "પિક": 5771,
      "જણાવાયું": 5772,
      "ખેંચી": 5773,
      "સમયસર": 5774,
      "માર્યા": 5775,
      "કાઉન્સિ": 5776,
      "સ્વપ્ન": 5777,
      "અયો": 5778,
      "આજુ": 5779,
      "શમાં": 5780,
      "હાથે": 5781,
      "પ્લોટ": 5782,
      "દાહોદ": 5783,
      "કમી": 5784,
      "જ્યુ": 5785,
      "વનારા": 5786,
      "વલ્લી": 5787,
      "કેદ": 5788,
      "ટેલી": 5789,
      "ડીઓ": 5790,
      "કિડની": 5791,
      "ખોળ": 5792,
      "ર્સને": 5793,
      "ભર્યા": 5794,
      "ઘટનાને": 5795,
      "ભારતીયો": 5796,
      "પિતાએ": 5797,
      "ઉદ્યો": 5798,
      "નહોતું": 5799,
      "\",": 5800,
      "ઘ્": 5801,
      "સ્ને": 5802,
      "મીણ": 5803,
      "ખાં": 5804,
      "પૂજન": 5805,
      "જણાય": 5806,
      "ગેરકાયદેસર": 5807,
      "ભરો": 5808,
      "જેમને": 5809,
      "ક્ષ્": 5810,
      "મનોરંજન": 5811,
      "હિન્દી": 5812,
      "શહીદ": 5813,
      "આશીર્વાદ": 5814,
      "કશું": 5815,
      "શનો": 5816,
      "શોમાં": 5817,
      "ભરના": 5818,
      "જાહેરમાં": 5819,
      "ગેરકાયદે": 5820,
      "મોડેલ": 5821,
      "પંડ્યા": 5822,
      "49": 5823,
      "ઈને": 5824,
      "સિલિ": 5825,
      "દુખાવો": 5826,
      "તુલના": 5827,
      "ત્રાસ": 5828,
      "ઇન્ડિયન": 5829,
      "ચરબી": 5830,
      "સચિન": 5831,
      "કચ્છમાં": 5832,
      "ડાયાબિ": 5833,
      "બગી": 5834,
      "મહુ": 5835,
      "૩૮": 5836,
      "વાણા": 5837,
      "હિટ": 5838,
      "ખોર": 5839,
      "બાળકના": 5840,
      "જિયો": 5841,
      "નોંધાઈ": 5842,
      "સ્વાદિષ્ટ": 5843,
      "ગ્ને": 5844,
      "ચ્યુઅલ": 5845,
      "ચકાસણી": 5846,
      "અસ": 5847,
      "યાની": 5848,
      "લેષ": 5849,
      "આપવું": 5850,
      "જણાવેલ": 5851,
      "બિર": 5852,
      "વ્યાપી": 5853,
      "અમેરિકી": 5854,
      "દૂધની": 5855,
      "ચેમ્પિયન": 5856,
      "જર્": 5857,
      "મોડા": 5858,
      "દિપ": 5859,
      "પેમેન્ટ": 5860,
      "પિંડી": 5861,
      "કંટા": 5862,
      "ઠાકરે": 5863,
      "સાંજ": 5864,
      "ટ્ટા": 5865,
      "અરવલ્લી": 5866,
      "આપેલ": 5867,
      "શરીરના": 5868,
      "રિપોર્ટમાં": 5869,
      "ઉર્જા": 5870,
      "સૂત્રોના": 5871,
      "બિલ્ડિંગ": 5872,
      "ક્રાઈમ": 5873,
      "દળ": 5874,
      "વેલી": 5875,
      "ખામી": 5876,
      "ખાદ્ય": 5877,
      "શોભ": 5878,
      "શરીરને": 5879,
      "ઝેશન": 5880,
      "ગઇકાલે": 5881,
      "સેન્ટ્રલ": 5882,
      "ડીઝલ": 5883,
      "દ્યોગ": 5884,
      "રશી": 5885,
      "મેદાન": 5886,
      "વેરિ": 5887,
      "મોડલ": 5888,
      "ટીની": 5889,
      "ગ્રં": 5890,
      "દ્રો": 5891,
      "રુપિયા": 5892,
      "પ્રાપ્તિ": 5893,
      "શુદ્ધ": 5894,
      "બનીને": 5895,
      "વૃક્ષો": 5896,
      "ra": 5897,
      "શાસ": 5898,
      "ઉપવાસ": 5899,
      "ફાઉ": 5900,
      "પટેલના": 5901,
      "મહિનાની": 5902,
      "આરોપીને": 5903,
      "અર્પણ": 5904,
      "મહારાષ્ટ્રના": 5905,
      "ગૃહમંત્રી": 5906,
      "સ્ક્રીન": 5907,
      "ઉલ્લંઘન": 5908,
      "તબિયત": 5909,
      "ઓર": 5910,
      "ભંડો": 5911,
      "મચ્છ": 5912,
      "વદ": 5913,
      "લેશ્વર": 5914,
      "સંદેશ": 5915,
      "પ્પા": 5916,
      "કુમારે": 5917,
      "પહેલો": 5918,
      "હોવાને": 5919,
      "મથકે": 5920,
      "શકીએ": 5921,
      "કડ": 5922,
      "ગંદ": 5923,
      "મફત": 5924,
      "કર્યાં": 5925,
      "ન્ડિંગ": 5926,
      "પાવ": 5927,
      "વેગ": 5928,
      "સર્જરી": 5929,
      "ફ્લે": 5930,
      "નીકળે": 5931,
      "અર્થતંત્ર": 5932,
      "તબીબો": 5933,
      "દૃષ્ટિ": 5934,
      "શપથ": 5935,
      "માણી": 5936,
      "કેલી": 5937,
      "સોનું": 5938,
      "પુછ": 5939,
      "ભાજપમાં": 5940,
      "મળેલ": 5941,
      "અંતમાં": 5942,
      "રમતા": 5943,
      "પબ્લિક": 5944,
      "કનો": 5945,
      "મલા": 5946,
      "વાલે": 5947,
      "ત્તમ": 5948,
      "રાજનીતિ": 5949,
      "ચીજ": 5950,
      "બનાવ્યો": 5951,
      "ફ્રન્ટ": 5952,
      "નહોતા": 5953,
      "ફોટોગ્રા": 5954,
      "સોસાયટીમાં": 5955,
      "એપ્લિકેશન": 5956,
      "નીપજ": 5957,
      "હોટેલ": 5958,
      "માનવું": 5959,
      "ખેલ": 5960,
      "શકય": 5961,
      "વ્યક્તિએ": 5962,
      "ઝાલા": 5963,
      "મોદીને": 5964,
      "બેઠે": 5965,
      "દારૂની": 5966,
      "લોકસભાની": 5967,
      "અયોધ્યા": 5968,
      "ણના": 5969,
      "ભવ": 5970,
      "રક": 5971,
      "રશિયન": 5972,
      "સપ્લાય": 5973,
      "જેક્શન": 5974,
      "રેસ્ટોર": 5975,
      "ખાના": 5976,
      "કામદારો": 5977,
      "અકસ્માતમાં": 5978,
      "ડ્રેસ": 5979,
      "ec": 5980,
      "ઈંગ્લેન્ડ": 5981,
      "ઉભો": 5982,
      "કળા": 5983,
      "ધના": 5984,
      "યાના": 5985,
      "પાછી": 5986,
      "ચેન": 5987,
      "અનુમાન": 5988,
      "ર્સની": 5989,
      "આઈએ": 5990,
      "ટ્રાયલ": 5991,
      "ફૂલો": 5992,
      "પદાર્થ": 5993,
      "મુશ્કેલીઓ": 5994,
      "સંભળા": 5995,
      "ઈતિહા": 5996,
      "કહેર": 5997,
      "મેટ્રો": 5998,
      "ઉત્પન્ન": 5999,
      "કિસ્સાઓમાં": 6000,
      "જાગૃત": 6001,
      "ગ્લોબલ": 6002,
      "ઓપન": 6003,
      "ટં": 6004,
      "પૉ": 6005,
      "પદે": 6006,
      "ચ્ચાર": 6007,
      "યોગદાન": 6008,
      "ભાગરૂપે": 6009,
      "જિલ્લાની": 6010,
      "ખુલ્લી": 6011,
      "રૂપિયાના": 6012,
      "પાછલા": 6013,
      "ક્રીમ": 6014,
      "મુદ્દામાલ": 6015,
      "ભક્તો": 6016,
      "દરે": 6017,
      "ભાવી": 6018,
      "નિરી": 6019,
      "મિર": 6020,
      "લિશ": 6021,
      "કારણકે": 6022,
      "શોધખોળ": 6023,
      "મોરબીના": 6024,
      "મ્યુનિસિપલ": 6025,
      "ન્ટી": 6026,
      "જેમા": 6027,
      "વૈજ્ઞાનિક": 6028,
      "46": 6029,
      "ઉતારી": 6030,
      "ઓપ": 6031,
      "ચર્": 6032,
      "મિલના": 6033,
      "ન્ટ્સ": 6034,
      "ચાલતા": 6035,
      "વિભાગમાં": 6036,
      "અર્જુન": 6037,
      "સમાજમાં": 6038,
      "તદ્દન": 6039,
      "આચર": 6040,
      "આયાત": 6041,
      "બજારો": 6042,
      "ળિયા": 6043,
      "શેરી": 6044,
      "ડોકટ": 6045,
      "સ્થિતી": 6046,
      "જરૂરિયા": 6047,
      "ચુસ્ત": 6048,
      "વાઈરસ": 6049,
      "છૂટા": 6050,
      "અનાજ": 6051,
      "અપડે": 6052,
      "ગભરા": 6053,
      "બરો": 6054,
      "ભક્તિ": 6055,
      "મતો": 6056,
      "૩૪": 6057,
      "વાળો": 6058,
      "રહસ્ય": 6059,
      "ષ્ઠા": 6060,
      "મહેન્દ્ર": 6061,
      "જીવનસાથી": 6062,
      "શાળાઓ": 6063,
      "મોંઘ": 6064,
      "વેબસાઇટ": 6065,
      "એસિડ": 6066,
      "પાયે": 6067,
      "સંચા": 6068,
      "બેટરી": 6069,
      "ડેવલ": 6070,
      "બંધા": 6071,
      "કલાકાર": 6072,
      "ઝોનમાં": 6073,
      "ટુકડા": 6074,
      "બચાવી": 6075,
      "હંમેશાં": 6076,
      "કૉંગ્રે": 6077,
      "ધંધો": 6078,
      "સેકન્ડ": 6079,
      "to": 6080,
      "ઈસ": 6081,
      "ઊંચ": 6082,
      "ઝાર": 6083,
      "ટેકો": 6084,
      "બાહ": 6085,
      "ફાઇલ": 6086,
      "ટ્રેક": 6087,
      "ઘેરા": 6088,
      "બોલિવૂ": 6089,
      "કોશિશ": 6090,
      "ઔષ": 6091,
      "તિઓ": 6092,
      "પરિણી": 6093,
      "ફિલ્મનું": 6094,
      "લૉક": 6095,
      "ઇન્સ": 6096,
      "કતો": 6097,
      "તાપી": 6098,
      "ન્સે": 6099,
      "નિફ્ટી": 6100,
      "મોલ": 6101,
      "હાની": 6102,
      "ગાઈડ": 6103,
      "કામમાં": 6104,
      "આમંત્રણ": 6105,
      "સગ": 6106,
      "ટેજ": 6107,
      "પાછો": 6108,
      "લેણ": 6109,
      "બેઝ": 6110,
      "ફરવા": 6111,
      "ગ્રેડ": 6112,
      "ર્મો": 6113,
      "શ્મા": 6114,
      "ગતું": 6115,
      "સર્જાયો": 6116,
      "હાજરીમાં": 6117,
      "સાવધા": 6118,
      "રોય": 6119,
      "સંયો": 6120,
      "શિક": 6121,
      "કેટલાય": 6122,
      "યોજનાઓ": 6123,
      "પ્રીમિ": 6124,
      "કેબિનેટ": 6125,
      "રખા": 6126,
      "્રી": 6127,
      "રાકેશ": 6128,
      "પ્રકૃતિ": 6129,
      "રિક્ષા": 6130,
      "સ્થાયી": 6131,
      "ન્સની": 6132,
      "સ્ટેન્ડ": 6133,
      "લેખિત": 6134,
      "આશંકા": 6135,
      "ઇન્ટરનેટ": 6136,
      "માઇક્રો": 6137,
      "ખતરો": 6138,
      "વિટામિન": 6139,
      "આઝાદી": 6140,
      "pp": 6141,
      "લસણ": 6142,
      "સવલ": 6143,
      "ર્ત": 6144,
      "વિચિત્ર": 6145,
      "ટેમ્": 6146,
      "મૂડી": 6147,
      "જીવનની": 6148,
      "જવાબમાં": 6149,
      "ફાયરિંગ": 6150,
      "બેદરકારી": 6151,
      "પમેન્ટ": 6152,
      "વયે": 6153,
      "લીડ": 6154,
      "એકલા": 6155,
      "મિલી": 6156,
      "કરોડથી": 6157,
      "કરોડનું": 6158,
      "ગર્ભાવ": 6159,
      "સ્પષ્ટતા": 6160,
      "સંસ્કાર": 6161,
      "દીપિકા": 6162,
      "હૈદરાબાદ": 6163,
      "દરખાસ્ત": 6164,
      "ag": 6165,
      "ઋતુ": 6166,
      "ચહેરો": 6167,
      "વસુ": 6168,
      "નિર્માતા": 6169,
      "કોંગ્રેસની": 6170,
      "પ્રસ્તાવ": 6171,
      "કટોક": 6172,
      "શણ": 6173,
      "લોગ": 6174,
      "સિદ્ધા": 6175,
      "સરકારમાં": 6176,
      "ખોટું": 6177,
      "પાસપોર્ટ": 6178,
      "કેન્દ્રિત": 6179,
      "મામલામાં": 6180,
      "ગ્લાસ": 6181,
      "ઘેર": 6182,
      "રેમ": 6183,
      "ટીને": 6184,
      "ગુન્": 6185,
      "સ્ટેબલ": 6186,
      "ess": 6187,
      "ંપતી": 6188,
      "સંતાન": 6189,
      "આયુર્વે": 6190,
      "કેટેગરી": 6191,
      "કવર": 6192,
      "બચી": 6193,
      "મમ્": 6194,
      "વાયેલા": 6195,
      "કાંત": 6196,
      "બેરી": 6197,
      "સિનિયર": 6198,
      "સહકારી": 6199,
      "બચવા": 6200,
      "સ્નાયુ": 6201,
      "400": 6202,
      "IC": 6203,
      "અદ": 6204,
      "લાદ": 6205,
      "ખાતર": 6206,
      "આપતી": 6207,
      "ફાસ્ટ": 6208,
      "અમલી": 6209,
      "કલર": 6210,
      "સૂત્ર": 6211,
      "આર્ય": 6212,
      "ચુક્યા": 6213,
      "અગ્નિ": 6214,
      "ઇઝ": 6215,
      "ગળા": 6216,
      "જજ": 6217,
      "કેપ": 6218,
      "વીસ": 6219,
      "માટેનું": 6220,
      "મોને": 6221,
      "કરાવવામાં": 6222,
      "વ્યક્તિના": 6223,
      "અભિષે": 6224,
      "150": 6225,
      "બંગાળ": 6226,
      "વયના": 6227,
      "બેસીને": 6228,
      "અછત": 6229,
      "….": 6230,
      "કાચ": 6231,
      "લેવલ": 6232,
      "બાલા": 6233,
      "દાવા": 6234,
      "ઉત્ત": 6235,
      "ભુત": 6236,
      "સાંભળી": 6237,
      "ંધ": 6238,
      "૬૫": 6239,
      "લીંગ": 6240,
      "લીટર": 6241,
      "રેન": 6242,
      "યોજવામાં": 6243,
      "સીસ": 6244,
      "વર્તી": 6245,
      "લિમ્પિ": 6246,
      "શનલ": 6247,
      "દિવ્યા": 6248,
      "સંગઠનો": 6249,
      "ઇન્ટરનેશનલ": 6250,
      "અન્": 6251,
      "અસરો": 6252,
      "ગટર": 6253,
      "યક": 6254,
      "વેચી": 6255,
      "લોને": 6256,
      "લોકોનાં": 6257,
      "કિમી": 6258,
      "કિસ્સો": 6259,
      "કિનારે": 6260,
      "ટોળા": 6261,
      "નામનો": 6262,
      "વિશ્વની": 6263,
      "લંબાઈ": 6264,
      "નિષ્ણાતો": 6265,
      "માત્રામાં": 6266,
      "64": 6267,
      "બૅ": 6268,
      "વલ્": 6269,
      "સાધારણ": 6270,
      "પ્રવા": 6271,
      "દેવે": 6272,
      "શિલ્": 6273,
      "બોય": 6274,
      "પડયો": 6275,
      "પ્રેશર": 6276,
      "પતિએ": 6277,
      "દર્દીને": 6278,
      "ભાગ્યે": 6279,
      "પોઝીટીવ": 6280,
      "આર્ટ": 6281,
      "કણ": 6282,
      "ખતમ": 6283,
      "જયાં": 6284,
      "નમૂ": 6285,
      "પ્રસ્તુ": 6286,
      "ડીપી": 6287,
      "દુશ્": 6288,
      "વિરોધમાં": 6289,
      "ઓફિસમાં": 6290,
      "ગણાય": 6291,
      "વર્ષોમાં": 6292,
      "ઉમેદવારી": 6293,
      "છેતરપિંડી": 6294,
      "નૂ": 6295,
      "યુનિય": 6296,
      "બ્લે": 6297,
      "રૂપમાં": 6298,
      "નિયંત્ર": 6299,
      "ખેડૂતોએ": 6300,
      "કહીને": 6301,
      "કાગળ": 6302,
      "સ્મૃ": 6303,
      "બોલમાં": 6304,
      "કરાય": 6305,
      "સમયની": 6306,
      "સર્વો": 6307,
      "ઉત્સવ": 6308,
      "કંપનીમાં": 6309,
      "પાર્ટીમાં": 6310,
      "ખાતામાં": 6311,
      "સપના": 6312,
      "માયા": 6313,
      "લાક્ષણિક": 6314,
      "સેક્રે": 6315,
      "હીરો": 6316,
      "ખેતમ": 6317,
      "ઝાડ": 6318,
      "૨૦૧૭": 6319,
      "જાણીતી": 6320,
      "આકર્ષણ": 6321,
      "સહીત": 6322,
      "તફાવત": 6323,
      "ફાઉન્ડે": 6324,
      "નફો": 6325,
      "યજ્ઞ": 6326,
      "બેક્": 6327,
      "સ્ટુ": 6328,
      "બરફ": 6329,
      "જવાના": 6330,
      "મકવાણા": 6331,
      "આનાથી": 6332,
      "દરોડા": 6333,
      "સગીરા": 6334,
      "ગર્ભાવસ્થા": 6335,
      "ગયેલ": 6336,
      "ઝના": 6337,
      "સદો": 6338,
      "ક્ચર": 6339,
      "યાત્રી": 6340,
      "બાની": 6341,
      "મૂકે": 6342,
      "મદદરૂપ": 6343,
      "જોડાયેલી": 6344,
      "આટલા": 6345,
      "હથિયાર": 6346,
      "95": 6347,
      "આવાસ": 6348,
      "વિજ": 6349,
      "એકતા": 6350,
      "હીરા": 6351,
      "સમર્": 6352,
      "કિસાન": 6353,
      "સર્કલ": 6354,
      "સૂચિ": 6355,
      "પર્વ": 6356,
      "પિતાને": 6357,
      "હાર્ટ": 6358,
      "ગાળામાં": 6359,
      "કસરત": 6360,
      "થનાર": 6361,
      "૫૫": 6362,
      "સ્ક્રિ": 6363,
      "લાને": 6364,
      "વિજ્ઞા": 6365,
      "એકસાથે": 6366,
      "સોનિયા": 6367,
      "ચિકિ": 6368,
      "ટકાથી": 6369,
      "મંત્રીએ": 6370,
      "મહત્વનો": 6371,
      "જગ્યાઓ": 6372,
      "પાકિસ્તાનની": 6373,
      "શરતો": 6374,
      "પાછળથી": 6375,
      "અપાઈ": 6376,
      "બ્રિગે": 6377,
      "ચાહકો": 6378,
      "66": 6379,
      "ઉલ": 6380,
      "ડબ્": 6381,
      "રત્": 6382,
      "સ્કોર": 6383,
      "પ્રકરણ": 6384,
      "સીઆર": 6385,
      "પ્લ": 6386,
      "પ્ટર": 6387,
      "પોલીસમાં": 6388,
      "અભિનંદન": 6389,
      "સ્ટાઇ": 6390,
      "નીચેના": 6391,
      "કેસોમાં": 6392,
      "ષ્ણુ": 6393,
      "ફાયદાકારક": 6394,
      "માલિકી": 6395,
      "એલા": 6396,
      "સપ": 6397,
      "જોવામાં": 6398,
      "મિની": 6399,
      "પાંડે": 6400,
      "મર્યાદિત": 6401,
      "રેસ્ટોરન્ટ": 6402,
      "77": 6403,
      "ઝું": 6404,
      "પોલ": 6405,
      "સીંગ": 6406,
      "ગુમ": 6407,
      "ડિયમ": 6408,
      "ઈન્ડિયન": 6409,
      "કાર્યાલય": 6410,
      "વોટ્સએપ": 6411,
      "જસ્ટિસ": 6412,
      "એકે": 6413,
      "મંત": 6414,
      "કોડ": 6415,
      "સાચું": 6416,
      "દુકા": 6417,
      "જયંતિ": 6418,
      "પ્રોફે": 6419,
      "ઘાટન": 6420,
      "કોલેજો": 6421,
      "કાશ્મીરના": 6422,
      "ઉદ્યોગો": 6423,
      "ist": 6424,
      "એમ્બ": 6425,
      "લંડ": 6426,
      "શૌ": 6427,
      "સ્કિ": 6428,
      "નિવાર": 6429,
      "સંવાદ": 6430,
      "ટાટા": 6431,
      "લગ્નની": 6432,
      "બનાવની": 6433,
      "ફુટ": 6434,
      "પરિસ્થિતિમાં": 6435,
      "તસ્વીર": 6436,
      "ખની": 6437,
      "દવે": 6438,
      "તેજી": 6439,
      "નોન": 6440,
      "વિનો": 6441,
      "વિલંબ": 6442,
      "ણામાં": 6443,
      "ગાડ": 6444,
      "જુના": 6445,
      "અમલમાં": 6446,
      "બોર્ડર": 6447,
      "અઠવાડિયામાં": 6448,
      "વાંકાનેર": 6449,
      "નેગેટિવ": 6450,
      "દંપતી": 6451,
      "માસ્ટર": 6452,
      "લાભો": 6453,
      "પ્રદૂ": 6454,
      "જેત": 6455,
      "ભાષણ": 6456,
      "િયાના": 6457,
      "મહાત્મા": 6458,
      "પ્રકારનું": 6459,
      "ક્ષેત્રો": 6460,
      "અભિનય": 6461,
      "બધાને": 6462,
      "પત્રકારો": 6463,
      "બળતરા": 6464,
      "પહોંચાડી": 6465,
      "પુરવઠા": 6466,
      "ક્લે": 6467,
      "દેતા": 6468,
      "સીટો": 6469,
      "વર્ષા": 6470,
      "બ્રી": 6471,
      "પતિને": 6472,
      "પટેલને": 6473,
      "મુસાફરો": 6474,
      "આય": 6475,
      "ઇંડા": 6476,
      "એણે": 6477,
      "કમ્": 6478,
      "જશો": 6479,
      "નસીબ": 6480,
      "પત્રો": 6481,
      "સાચ": 6482,
      "પ્રકારે": 6483,
      "મોતને": 6484,
      "આપેલા": 6485,
      "ધ્ધા": 6486,
      "માર્કેટિંગ": 6487,
      "ડાયરેક્ટર": 6488,
      "તજ": 6489,
      "જોષી": 6490,
      "ગીતો": 6491,
      "પરિવહન": 6492,
      "વિસ્તૃત": 6493,
      "નવીન": 6494,
      "ઉમેર્યું": 6495,
      "સ્વચ્છતા": 6496,
      "ખંભા": 6497,
      "સેક્રેટરી": 6498,
      "આનો": 6499,
      "ડ્યુ": 6500,
      "વીએ": 6501,
      "જોતાં": 6502,
      "વર્ડ": 6503,
      "ટિકલ": 6504,
      "દુબ": 6505,
      "સિંઘ": 6506,
      "જોઇને": 6507,
      "દુનિયાના": 6508,
      "સાવચેતી": 6509,
      "શાકભાજીના": 6510,
      "થું": 6511,
      "વારથી": 6512,
      "વચ્ચેના": 6513,
      "ગર્લ": 6514,
      "એકાદ": 6515,
      "મિલનાડુ": 6516,
      "1000": 6517,
      "નર્": 6518,
      "૩૯": 6519,
      "પરની": 6520,
      "િયાએ": 6521,
      "આપના": 6522,
      "રાખ્યું": 6523,
      "ગાંઠ": 6524,
      "મહેમાનો": 6525,
      "લંબા": 6526,
      "વાસ્તવમાં": 6527,
      "અલ્પેશ": 6528,
      "કર્ણાટ": 6529,
      "સંચાલિત": 6530,
      "72": 6531,
      "રચ": 6532,
      "વાશે": 6533,
      "કેરી": 6534,
      "કોફી": 6535,
      "દિલ્હીની": 6536,
      "પત્રમાં": 6537,
      "પહેલીવાર": 6538,
      "સંદર્ભમાં": 6539,
      "ak": 6540,
      "આગ્રહ": 6541,
      "ક્યા": 6542,
      "કબૂ": 6543,
      "પદ્": 6544,
      "પાકની": 6545,
      "પોર્": 6546,
      "મુલ": 6547,
      "ડિયે": 6548,
      "ફોનમાં": 6549,
      "એટલો": 6550,
      "કોંગ્રેસને": 6551,
      "પૈકીના": 6552,
      "ધર્મે": 6553,
      "રાત્રીના": 6554,
      "તંદુરસ્ત": 6555,
      "ઓડિ": 6556,
      "કઇ": 6557,
      "પચા": 6558,
      "શર્ટ": 6559,
      "સાક્ષી": 6560,
      "યાએ": 6561,
      "કારની": 6562,
      "શનના": 6563,
      "ાર્ક": 6564,
      "ફેંકી": 6565,
      "બદલાઈ": 6566,
      "આત્મા": 6567,
      "ચોકડી": 6568,
      "બાહ્ય": 6569,
      "સ્મૃતિ": 6570,
      "42": 6571,
      "કૅ": 6572,
      "ફટા": 6573,
      "મુદ": 6574,
      "પુર્ણ": 6575,
      "પેડ": 6576,
      "જુલાઇ": 6577,
      "કહેતા": 6578,
      "રાંધ": 6579,
      "ત્રિવેદી": 6580,
      "/-": 6581,
      "56": 6582,
      "અવર": 6583,
      "જક": 6584,
      "પતા": 6585,
      "૪૪": 6586,
      "લેવાનો": 6587,
      "રાખ્યો": 6588,
      "પ્રેક્": 6589,
      "વરસાદને": 6590,
      "મુકવામાં": 6591,
      "ક્રિકેટર": 6592,
      "આજુબાજુ": 6593,
      "ઑફ": 6594,
      "ખ્ય": 6595,
      "રેક્ટ": 6596,
      "િયામાં": 6597,
      "વધવા": 6598,
      "ગુણો": 6599,
      "ગ્રહો": 6600,
      "ડેન્ટ": 6601,
      "પેરા": 6602,
      "198": 6603,
      "દર્દીઓના": 6604,
      "ફટકાર": 6605,
      "સવલતો": 6606,
      "બ્યૂ": 6607,
      "વેકેશન": 6608,
      "લિંક": 6609,
      "ટિશ": 6610,
      "ગોર": 6611,
      "ગોલ": 6612,
      "અમૃત": 6613,
      "સાંસ્": 6614,
      "પત્નીને": 6615,
      "ers": 6616,
      "મૂક્યો": 6617,
      "કુંભ": 6618,
      "મથક": 6619,
      "ગુરૂવારે": 6620,
      "નિમિત્તે": 6621,
      "58": 6622,
      "ભયા": 6623,
      "સ્ત્રા": 6624,
      "કેમિ": 6625,
      "નોમાં": 6626,
      "રીક્ષા": 6627,
      "બેટ": 6628,
      "પ્રાપ્ય": 6629,
      "અબ્દુ": 6630,
      "બેક્ટે": 6631,
      "અત્યા": 6632,
      "ફ્યૂ": 6633,
      "વાવ": 6634,
      "સાના": 6635,
      "વીય": 6636,
      "ભાગોમાં": 6637,
      "ડીની": 6638,
      "બીમાર": 6639,
      "રહયા": 6640,
      "ગીતા": 6641,
      "ચિહ્": 6642,
      "નિર્ધાર": 6643,
      "વેબસાઈટ": 6644,
      "જમીનમાં": 6645,
      "ફાર્મ": 6646,
      "નિયંત્રિત": 6647,
      "એનું": 6648,
      "ચડા": 6649,
      "કોમ્": 6650,
      "હોળી": 6651,
      "પેસ્ટ": 6652,
      "મંદ": 6653,
      "ધોધ": 6654,
      "શીટ": 6655,
      "નગરના": 6656,
      "લાખનો": 6657,
      "હાઈકોર્ટે": 6658,
      "વધારાના": 6659,
      "સ્પીડ": 6660,
      "મુકાબ": 6661,
      "ધ્રુ": 6662,
      "સસ્પેન્ડ": 6663,
      "ay": 6664,
      "જબર": 6665,
      "સાસ": 6666,
      "નોની": 6667,
      "સીઝન": 6668,
      "લિયો": 6669,
      "બોટા": 6670,
      "2000": 6671,
      "રાખવો": 6672,
      "સ્થિતિને": 6673,
      "ફિલ્મની": 6674,
      "રંગી": 6675,
      "વાયરસની": 6676,
      "ભુજ": 6677,
      "આંગળી": 6678,
      "નાગરિકોને": 6679,
      "ઓક": 6680,
      "ખાનની": 6681,
      "યુઝર્સ": 6682,
      "બોલર": 6683,
      "વાયર": 6684,
      "શકું": 6685,
      "વતન": 6686,
      "સ્કૂલમાં": 6687,
      "પુસ્તકો": 6688,
      "તાકી": 6689,
      "કોઈએ": 6690,
      "પહેરે": 6691,
      "થવાથી": 6692,
      "ગ્ગા": 6693,
      "કારોબારી": 6694,
      "ફરિયાદો": 6695,
      "પામ્યા": 6696,
      "મકાનમાં": 6697,
      "ચારેય": 6698,
      "ot": 6699,
      "અઢી": 6700,
      "વરે": 6701,
      "હસ": 6702,
      "જીભાઇ": 6703,
      "સેલિ": 6704,
      "ગામડા": 6705,
      "આજકાલ": 6706,
      "વપરાય": 6707,
      "ટેક્નોલોજી": 6708,
      "દિનેશ": 6709,
      "ID": 6710,
      "ણુ": 6711,
      "વિઝા": 6712,
      "સુશોભ": 6713,
      "આપવાના": 6714,
      "કંપનીઓને": 6715,
      "ભરપૂર": 6716,
      "વપરાશકર્તા": 6717,
      "ઇવેન્ટ": 6718,
      "દં": 6719,
      "નનું": 6720,
      "લબ": 6721,
      "તેમા": 6722,
      "લોખંડ": 6723,
      "સોનાની": 6724,
      "આપનાર": 6725,
      "ડિલિવ": 6726,
      "પુષ્ટિ": 6727,
      "શિકા": 6728,
      "કુર": 6729,
      "ભાઈને": 6730,
      "હાલની": 6731,
      "લેખક": 6732,
      "કલાકની": 6733,
      "મૂલ્યાં": 6734,
      "બ્રહ્મ": 6735,
      "આક્રમક": 6736,
      "for": 6737,
      "ઋષિ": 6738,
      "સનો": 6739,
      "નામો": 6740,
      "કેદી": 6741,
      "બંદો": 6742,
      "કેટલું": 6743,
      "પડતો": 6744,
      "ર્સના": 6745,
      "રમતો": 6746,
      "ચોક્કસપણે": 6747,
      "સમિતિના": 6748,
      "બ્લાસ્ટ": 6749,
      "કપિલ": 6750,
      "43": 6751,
      "ab": 6752,
      "અરુ": 6753,
      "ઉઘ": 6754,
      "વખાણ": 6755,
      "વાલા": 6756,
      "સાંક": 6757,
      "કરવામા": 6758,
      "લિપ": 6759,
      "ચોર": 6760,
      "અમદાવાદઃ": 6761,
      "દર્દીના": 6762,
      "યોજાઈ": 6763,
      "ખુબજ": 6764,
      "બેટ્સમેન": 6765,
      "od": 6766,
      "અસામાન્ય": 6767,
      "લડવા": 6768,
      "માસમાં": 6769,
      "નાનક": 6770,
      "છેડા": 6771,
      "શેટ્ટી": 6772,
      "સરહ": 6773,
      "એમએસ": 6774,
      "ews": 6775,
      "ખેતમજૂરી": 6776,
      "એમ્બ્યુલ": 6777,
      "નબળી": 6778,
      "પનો": 6779,
      "યશ": 6780,
      "૩૨": 6781,
      "કરના": 6782,
      "રામાં": 6783,
      "સાધુ": 6784,
      "દાગી": 6785,
      "લિય": 6786,
      "પુખ્ત": 6787,
      "્સની": 6788,
      "મનસુખ": 6789,
      "મહેશ": 6790,
      "ઇન્સ્ટાગ્રામ": 6791,
      "લાભાર્થી": 6792,
      "ટાઇમ": 6793,
      "સંકલ્પ": 6794,
      "સપ્તાહમાં": 6795,
      "સોંપવામાં": 6796,
      "59": 6797,
      "આજનો": 6798,
      "કય": 6799,
      "પટ્ટી": 6800,
      "હિમા": 6801,
      "પૂરે": 6802,
      "ચીનમાં": 6803,
      "અંડર": 6804,
      "રાજ્યસભા": 6805,
      "પાર્કિંગ": 6806,
      "કોંગ્રેસમાં": 6807,
      "જથ્થા": 6808,
      "આરામદાયક": 6809,
      "બગીચા": 6810,
      "ઈશ્વર": 6811,
      "એસી": 6812,
      "સેમ્પલ": 6813,
      "પીએફ": 6814,
      "ઉપપ્રમુખ": 6815,
      "નાંખી": 6816,
      "વાતને": 6817,
      "ટીમની": 6818,
      "એક્શન": 6819,
      "બ્રિટ": 6820,
      "સમાજની": 6821,
      "સેન્સેક્સ": 6822,
      "જંગલ": 6823,
      "આટલું": 6824,
      "સાબરકાંઠા": 6825,
      "ઇનિંગ": 6826,
      "ગયુ": 6827,
      "બલી": 6828,
      "વંત": 6829,
      "સકારાત્મક": 6830,
      "માઉ": 6831,
      "કેદાર": 6832,
      "પાથ": 6833,
      "રેસ": 6834,
      "સંડો": 6835,
      "રૂપા": 6836,
      "ફેંક": 6837,
      "અમદાવાદની": 6838,
      "ફળો": 6839,
      "સ્વામિ": 6840,
      "કમિશ્": 6841,
      "મહારાજ": 6842,
      "અડધી": 6843,
      "કોલકા": 6844,
      "કબજો": 6845,
      "દિગ્ગજ": 6846,
      "me": 6847,
      "ઉશ્કે": 6848,
      "કઠો": 6849,
      "ગમત": 6850,
      "ટાર્": 6851,
      "દઇએ": 6852,
      "બસ્ત": 6853,
      "બધુ": 6854,
      "વસવા": 6855,
      "રાજીવ": 6856,
      "વિપરી": 6857,
      "રિયર": 6858,
      "ખોલી": 6859,
      "માર્ગે": 6860,
      "મહામંત્રી": 6861,
      "કરોડનો": 6862,
      "સાયન્સ": 6863,
      "પારિ": 6864,
      "દાયી": 6865,
      "વાતચીતમાં": 6866,
      "કબજે": 6867,
      "કથિત": 6868,
      "અભિષેક": 6869,
      "તકો": 6870,
      "ળિ": 6871,
      "લાંચ": 6872,
      "ભાડે": 6873,
      "ચેન્ન": 6874,
      "ભર્યું": 6875,
      "લાંબો": 6876,
      "ભેળ": 6877,
      "પ્રધાને": 6878,
      "વિપરીત": 6879,
      "):": 6880,
      "ઉમર": 6881,
      "કલો": 6882,
      "ટલે": 6883,
      "રથ": 6884,
      "વચન": 6885,
      "’,": 6886,
      "્રિ": 6887,
      "છેવ": 6888,
      "રાખંડ": 6889,
      "રાજ્યપાલ": 6890,
      "આઈટી": 6891,
      "યુનિટ": 6892,
      "ભાષામાં": 6893,
      "બજાવતા": 6894,
      "મકાનો": 6895,
      "૯૯": 6896,
      "કરૂ": 6897,
      "સાસુ": 6898,
      "પર્ય": 6899,
      "સુભા": 6900,
      "ક્ષત્ર": 6901,
      "બોર્": 6902,
      "બોલે": 6903,
      "પાણીથી": 6904,
      "ભરૃ": 6905,
      "વિદ્યાર્થીઓએ": 6906,
      "જોડાયેલ": 6907,
      "નિવેદનમાં": 6908,
      "ઉંમરે": 6909,
      "કાનૂની": 6910,
      "ઈન્ડસ્ટ્રી": 6911,
      "૪૭": 6912,
      "માળા": 6913,
      "ન્ટેડ": 6914,
      "મેર": 6915,
      "જાં": 6916,
      "શોર્ટ": 6917,
      "2013": 6918,
      "બાળો": 6919,
      "શક્યો": 6920,
      "પ્રતિમા": 6921,
      "યુવકે": 6922,
      "દુર્ઘટના": 6923,
      "એસોસિએશન": 6924,
      "દલીલ": 6925,
      "દ્યોગિક": 6926,
      "વસંત": 6927,
      "સ્વર": 6928,
      "વિપુલ": 6929,
      "ભાવિક": 6930,
      "સેમ": 6931,
      "બંન્ને": 6932,
      "ચુકી": 6933,
      "આરોપીઓને": 6934,
      "ઉંમરના": 6935,
      "સરખામણીમાં": 6936,
      "ટંકારા": 6937,
      "ગરા": 6938,
      "છિ": 6939,
      "પને": 6940,
      "મકી": 6941,
      "સાચા": 6942,
      "ગરબા": 6943,
      "શોષણ": 6944,
      "ગોપાલ": 6945,
      "ફોડ": 6946,
      "સિંહો": 6947,
      "પ્રકારનો": 6948,
      "સિક્યો": 6949,
      "સૈનિકો": 6950,
      "ન્યૂઝીલેન્ડ": 6951,
      "થિયે": 6952,
      "કચરો": 6953,
      "ંજલિ": 6954,
      "મસ્જિ": 6955,
      "મજબુ": 6956,
      "41": 6957,
      "અસં": 6958,
      "એન્ટર": 6959,
      "ઓફી": 6960,
      "દલિત": 6961,
      "લખા": 6962,
      "સાથો": 6963,
      "જાપા": 6964,
      "કરીશ": 6965,
      "ગ્રૂ": 6966,
      "કોઈની": 6967,
      "ફાળો": 6968,
      "વાતની": 6969,
      "જયંતી": 6970,
      "પ્રોસે": 6971,
      "જાણીને": 6972,
      "છોકરીઓ": 6973,
      "પ્રવૃત્તિઓ": 6974,
      "ગામોમાં": 6975,
      "સાંસ્કૃતિક": 6976,
      "um": 6977,
      "એડિ": 6978,
      "વામા": 6979,
      "વિન્": 6980,
      "રીક": 6981,
      "યુઝ": 6982,
      "પેન્શન": 6983,
      "શિયમ": 6984,
      "બોલિ": 6985,
      "ચોકી": 6986,
      "મૂકો": 6987,
      "ભેર": 6988,
      "પડેલા": 6989,
      "મુખ્યમંત્રીએ": 6990,
      "મંડળી": 6991,
      "રેન્જ": 6992,
      "બંદોબસ્ત": 6993,
      "51": 6994,
      "ઓલિમ્પિ": 6995,
      "ચણા": 6996,
      "મકર": 6997,
      "ુક": 6998,
      "કોન્સ": 6999,
      "પોષ": 7000,
      "બેંગ": 7001,
      "મળતાં": 7002,
      "ટોચના": 7003,
      "બાળકની": 7004,
      "લગ્નના": 7005,
      "સ્વરૂપમાં": 7006,
      "78": 7007,
      "મંગા": 7008,
      "ટ્રમ્પે": 7009,
      "ભૂખ": 7010,
      "લગ્નમાં": 7011,
      "ઓળખવામાં": 7012,
      "ઈમાં": 7013,
      "રનની": 7014,
      "હોસ્પી": 7015,
      "નિવાસી": 7016,
      "ખાવાથી": 7017,
      "ડેટ": 7018,
      "કેટલો": 7019,
      "પ્રતિકારક": 7020,
      "સ્વરૂપે": 7021,
      "જન્મદિવસ": 7022,
      "યુવતીએ": 7023,
      "જામનગરમાં": 7024,
      "હુમલામાં": 7025,
      "કચ્છના": 7026,
      "જલદી": 7027,
      "પ્રત્યેક": 7028,
      "અપડેટ": 7029,
      "છેવટે": 7030,
      "BI": 7031,
      "ધમા": 7032,
      "લતા": 7033,
      "રાતો": 7034,
      "મળા": 7035,
      "પેઇન્ટ": 7036,
      "બોમ્બ": 7037,
      "સ્થાપ": 7038,
      "હજારની": 7039,
      "આર્મી": 7040,
      "રાખેલ": 7041,
      "ઊભો": 7042,
      "થવી": 7043,
      "રચા": 7044,
      "હોવો": 7045,
      "સીધો": 7046,
      "થયાત્રા": 7047,
      "ઝડપે": 7048,
      "બધાં": 7049,
      "પંચાયતના": 7050,
      "પંચાયતઘર": 7051,
      "સૂત્રોએ": 7052,
      "બચ્ચન": 7053,
      "વેક્સીન": 7054,
      "ભંડોળ": 7055,
      "ચઢા": 7056,
      "ઝમાં": 7057,
      "પક્ષે": 7058,
      "બસો": 7059,
      "લાજ": 7060,
      "પ્ટ": 7061,
      "ારામ": 7062,
      "અમેરિકાની": 7063,
      "શરત": 7064,
      "ઓળખાય": 7065,
      "વાંચી": 7066,
      "પાઠવી": 7067,
      "ઉપરોક્ત": 7068,
      "મોંઘવારી": 7069,
      "કમર": 7070,
      "ન્ગ": 7071,
      "પરમ": 7072,
      "લેવું": 7073,
      "એકઠા": 7074,
      "શનની": 7075,
      "માતાપિતા": 7076,
      "ખરેખ": 7077,
      "વાળું": 7078,
      "શૂટ": 7079,
      "આગેવાની": 7080,
      "શર્માએ": 7081,
      "રાજસ્થાનના": 7082,
      "બિંદુ": 7083,
      "તબક્કે": 7084,
      "પ્રોફેસર": 7085,
      "ઉત": 7086,
      "જવર": 7087,
      "વરેજ": 7088,
      "લોકાર્": 7089,
      "િયાં": 7090,
      "ચેન્જ": 7091,
      "પરિવારો": 7092,
      "રૂપિયાનું": 7093,
      "શાળાઓમાં": 7094,
      "CA": 7095,
      "આડ": 7096,
      "કડો": 7097,
      "હવામાં": 7098,
      "ર્સે": 7099,
      "કાઓ": 7100,
      "પરો": 7101,
      "ધીમી": 7102,
      "પરિબળો": 7103,
      "મરજન્સી": 7104,
      "વિજયભાઈ": 7105,
      "સૈનિ": 7106,
      "દર્શાવી": 7107,
      "સેનાએ": 7108,
      "મંત્રાલયના": 7109,
      "નારાજગી": 7110,
      "ચુકાદો": 7111,
      "સમૃદ્ધ": 7112,
      "Gujarati": 7113,
      "પાવડર": 7114,
      "વિનોદ": 7115,
      "68": 7116,
      "એમે": 7117,
      "પઠા": 7118,
      "બપોર": 7119,
      "૬૬": 7120,
      "મેળા": 7121,
      "દેસાઈ": 7122,
      "ક્રુ": 7123,
      "પેટે": 7124,
      "બોલિંગ": 7125,
      "વ્યાવ": 7126,
      "દરેકને": 7127,
      "પ્રિન્ટ": 7128,
      "બ્રિટિશ": 7129,
      "મુલાકાતે": 7130,
      "ચળ": 7131,
      "પલા": 7132,
      "સસ્તા": 7133,
      "કેપિ": 7134,
      "મેના": 7135,
      "ત્તિ": 7136,
      "લગતી": 7137,
      "રાખતા": 7138,
      "ભારતનો": 7139,
      "અધિક": 7140,
      "પ્રોગ્રામ": 7141,
      "મહિલાના": 7142,
      "ઘરેથી": 7143,
      "સ્વીકારી": 7144,
      "કાઢવામાં": 7145,
      "ગાયક": 7146,
      "લાગતું": 7147,
      "વિદાય": 7148,
      "પ્રવિ": 7149,
      "હોબાળો": 7150,
      "બાજી": 7151,
      "દેપુર": 7152,
      "પેજ": 7153,
      "પહેલ": 7154,
      "્સના": 7155,
      "અનુષ્": 7156,
      "પરેશ": 7157,
      "બોર્ડની": 7158,
      "est": 7159,
      "ફ્લોર": 7160,
      "હડ": 7161,
      "૯૮": 7162,
      "માગી": 7163,
      "લેવો": 7164,
      "પોઝ": 7165,
      "સંપા": 7166,
      "સુરેશ": 7167,
      "જવાન": 7168,
      "સર્વિ": 7169,
      "નામથી": 7170,
      "વ્યાપાર": 7171,
      "હાર્દિ": 7172,
      "સવારના": 7173,
      "યુનિવર્સિટીના": 7174,
      "ક્લબ": 7175,
      "લોકાર્પણ": 7176,
      "રથયાત્રા": 7177,
      "રાદ": 7178,
      "વિષ્ણુ": 7179,
      "પ્રસ": 7180,
      "તેમનાં": 7181,
      "સિક્": 7182,
      "રિમાન્ડ": 7183,
      "છાપ": 7184,
      "તંત્રને": 7185,
      "બનાવવાનો": 7186,
      "યોજાયો": 7187,
      "સાઇડ": 7188,
      "શાહરૂ": 7189,
      "અહેવાલો": 7190,
      "વૃત્ત": 7191,
      "અટકી": 7192,
      "આક્ષેપો": 7193,
      "57": 7194,
      "ઇંગ": 7195,
      "જું": 7196,
      "૨ા": 7197,
      "વાપરી": 7198,
      "તેવામાં": 7199,
      "કેક": 7200,
      "સેન": 7201,
      "દેદારો": 7202,
      "બીચ": 7203,
      "ડિઓ": 7204,
      "દ્રશ્ય": 7205,
      "ફેલ": 7206,
      "પરિવા": 7207,
      "ધારણા": 7208,
      "બનતા": 7209,
      "ગણાવી": 7210,
      "મંજુરી": 7211,
      "હથિયારો": 7212,
      "કોન્ફરન્સ": 7213,
      "અથડામણ": 7214,
      "પ્રસ્તુત": 7215,
      "આડે": 7216,
      "તત્વ": 7217,
      "વટા": 7218,
      "સફાઇ": 7219,
      "કોરિયા": 7220,
      "કાલા": 7221,
      "કારને": 7222,
      "નિલ": 7223,
      "જોડ": 7224,
      "આવવાની": 7225,
      "શ્રમિ": 7226,
      "પડતાં": 7227,
      "મણિ": 7228,
      "લાગતા": 7229,
      "તકની": 7230,
      "એનએસ": 7231,
      "નેટવર્": 7232,
      "આજની": 7233,
      "કોમર્સ": 7234,
      "ગર્ભવતી": 7235,
      "પીડિત": 7236,
      "67": 7237,
      "આખું": 7238,
      "ચમક": 7239,
      "છરી": 7240,
      "ણ્ય": 7241,
      "યંત્ર": 7242,
      "વિઝ": 7243,
      "વારની": 7244,
      "બોન્ડ": 7245,
      "પોલીસકર્મી": 7246,
      "છાતી": 7247,
      "આરોપો": 7248,
      "કેન્દ્રમાં": 7249,
      "અભિગમ": 7250,
      "ડવાનું": 7251,
      "આરોપીની": 7252,
      "દૃશ્ય": 7253,
      "ઇલેક્ટ્રો": 7254,
      "ચિકન": 7255,
      "NA": 7256,
      "જસદ": 7257,
      "બપો": 7258,
      "સ્માર": 7259,
      "લેષણ": 7260,
      "ડાટ": 7261,
      "ચૂંટા": 7262,
      "શીપ": 7263,
      "પુરસ્કાર": 7264,
      "પાકિસ્તાનમાં": 7265,
      "કાઉન્ટર": 7266,
      "કોન્સ્ટેબલ": 7267,
      "ભરાઈ": 7268,
      "ગાંધીનગરમાં": 7269,
      "મુદ્દાઓ": 7270,
      "કાયદેસરની": 7271,
      "આઈપીએલ": 7272,
      "મચાવી": 7273,
      "વસવાટ": 7274,
      "આરા": 7275,
      "હની": 7276,
      "મોર્ટ": 7277,
      "વર્તુ": 7278,
      "સોનાના": 7279,
      "આપવો": 7280,
      "ફોલો": 7281,
      "કરાતા": 7282,
      "કરાયેલી": 7283,
      "પ્રાય": 7284,
      "જિન": 7285,
      "જન્મે": 7286,
      "જ્ઞાતિ": 7287,
      "અગાઉના": 7288,
      "અર્ધ": 7289,
      "કોલેજમાં": 7290,
      "જોખમી": 7291,
      "વાગ્યાથી": 7292,
      "કબ્જે": 7293,
      "વાઘેલા": 7294,
      "ગંદકી": 7295,
      "મમ્મી": 7296,
      "ઉત્તરાખંડ": 7297,
      "મૂલ્યાંકન": 7298,
      "ઈચ્છ": 7299,
      "બારો": 7300,
      "નાસી": 7301,
      "ારૂ": 7302,
      "પાલી": 7303,
      "જાતીય": 7304,
      "ક્ષર": 7305,
      "બેસે": 7306,
      "મળવાની": 7307,
      "તરફે": 7308,
      "ખેતરમાં": 7309,
      "સ્તાન": 7310,
      "બુલ": 7311,
      "બુદ્ધિ": 7312,
      "રણવીર": 7313,
      "તૈનાત": 7314,
      "એલર્જી": 7315,
      "પંચમહા": 7316,
      "પહોંચાડ": 7317,
      "જીલ્લામાં": 7318,
      "ફર્નિ": 7319,
      "વસાવા": 7320,
      "પાંદડા": 7321,
      "પ્રદૂષણ": 7322,
      "વ્યાવસાય": 7323,
      "ષભ": 7324,
      "કરિય": 7325,
      "તિયા": 7326,
      "વનડે": 7327,
      "રૂપિયામાં": 7328,
      "આયોજિત": 7329,
      "વતની": 7330,
      "મધ્યપ્રદેશ": 7331,
      "સ્પેસ": 7332,
      "ઘોડા": 7333,
      "સંભાળી": 7334,
      "બજેટમાં": 7335,
      "વાંધો": 7336,
      "રાજેશ": 7337,
      "પામ્યો": 7338,
      "અંકલેશ્વર": 7339,
      "સિનેમા": 7340,
      "અન્ન": 7341,
      "ઔદ્યોગિક": 7342,
      "કાળો": 7343,
      "વેલ્": 7344,
      "જીતુ": 7345,
      "ચેમ્બર": 7346,
      "ફેલાઈ": 7347,
      "વાદળી": 7348,
      "ચિંગ": 7349,
      "સ્વભાવ": 7350,
      "વિસ્તારની": 7351,
      "ફરિયાદી": 7352,
      "શરદ": 7353,
      "બ્રાહ્": 7354,
      "મંદિરની": 7355,
      "નદીના": 7356,
      "પીએસઆઇ": 7357,
      "નોટબંધી": 7358,
      "ડ્રાઈવર": 7359,
      "અવારનવાર": 7360,
      "જં": 7361,
      "ઝની": 7362,
      "દહીં": 7363,
      "શાર": 7364,
      "મેચો": 7365,
      "કારે": 7366,
      "લેતી": 7367,
      "લ્વર": 7368,
      "સોનુ": 7369,
      "ટ્રસ્ટી": 7370,
      "ટિક્સ": 7371,
      "નિર્દોષ": 7372,
      "વ્યાખ્યા": 7373,
      "ચૂંટણીના": 7374,
      "આજરોજ": 7375,
      "ગૌતમ": 7376,
      "એક્સપ્રેસ": 7377,
      "વોર્ડમાં": 7378,
      "વેક્સિનેશન": 7379,
      "વર્ણન": 7380,
      "જર્મની": 7381,
      "ટાર્ગેટ": 7382,
      "આશિ": 7383,
      "ગવર્": 7384,
      "ઘડ": 7385,
      "વિતા": 7386,
      "ંગે": 7387,
      "બાજરી": 7388,
      "ગોવિંદ": 7389,
      "રાખવાનો": 7390,
      "તુર્": 7391,
      "ફ્લ્": 7392,
      "ચાલકો": 7393,
      "લેવાશે": 7394,
      "લેવાયો": 7395,
      "બનાવશે": 7396,
      "સ્ટોલ": 7397,
      "પ્રક્રિયામાં": 7398,
      "પાલનપુર": 7399,
      "કાઢવા": 7400,
      "સૌરાષ્ટ્રમાં": 7401,
      "ઘટકો": 7402,
      "આતંકવાદ": 7403,
      "માધ્યમિક": 7404,
      "ઓર્ગે": 7405,
      "પાર્ટનર": 7406,
      "ડિલિવરી": 7407,
      "એડવા": 7408,
      "ઓમ": 7409,
      "ઝરી": 7410,
      "નાટ": 7411,
      "વિસર્જન": 7412,
      "પાઉ": 7413,
      "વેન્ટિ": 7414,
      "હોતી": 7415,
      "થેરા": 7416,
      "ત્તર": 7417,
      "સિઝન": 7418,
      "વધ્યો": 7419,
      "મતલબ": 7420,
      "ખુરશી": 7421,
      "ચૂક્યો": 7422,
      "2008": 7423,
      "કોર્પોરેટર": 7424,
      "કેસોની": 7425,
      "હળવદ": 7426,
      "સર્જાઈ": 7427,
      "52": 7428,
      "62": 7429,
      "ંકર": 7430,
      "યોગે": 7431,
      "હાથી": 7432,
      "શ્વે": 7433,
      "બોલ્ડ": 7434,
      "ચોરસ": 7435,
      "તંત્રની": 7436,
      "જીવલેણ": 7437,
      "યોજાયેલી": 7438,
      "અદાણી": 7439,
      "ફાઇનલમાં": 7440,
      "98": 7441,
      "ડ્યૂ": 7442,
      "બહુમ": 7443,
      "હ્યુ": 7444,
      "નાન્સ": 7445,
      "કોઠ": 7446,
      "સેમિ": 7447,
      "ચાંદ": 7448,
      "પેન્દ્ર": 7449,
      "તેઓની": 7450,
      "પડયા": 7451,
      "પ્રતિભા": 7452,
      "૨૦૧૬": 7453,
      "દેખાશે": 7454,
      "ટેસ્ટમાં": 7455,
      "વડોદરાના": 7456,
      "સ્પર્શ": 7457,
      "ઠ્ઠા": 7458,
      "વેરાવળ": 7459,
      "કક્ષાએ": 7460,
      "ભરૃચ": 7461,
      "ઉછે": 7462,
      "એસ્ટેટ": 7463,
      "પંક": 7464,
      "મૅ": 7465,
      "તાજા": 7466,
      "કાટ": 7467,
      "હેલિ": 7468,
      "મીર": 7469,
      "સોને": 7470,
      "2012": 7471,
      "આરએસ": 7472,
      "ચુડા": 7473,
      "ગરીબો": 7474,
      "અડધો": 7475,
      "પ્રાણીઓ": 7476,
      "ભજવી": 7477,
      "આશ્રમ": 7478,
      "મસાલા": 7479,
      "ઈશ": 7480,
      "જંતુ": 7481,
      "ભડ": 7482,
      "હક": 7483,
      "નીંગ": 7484,
      "તેટલી": 7485,
      "વિડિયો": 7486,
      "ખાત": 7487,
      "ખાડા": 7488,
      "ઘાસ": 7489,
      "બંનેએ": 7490,
      "સ્ટોરી": 7491,
      "સંસ્થાના": 7492,
      "સીબીઆઈ": 7493,
      "રૃપિયા": 7494,
      "મંજુર": 7495,
      "અવા": 7496,
      "નહિં": 7497,
      "પછા": 7498,
      "ભરીને": 7499,
      "ેશ": 7500,
      "કાએ": 7501,
      "દ્રારા": 7502,
      "મહિનાના": 7503,
      "પ્રોટીન": 7504,
      "સંગત": 7505,
      "આંધ્ર": 7506,
      "પાકિસ્તાને": 7507,
      "માર્ગદર્": 7508,
      "અપાશે": 7509,
      "નિયમોનું": 7510,
      "સૌરાષ્ટ્રના": 7511,
      "વેચવા": 7512,
      "સૂચવે": 7513,
      "હટાવી": 7514,
      "મનુષ્ય": 7515,
      "અશક્ય": 7516,
      "ગળે": 7517,
      "છં": 7518,
      "વસ્ત્રો": 7519,
      "જોબ": 7520,
      "જીતે": 7521,
      "ગાઇડ": 7522,
      "બોર": 7523,
      "ટિન": 7524,
      "વચ્ચેની": 7525,
      "આઇટી": 7526,
      "વિકસિત": 7527,
      "ટેસ્ટિંગ": 7528,
      "કપમાં": 7529,
      "અર્થવ્યવસ્થા": 7530,
      "વિધાનસભામાં": 7531,
      "શિલ્પા": 7532,
      "અહ": 7533,
      "એટીએમ": 7534,
      "જળા": 7535,
      "પરાજય": 7536,
      "કામે": 7537,
      "યોજી": 7538,
      "બીના": 7539,
      "છોટાઉ": 7540,
      "ભૂષણ": 7541,
      "મંદિરે": 7542,
      "સ્ટેશનના": 7543,
      "પરિષદ": 7544,
      "પ્રમોશન": 7545,
      "રજિસ્ટ્રેશન": 7546,
      "કામકાજ": 7547,
      "પ્રતીક": 7548,
      "os": 7549,
      "અખિ": 7550,
      "એન્ટ": 7551,
      "ટનો": 7552,
      "૧પ": 7553,
      "રેતી": 7554,
      "હાલા": 7555,
      "સરમાં": 7556,
      "ખેર": 7557,
      "શકતી": 7558,
      "જાણતા": 7559,
      "ભરવામાં": 7560,
      "સ્ટોપ": 7561,
      "માળખા": 7562,
      "ફાળવણી": 7563,
      "સ્વતંત્રતા": 7564,
      "પદા": 7565,
      "વળા": 7566,
      "૪૬": 7567,
      "નાક": 7568,
      "એકમો": 7569,
      "ટીપી": 7570,
      "બીસી": 7571,
      "ડેપ્યુ": 7572,
      "ચોખ્": 7573,
      "મોટાભાગની": 7574,
      "કેન્દ્રો": 7575,
      "લગાવવા": 7576,
      "એન્જિન": 7577,
      "ટાઉન": 7578,
      "લશ્કરી": 7579,
      "શણગાર": 7580,
      "કમિશ્નર": 7581,
      "ખભા": 7582,
      "હોર્મો": 7583,
      "લેન્સ": 7584,
      "લ્ટી": 7585,
      "દિવાલ": 7586,
      "વોલ": 7587,
      "ઉપરના": 7588,
      "મહિલાની": 7589,
      "સાંસદો": 7590,
      "ખીલ": 7591,
      "ઉમેરી": 7592,
      "મનીષ": 7593,
      "શક્તિશાળી": 7594,
      "વહીવટ": 7595,
      "કક્ષાના": 7596,
      "the": 7597,
      "સેવક": 7598,
      "હમણાં": 7599,
      "કોન્ટ્રાક્ટ": 7600,
      "સિક્યોરિટી": 7601,
      "પ્રવિણ": 7602,
      "ક્ય": 7603,
      "ચર્સ": 7604,
      "સગઢ": 7605,
      "૩૦૦": 7606,
      "માએ": 7607,
      "પ્રગટ": 7608,
      "સેમી": 7609,
      "સુનિશ્ચિત": 7610,
      "સીમ": 7611,
      "ચેન્ના": 7612,
      "વ્યકત": 7613,
      "પહેરી": 7614,
      "શકતો": 7615,
      "ડાઉનલોડ": 7616,
      "કૌશલ": 7617,
      "સંબોધન": 7618,
      "કેજરીવાલ": 7619,
      "II": 7620,
      "TV": 7621,
      "ઇમાર": 7622,
      "નરમ": 7623,
      "ફગાવી": 7624,
      "માનિત": 7625,
      "પ્રણા": 7626,
      "મળતો": 7627,
      "રિટર્ન": 7628,
      "દરમાં": 7629,
      "પ્રતિષ્ઠા": 7630,
      "મેળવ્યો": 7631,
      "જીવંત": 7632,
      "શરીરની": 7633,
      "અભ્યાસમાં": 7634,
      "જાતકો": 7635,
      "ઉમટી": 7636,
      "મેડીકલ": 7637,
      ":-": 7638,
      "MC": 7639,
      "ઇમરાન": 7640,
      "ઉદ્ધ": 7641,
      "ફૉ": 7642,
      "કોપ્ટર": 7643,
      "વિદેશમાં": 7644,
      "પાઉન્ડ": 7645,
      "પેશા": 7646,
      "ફરતા": 7647,
      "સૂચિત": 7648,
      "આઈડી": 7649,
      "પૂછ્યું": 7650,
      "ઇન્ટરવ્યૂ": 7651,
      "વધારીને": 7652,
      "વિરૂધ્ધ": 7653,
      "સહેજ": 7654,
      "સિઝનમાં": 7655,
      "કયારે": 7656,
      "ફર્નિચર": 7657,
      "આલિયા": 7658,
      "ગરો": 7659,
      "ગયેલી": 7660,
      "બડ": 7661,
      "વનારી": 7662,
      "શકિત": 7663,
      "૪૨": 7664,
      "માથું": 7665,
      "યાન": 7666,
      "ત્રિક": 7667,
      "શાસિત": 7668,
      "બીસીસી": 7669,
      "ક્રમમાં": 7670,
      "વોર": 7671,
      "બોગ": 7672,
      "ગેમ": 7673,
      "પરિવારે": 7674,
      "પરિચિત": 7675,
      "ગોધરા": 7676,
      "લાલચ": 7677,
      "ક્યાંય": 7678,
      "અફવા": 7679,
      "અટકાવી": 7680,
      "શરુઆત": 7681,
      "ev": 7682,
      "ઇમે": 7683,
      "બનના": 7684,
      "સતી": 7685,
      "નીઝ": 7686,
      "કોર્સ": 7687,
      "વિરામ": 7688,
      "પ્રચ": 7689,
      "ન્સિંગ": 7690,
      "મેઘા": 7691,
      "દેવાની": 7692,
      "થાક": 7693,
      "ડિત": 7694,
      "પેસેન્": 7695,
      "ગોહિલ": 7696,
      "કરાવ્યું": 7697,
      "ભારતનું": 7698,
      "ઝાં": 7699,
      "ઇન્ડેક્સ": 7700,
      "સ્ટાઇલ": 7701,
      "કાંઈ": 7702,
      "શિયાળામાં": 7703,
      "યુવાનોને": 7704,
      "ઉનાળામાં": 7705,
      "બદલાવ": 7706,
      "તસ્કરો": 7707,
      "79": 7708,
      "આદર": 7709,
      "ઇશ": 7710,
      "ધવ": 7711,
      "લીની": 7712,
      "જાવ": 7713,
      "ણાંક": 7714,
      "પીવાના": 7715,
      "મિલિ": 7716,
      "રાજસિંહ": 7717,
      "ડેડ": 7718,
      "જુએ": 7719,
      "જિલ્લાઓમાં": 7720,
      "લોકશાહી": 7721,
      "રાજકોટઃ": 7722,
      "કલાકો": 7723,
      "બારડો": 7724,
      "જાન્યુઆરીએ": 7725,
      "2019માં": 7726,
      "બંગાળમાં": 7727,
      "કાળજીપૂર્વક": 7728,
      "વસૂલ": 7729,
      "યાર્ડ": 7730,
      "નાર્": 7731,
      "પ્રભારી": 7732,
      "પાડોશી": 7733,
      "મુળ": 7734,
      "બેલ": 7735,
      "બેન્ડ": 7736,
      "ધાના": 7737,
      "અંધ": 7738,
      "ગ્રામીણ": 7739,
      "બંનેને": 7740,
      "નેતાઓએ": 7741,
      "તંત્રએ": 7742,
      "ગણિત": 7743,
      "ફ્રિ": 7744,
      "ફાઈલ": 7745,
      "રાજયના": 7746,
      "પ્રાઇવેટ": 7747,
      "નિરાશા": 7748,
      ".[": 7749,
      "સસરા": 7750,
      "હવાઈ": 7751,
      "કાચા": 7752,
      "નિવૃત્તિ": 7753,
      "દેખરેખ": 7754,
      "ગુસ્સો": 7755,
      "ગુનામાં": 7756,
      "વિદ્યાર્થીઓની": 7757,
      "પૈસાની": 7758,
      "પરીક્ષામાં": 7759,
      "હાર્ડ": 7760,
      "સાંભળીને": 7761,
      "માંડવી": 7762,
      "સ્ત્રોત": 7763,
      "ઉપકરણો": 7764,
      "કર્ણાટક": 7765,
      "પુરવઠો": 7766,
      "સોંપી": 7767,
      "રાજપૂત": 7768,
      "નિરીક્ષણ": 7769,
      "CM": 7770,
      "શરમ": 7771,
      "જોધ": 7772,
      "દ્દીન": 7773,
      "પહેરીને": 7774,
      "રાખ્યા": 7775,
      "આગમન": 7776,
      "ભેજ": 7777,
      "જોડાણ": 7778,
      "નોંધવામાં": 7779,
      "બનાવવાનું": 7780,
      "રાજયમાં": 7781,
      "જાળવણી": 7782,
      "તૂટ": 7783,
      "પોલિસી": 7784,
      "સંસદમાં": 7785,
      "ફાઇનલ": 7786,
      "ડાંગર": 7787,
      "ડેવલપમેન્ટ": 7788,
      "બપોરના": 7789,
      "?’": 7790,
      "RT": 7791,
      "સ્કુ": 7792,
      "લાવે": 7793,
      "નિવૃત્ત": 7794,
      "યોમાં": 7795,
      "મીઠી": 7796,
      "સમજવા": 7797,
      "રાખશે": 7798,
      "અધિકારીઓની": 7799,
      "ટાઈમ": 7800,
      "71": 7801,
      "પારો": 7802,
      "પાચન": 7803,
      "નિશા": 7804,
      "જીબી": 7805,
      "સેને": 7806,
      "સોદા": 7807,
      "સૌપ્રથમ": 7808,
      "ધ્યાત્": 7809,
      "વિશ્લેષણ": 7810,
      "બનાવ્યું": 7811,
      "વિકાસના": 7812,
      "રમવા": 7813,
      "મુંબઈના": 7814,
      "કિંમતમાં": 7815,
      "યુવતીને": 7816,
      "પ્રવક્તા": 7817,
      "કહો": 7818,
      "નંગ": 7819,
      "રામા": 7820,
      "સિલ": 7821,
      "ડેમો": 7822,
      "શિંગ": 7823,
      "પાર્ટીએ": 7824,
      "અવરોધ": 7825,
      "બતાવે": 7826,
      "પ્રતિબંધિત": 7827,
      "શૈલીમાં": 7828,
      "જગદી": 7829,
      "વલ્લભ": 7830,
      "ધ્રા": 7831,
      "યહોવા": 7832,
      "રદ્દ": 7833,
      "એકમ": 7834,
      "સિક્કા": 7835,
      "વ્યાસ": 7836,
      "પહોંચતા": 7837,
      "બેનર્જી": 7838,
      "બ્રાન્ચ": 7839,
      "સભ્યોની": 7840,
      "દેશોની": 7841,
      "૧૫૦": 7842,
      "નિમણૂક": 7843,
      "નિર્ધારિત": 7844,
      "ઓઇલ": 7845,
      "ઝમ": 7846,
      "ડને": 7847,
      "ભું": 7848,
      "નીએ": 7849,
      "કરની": 7850,
      "કરનારી": 7851,
      "દેવતા": 7852,
      "રૂણ": 7853,
      "દાણા": 7854,
      "પીવા": 7855,
      "વધ્યા": 7856,
      "આવેલો": 7857,
      "પેનલ": 7858,
      "કંડ": 7859,
      "ફર્યા": 7860,
      "ંડુ": 7861,
      "લાખના": 7862,
      "અગાઉથી": 7863,
      "પ્લેસ": 7864,
      "વાનગીઓ": 7865,
      "જિકલ": 7866,
      "વ્રત": 7867,
      "તકેદારી": 7868,
      "પેકેજ": 7869,
      "ભૌતિક": 7870,
      "બ્રાહ્મણ": 7871,
      "ut": 7872,
      "થનારા": 7873,
      "વડિયા": 7874,
      "કાસ્ટ": 7875,
      "મેન્યુ": 7876,
      "મેટલ": 7877,
      "કારના": 7878,
      "લેતાં": 7879,
      "ટાંકી": 7880,
      "કુળ": 7881,
      "જ્વેલ": 7882,
      "કર્મચારીઓની": 7883,
      "રિકવરી": 7884,
      "ધ્વ": 7885,
      "સરોવર": 7886,
      "ઉદ્દેશ": 7887,
      "અદ્": 7888,
      "કિયા": 7889,
      "ઙ્": 7890,
      "નૃ": 7891,
      "શૉ": 7892,
      "જોડે": 7893,
      "દાળ": 7894,
      "સિન્": 7895,
      "યુર": 7896,
      "ધોરાજી": 7897,
      "વિસ્તરણ": 7898,
      "સ્ટેજ": 7899,
      "મૃત્યુઆંક": 7900,
      "અઠવાડિયે": 7901,
      "ઉદ્યોગપતિ": 7902,
      "પતંગ": 7903,
      "તુલસી": 7904,
      "સ્વામિનારાયણ": 7905,
      "ફ્લ્મિ": 7906,
      "ડેપ્યુટી": 7907,
      "CC": 7908,
      "ઇં": 7909,
      "ઓથો": 7910,
      "નાટક": 7911,
      "છેઃ": 7912,
      "સાવર": 7913,
      "કાદ": 7914,
      "રીય": 7915,
      "ટેશન": 7916,
      "લીએ": 7917,
      "રાજનાથ": 7918,
      "કિસ": 7919,
      "અમર": 7920,
      "ટ્રેનિંગ": 7921,
      "ચાલકે": 7922,
      "લેખમાં": 7923,
      "બોર્ડના": 7924,
      "શૈલેષ": 7925,
      "સાઉદી": 7926,
      "ઇલેક્ટ્રિક": 7927,
      "એકત્રિત": 7928,
      "ઝઘડો": 7929,
      "ઉછાળો": 7930,
      "69": 7931,
      "ઓરિ": 7932,
      "કપા": 7933,
      "પટા": 7934,
      "ફફ": 7935,
      "સદા": 7936,
      "સનીય": 7937,
      "મોની": 7938,
      "જીક": 7939,
      "દિવ્ય": 7940,
      "મીમી": 7941,
      "વર્ગી": 7942,
      "સોન": 7943,
      "ગુને": 7944,
      "બોસ": 7945,
      "દ્રશ્યો": 7946,
      "ળીમાં": 7947,
      "સર્ટિફિ": 7948,
      "મેળવવામાં": 7949,
      "જાહેરના": 7950,
      "ગ્લે": 7951,
      "સહયોગી": 7952,
      "નવરાત્રી": 7953,
      "પત્નીએ": 7954,
      "ગર્વ": 7955,
      "ડોલરની": 7956,
      "ગોઠવી": 7957,
      "પાઇપ": 7958,
      "ડાયાબિટીસ": 7959,
      "ઝારખંડ": 7960,
      "બોગસ": 7961,
      "SI": 7962,
      "ડાએ": 7963,
      "દિવાલો": 7964,
      "વોકેટ": 7965,
      "ટોલ": 7966,
      "બિલાડી": 7967,
      "જરૃ": 7968,
      "કારોબાર": 7969,
      "અપમાન": 7970,
      "દેશોના": 7971,
      "એચડી": 7972,
      "દસ્તાવેજ": 7973,
      "બેઠેલા": 7974,
      "ગાર્": 7975,
      "દશા": 7976,
      "મરણ": 7977,
      "૭૭": 7978,
      "રેગ્યુ": 7979,
      "સંકલ": 7980,
      "મિટ": 7981,
      "શિય": 7982,
      "લુક": 7983,
      "સાંજના": 7984,
      "આરબી": 7985,
      "ચાલશે": 7986,
      "માતાના": 7987,
      "લખન": 7988,
      "હાઇટ": 7989,
      "દારોને": 7990,
      "સ્ટીલ": 7991,
      "ગાળાના": 7992,
      "ડિસેમ્બરે": 7993,
      "નીકળ્યા": 7994,
      "જીલ્લાના": 7995,
      "રસોઈ": 7996,
      "અફઘાનિસ્તાન": 7997,
      "કંઇક": 7998,
      "મલ્ટી": 7999,
      "અવિ": 8000,
      "છત્તી": 8001,
      "બત": 8002,
      "કરન્સી": 8003,
      "પ્રદીપ": 8004,
      "ક્લાસ": 8005,
      "મેડ": 8006,
      "પાતળા": 8007,
      "વેળા": 8008,
      "સેનાની": 8009,
      "ન્સને": 8010,
      "ધાન્ય": 8011,
      "બાળકોમાં": 8012,
      "બાબતમાં": 8013,
      "એલસીબી": 8014,
      "દિવસોથી": 8015,
      "સિંગલ": 8016,
      "ચાંદીના": 8017,
      "ઈન્ટરનેટ": 8018,
      "અશ્વિન": 8019,
      "ig": 8020,
      "એલિ": 8021,
      "એપિ": 8022,
      "બલ્": 8023,
      "સત્": 8024,
      "માથે": 8025,
      "વિગેરે": 8026,
      "લીઓ": 8027,
      "પીવાથી": 8028,
      "વાર્ય": 8029,
      "ડેન્": 8030,
      "2010": 8031,
      "2011": 8032,
      "સૌર": 8033,
      "એમસી": 8034,
      "મારીને": 8035,
      "પ્રોપર્": 8036,
      "વ્યક્તિત્વ": 8037,
      "ચૂંટણીની": 8038,
      "ગ્ન": 8039,
      "યોજાનાર": 8040,
      "મોરબીમાં": 8041,
      "દર્શાવવામાં": 8042,
      "પૂછવામાં": 8043,
      "એકબીજાને": 8044,
      "ડિસ્કાઉન્ટ": 8045,
      "કેમિકલ": 8046,
      "સુભાષ": 8047,
      "કવાય": 8048,
      "રપ": 8049,
      "વત્": 8050,
      "ટીએ": 8051,
      "રૂટ": 8052,
      "ટાવર": 8053,
      "જવાથી": 8054,
      "ઉત્સા": 8055,
      "અંગેના": 8056,
      "પૂરતા": 8057,
      "ઘટાડે": 8058,
      "પિતાની": 8059,
      "પંચાયતની": 8060,
      "AT": 8061,
      "ઈં": 8062,
      "૪૦૦": 8063,
      "નાખો": 8064,
      "લોકલ": 8065,
      "લેવાય": 8066,
      "ણીની": 8067,
      "બીએ": 8068,
      "સરકારનો": 8069,
      "કુટું": 8070,
      "બાળપણ": 8071,
      "સિંહના": 8072,
      "પાકિસ્તાનને": 8073,
      "બેંકના": 8074,
      "રાશિફળ": 8075,
      "અગ્રવાલ": 8076,
      "મજાક": 8077,
      "નમૂના": 8078,
      "ફાઉન્ડેશન": 8079,
      "ઇસ્લા": 8080,
      "ખમ": 8081,
      "કાવ": 8082,
      "વિડિઓ": 8083,
      "પ્રશાંત": 8084,
      "જેડી": 8085,
      "ભાન": 8086,
      "લેપ": 8087,
      "સેફ": 8088,
      "બીન": 8089,
      "કંપનીને": 8090,
      "અહીંયા": 8091,
      "બ્રાંચ": 8092,
      "નાખ્યો": 8093,
      "સ્કીમ": 8094,
      "ડ્રાઇવર": 8095,
      "શકયતા": 8096,
      "પ્રસન્ન": 8097,
      "શાહરૂખ": 8098,
      "બહુમતી": 8099,
      "74": 8100,
      "કોળી": 8101,
      "વિભાગો": 8102,
      "દરજ્": 8103,
      "પેક": 8104,
      "ધોવા": 8105,
      "કોઇને": 8106,
      "વિજયભાઇ": 8107,
      "ક્રોસ": 8108,
      "કોલેજના": 8109,
      "સુંદરતા": 8110,
      "ક્રાંતિ": 8111,
      "મહામારીને": 8112,
      "નાખવામાં": 8113,
      "જઇને": 8114,
      "ધૂમ": 8115,
      "એન્જિનિય": 8116,
      "ખળ": 8117,
      "નર્સ": 8118,
      "સ્પા": 8119,
      "વિભા": 8120,
      "રેપ": 8121,
      "દામ": 8122,
      "ચોખા": 8123,
      "હોસ્પિટલોમાં": 8124,
      "પ્રકારનાં": 8125,
      "સંબંધમાં": 8126,
      "જીત્યા": 8127,
      "ચૂકવવા": 8128,
      "મહામારીના": 8129,
      "નવેમ્બરે": 8130,
      "ઊંચાઈ": 8131,
      "છત્તીસગઢ": 8132,
      "88": 8133,
      "નફા": 8134,
      "મૉ": 8135,
      "નાનું": 8136,
      "ત્રુ": 8137,
      "રિટેલ": 8138,
      "રાજપીપ": 8139,
      "એનસીપી": 8140,
      "જોડાઈ": 8141,
      "લ્સને": 8142,
      "વાયરસથી": 8143,
      "સ્પર્ધામાં": 8144,
      "ચર્ચ": 8145,
      "અપરા": 8146,
      "જયા": 8147,
      "૪૯": 8148,
      "રાએ": 8149,
      "કેલ્": 8150,
      "રેસીપી": 8151,
      "મોઢા": 8152,
      "પીઆઇ": 8153,
      "દીને": 8154,
      "ધાને": 8155,
      "શિખર": 8156,
      "અનન્ય": 8157,
      "ફેરી": 8158,
      "ફેલાય": 8159,
      "પ્રેમમાં": 8160,
      "ટ્રેન્ડ": 8161,
      "સાયણ": 8162,
      "મોરચા": 8163,
      "સાઈડ": 8164,
      "દુનિયાની": 8165,
      "ઘૂંટ": 8166,
      "સરખામણીએ": 8167,
      "ળિયે": 8168,
      "અસંખ્ય": 8169,
      "ંઝ": 8170,
      "આનં": 8171,
      "ધડા": 8172,
      "નારો": 8173,
      "રાવલ": 8174,
      "રેટિંગ": 8175,
      "રિયો": 8176,
      "વોર્": 8177,
      "ડિપાર્ટમેન્ટ": 8178,
      "બોરે": 8179,
      "ગરમા": 8180,
      "સૌંદર": 8181,
      "સ્ટેડિય": 8182,
      "લગાવ્યા": 8183,
      "જેમની": 8184,
      "ફ્રો": 8185,
      "મગજ": 8186,
      "સુધારવા": 8187,
      "ચુકાદા": 8188,
      "સમારંભ": 8189,
      "નીપજ્યું": 8190,
      "બોટાદ": 8191,
      "ઘડી": 8192,
      "લારી": 8193,
      "સઘન": 8194,
      "મારુ": 8195,
      "મેરી": 8196,
      "હેમત": 8197,
      "હોટે": 8198,
      "સિન": 8199,
      "ટાળ": 8200,
      "ટાયર": 8201,
      "સ્તન": 8202,
      "સ્થાપક": 8203,
      "કરાવે": 8204,
      "્સને": 8205,
      "કાયમ": 8206,
      "ટ્રેનો": 8207,
      "ટ્રેક્ટર": 8208,
      "નોંધાયેલા": 8209,
      "વિભાગને": 8210,
      "પ્રમાણપત્ર": 8211,
      "ભરાયા": 8212,
      "ભયંકર": 8213,
      "રાજેન્દ્ર": 8214,
      "ઢોર": 8215,
      "તુરંત": 8216,
      "એલાન": 8217,
      "ઝુંબે": 8218,
      "ઉદ્ધવ": 8219,
      "54": 8220,
      "73": 8221,
      "ખલ": 8222,
      "વંદ": 8223,
      "ષો": 8224,
      "થાઇ": 8225,
      "મંચ": 8226,
      "ખેંચા": 8227,
      "વ્યવસ્થિત": 8228,
      "ઝેર": 8229,
      "તારીખે": 8230,
      "ગઢવી": 8231,
      "ડીઝલના": 8232,
      "બેંકો": 8233,
      "નિષ્ણાત": 8234,
      "ડૂબી": 8235,
      "દાગીના": 8236,
      "રર": 8237,
      "૪૧": 8238,
      "માપ": 8239,
      "જોવી": 8240,
      "નેતાઓને": 8241,
      "કૂતરા": 8242,
      "ગાયબ": 8243,
      "દુર્લભ": 8244,
      "ધર્મો": 8245,
      "પૃષ્ઠ": 8246,
      "હૂં": 8247,
      "વૈજ્ઞાનિકો": 8248,
      "વિગતવાર": 8249,
      "ખેડુતો": 8250,
      "સૌંદર્ય": 8251,
      "im": 8252,
      "એડી": 8253,
      "બરી": 8254,
      "કોમ્પ્યુટર": 8255,
      "મોઢ": 8256,
      "સુગંધ": 8257,
      "બેને": 8258,
      "સીબે": 8259,
      "વર્સ": 8260,
      "કરાવ્યો": 8261,
      "ટકાના": 8262,
      "મેળવે": 8263,
      "પતિની": 8264,
      "વહેંચ": 8265,
      "કાયદાકીય": 8266,
      "અનિવાર્ય": 8267,
      "કોહલીએ": 8268,
      "રાજકારણમાં": 8269,
      "વિસ્ફોટ": 8270,
      "ંછ": 8271,
      "ઉન": 8272,
      "તાજ": 8273,
      "બાના": 8274,
      "ટીક": 8275,
      "ખાવાનું": 8276,
      "ડોકટર": 8277,
      "સારૂ": 8278,
      "સ્વરાજ": 8279,
      "પક્ષમાં": 8280,
      "અભિપ્રાય": 8281,
      "એનર્જી": 8282,
      "ચલાવે": 8283,
      "ઓળખી": 8284,
      "બ્રિટી": 8285,
      "યુવકને": 8286,
      "સર્વોચ્ચ": 8287,
      "ચુડાસમા": 8288,
      "63": 8289,
      "આજી": 8290,
      "તત્કા": 8291,
      "ષડ": 8292,
      "૬૮": 8293,
      "સ્ડ": 8294,
      "પ્રવી": 8295,
      "મેટિક": 8296,
      "પાસા": 8297,
      "સોજો": 8298,
      "ટાપુ": 8299,
      "ડિપ્રે": 8300,
      "ચ્છી": 8301,
      "શોએ": 8302,
      "ફાટ": 8303,
      "નિયામક": 8304,
      "પાડ્યા": 8305,
      "પાડ્યો": 8306,
      "વ્હાઇટ": 8307,
      "એડવોકેટ": 8308,
      "ટ્રાન્સપોર્ટ": 8309,
      "લોકડાઉનના": 8310,
      "બર્ગ": 8311,
      "ક્લાસિક": 8312,
      "ગ્રોથ": 8313,
      "સમર્પિત": 8314,
      "ઈઝ": 8315,
      "રવી": 8316,
      "વંચ": 8317,
      "વાગ": 8318,
      "રોનો": 8319,
      "લેજ": 8320,
      "દીકરો": 8321,
      "મીટિંગ": 8322,
      "કરાયેલ": 8323,
      "થઇને": 8324,
      "કંપનીઓના": 8325,
      "રંગના": 8326,
      "અવસર": 8327,
      "દાયકા": 8328,
      "ચલાવવા": 8329,
      "ત્રિમ": 8330,
      "મૂકવા": 8331,
      "મથકમાં": 8332,
      "દેવાયા": 8333,
      "જોગવાઇ": 8334,
      "રમેશ": 8335,
      "સાબરમતી": 8336,
      "ગઠબંધન": 8337,
      "ફાંસો": 8338,
      "બાંગ્લાદેશ": 8339,
      "મહંત": 8340,
      "મોડાસા": 8341,
      "છંટકા": 8342,
      "600": 8343,
      "Bh": 8344,
      "સ્પ્રે": 8345,
      "સ્કુલ": 8346,
      "સાગ": 8347,
      "લોના": 8348,
      "નિહા": 8349,
      "મોસમ": 8350,
      "યોને": 8351,
      "ફાટી": 8352,
      "પછીના": 8353,
      "કંપનીઓએ": 8354,
      "પર્વત": 8355,
      "ફેલાયો": 8356,
      "નાખવાની": 8357,
      "પુનરા": 8358,
      "મૂકીને": 8359,
      "પથારી": 8360,
      "હડતાળ": 8361,
      "oc": 8362,
      "ખવડા": 8363,
      "મજૂરી": 8364,
      "રીપોર્ટ": 8365,
      "ંગુ": 8366,
      "મળતું": 8367,
      "દોડા": 8368,
      "ચીમકી": 8369,
      "ગ્રાન્ટ": 8370,
      "મહાનુ": 8371,
      "ધ્યાય": 8372,
      "સાયબર": 8373,
      "એનડી": 8374,
      "ઘટાડી": 8375,
      "થોડાક": 8376,
      "બેંકમાં": 8377,
      "ડાયમંડ": 8378,
      "એજ્યુ": 8379,
      "ગુલાબ": 8380,
      "ગુલાબી": 8381,
      "ચામડી": 8382,
      "61": 8383,
      "અમારો": 8384,
      "આસા": 8385,
      "ઈલેક્": 8386,
      "જડ": 8387,
      "ફરે": 8388,
      "ર્ય": 8389,
      "મારૂ": 8390,
      "કાફલો": 8391,
      "પીએ": 8392,
      "ડિટી": 8393,
      "યુકત": 8394,
      "ચીજો": 8395,
      "માર્ચે": 8396,
      "ફ્લેટ": 8397,
      "મોટાભાગે": 8398,
      "િયાર": 8399,
      "સ્વાભાવિક": 8400,
      "નિર્ણયને": 8401,
      "દુનિયાભરમાં": 8402,
      "માગતા": 8403,
      "સંકેતો": 8404,
      "માઈક્રો": 8405,
      "આકરા": 8406,
      "ઇચ્છે": 8407,
      "ઈનિંગ": 8408,
      "ઉધ": 8409,
      "લદ્": 8410,
      "સ્રો": 8411,
      "હંગા": 8412,
      "૮૫": 8413,
      "તાજી": 8414,
      "કાઇ": 8415,
      "તિવારી": 8416,
      "સરકારો": 8417,
      "બનાવતા": 8418,
      "ટિવિ": 8419,
      "નિયત": 8420,
      "ફિટને": 8421,
      "અધિકારીને": 8422,
      "ફીચર": 8423,
      "મનપા": 8424,
      "અહીંના": 8425,
      "ટ્રાન્": 8426,
      "પરેશાની": 8427,
      "તહેવા": 8428,
      "હેતુથી": 8429,
      "ફર્સ્ટ": 8430,
      "સિદ્ધાંત": 8431,
      "જેતપુર": 8432,
      "પંકજ": 8433,
      "op": 8434,
      "આધ્યાત્": 8435,
      "ઓમાંથી": 8436,
      "ઠરાવ": 8437,
      "નખ": 8438,
      "ભંડ": 8439,
      "મજુ": 8440,
      "રજની": 8441,
      "હર્": 8442,
      "૧ર": 8443,
      "્યે": 8444,
      "કરુ": 8445,
      "પાયલ": 8446,
      "લોસ": 8447,
      "બેસા": 8448,
      "મિલા": 8449,
      "રહેલો": 8450,
      "માનવતા": 8451,
      "મુખી": 8452,
      "પ્રાણ": 8453,
      "એસઓ": 8454,
      "વિદ્યાર્થીની": 8455,
      "આરોપીઓની": 8456,
      "ઝીણી": 8457,
      "કાંઠે": 8458,
      "રોગના": 8459,
      "સહાયક": 8460,
      "મોકલવા": 8461,
      "ફેબ્રુઆરીએ": 8462,
      "દિવાળીના": 8463,
      "સમીક્ષાઓ": 8464,
      "રાજસ્થાનમાં": 8465,
      "લદ્દાખ": 8466,
      "St": 8467,
      "અજમા": 8468,
      "ફં": 8469,
      "સગીર": 8470,
      "૬૭": 8471,
      "ન્ક": 8472,
      "દિપક": 8473,
      "લિયમ": 8474,
      "ડિવિઝન": 8475,
      "ફેટે": 8476,
      "ચોંકી": 8477,
      "મેળવ્યા": 8478,
      "મામલા": 8479,
      "ચિંતાજનક": 8480,
      "ઉત્પાદક": 8481,
      "કચેરીમાં": 8482,
      "નાણાંકીય": 8483,
      "અક્ષર": 8484,
      "અંબાજી": 8485,
      "વાલીઓ": 8486,
      "દરોડો": 8487,
      "2018માં": 8488,
      "સમયગાળામાં": 8489,
      "સેલ્ફી": 8490,
      "આવેદનપત્ર": 8491,
      "53": 8492,
      "અસ્થિ": 8493,
      "ઘડિયા": 8494,
      "ચકા": 8495,
      "દને": 8496,
      "નવલ": 8497,
      "હરાજી": 8498,
      "૯૫": 8499,
      "વાપી": 8500,
      "કેવા": 8501,
      "પ્રવે": 8502,
      "લીલી": 8503,
      "દીપક": 8504,
      "ંતરે": 8505,
      "ડિસ": 8506,
      "ચેટ": 8507,
      "વરસી": 8508,
      "છોડા": 8509,
      "જૂથો": 8510,
      "કાર્યમાં": 8511,
      "રણનીતિ": 8512,
      "સિંહની": 8513,
      "ઇન્સ્ટિ": 8514,
      "પાછળના": 8515,
      "સભ્યોએ": 8516,
      "ચલાવતા": 8517,
      "હિંસક": 8518,
      "વધારવામાં": 8519,
      "પહોંચાડવા": 8520,
      "બાળકીને": 8521,
      "2017માં": 8522,
      "બંધારણ": 8523,
      "કટોકટી": 8524,
      "ધોધમાર": 8525,
      "જબરદ": 8526,
      "250": 8527,
      "ઠાર": 8528,
      "ષિત": 8529,
      "કેચ": 8530,
      "વિર": 8531,
      "જીયાત": 8532,
      "ધિરાણ": 8533,
      "કૃત્રિમ": 8534,
      "પંપ": 8535,
      "વિશ્વભરમાં": 8536,
      "જેવાં": 8537,
      "પાલિકાના": 8538,
      "હળદર": 8539,
      "બિલકુલ": 8540,
      "સંતાનો": 8541,
      "ટેલિકોમ": 8542,
      "દ્રષ્ટિએ": 8543,
      "મેઘરાજા": 8544,
      "નૈતિક": 8545,
      "સાવધાની": 8546,
      "નૃત્ય": 8547,
      "ik": 8548,
      "આતો": 8549,
      "કોલોની": 8550,
      "ભાભી": 8551,
      "લોલ": 8552,
      "મોર્": 8553,
      "યોર્ક": 8554,
      "પીછો": 8555,
      "પૂન": 8556,
      "ફિલ્મને": 8557,
      "જીવનના": 8558,
      "આપેલી": 8559,
      "વાયરસને": 8560,
      "ine": 8561,
      "પ્રોજેકટ": 8562,
      "માળખું": 8563,
      "માધ્યમ": 8564,
      "જ્યોતિષ": 8565,
      "સ્પોર્ટ્સ": 8566,
      "થેરાપી": 8567,
      "IA": 8568,
      "આયોગ": 8569,
      "તડ": 8570,
      "ભરેલી": 8571,
      "રઘુ": 8572,
      "કાશી": 8573,
      "જાદુ": 8574,
      "કરવાને": 8575,
      "ત્રીજો": 8576,
      "ખોરી": 8577,
      "ભૂતિ": 8578,
      "કેસનો": 8579,
      "પ્રતિસાદ": 8580,
      "વિસ્તારમાંથી": 8581,
      "અહીંથી": 8582,
      "વાઇસ": 8583,
      "ડૉક્ટ": 8584,
      "સંક્રમણને": 8585,
      "બોલીવુ": 8586,
      "બિલ્ડીંગ": 8587,
      "ચલણ": 8588,
      "ખર્ચાળ": 8589,
      "છોટાઉદેપુર": 8590,
      "અમારે": 8591,
      "ખાર": 8592,
      "વાસ્તુ": 8593,
      "સ્મિ": 8594,
      "લેનાર": 8595,
      "લેબોરે": 8596,
      "દેશા": 8597,
      "ચિત્રો": 8598,
      "એસબી": 8599,
      "મહિલાઓની": 8600,
      "સિંહને": 8601,
      "બહારના": 8602,
      "રાજકોટની": 8603,
      "કામગીરીમાં": 8604,
      "અમેરિકાએ": 8605,
      "શહેરો": 8606,
      "આર્કિ": 8607,
      "સંચાલક": 8608,
      "શખ્સોએ": 8609,
      "માર્ગદર્શિકા": 8610,
      "ment": 8611,
      "આમિર": 8612,
      "ઈના": 8613,
      "જહેમત": 8614,
      "સ્સે": 8615,
      "ટેન્શન": 8616,
      "બાપ": 8617,
      "ડાનો": 8618,
      "ણાના": 8619,
      "દ્વિ": 8620,
      "સમયા": 8621,
      "રહેલું": 8622,
      "સ્થાનો": 8623,
      "ચોથી": 8624,
      "વાયદા": 8625,
      "ખોટ": 8626,
      "અધિકારો": 8627,
      "શ્રીએ": 8628,
      "ટ્રેલર": 8629,
      "આઇડી": 8630,
      "ઈજાગ્રસ્ત": 8631,
      "સૂચનો": 8632,
      "હેલિકોપ્ટર": 8633,
      "એજ્યુકેશન": 8634,
      "dia": 8635,
      "hat": 8636,
      "કમ્પ્યુટર": 8637,
      "કેળ": 8638,
      "કેશો": 8639,
      "ણીને": 8640,
      "હિમ": 8641,
      "શાસક": 8642,
      "કોરોનાનું": 8643,
      "નિયમન": 8644,
      "મદદની": 8645,
      "એન્જી": 8646,
      "નવરાત્રિ": 8647,
      "રોગપ્રતિકારક": 8648,
      "2009": 8649,
      "એપ્રિલે": 8650,
      "સંક્રમણના": 8651,
      "સંઘના": 8652,
      "ફ્રાસ્ટ્ર": 8653,
      "જયેશ": 8654,
      "આર્યન": 8655,
      "થિયેટર": 8656,
      "સર્ટિફિકેટ": 8657,
      "એવુ": 8658,
      "ડન્ટ": 8659,
      "સૃ": 8660,
      "સિયા": 8661,
      "પ્રવૃ": 8662,
      "પ્રતાપ": 8663,
      "ટેકની": 8664,
      "પરમાણ": 8665,
      "મેથી": 8666,
      "હોલમાં": 8667,
      "હાન": 8668,
      "પુર્વ": 8669,
      "ચેતન": 8670,
      "કરાવ્યા": 8671,
      "સભ્યોને": 8672,
      "લક્ષ્યાં": 8673,
      "ફાઈનલ": 8674,
      "મુશ્કેલીમાં": 8675,
      "સાંભળવા": 8676,
      "શૌચાલ": 8677,
      "અનુષ્કા": 8678,
      "છંટકાવ": 8679,
      "',": 8680,
      "ઈમરાન": 8681,
      "કઠ": 8682,
      "ચક્કર": 8683,
      "ધડ": 8684,
      "ભજન": 8685,
      "૧૦૦૦": 8686,
      "નિયુક્ત": 8687,
      "સેટે": 8688,
      "સંચાર": 8689,
      "યુકે": 8690,
      "ળાટ": 8691,
      "અનુપ": 8692,
      "રોજિ": 8693,
      "ભાજપા": 8694,
      "મહાનગર": 8695,
      "પ્રોફેશન": 8696,
      "મહેમાન": 8697,
      "ક્ષેત્રની": 8698,
      "મોંઘી": 8699,
      "કેરળ": 8700,
      "વિપક્ષી": 8701,
      "આત્મવિશ્વાસ": 8702,
      "રત્ન": 8703,
      "વંચિત": 8704,
      "ઇક": 8705,
      "કયાં": 8706,
      "નકારી": 8707,
      "નકલ": 8708,
      "બર્થ": 8709,
      "નાખ્યા": 8710,
      "માંડીને": 8711,
      "રીટ": 8712,
      "જાપાન": 8713,
      "મુર": 8714,
      "સીરિઝ": 8715,
      "ગાઢ": 8716,
      "ડોને": 8717,
      "છોડવા": 8718,
      "જોવાનું": 8719,
      "શુષ્": 8720,
      "ર્મલ": 8721,
      "વિચાર્યું": 8722,
      "ટુર્નામેન્ટ": 8723,
      "ચલાવવામાં": 8724,
      "બદલવા": 8725,
      "સ્પોટ": 8726,
      "અત્યાચાર": 8727,
      "લેબોરેટરી": 8728,
      "GB": 8729,
      "Re": 8730,
      "ow": 8731,
      "ઈઓ": 8732,
      "જ્યા": 8733,
      "શનથી": 8734,
      "હરે": 8735,
      "ોના": 8736,
      "મોન": 8737,
      "દીધુ": 8738,
      "મીટ": 8739,
      "વર્તા": 8740,
      "પેશી": 8741,
      "ચેલે": 8742,
      "દુધ": 8743,
      "ફોનની": 8744,
      "જન્ય": 8745,
      "પડતું": 8746,
      "અનુરોધ": 8747,
      "ર્સમાં": 8748,
      "નવાઈ": 8749,
      "જીતવા": 8750,
      "અર્થમાં": 8751,
      "પ્રકાશમાં": 8752,
      "ગિફ્ટ": 8753,
      "માલિકો": 8754,
      "મારફત": 8755,
      "સફરજન": 8756,
      "અનોખી": 8757,
      "સાથોસાથ": 8758,
      "વ્યાવસાયિક": 8759,
      "કોઠારી": 8760,
      "ઓપ્શન": 8761,
      "ટેન્ડર": 8762,
      "નિર": 8763,
      "ડીવી": 8764,
      "ધાતુ": 8765,
      "ડોલ": 8766,
      "પિયો": 8767,
      "શોખ": 8768,
      "ચારિક": 8769,
      "મહિનો": 8770,
      "ભાઈના": 8771,
      "વાતનો": 8772,
      "સર્વા": 8773,
      "મારવા": 8774,
      "પહોંચવા": 8775,
      "પહોંચશે": 8776,
      "દેખાયા": 8777,
      "વિશ્વસનીય": 8778,
      "નોંધવું": 8779,
      "ઉદય": 8780,
      "મ્યુઝિક": 8781,
      "વર્ગના": 8782,
      "ટ્વીટર": 8783,
      "નમ્ર": 8784,
      "બિહારમાં": 8785,
      "નાઇટેડ": 8786,
      "ભયાનક": 8787,
      "ઇટા": 8788,
      "એકર": 8789,
      "ચઢ": 8790,
      "ફરા": 8791,
      "હસ્તા": 8792,
      "નાજુ": 8793,
      "તાલ": 8794,
      "પ્રથા": 8795,
      "વેતન": 8796,
      "તીઓ": 8797,
      "દાદી": 8798,
      "સરની": 8799,
      "પહેલું": 8800,
      "અંકુશ": 8801,
      "મારતા": 8802,
      "ભાજપનો": 8803,
      "ભગવા": 8804,
      "ઓળખા": 8805,
      "બેન્કો": 8806,
      "સૈફ": 8807,
      "ઓગસ્ટે": 8808,
      "સેન્ટરમાં": 8809,
      "હેન્ડલ": 8810,
      "પ્રેક્ટિસ": 8811,
      "પ્રવીણ": 8812,
      "News": 8813,
      "પડોશી": 8814,
      "બર્ડ": 8815,
      "મેષ": 8816,
      "મોના": 8817,
      "ણીના": 8818,
      "સમજૂ": 8819,
      "આપતો": 8820,
      "ગેલે": 8821,
      "બહારથી": 8822,
      "ચૂંટણીને": 8823,
      "આઈસી": 8824,
      "પંચે": 8825,
      "નોંધાયું": 8826,
      "માતાએ": 8827,
      "મંડળના": 8828,
      "ઘોષણા": 8829,
      "ઈતિહાસ": 8830,
      ".(": 8831,
      "gr": 8832,
      "મલે": 8833,
      "શત": 8834,
      "ેય": 8835,
      "૪૩": 8836,
      "નેહા": 8837,
      "પ્રદાય": 8838,
      "સિધ્ધ": 8839,
      "છોકરો": 8840,
      "પરિણ": 8841,
      "તેઓના": 8842,
      "ચિંતિ": 8843,
      "બુકિંગ": 8844,
      "લેવાના": 8845,
      "પૂરતું": 8846,
      "દારૂના": 8847,
      "સામાજીક": 8848,
      "બિલ્ડ": 8849,
      "માથામાં": 8850,
      "દરવાજો": 8851,
      "આવશ્યકતા": 8852,
      "સેક્ટરમાં": 8853,
      "પ્રાઈવેટ": 8854,
      "શ્રાવણ": 8855,
      "દિવ્યાંગ": 8856,
      "ખળભ": 8857,
      "kar": 8858,
      "ઘરોમાં": 8859,
      "ચટણી": 8860,
      "તમિલનાડુ": 8861,
      "ભણા": 8862,
      "શૅ": 8863,
      "ડીજી": 8864,
      "વોચ": 8865,
      "ચેકિંગ": 8866,
      "શોપિંગ": 8867,
      "ફ્લૂ": 8868,
      "મેન્ટમાં": 8869,
      "યોજનાનો": 8870,
      "બોલ્યા": 8871,
      "કૉલ": 8872,
      "પક્ષીઓ": 8873,
      "વસતી": 8874,
      "બેક્ટેરિયા": 8875,
      "વેન્ટિલેટર": 8876,
      "કઢા": 8877,
      "ઝવે": 8878,
      "ડશે": 8879,
      "બૌ": 8880,
      "ભઠ્ઠી": 8881,
      "નાખે": 8882,
      "માંડી": 8883,
      "કરિ": 8884,
      "કરને": 8885,
      "વિયે": 8886,
      "નિરાશ": 8887,
      "હાણે": 8888,
      "બેંગ્": 8889,
      "પીળા": 8890,
      "સીય": 8891,
      "ડેમમાં": 8892,
      "પેટી": 8893,
      "કામની": 8894,
      "લગતા": 8895,
      "સમયના": 8896,
      "સ્ટેચ્યુ": 8897,
      "ટ્રેડિંગ": 8898,
      "વાયરસનો": 8899,
      "રોકડા": 8900,
      "મોંઘા": 8901,
      "ફાર્મા": 8902,
      "અરજદાર": 8903,
      "પ્રવાસે": 8904,
      "CO": 8905,
      "ઈચ્છે": 8906,
      "કમન": 8907,
      "થવો": 8908,
      "નડિયા": 8909,
      "રૉ": 8910,
      "સૉ": 8911,
      "રાને": 8912,
      "હોસ્ટે": 8913,
      "માનતા": 8914,
      "શિલા": 8915,
      "પરિચય": 8916,
      "અધિકૃત": 8917,
      "મનપસંદ": 8918,
      "દેખાતા": 8919,
      "રંગા": 8920,
      "રંગની": 8921,
      "યોજાઇ": 8922,
      "હાઇકોર્ટ": 8923,
      "નજીકથી": 8924,
      "પોસ્ટર": 8925,
      "ડ્રિ": 8926,
      "યુવકની": 8927,
      "મિનિટમાં": 8928,
      "અહેમદ": 8929,
      "સિદ્ધાર્થ": 8930,
      "પુછપરછ": 8931,
      "હિમાચલ": 8932,
      "ઉછેર": 8933,
      "ખળભળાટ": 8934,
      "com": 8935,
      "અયોગ્ય": 8936,
      "કમો": 8937,
      "નમા": 8938,
      "ફતે": 8939,
      "વાઘ": 8940,
      "ર્જ": 8941,
      "ટેન": 8942,
      "ટેક્ટ": 8943,
      "લીટ": 8944,
      "તીર્થ": 8945,
      "મુના": 8946,
      "મ્બે": 8947,
      "પિયન": 8948,
      "કુવા": 8949,
      "ફોડી": 8950,
      "ખોટો": 8951,
      "પ્રાંતિ": 8952,
      "મળેલા": 8953,
      "બનવાની": 8954,
      "હોસ્પિટલો": 8955,
      "ગાંધીની": 8956,
      "સ્ટ્રિ": 8957,
      "સિક્યુ": 8958,
      "ઠીયા": 8959,
      "અવકાશ": 8960,
      "ટ્રીક": 8961,
      "ફટકો": 8962,
      "બિહારના": 8963,
      "નિરાકરણ": 8964,
      "પર્સનલ": 8965,
      "સ્ટાર્ટ": 8966,
      "જરુરી": 8967,
      "બજારોમાં": 8968,
      "પંચમહાલ": 8969,
      "પરમાણુ": 8970,
      "ચિંતિત": 8971,
      "89": 8972,
      "આક્રો": 8973,
      "બરૂ": 8974,
      "ભક્ત": 8975,
      "વ્યાં": 8976,
      "નાસ્તા": 8977,
      "નાસ્તો": 8978,
      "જેમના": 8979,
      "ચાવી": 8980,
      "ટાળવા": 8981,
      "રિસ": 8982,
      "ટોળ": 8983,
      "બિટ": 8984,
      "પડકારો": 8985,
      "વિસ્તારને": 8986,
      "ટ્રોફી": 8987,
      "ભૂતકાળમાં": 8988,
      "સાવચેત": 8989,
      "સપ્તાહે": 8990,
      "નાખીને": 8991,
      "શબ્દોમાં": 8992,
      "હોટલમાં": 8993,
      "acc": 8994,
      "નિવારણ": 8995,
      "એં": 8996,
      "એસે": 8997,
      "પગે": 8998,
      "તાણ": 8999,
      "પ્રગ": 9000,
      "ન્ડી": 9001,
      "પાયા": 9002,
      "ધીરજ": 9003,
      "રિસો": 9004,
      "કરાવવાની": 9005,
      "શ્રધ્ધા": 9006,
      "અનુસર": 9007,
      "લેવાયા": 9008,
      "તાલુકાઓ": 9009,
      "શ્વર્યા": 9010,
      "ક્ષેત્રના": 9011,
      "ગણાતા": 9012,
      "કાલથી": 9013,
      "ઝડપાયા": 9014,
      "ડિસ્ચાર્જ": 9015,
      "ભિન્ન": 9016,
      "સંજોગો": 9017,
      "હોદ્દેદારો": 9018,
      "પેસેન્જર": 9019,
      "700": 9020,
      "શત્રુ": 9021,
      "૭૮": 9022,
      "શેઠ": 9023,
      "ડાયો": 9024,
      "મુદા": 9025,
      "અન્યા": 9026,
      "સ્થળા": 9027,
      "ગોવા": 9028,
      "આપણું": 9029,
      "આરંભ": 9030,
      "યોજનામાં": 9031,
      "પિતાના": 9032,
      "કતાર": 9033,
      "ફાઈન": 9034,
      "વેપારીઓને": 9035,
      "બંગાળના": 9036,
      "રસોડામાં": 9037,
      "ઈન્ટરનેશનલ": 9038,
      "મહત્ત્વની": 9039,
      "કુશળતા": 9040,
      "ભૂકંપ": 9041,
      "પ્લસ": 9042,
      "દુકાનમાં": 9043,
      "પોષક": 9044,
      "સંકલન": 9045,
      "મહાનુભાવો": 9046,
      "કદી": 9047,
      "કપરા": 9048,
      "ઘરો": 9049,
      "ચડી": 9050,
      "નળ": 9051,
      "બસમાં": 9052,
      "કોસ્": 9053,
      "સામૂ": 9054,
      "નોર": 9055,
      "હેમ": 9056,
      "પાયો": 9057,
      "નિસ": 9058,
      "ડીલ": 9059,
      "ગાજર": 9060,
      "ત્સ": 9061,
      "મિડ": 9062,
      "હોવાનુ": 9063,
      "મતગણતરી": 9064,
      "ટકાની": 9065,
      "છાયા": 9066,
      "પ્રેરિત": 9067,
      "બનતી": 9068,
      "નોંધાઇ": 9069,
      "ગાંધીના": 9070,
      "ગાંધીને": 9071,
      "બંનેના": 9072,
      "ઘરમાંથી": 9073,
      "તંત્રના": 9074,
      "પાર્ટીની": 9075,
      "વિકાસની": 9076,
      "લખવામાં": 9077,
      "રવિવાર": 9078,
      "યુવતીના": 9079,
      "જંગી": 9080,
      "મિશ્રા": 9081,
      "હરાવી": 9082,
      "પર્યાપ્ત": 9083,
      "આદત": 9084,
      "પ્રતિનિધિત્વ": 9085,
      "શહેરીજનો": 9086,
      "છુટકારો": 9087,
      "ફોટોગ્રાફ": 9088,
      "800": 9089,
      "ઉક": 9090,
      "માનું": 9091,
      "ંગમાં": 9092,
      "લોજિ": 9093,
      "નિવૃ": 9094,
      "સેંક": 9095,
      "સેલ્સ": 9096,
      "ખાવાની": 9097,
      "વધ્યું": 9098,
      "યુનાઇટેડ": 9099,
      "દેશનું": 9100,
      "ફેફસા": 9101,
      "૨૦૧૪": 9102,
      "સંખ્યાબંધ": 9103,
      "કનેક્શન": 9104,
      "ફરિયાદમાં": 9105,
      "લેન્ડર": 9106,
      "ટૂર્નામેન્ટ": 9107,
      "2007": 9108,
      "આવકવેરા": 9109,
      "લોકસભામાં": 9110,
      "સંચાલકો": 9111,
      "IPL": 9112,
      "કાઉન્સિલ": 9113,
      "ફટાકડા": 9114,
      "અબ્દુલ": 9115,
      "આધ્યાત્મિક": 9116,
      "ઉચ્ચાર": 9117,
      "દત્ત": 9118,
      "ધવન": 9119,
      "મિયા": 9120,
      "વશો": 9121,
      "વતું": 9122,
      "૭૬": 9123,
      "કોમ્યુનિ": 9124,
      "વેદ": 9125,
      "રેસ્ટ": 9126,
      "રેડિયો": 9127,
      "મોનિ": 9128,
      "જોવું": 9129,
      "ખાબ": 9130,
      "શામાં": 9131,
      "તમાકુ": 9132,
      "નિર્મલા": 9133,
      "બુટલે": 9134,
      "બદલો": 9135,
      "ઘાતક": 9136,
      "મારામારી": 9137,
      "મજબૂર": 9138,
      "તારણ": 9139,
      "જનતાને": 9140,
      "લખીને": 9141,
      "પામેલા": 9142,
      "પંચાયતમાં": 9143,
      "અન્વયે": 9144,
      "માઉન્ટ": 9145,
      "ષડયંત્ર": 9146,
      "Sh": 9147,
      "og": 9148,
      "૦૧": 9149,
      "કોણે": 9150,
      "પ્રસરી": 9151,
      "વેરો": 9152,
      "જાગ": 9153,
      "ટીમનો": 9154,
      "સંપન્ન": 9155,
      "શાસ્ત્રો": 9156,
      "ડિફેન્સ": 9157,
      "રહેવાનું": 9158,
      "કિલ્લા": 9159,
      "જણાવતા": 9160,
      "અંજામ": 9161,
      "સૂપ": 9162,
      "પર્દા": 9163,
      "બીજાને": 9164,
      "પૂરક": 9165,
      "અવગણ": 9166,
      "પંજાબના": 9167,
      "વિદ્યાલય": 9168,
      "કેનાલ": 9169,
      "અખબાર": 9170,
      "મેકઅપ": 9171,
      "જરૂરિયાતો": 9172,
      "હાલાકી": 9173,
      "sh": 9174,
      "up": 9175,
      "કસો": 9176,
      "કપૂરે": 9177,
      "દમણ": 9178,
      "વાલમાં": 9179,
      "છેક": 9180,
      "કેન": 9181,
      "કોથ": 9182,
      "લીટી": 9183,
      "સેલે": 9184,
      "િયાનમાં": 9185,
      "ટામેટા": 9186,
      "ડેન": 9187,
      "ડેલી": 9188,
      "જુની": 9189,
      "પોતાનાં": 9190,
      "કોઈના": 9191,
      "ચોપરા": 9192,
      "અનુસં": 9193,
      "બ્લુ": 9194,
      "સૂચન": 9195,
      "ફ્લાઇ": 9196,
      "માતાને": 9197,
      "લખ્યો": 9198,
      "હત્યાનો": 9199,
      "રસ્તામાં": 9200,
      "વૈજ્ઞાનિ": 9201,
      "ફસાયેલા": 9202,
      "ઇતિહાસમાં": 9203,
      "સંતુલન": 9204,
      "ગર્ભાશય": 9205,
      "મહુવા": 9206,
      "મુદત": 9207,
      "tur": 9208,
      "ગારો": 9209,
      "થલ": 9210,
      "પપ્પા": 9211,
      "માય": 9212,
      "માથી": 9213,
      "વીમો": 9214,
      "સાથેનો": 9215,
      "હિદ": 9216,
      "સરસ્વ": 9217,
      "સમ્": 9218,
      "તમામને": 9219,
      "શોભા": 9220,
      "ફામ": 9221,
      "પહોચ": 9222,
      "ગ્રાફી": 9223,
      "ફીટ": 9224,
      "ચર્ચાઓ": 9225,
      "યુનિટી": 9226,
      "કાયદાના": 9227,
      "ડ્રાય": 9228,
      "ફાળવવામાં": 9229,
      "રજીસ્ટ્રેશન": 9230,
      "ઑફિ": 9231,
      "પ૦": 9232,
      "મહેર": 9233,
      "સભર": 9234,
      "વારિક": 9235,
      "કોન": 9236,
      "પ્રણ": 9237,
      "હેલ": 9238,
      "મોકલા": 9239,
      "સંદીપ": 9240,
      "સુનીલ": 9241,
      "ણીયા": 9242,
      "મુખે": 9243,
      "સીએલ": 9244,
      "દિકરી": 9245,
      "સિલ્વર": 9246,
      "ખાઇ": 9247,
      "યુએ": 9248,
      "કિનારા": 9249,
      "પેરે": 9250,
      "મેળવીને": 9251,
      "ટ્રેનમાં": 9252,
      "વિચારધારા": 9253,
      "નીચેની": 9254,
      "રસીના": 9255,
      "સ્કૂલો": 9256,
      "દારૂનો": 9257,
      "શનિવાર": 9258,
      "બોલાવવામાં": 9259,
      "સુખદ": 9260,
      "યુવાને": 9261,
      "સપ્ટેમ્બરના": 9262,
      "પહેરવા": 9263,
      "પેટર્ન": 9264,
      "જાડેજાએ": 9265,
      "નિષ્ફળતા": 9266,
      "બગડી": 9267,
      "નાઈટ": 9268,
      "થુન": 9269,
      "મજબુત": 9270,
      "જસદણ": 9271,
      "શુષ્ક": 9272,
      "Ch": 9273,
      "ip": 9274,
      "જતું": 9275,
      "ઝલ": 9276,
      "ટૉ": 9277,
      "ટર્મ": 9278,
      "રન્સ": 9279,
      "સગર્ભા": 9280,
      "િતા": 9281,
      "કાકા": 9282,
      "વિશ્ર્": 9283,
      "પાકને": 9284,
      "જાડા": 9285,
      "હિસા": 9286,
      "દોને": 9287,
      "ચોકલે": 9288,
      "સ્ટેડિયમ": 9289,
      "કર્મચારીઓના": 9290,
      "વૈકલ્": 9291,
      "ન્યુઝ": 9292,
      "અપાવી": 9293,
      "મધ્યમાં": 9294,
      "સૈય": 9295,
      "એનાથી": 9296,
      "ઉમેદવારોને": 9297,
      "માનીએ": 9298,
      "નગરપાલિકાના": 9299,
      "સંભવ": 9300,
      "ભ્રમણ": 9301,
      "શ્રદ્ધાળુ": 9302,
      "કાપીને": 9303,
      "મૃતદેહને": 9304,
      "યાર્ડમાં": 9305,
      "પારિવારિક": 9306,
      "મોર્ટમ": 9307,
      "સમયાંતરે": 9308,
      "એશિયન": 9309,
      "ઝ્": 9310,
      "ડ્યા": 9311,
      "હલો": 9312,
      "૯૬": 9313,
      "લાવવાની": 9314,
      "રેસ્ટો": 9315,
      "દેવાઈ": 9316,
      "મીક": 9317,
      "કીને": 9318,
      "વોલ્": 9319,
      "મતદા": 9320,
      "બુમ": 9321,
      "તુલા": 9322,
      "જારા": 9323,
      "પંદર": 9324,
      "મનોહર": 9325,
      "આરોપીએ": 9326,
      "અપલોડ": 9327,
      "લાયસન્સ": 9328,
      "સ્કૂલના": 9329,
      "તાજેતરના": 9330,
      "વિવાદમાં": 9331,
      "ન્યાયા": 9332,
      "આકર્ષિત": 9333,
      "શ્રદ્ધાંજલિ": 9334,
      "રોગચાળા": 9335,
      "ગર્લફ્રેન્ડ": 9336,
      "પઠાણ": 9337,
      "પ્રોપર્ટી": 9338,
      "સેંકડો": 9339,
      "ંદે": 9340,
      "આઘાત": 9341,
      "ઝિય": 9342,
      "ડ્યો": 9343,
      "મટી": 9344,
      "રખ": 9345,
      "તેણીએ": 9346,
      "કોસ્ટ": 9347,
      "મેહુ": 9348,
      "રોમા": 9349,
      "જોયો": 9350,
      "િયાની": 9351,
      "દેવો": 9352,
      "સુપ્રિ": 9353,
      "વર્ધ": 9354,
      "ચેન્": 9355,
      "વધુને": 9356,
      "કોઈક": 9357,
      "શ્રો": 9358,
      "સર્જાય": 9359,
      "૨૦૧૫": 9360,
      "આંશિક": 9361,
      "રંગે": 9362,
      "એક્સેસ": 9363,
      "art": 9364,
      "હાઈકોર્ટમાં": 9365,
      "હાઇકોર્ટે": 9366,
      "હત્યાના": 9367,
      "ગુમાવ્યા": 9368,
      "વાજબી": 9369,
      "2020માં": 9370,
      "ગણતરીના": 9371,
      "લિસ્ટમાં": 9372,
      "બહાને": 9373,
      "ડબલ્યુ": 9374,
      "આશિષ": 9375,
      "એપિસો": 9376,
      "દરજ્જો": 9377,
      "સામૂહિક": 9378,
      "ber": 9379,
      "ઘર્": 9380,
      "છલ": 9381,
      "ડભો": 9382,
      "નરે": 9383,
      "રથી": 9384,
      "પાછું": 9385,
      "રોન": 9386,
      "જાની": 9387,
      "દાવે": 9388,
      "દીવાલ": 9389,
      "બીપી": 9390,
      "સોયા": 9391,
      "પુરો": 9392,
      "માનવી": 9393,
      "જૂને": 9394,
      "ગુજાર": 9395,
      "રુપ": 9396,
      "ઇનકાર": 9397,
      "108": 9398,
      "દર્દીઓમાં": 9399,
      "નોંધ્યું": 9400,
      "નુકસા": 9401,
      "અનુભવો": 9402,
      "વળવા": 9403,
      "સોમવાર": 9404,
      "સમર્થનમાં": 9405,
      "પ્રત્યક્ષ": 9406,
      "સોસાયટીના": 9407,
      "સમિતિની": 9408,
      "આતંકીઓ": 9409,
      "બાતમીના": 9410,
      "ટ્યુબ": 9411,
      "સરસ્વતી": 9412,
      "97": 9413,
      "ંુ": 9414,
      "ઘટે": 9415,
      "ડમ": 9416,
      "થયેલો": 9417,
      "નહેર": 9418,
      "મસ્તી": 9419,
      "૫૬": 9420,
      "મેરે": 9421,
      "મેલે": 9422,
      "પાડીને": 9423,
      "જાનથી": 9424,
      "સુખી": 9425,
      "પીટ": 9426,
      "ગુડ": 9427,
      "ગુપ્તા": 9428,
      "વોલ્યુ": 9429,
      "દરબાર": 9430,
      "રહેશો": 9431,
      "વરસ્યો": 9432,
      "વધુની": 9433,
      "ફેમિલી": 9434,
      "ભાઇએ": 9435,
      "પકડવા": 9436,
      "સ્વૈ": 9437,
      "સારવારમાં": 9438,
      "જરૂરીયાત": 9439,
      "રંગમાં": 9440,
      "૧૦૮": 9441,
      "શરદી": 9442,
      "બ્રાન્": 9443,
      "ઉપાયો": 9444,
      "વિશાલ": 9445,
      "ઘનશ્યામ": 9446,
      "પ્રોત્સાહિત": 9447,
      "હરીફ": 9448,
      "અમલીકરણ": 9449,
      "આજીવન": 9450,
      "ક્યો": 9451,
      "ઠરા": 9452,
      "તળે": 9453,
      "પસી": 9454,
      "બાર્": 9455,
      "ભગત": 9456,
      "રતન": 9457,
      "કેવો": 9458,
      "કેવું": 9459,
      "ંગર": 9460,
      "મુહૂ": 9461,
      "દીકરીને": 9462,
      "વર્ગો": 9463,
      "રહેણાંક": 9464,
      "ન્ડ્રો": 9465,
      "ળીઓ": 9466,
      "પડવાની": 9467,
      "કેસના": 9468,
      "મુખ્યપ્રધાન": 9469,
      "હોસ્પિટલની": 9470,
      "ટ્ટર": 9471,
      "નોંધાતા": 9472,
      "સ્ટાફે": 9473,
      "વૈયા": 9474,
      "કેમકે": 9475,
      "યૂઝર્સ": 9476,
      "સન્માનિત": 9477,
      "હાઉસિંગ": 9478,
      "રમાશે": 9479,
      "ગોળીઓ": 9480,
      "મૃતકના": 9481,
      "અટકળો": 9482,
      "ટેમ્પો": 9483,
      "પદાધિકારી": 9484,
      "વૈકલ્પિક": 9485,
      "ઉતા": 9486,
      "ઓપ્": 9487,
      "બારા": 9488,
      "૨ી": 9489,
      "૯૪": 9490,
      "નાકા": 9491,
      "કોપ": 9492,
      "હેલ્પ": 9493,
      "હાહા": 9494,
      "બેફામ": 9495,
      "સીમમાં": 9496,
      "પેર": 9497,
      "શ્વ": 9498,
      "છોડવામાં": 9499,
      "પાસેના": 9500,
      "પ્રેક્ષ": 9501,
      "નોંધાવ્યો": 9502,
      "અરબ": 9503,
      "પડેલી": 9504,
      "માતાની": 9505,
      "ઘટાડા": 9506,
      "હાઈકોર્ટ": 9507,
      "ગતિવિધિ": 9508,
      "ભૂમિકામાં": 9509,
      "ઓક્ટોબરે": 9510,
      "નાઇટ": 9511,
      "અફઘાનિસ્તાનમાં": 9512,
      "નેતૃત્વમાં": 9513,
      "નિપજ્યું": 9514,
      "સુશોભન": 9515,
      "એમ્બ્યુલન્સ": 9516,
      "ફફડાટ": 9517,
      "hats": 9518,
      "MS": 9519,
      "ub": 9520,
      "ઈસ્લા": 9521,
      "ઉડી": 9522,
      "ઉંચ": 9523,
      "પકા": 9524,
      "નીપ": 9525,
      "નીચલા": 9526,
      "કેતન": 9527,
      "નોટીસ": 9528,
      "પાટા": 9529,
      "રોટ": 9530,
      "ટી20": 9531,
      "સેફ્ટી": 9532,
      "રિલેશન": 9533,
      "કિય": 9534,
      "બુલેટ": 9535,
      "વિશેની": 9536,
      "કૃત્ય": 9537,
      "રેકટર": 9538,
      "નવજાત": 9539,
      "સદસ્ય": 9540,
      "પાછળનું": 9541,
      "કાયદાની": 9542,
      "ગ્રેજ્યુ": 9543,
      "ફુગા": 9544,
      "જંગલમાં": 9545,
      "પ્રસંગો": 9546,
      "પદ્ધતિઓ": 9547,
      "ઓગસ્ટના": 9548,
      "સમૃદ્ધિ": 9549,
      "હાનિકારક": 9550,
      "તજવીજ": 9551,
      "ઇલે": 9552,
      "ગિત": 9553,
      "તટ": 9554,
      "થનારી": 9555,
      "ફની": 9556,
      "સસ્તી": 9557,
      "જેકેટ": 9558,
      "બાજ": 9559,
      "પોત": 9560,
      "સેનિ": 9561,
      "ડીગ્રી": 9562,
      "સીરીઝ": 9563,
      "ખાનના": 9564,
      "આપની": 9565,
      "મતદાર": 9566,
      "અધિનિયમ": 9567,
      "ફ્લાઇટ": 9568,
      "ખાતેથી": 9569,
      "વાઈરલ": 9570,
      "વિષયો": 9571,
      "મ્યુચ્યુઅલ": 9572,
      "સમાજને": 9573,
      "સૈનિક": 9574,
      "પ્રવાસન": 9575,
      "બોલીવુડ": 9576,
      "નાયક": 9577,
      "બિલ્ડર": 9578,
      "જીતીને": 9579,
      "બૉલી": 9580,
      "શ્રેણીમાં": 9581,
      "મુસાફરોને": 9582,
      "ભરોસો": 9583,
      "લૉકડાઉન": 9584,
      "વસુલ": 9585,
      "વળાંક": 9586,
      "76": 9587,
      "On": 9588,
      "આકરી": 9589,
      "ઇકો": 9590,
      "ઈની": 9591,
      "તપા": 9592,
      "થીમ": 9593,
      "મેગે": 9594,
      "રોયલ": 9595,
      "લ્ટા": 9596,
      "આવકમાં": 9597,
      "રાજકુમાર": 9598,
      "ચોટી": 9599,
      "દિવસનો": 9600,
      "પ્રાકૃતિક": 9601,
      "પ્રતિકાર": 9602,
      "વચ્ચેનો": 9603,
      "અંગેનો": 9604,
      "પુરવાર": 9605,
      "જીવનને": 9606,
      "સ્ટોરેજ": 9607,
      "બાકીની": 9608,
      "યુવતીઓ": 9609,
      "ઢાંક": 9610,
      "ગૃહમાં": 9611,
      "ઝડપાયો": 9612,
      "સાર્વ": 9613,
      "અગત્યનું": 9614,
      "ઓકટો": 9615,
      "SE": 9616,
      "ly": 9617,
      "અવત": 9618,
      "આદુ": 9619,
      "ઉપાડ": 9620,
      "એનિ": 9621,
      "કપાત": 9622,
      "નક્ષત્ર": 9623,
      "૬૪": 9624,
      "૮૮": 9625,
      "રાવણ": 9626,
      "લાવ્યા": 9627,
      "રોમેન્ટ": 9628,
      "નિપ": 9629,
      "દાની": 9630,
      "સિડેન્ટ": 9631,
      "ખાનને": 9632,
      "મિસ": 9633,
      "શાલ": 9634,
      "અનંત": 9635,
      "સૌને": 9636,
      "પાણીને": 9637,
      "ભૂલો": 9638,
      "પ્રતિષ્ઠ": 9639,
      "ધ્વજ": 9640,
      "એફઆઈ": 9641,
      "વિનાશ": 9642,
      "પેટ્રોલિંગ": 9643,
      "ડૉલર": 9644,
      "કમાન્ડ": 9645,
      "વ્યવસાયમાં": 9646,
      "ભાવનગરમાં": 9647,
      "અલ્ટ્રા": 9648,
      "એમ્પ્લો": 9649,
      "ભરેલા": 9650,
      "મજૂરો": 9651,
      "તુલનામાં": 9652,
      "81": 9653,
      "ter": 9654,
      "અજ": 9655,
      "આક": 9656,
      "દારે": 9657,
      "પું": 9658,
      "બલિ": 9659,
      "રફા": 9660,
      "રબારી": 9661,
      "માજી": 9662,
      "માહી": 9663,
      "સ્કર": 9664,
      "સાબુ": 9665,
      "રોપ": 9666,
      "જાના": 9667,
      "સીએસ": 9668,
      "હિની": 9669,
      "વર્થ": 9670,
      "સ્થગિત": 9671,
      "પ્રેમિ": 9672,
      "ભરવાની": 9673,
      "રૂપિયાથી": 9674,
      "વરસાદથી": 9675,
      "પ્લાનિંગ": 9676,
      "જીત્યો": 9677,
      "સ્સામાં": 9678,
      "ક્યાંથી": 9679,
      "ચોરીના": 9680,
      "ટોચની": 9681,
      "ગાર્ડન": 9682,
      "સીઝનમાં": 9683,
      "સ્મશાન": 9684,
      "તોફાની": 9685,
      "તલાટી": 9686,
      "કવાયત": 9687,
      "\".": 9688,
      "છવાઈ": 9689,
      "નટ": 9690,
      "ફના": 9691,
      "૫૪": 9692,
      "માપદ": 9693,
      "માતૃ": 9694,
      "પાડા": 9695,
      "ભાવેશ": 9696,
      "નિશ": 9697,
      "જીડીપી": 9698,
      "સિગ": 9699,
      "ટાઇલ": 9700,
      "ગુલ": 9701,
      "ફરજીયાત": 9702,
      "સિંધુ": 9703,
      "ખુલી": 9704,
      "ચરલ": 9705,
      "ગિર": 9706,
      "દેવાયો": 9707,
      "સંકળાયેલ": 9708,
      "આશ્ચર્યજનક": 9709,
      "હૉસ્પિટ": 9710,
      "છૂટાછેડા": 9711,
      "સગવડ": 9712,
      "અરુણ": 9713,
      "પર્દાફા": 9714,
      "આસ્થા": 9715,
      "આખરી": 9716,
      "ગની": 9717,
      "ચશ્મા": 9718,
      "માળીયા": 9719,
      "વાઘા": 9720,
      "ગુપ્": 9721,
      "મૂંઝ": 9722,
      "પાસના": 9723,
      "દર્દીની": 9724,
      "માંગરો": 9725,
      "કિંગ્સ": 9726,
      "ક્રિકેટમાં": 9727,
      "બતાવવામાં": 9728,
      "લોકપ્રિયતા": 9729,
      "કેરળમાં": 9730,
      "કોમર્": 9731,
      "ઇજાગ્રસ્ત": 9732,
      "વંશ": 9733,
      "એકાએક": 9734,
      "વાવાઝોડા": 9735,
      "કવિતા": 9736,
      "ઘર્ષણ": 9737,
      "SS": 9738,
      "તપ": 9739,
      "દમ્બર": 9740,
      "મશરૂ": 9741,
      "સબંધ": 9742,
      "૫૧": 9743,
      "૭૩": 9744,
      "રીએ": 9745,
      "ટેક્ષ": 9746,
      "પાપ": 9747,
      "કારનો": 9748,
      "તીન": 9749,
      "પુત્રો": 9750,
      "શિક્ષા": 9751,
      "ફેક્શન": 9752,
      "સામેના": 9753,
      "ચિદમ્બર": 9754,
      "માર્ચના": 9755,
      "લગાવીને": 9756,
      "અસરગ્રસ્ત": 9757,
      "સહભાગી": 9758,
      "નંબરની": 9759,
      "સફળતાપૂર્વક": 9760,
      "ભાગીદાર": 9761,
      "બોલીવ": 9762,
      "ઇજાઓ": 9763,
      "ગૂગલ": 9764,
      "નિવેદનો": 9765,
      "હનુમાનજી": 9766,
      "મલ્ટિ": 9767,
      "ગઠબંધ": 9768,
      "તેટલું": 9769,
      "જોધપુર": 9770,
      "લખનઉ": 9771,
      "સ્ટેડિયમમાં": 9772,
      "શૅર": 9773,
      "120": 9774,
      "Whats": 9775,
      "ચણ": 9776,
      "ઠુ": 9777,
[...]
