{
  "version": "1.0",
  "truncation": null,
  "padding": null,
  "added_tokens": [
    {
      "id": 0,
      "content": "[UNK]",
      "single_word": false,
      "lstrip": false,
      "rstrip": false,
      "normalized": false,
      "special": true
    },
    {
      "id": 1,
      "content": "[PAD]",
      "single_word": false,
      "lstrip": false,
      "rstrip": false,
      "normalized": false,
      "special": true
    },
    {
      "id": 2,
      "content": "[BOS]",
      "single_word": false,
      "lstrip": false,
      "rstrip": false,
      "normalized": false,
      "special": true
    },
    {
      "id": 3,
      "content": "[EOS]",
      "single_word": false,
      "lstrip": false,
      "rstrip": false,
      "normalized": false,
      "special": true
    }
  ],
  "normalizer": {
    "type": "NFC"
  },
  "pre_tokenizer": {
    "type": "Whitespace"
  },
  "post_processor": null,
  "decoder": null,
  "model": {
    "type": "BPE",
    "dropout": null,
    "unk_token": "[UNK]",
    "continuing_subword_prefix": null,
    "end_of_word_suffix": null,
    "fuse_unk": false,
    "byte_fallback": false,
    "ignore_merges": false,
    "vocab": {
      "[UNK]": 0,
      "[PAD]": 1,
      "[BOS]": 2,
      "[EOS]": 3,
      "!": 4,
      "\"": 5,
      "#": 6,
      "$": 7,
      "%": 8,
      "&": 9,
      "'": 10,
      "(": 11,
      ")": 12,
      "*": 13,
      "+": 14,
      ",": 15,
      "-": 16,
      ".": 17,
      "/": 18,
      "0": 19,
      "1": 20,
      "2": 21,
      "3": 22,
      "4": 23,
      "5": 24,
      "6": 25,
      "7": 26,
      "8": 27,
      "9": 28,
      ":": 29,
      ";": 30,
      "<": 31,
      "=": 32,
      ">": 33,
      "?": 34,
      "@": 35,
      "A": 36,
      "B": 37,
      "C": 38,
      "D": 39,
      "E": 40,
      "F": 41,
      "G": 42,
      "H": 43,
      "I": 44,
      "J": 45,
      "K": 46,
      "L": 47,
      "M": 48,
      "N": 49,
      "O": 50,
      "P": 51,
      "Q": 52,
      "R": 53,
      "S": 54,
      "T": 55,
      "U": 56,
      "V": 57,
      "W": 58,
      "X": 59,
      "Y": 60,
      "Z": 61,
      "[": 62,
      "\\": 63,
      "]": 64,
      "_": 65,
      "`": 66,
      "a": 67,
      "b": 68,
      "c": 69,
      "d": 70,
      "e": 71,
      "f": 72,
      "g": 73,
      "h": 74,
      "i": 75,
      "j": 76,
      "k": 77,
      "l": 78,
      "m": 79,
      "n": 80,
      "o": 81,
      "p": 82,
      "q": 83,
      "r": 84,
      "s": 85,
      "t": 86,
      "u": 87,
      "v": 88,
      "w": 89,
      "x": 90,
      "y": 91,
      "z": 92,
      "{": 93,
      "|": 94,
      "}": 95,
      "~": 96,
      "": 97,
      "": 98,
      "": 99,
      "£": 100,
      "©": 101,
      "«": 102,
      "­": 103,
      "°": 104,
      "·": 105,
      "º": 106,
      "»": 107,
      "¼": 108,
      "½": 109,
      "¾": 110,
      "Â": 111,
      "Æ": 112,
      "Ì": 113,
      "×": 114,
      "Ù": 115,
      "Ú": 116,
      "Ý": 117,
      "à": 118,
      "á": 119,
      "â": 120,
      "é": 121,
      "ë": 122,
      "í": 123,
      "î": 124,
      "ï": 125,
      "÷": 126,
      "ü": 127,
      "ń": 128,
      "ő": 129,
      "š": 130,
      "Ź": 131,
      "˜": 132,
      "Μ": 133,
      "ί": 134,
      "α": 135,
      "ε": 136,
      "ι": 137,
      "λ": 138,
      "ν": 139,
      "ο": 140,
      "π": 141,
      "ρ": 142,
      "σ": 143,
      "υ": 144,
      "φ": 145,
      "а": 146,
      "б": 147,
      "в": 148,
      "е": 149,
      "к": 150,
      "л": 151,
      "н": 152,
      "о": 153,
      "п": 154,
      "с": 155,
      "т": 156,
      "у": 157,
      "ч": 158,
      "ы": 159,
      "ю": 160,
      "я": 161,
      "і": 162,
      "ँ": 163,
      "ं": 164,
      "अ": 165,
      "आ": 166,
      "उ": 167,
      "ऊ": 168,
      "ए": 169,
      "क": 170,
      "ख": 171,
      "ग": 172,
      "घ": 173,
      "च": 174,
      "ज": 175,
      "झ": 176,
      "ट": 177,
      "ड": 178,
      "ण": 179,
      "त": 180,
      "थ": 181,
      "द": 182,
      "ध": 183,
      "न": 184,
      "प": 185,
      "ब": 186,
      "भ": 187,
      "म": 188,
      "य": 189,
      "र": 190,
      "ल": 191,
      "व": 192,
      "श": 193,
      "ष": 194,
      "स": 195,
      "ह": 196,
      "ा": 197,
      "ि": 198,
      "ी": 199,
      "ु": 200,
      "ू": 201,
      "ृ": 202,
      "ॅ": 203,
      "े": 204,
      "ै": 205,
      "ॉ": 206,
      "ो": 207,
      "्": 208,
      "ॐ": 209,
      "।": 210,
      "०": 211,
      "२": 212,
      "४": 213,
      "ઁ": 214,
      "ં": 215,
      "ઃ": 216,
      "અ": 217,
      "આ": 218,
      "ઇ": 219,
      "ઈ": 220,
      "ઉ": 221,
      "ઊ": 222,
      "ઋ": 223,
      "ઍ": 224,
      "એ": 225,
      "ઐ": 226,
      "ઑ": 227,
      "ઓ": 228,
      "ઔ": 229,
      "ક": 230,
      "ખ": 231,
      "ગ": 232,
      "ઘ": 233,
      "ઙ": 234,
      "ચ": 235,
      "છ": 236,
      "જ": 237,
      "ઝ": 238,
      "ઞ": 239,
      "ટ": 240,
      "ઠ": 241,
      "ડ": 242,
      "ઢ": 243,
      "ણ": 244,
      "ત": 245,
      "થ": 246,
      "દ": 247,
      "ધ": 248,
      "ન": 249,
      "પ": 250,
      "ફ": 251,
      "બ": 252,
      "ભ": 253,
      "મ": 254,
      "ય": 255,
      "ર": 256,
      "લ": 257,
      "ળ": 258,
      "વ": 259,
      "શ": 260,
      "ષ": 261,
      "સ": 262,
      "હ": 263,
      "઼": 264,
      "ા": 265,
      "િ": 266,
      "ી": 267,
      "ુ": 268,
      "ૂ": 269,
      "ૃ": 270,
      "ૅ": 271,
      "ે": 272,
      "ૈ": 273,
      "ૉ": 274,
      "ો": 275,
      "ૌ": 276,
      "્": 277,
      "ૐ": 278,
      "ૠ": 279,
      "ૢ": 280,
      "૤": 281,
      "૦": 282,
      "૧": 283,
      "૨": 284,
      "૩": 285,
      "૪": 286,
      "૫": 287,
      "૬": 288,
      "૭": 289,
      "૮": 290,
      "૯": 291,
      "ச": 292,
      "ர": 293,
      "ழ": 294,
      "ோ": 295,
      "்": 296,
      "–": 297,
      "—": 298,
      "‘": 299,
      "’": 300,
      "‚": 301,
      "“": 302,
      "”": 303,
      "•": 304,
      "…": 305,
      "€": 306,
      "₹": 307,
      "№": 308,
      "™": 309,
      "→": 310,
      "−": 311,
      "√": 312,
      "▲": 313,
      "●": 314,
      "♡": 315,
      "♲": 316,
      "❣": 317,
      "": 318,
      "": 319,
      "️": 320,
      "｜": 321,
      "ﾍ": 322,
      "�": 323,
      "👉": 324,
      "👍": 325,
      "💐": 326,
      "મા": 327,
      "વા": 328,
      "ના": 329,
      "ને": 330,
      "્ય": 331,
      "માં": 332,
      "્ર": 333,
      "ાર": 334,
      "છે": 335,
      "ની": 336,
      "કર": 337,
      "ું": 338,
      "તે": 339,
      "તા": 340,
      "સ્": 341,
      "રા": 342,
      "ર્": 343,
      "કે": 344,
      "લા": 345,
      "થી": 346,
      "અને": 347,
      "કો": 348,
      "સા": 349,
      "નો": 350,
      "કા": 351,
      "વિ": 352,
      "રી": 353,
      "પ્ર": 354,
      "ક્": 355,
      "ન્": 356,
      "્યા": 357,
      "ટે": 358,
      "પર": 359,
      "યા": 360,
      "હત": 361,
      "વી": 362,
      "મે": 363,
      "હે": 364,
      "પા": 365,
      "કાર": 366,
      "વે": 367,
      "જે": 368,
      "લી": 369,
      "રો": 370,
      "પણ": 371,
      "ભા": 372,
      "જા": 373,
      "ત્ર": 374,
      "હો": 375,
      "ંગ": 376,
      "રે": 377,
      "શે": 378,
      "લો": 379,
      "લે": 380,
      "માટે": 381,
      "નિ": 382,
      "કરી": 383,
      "પો": 384,
      "બા": 385,
      "નું": 386,
      "તો": 387,
      "મો": 388,
      "વામાં": 389,
      "લ્": 390,
      "જો": 391,
      "તિ": 392,
      "યો": 393,
      "એક": 394,
      "ટી": 395,
      "્યો": 396,
      "જી": 397,
      "સે": 398,
      "તી": 399,
      "્યું": 400,
      "સં": 401,
      "હી": 402,
      "ડી": 403,
      "દે": 404,
      "આવ": 405,
      "િયા": 406,
      "સુ": 407,
      "ડા": 408,
      "રૂ": 409,
      "ણી": 410,
      "હા": 411,
      "થે": 412,
      "દા": 413,
      "તેમ": 414,
      "ક્ષ": 415,
      "ણા": 416,
      "બે": 417,
      "મુ": 418,
      "ધી": 419,
      "થા": 420,
      "ારે": 421,
      "સાથે": 422,
      "દી": 423,
      "પી": 424,
      "સી": 425,
      "સિ": 426,
      "ત્": 427,
      "દિ": 428,
      "દ્": 429,
      "ગા": 430,
      "ચા": 431,
      "હતી": 432,
      "ખા": 433,
      "મી": 434,
      "હિ": 435,
      "સર": 436,
      "સ્ટ": 437,
      "મિ": 438,
      "વધ": 439,
      "ંત": 440,
      "વર્": 441,
      "ણે": 442,
      "સમ": 443,
      "શા": 444,
      "ધા": 445,
      "કી": 446,
      "બી": 447,
      "સો": 448,
      "હતા": 449,
      "રિ": 450,
      "મળ": 451,
      "ટ્ર": 452,
      "લિ": 453,
      "રાજ": 454,
      "ટા": 455,
      "કરવા": 456,
      "પે": 457,
      "રહ": 458,
      "્યારે": 459,
      "નથી": 460,
      "હતો": 461,
      "તમા": 462,
      "ક્ર": 463,
      "શન": 464,
      "આવે": 465,
      "ગુ": 466,
      "વાર": 467,
      "પૂ": 468,
      "વો": 469,
      "ષ્": 470,
      "ગ્ર": 471,
      "ડિ": 472,
      "યુ": 473,
      "લોકો": 474,
      "આવી": 475,
      "કિ": 476,
      "પુ": 477,
      "ડે": 478,
      "રહે": 479,
      "યે": 480,
      "દર": 481,
      "ચે": 482,
      "ારી": 483,
      "આપ": 484,
      "ાર્": 485,
      "શ્": 486,
      "કરવામાં": 487,
      "સ્ત": 488,
      "પ્": 489,
      "્યુ": 490,
      "દેશ": 491,
      "હતું": 492,
      "ન્ટ": 493,
      "માન": 494,
      "મં": 495,
      "ડો": 496,
      "બં": 497,
      "હોય": 498,
      "ળા": 499,
      "ગી": 500,
      "છી": 501,
      "શિ": 502,
      "બો": 503,
      "વારા": 504,
      "ભાર": 505,
      "વર્ષ": 506,
      "ંચ": 507,
      "દ્વારા": 508,
      "ઉપ": 509,
      "અન": 510,
      "વું": 511,
      "તર": 512,
      "ગે": 513,
      "ગર": 514,
      "તાં": 515,
      "મ્": 516,
      "િલ્": 517,
      "વધુ": 518,
      "વાની": 519,
      "વર": 520,
      "પોલી": 521,
      "દ્ર": 522,
      "કેટ": 523,
      "્યાં": 524,
      "વ્ય": 525,
      "સુધી": 526,
      "્રે": 527,
      "પિ": 528,
      "છો": 529,
      "કરે": 530,
      "સ્થ": 531,
      "ત્રી": 532,
      "ન્ડ": 533,
      "જુ": 534,
      "ફે": 535,
      "બાદ": 536,
      "સરકાર": 537,
      "બના": 538,
      "પોતા": 539,
      "થઈ": 540,
      "ખે": 541,
      "ચ્": 542,
      "ટર": 543,
      "કરો": 544,
      "દિવ": 545,
      "ટિ": 546,
      "કુ": 547,
      "પરિ": 548,
      "કોઈ": 549,
      "શો": 550,
      "જણા": 551,
      "શકે": 552,
      "સાર": 553,
      "તમે": 554,
      "ળી": 555,
      "ંતુ": 556,
      "કામ": 557,
      "િત": 558,
      "ટો": 559,
      "દુ": 560,
      "પરંતુ": 561,
      "સ્થા": 562,
      "હીં": 563,
      "પહે": 564,
      "રીતે": 565,
      "ગો": 566,
      "મને": 567,
      "ફા": 568,
      "રોના": 569,
      "કરા": 570,
      "માંથી": 571,
      "નાં": 572,
      "દો": 573,
      "ફો": 574,
      "રહી": 575,
      "થવા": 576,
      "ચાર": 577,
      "જન": 578,
      "રાત": 579,
      "ત્યારે": 580,
      "િક": 581,
      "કોરોના": 582,
      "કહ": 583,
      "યોગ": 584,
      "..": 585,
      "બર": 586,
      "20": 587,
      "ર્ટ": 588,
      "દર્": 589,
      "વવા": 590,
      "પૂર્": 591,
      "તેના": 592,
      "તેઓ": 593,
      "હેર": 594,
      "લગ": 595,
      "કં": 596,
      "પછી": 597,
      "પોલીસ": 598,
      "સામે": 599,
      "ચી": 600,
      "રાખ": 601,
      "હાર": 602,
      "વન": 603,
      "ધિ": 604,
      "થાય": 605,
      "ફર": 606,
      "મુખ": 607,
      "ન્સ": 608,
      "ભાગ": 609,
      "ચો": 610,
      "કહ્યું": 611,
      "બંધ": 612,
      "ન્દ્ર": 613,
      "ભાઈ": 614,
      "જૂ": 615,
      "સમય": 616,
      "બિ": 617,
      "રહ્યા": 618,
      "કાર્ય": 619,
      "ગુજ": 620,
      "મહિ": 621,
      "ારો": 622,
      "ંક": 623,
      "શ્ર": 624,
      "ભારત": 625,
      "લમાં": 626,
      "ત્ય": 627,
      "લુ": 628,
      "સૌ": 629,
      "યું": 630,
      "હોવા": 631,
      "પડ": 632,
      "જ્યારે": 633,
      "વાદ": 634,
      "એમ": 635,
      "કારણે": 636,
      "કારી": 637,
      "જણાવ": 638,
      "સમા": 639,
      "યર": 640,
      "નમાં": 641,
      "્સ": 642,
      "શરૂ": 643,
      "તેની": 644,
      "ખો": 645,
      "અમ": 646,
      "હવે": 647,
      "શી": 648,
      "જવા": 649,
      "ધો": 650,
      "ચૂ": 651,
      "મળી": 652,
      "ઓને": 653,
      "અં": 654,
      "એસ": 655,
      "તરી": 656,
      "મૂ": 657,
      "મત": 658,
      "વાત": 659,
      "દિવસ": 660,
      "લાક": 661,
      "રુ": 662,
      "બ્": 663,
      "કાય": 664,
      "તેને": 665,
      "વારે": 666,
      "અથવા": 667,
      "જરૂ": 668,
      "પાસ": 669,
      "ગુજરાત": 670,
      "ચિ": 671,
      "ધાર": 672,
      "અમે": 673,
      "પાસે": 674,
      "નહીં": 675,
      "શક": 676,
      "બાળ": 677,
      "નિર્": 678,
      "પ્રા": 679,
      "અનુ": 680,
      "પહેલા": 681,
      "હુ": 682,
      "કલ": 683,
      "00": 684,
      "કર્": 685,
      "કર્યો": 686,
      "ઉત્": 687,
      "ક્તિ": 688,
      "પાણી": 689,
      "માર": 690,
      "પની": 691,
      "સર્": 692,
      "નગર": 693,
      "ટકા": 694,
      "મારી": 695,
      "વિસ્ત": 696,
      "જાણ": 697,
      "જોઈ": 698,
      "જિલ્": 699,
      "સૂ": 700,
      "રાજ્ય": 701,
      "પહો": 702,
      "જિલ્લા": 703,
      "આજે": 704,
      "જય": 705,
      "સિં": 706,
      "ભૂ": 707,
      "ગ્રા": 708,
      "નોં": 709,
      "દાર": 710,
      "ંડ": 711,
      "તમારા": 712,
      "ટના": 713,
      "તેમના": 714,
      "સ્તા": 715,
      "નુ": 716,
      "દરમ": 717,
      "ક્ષા": 718,
      "મંત્રી": 719,
      "ક્સ": 720,
      "આપી": 721,
      "ભાઇ": 722,
      "આવ્યા": 723,
      "લઈ": 724,
      "કહે": 725,
      "છા": 726,
      "મના": 727,
      "રૂપ": 728,
      "િયાન": 729,
      "બ્ર": 730,
      "કારણ": 731,
      "અભ": 732,
      "બુ": 733,
      "શું": 734,
      "માર્": 735,
      "હિત": 736,
      "આવ્યો": 737,
      "જેમાં": 738,
      "સ્ટે": 739,
      "કરીને": 740,
      "અંગ": 741,
      "પ્રે": 742,
      "ભર": 743,
      "એટ": 744,
      "કેસ": 745,
      "ષ્ટ્ર": 746,
      "ખુ": 747,
      "કરતા": 748,
      "તેમણે": 749,
      "ફિલ્": 750,
      "થો": 751,
      "આરો": 752,
      "વચ્": 753,
      "થઇ": 754,
      "મમાં": 755,
      "ભાવ": 756,
      "તથા": 757,
      "અન્ય": 758,
      "દ્ધ": 759,
      "નના": 760,
      "નની": 761,
      "ગયા": 762,
      "ખૂ": 763,
      "ંટ": 764,
      "પોતાના": 765,
      "ઉપર": 766,
      "બદ": 767,
      "ર્સ": 768,
      "રોજ": 769,
      "કંપની": 770,
      "નં": 771,
      "જોવા": 772,
      "સ્થિ": 773,
      "મુખ્ય": 774,
      "ઠા": 775,
      "જણાવ્યું": 776,
      "દૂ": 777,
      "ત્રણ": 778,
      "સૌથી": 779,
      "ભાજ": 780,
      "ભી": 781,
      "તમામ": 782,
      "દરમિયાન": 783,
      "પ્રતિ": 784,
      "જબ": 785,
      "૦૦": 786,
      "ર્ડ": 787,
      "નવા": 788,
      "પ્રો": 789,
      "તરીકે": 790,
      "થયા": 791,
      "માત્ર": 792,
      "ક્ષણ": 793,
      "પુર": 794,
      "ગત": 795,
      "પૂર્ણ": 796,
      "સુર": 797,
      "લોક": 798,
      "શુ": 799,
      "વચ્ચે": 800,
      "ધાન": 801,
      "માણ": 802,
      "મહા": 803,
      "ંગ્રે": 804,
      "સાં": 805,
      "નામ": 806,
      "જના": 807,
      "તેમજ": 808,
      "ઉપયોગ": 809,
      "અધિ": 810,
      "તુ": 811,
      "રહ્યો": 812,
      "ક્ત": 813,
      "બની": 814,
      "લ્લા": 815,
      "પાર્": 816,
      "હાથ": 817,
      "કોંગ્રે": 818,
      "અમદા": 819,
      "લું": 820,
      "વખ": 821,
      "જાય": 822,
      "પગ": 823,
      "સ્વ": 824,
      "આત": 825,
      "આપણ": 826,
      "મેળ": 827,
      "ૃત": 828,
      "અમદાવાદ": 829,
      "ઝા": 830,
      "ખૂબ": 831,
      "આવશે": 832,
      "યેલા": 833,
      "લના": 834,
      "જોઈએ": 835,
      "તરફ": 836,
      "હું": 837,
      "વ્યક્તિ": 838,
      "ડિયા": 839,
      "અંગે": 840,
      "ઘર": 841,
      "શહેર": 842,
      "વ્યા": 843,
      "ત્યાં": 844,
      "જાર": 845,
      "થશે": 846,
      "સિંહ": 847,
      "ફ્": 848,
      "ધ્ય": 849,
      "નિય": 850,
      "તેમને": 851,
      "ફિ": 852,
      "પહોંચ": 853,
      "વાનો": 854,
      "નિક": 855,
      "ઘા": 856,
      "આવ્યું": 857,
      "મોટા": 858,
      "રાષ્ટ્ર": 859,
      "રણ": 860,
      "થયો": 861,
      "પક": 862,
      "મોદી": 863,
      "સહિત": 864,
      "વિસ્તાર": 865,
      "શ્રી": 866,
      "તેમની": 867,
      "મહિલા": 868,
      "સ્થિતિ": 869,
      "ર્થ": 870,
      "વિશે": 871,
      "ગ્યા": 872,
      "વાસ": 873,
      "યલ": 874,
      "ઘટના": 875,
      "તૈ": 876,
      "મદ": 877,
      "લાખ": 878,
      "કર્યું": 879,
      "માન્ય": 880,
      "નાર": 881,
      "વવામાં": 882,
      "ખ્યા": 883,
      "ફરી": 884,
      "આગ": 885,
      "લાઈ": 886,
      "ઓની": 887,
      "જ્": 888,
      "ત્યાર": 889,
      "દિલ્": 890,
      "કોંગ્રેસ": 891,
      "તું": 892,
      "ગાં": 893,
      "રૂપિયા": 894,
      "ભાજપ": 895,
      "આર": 896,
      "કરોડ": 897,
      "દરે": 898,
      "પોર્ટ": 899,
      "ક્ટ": 900,
      "મહત": 901,
      "સ્પિ": 902,
      "જિ": 903,
      "ખી": 904,
      "ઇન": 905,
      "આઈ": 906,
      "મારા": 907,
      "વિશ્": 908,
      "સ્ક": 909,
      "દિલ્હી": 910,
      "ધ્યા": 911,
      "જીવન": 912,
      "કેન્દ્ર": 913,
      "થમ": 914,
      "બહાર": 915,
      "તપાસ": 916,
      "કર્યા": 917,
      "જરૂર": 918,
      "પં": 919,
      "પોતાની": 920,
      "તૈય": 921,
      "ઘણા": 922,
      "કુલ": 923,
      "ળો": 924,
      "પ્રથમ": 925,
      "દન": 926,
      "નવી": 927,
      "ચૂંટ": 928,
      "કરવાની": 929,
      "બન": 930,
      "ત્રો": 931,
      "ચૂંટણી": 932,
      "તમને": 933,
      "આપવામાં": 934,
      "પટે": 935,
      "લાં": 936,
      "ભારતી": 937,
      "શકો": 938,
      "કોટ": 939,
      "અધિકારી": 940,
      "કેટલાક": 941,
      "તમારી": 942,
      "ટ્રે": 943,
      "પ્રિ": 944,
      "સ્પિટ": 945,
      "ટ્": 946,
      "ધર": 947,
      "મેન્ટ": 948,
      "ત્રા": 949,
      "10": 950,
      "ચાલ": 951,
      "ર્મ": 952,
      "દરેક": 953,
      "વાય": 954,
      "પતિ": 955,
      "જર": 956,
      "સાદ": 957,
      "ડૂ": 958,
      "ફળ": 959,
      "હોસ્પિટ": 960,
      "વ્યવ": 961,
      "પર્": 962,
      "બેઠ": 963,
      "મહત્": 964,
      "ઝડ": 965,
      "ગઈ": 966,
      "સામાન્ય": 967,
      "સ્વા": 968,
      "19": 969,
      "મળે": 970,
      "દ્ય": 971,
      "રહ્યું": 972,
      "ધરા": 973,
      "વડા": 974,
      "સંગ": 975,
      "મુજબ": 976,
      "મર": 977,
      "ખાતે": 978,
      "જેટ": 979,
      "બીજા": 980,
      "૨૦": 981,
      "રહેશે": 982,
      "પરિવાર": 983,
      "પૂર્વ": 984,
      "ંત્ર": 985,
      "વૃ": 986,
      "વાન": 987,
      "મણ": 988,
      "ગયો": 989,
      "બંને": 990,
      "ફી": 991,
      "ક્રિ": 992,
      "હાલ": 993,
      "ઓમાં": 994,
      "જાહેર": 995,
      "ગાંધી": 996,
      "આઇ": 997,
      "નેતા": 998,
      "મની": 999,
      "સભા": 1000,
      "કરશે": 1001,
      "બાળકો": 1002,
      "નોંધા": 1003,
      "આં": 1004,
      "ીય": 1005,
      "શકાય": 1006,
      "ાર્થી": 1007,
      "અહીં": 1008,
      "ુંબ": 1009,
      "મહે": 1010,
      "સભ": 1011,
      "ઇન્": 1012,
      "ભગ": 1013,
      "લેવા": 1014,
      "મનો": 1015,
      "અલગ": 1016,
      "જન્": 1017,
      "મન": 1018,
      "ટ્રા": 1019,
      "સાય": 1020,
      "લોકોને": 1021,
      "એટલે": 1022,
      "પ્રકાર": 1023,
      "વિધ": 1024,
      "વિક": 1025,
      "પોલીસે": 1026,
      "પડે": 1027,
      "રાંત": 1028,
      "વાયર": 1029,
      "ભારતીય": 1030,
      "પરી": 1031,
      "...": 1032,
      "ઉમે": 1033,
      "કમાં": 1034,
      "રાજકોટ": 1035,
      "મદદ": 1036,
      "લઇ": 1037,
      "વતા": 1038,
      "ગ્": 1039,
      "દર્દી": 1040,
      "મોત": 1041,
      "નારા": 1042,
      "ખાસ": 1043,
      "ખેડૂ": 1044,
      "વેશ": 1045,
      "યન": 1046,
      "ઉપરાંત": 1047,
      "ઓના": 1048,
      "ભે": 1049,
      "કોઇ": 1050,
      "કરતાં": 1051,
      "તાલુ": 1052,
      "્યૂ": 1053,
      "પ્રધાન": 1054,
      "ષ્ટ": 1055,
      "ક્ષે": 1056,
      "નિર્ણ": 1057,
      "વરસાદ": 1058,
      "ભો": 1059,
      "મૃત": 1060,
      "ળે": 1061,
      "્રા": 1062,
      "ંકા": 1063,
      "વણી": 1064,
      "દવા": 1065,
      "ારા": 1066,
      "ઓએ": 1067,
      "વધારે": 1068,
      "અર": 1069,
      "પસં": 1070,
      "તમાં": 1071,
      "ખરી": 1072,
      "ક્ટર": 1073,
      "મક": 1074,
      "અભિ": 1075,
      "તાલુકા": 1076,
      "પસંદ": 1077,
      "મોટી": 1078,
      "યુવ": 1079,
      "લગ્": 1080,
      "વિદ્ય": 1081,
      "ચર": 1082,
      "જેમ": 1083,
      "મામ": 1084,
      "આવેલા": 1085,
      "દૂર": 1086,
      "એલ": 1087,
      "છું": 1088,
      "લગા": 1089,
      "ટ્રો": 1090,
      "આપે": 1091,
      "પડી": 1092,
      "પત્": 1093,
      "સમયે": 1094,
      "સારવાર": 1095,
      "બધા": 1096,
      "બેન": 1097,
      "પ્ત": 1098,
      "છેલ્લા": 1099,
      "ચારી": 1100,
      "બીજી": 1101,
      "દેશમાં": 1102,
      "જરૂરી": 1103,
      "અમેરિ": 1104,
      "ચના": 1105,
      "લેખ": 1106,
      "ન્ટર": 1107,
      "તંત્ર": 1108,
      "પક્ષ": 1109,
      "માહિ": 1110,
      "વિદ્યાર્થી": 1111,
      "ંદ": 1112,
      "પાંચ": 1113,
      "માતા": 1114,
      "મંદિ": 1115,
      "લર": 1116,
      "ઘણી": 1117,
      "મુંબ": 1118,
      "ત્વ": 1119,
      "નિર્ણય": 1120,
      "અનેક": 1121,
      "જેના": 1122,
      "વાનું": 1123,
      "પરા": 1124,
      "પૈ": 1125,
      "પટેલ": 1126,
      "તેણે": 1127,
      "લઈને": 1128,
      "જ્ઞ": 1129,
      "માહિતી": 1130,
      "નાના": 1131,
      "રોડ": 1132,
      "સના": 1133,
      "દાન": 1134,
      "દેખા": 1135,
      "ફિલ્મ": 1136,
      "લાગ": 1137,
      "બનાવ": 1138,
      "હન": 1139,
      "મ્બર": 1140,
      "નાગ": 1141,
      "તેમાં": 1142,
      "સત": 1143,
      "સમાં": 1144,
      "વિવિધ": 1145,
      "એન": 1146,
      "કૃ": 1147,
      "લાઇ": 1148,
      "કાર્": 1149,
      "મહત્વ": 1150,
      "સંખ્યા": 1151,
      "કર્મ": 1152,
      "થયું": 1153,
      "ડિયો": 1154,
      "પ્લા": 1155,
      "સ્તુ": 1156,
      "જગ્યા": 1157,
      "ધન": 1158,
      "રંગ": 1159,
      "લ્ડ": 1160,
      "યોજના": 1161,
      "તેથી": 1162,
      "અંત": 1163,
      "આગળ": 1164,
      "ચુ": 1165,
      "છીએ": 1166,
      "વાના": 1167,
      "ફરિયા": 1168,
      "રામ": 1169,
      "સારી": 1170,
      "કોર્": 1171,
      "વિચાર": 1172,
      "ગ્રામ": 1173,
      "તૈયાર": 1174,
      "જોકે": 1175,
      "માંગ": 1176,
      "બાબ": 1177,
      "ગ્ય": 1178,
      "ગં": 1179,
      "મહિના": 1180,
      "ક્રિયા": 1181,
      "લન": 1182,
      "જ્યાં": 1183,
      "કોર્ટ": 1184,
      "છતાં": 1185,
      "મિક": 1186,
      "સમગ્ર": 1187,
      "ર્ચા": 1188,
      "ખાન": 1189,
      "જેથી": 1190,
      "નજી": 1191,
      "કરણ": 1192,
      "કાસ": 1193,
      "યેલી": 1194,
      "કની": 1195,
      "મંદિર": 1196,
      "પાર": 1197,
      "સ્ટો": 1198,
      "કલાક": 1199,
      "કારો": 1200,
      "પૂર": 1201,
      "વધી": 1202,
      "દેવ": 1203,
      "દર્શન": 1204,
      "સેવા": 1205,
      "અસર": 1206,
      "પાકિ": 1207,
      "વિશ્વ": 1208,
      "પાકિસ્તા": 1209,
      "હજાર": 1210,
      "વાહી": 1211,
      "નિયા": 1212,
      "વિસ્તારમાં": 1213,
      "કમ": 1214,
      "15": 1215,
      "વિભાગ": 1216,
      "૧૦": 1217,
      "સતત": 1218,
      "શાળા": 1219,
      "ઓફ": 1220,
      "ઝિ": 1221,
      "યોગ્ય": 1222,
      "ટન": 1223,
      "નવ": 1224,
      "તેનો": 1225,
      "સ્ટા": 1226,
      "કના": 1227,
      "ફૂ": 1228,
      "હશે": 1229,
      "યેલ": 1230,
      "સરકારે": 1231,
      "વખત": 1232,
      "અપ": 1233,
      "ધુ": 1234,
      "જીત": 1235,
      "મ્પ": 1236,
      "આગા": 1237,
      "લની": 1238,
      "ગ્રી": 1239,
      "ખેડૂતો": 1240,
      "કને": 1241,
      "ઘટા": 1242,
      "દિવસે": 1243,
      "તેવી": 1244,
      "આવતા": 1245,
      "એક્": 1246,
      "બને": 1247,
      "વર્ષે": 1248,
      "પિતા": 1249,
      "ઉં": 1250,
      "હેઠ": 1251,
      "ગીરી": 1252,
      "સંબંધ": 1253,
      "હેઠળ": 1254,
      "ડવા": 1255,
      "જેવા": 1256,
      "ધારા": 1257,
      "ઘરે": 1258,
      "વ્યો": 1259,
      "જોડા": 1260,
      "લગ્ન": 1261,
      "કર્મચારી": 1262,
      "સ્યા": 1263,
      "કાર્યક્ર": 1264,
      "હતાં": 1265,
      "મળશે": 1266,
      "12": 1267,
      "આમ": 1268,
      "પાછ": 1269,
      "પડશે": 1270,
      "આવેલ": 1271,
      "હોવાનું": 1272,
      "આરોપી": 1273,
      "શિયલ": 1274,
      "મિત": 1275,
      "રાખી": 1276,
      "આપણે": 1277,
      "ઉલ્": 1278,
      "પ્રમુખ": 1279,
      "ટીમ": 1280,
      "વાલ": 1281,
      "પદ": 1282,
      "બનાવી": 1283,
      "રસ": 1284,
      "૧૯": 1285,
      "ચર્ચા": 1286,
      "પત્ર": 1287,
      "લાભ": 1288,
      "વાળા": 1289,
      "ઉત્પા": 1290,
      "અનુસાર": 1291,
      "ફરિયાદ": 1292,
      "ઝી": 1293,
      "ચાલી": 1294,
      "કેવી": 1295,
      "ટિંગ": 1296,
      "તમ": 1297,
      "એવું": 1298,
      "પહોંચી": 1299,
      "મુખ્યમંત્રી": 1300,
      "ધું": 1301,
      "્રી": 1302,
      "ગામ": 1303,
      "કીય": 1304,
      "પાર્ટી": 1305,
      "આયો": 1306,
      "એવી": 1307,
      "કત": 1308,
      "કલા": 1309,
      "નીય": 1310,
      "મીડિયા": 1311,
      "રેન્દ્ર": 1312,
      "સિક": 1313,
      "આવા": 1314,
      "લગભગ": 1315,
      "એન્": 1316,
      "ઠી": 1317,
      "બલ": 1318,
      "કાળ": 1319,
      "મોર": 1320,
      "શ્કે": 1321,
      "સંપૂર્ણ": 1322,
      "લિક": 1323,
      "વખતે": 1324,
      "અમેરિકા": 1325,
      "ભારે": 1326,
      "કાં": 1327,
      "હુમ": 1328,
      "ડાઉ": 1329,
      "ટમાં": 1330,
      "દરા": 1331,
      "વીડિયો": 1332,
      "ચ્છ": 1333,
      "રજૂ": 1334,
      "ત્તા": 1335,
      "શક્ય": 1336,
      "જ્ઞા": 1337,
      "કોને": 1338,
      "ગણ": 1339,
      "નને": 1340,
      "નોંધ": 1341,
      "સ્વી": 1342,
      "બનાવવા": 1343,
      "વધારો": 1344,
      "સમસ્યા": 1345,
      "શરી": 1346,
      "વાઈ": 1347,
      "સ્મા": 1348,
      "લાલ": 1349,
      "પરિણા": 1350,
      "શર": 1351,
      "પ્રદેશ": 1352,
      "ચાલુ": 1353,
      "ટિવ": 1354,
      "ભુ": 1355,
      "મેચ": 1356,
      "ષ્ઠ": 1357,
      "વત": 1358,
      "એર": 1359,
      "સફળ": 1360,
      "વલ": 1361,
      "પહેલાં": 1362,
      "વિજય": 1363,
      "ટ્સ": 1364,
      "શેર": 1365,
      "દાખ": 1366,
      "મુદ્": 1367,
      "કાર્યવાહી": 1368,
      "વસ્તુ": 1369,
      "રોધ": 1370,
      "લાગે": 1371,
      "વિષ": 1372,
      "ંગા": 1373,
      "વૈ": 1374,
      "મુંબઈ": 1375,
      "જવાબ": 1376,
      "મીન": 1377,
      "ઈન્": 1378,
      "સદ": 1379,
      "નીક": 1380,
      "જેને": 1381,
      "થતા": 1382,
      "પરે": 1383,
      "લિકા": 1384,
      "જોઇ": 1385,
      "કામગીરી": 1386,
      "તક": 1387,
      "ચૂક": 1388,
      "એવા": 1389,
      "જીવ": 1390,
      "પ્રયા": 1391,
      "શાન": 1392,
      "નર": 1393,
      "માણે": 1394,
      "ઇલ": 1395,
      "જનો": 1396,
      "ંકી": 1397,
      "11": 1398,
      "ટેસ્ટ": 1399,
      "ફોન": 1400,
      "વાસી": 1401,
      "સુરત": 1402,
      "ત્રે": 1403,
      "જાણી": 1404,
      "આરોગ્ય": 1405,
      "ષણ": 1406,
      "નીચે": 1407,
      "પાછળ": 1408,
      "હર": 1409,
      "યાદ": 1410,
      "પકડ": 1411,
      "નાણા": 1412,
      "જેવી": 1413,
      "શરીર": 1414,
      "અગા": 1415,
      "થ્": 1416,
      "18": 1417,
      "સલા": 1418,
      "મુલા": 1419,
      "શરૂઆત": 1420,
      "જાહે": 1421,
      "માર્ગ": 1422,
      "ધે": 1423,
      "ગર્": 1424,
      "મુશ્કે": 1425,
      "કાત": 1426,
      "પાડ": 1427,
      "રિક": 1428,
      "જશે": 1429,
      "ગુજરાતમાં": 1430,
      "જિલ્લામાં": 1431,
      "ંમત": 1432,
      "જામ": 1433,
      "30": 1434,
      "અવ": 1435,
      "પત્ની": 1436,
      "ઢી": 1437,
      "શ્રે": 1438,
      "વિકાસ": 1439,
      "ક્યારે": 1440,
      "જઈ": 1441,
      "સહ": 1442,
      "નાની": 1443,
      "રોકા": 1444,
      "લાય": 1445,
      "કરવાનો": 1446,
      "ખર્": 1447,
      "પ્રમાણે": 1448,
      "આગામી": 1449,
      "ત્રિ": 1450,
      "કસ": 1451,
      "સાન": 1452,
      "લ્સ": 1453,
      "અગાઉ": 1454,
      "લખ": 1455,
      "લેટ": 1456,
      "લેન્ડ": 1457,
      "અત્યાર": 1458,
      "બાજુ": 1459,
      "મતા": 1460,
      "સવારે": 1461,
      "કાઉ": 1462,
      "બ્રા": 1463,
      "સ્ટેશન": 1464,
      "અર્": 1465,
      "ન્યુ": 1466,
      "હં": 1467,
      "રહ્યાં": 1468,
      "ફેર": 1469,
      "કપ": 1470,
      "નુક": 1471,
      "પાલિકા": 1472,
      "સપ્": 1473,
      "ઓળ": 1474,
      "યત": 1475,
      "ગંભી": 1476,
      "હાલમાં": 1477,
      "સ્ટ્રે": 1478,
      "રોક": 1479,
      "ભારતમાં": 1480,
      "અનુભ": 1481,
      "બાઈ": 1482,
      "આધાર": 1483,
      "કેટલી": 1484,
      "કરવો": 1485,
      "ઉલ્લેખ": 1486,
      "રોગ": 1487,
      "ગંભીર": 1488,
      "શ્ય": 1489,
      "યુનિ": 1490,
      "શોધ": 1491,
      "હોવાથી": 1492,
      "પાસેથી": 1493,
      "ક્સિ": 1494,
      "જાહેરાત": 1495,
      "આજ": 1496,
      "ક્કી": 1497,
      "નેટ": 1498,
      "ડીને": 1499,
      "ત્મક": 1500,
      "વુ": 1501,
      "ંચા": 1502,
      "મહાર": 1503,
      "આપવા": 1504,
      "રહેલા": 1505,
      "મધ્ય": 1506,
      "સની": 1507,
      "સરળ": 1508,
      "રિપોર્ટ": 1509,
      "ઝો": 1510,
      "સભ્યો": 1511,
      "14": 1512,
      "જરી": 1513,
      "કેમ": 1514,
      "અભ્યા": 1515,
      "ંતિ": 1516,
      "ગયું": 1517,
      "ધરી": 1518,
      "યોજા": 1519,
      "મહારા": 1520,
      "ડર": 1521,
      "ડું": 1522,
      "નક": 1523,
      "બજાર": 1524,
      "રાજ્યમાં": 1525,
      "50": 1526,
      "પ્રિય": 1527,
      "કાન": 1528,
      "સ્થિત": 1529,
      "નિષ્": 1530,
      "પોરે": 1531,
      "નજીક": 1532,
      "તન": 1533,
      "દાય": 1534,
      "17": 1535,
      "કૂ": 1536,
      "ટલ": 1537,
      "પ્રમાણ": 1538,
      "વીને": 1539,
      "જતા": 1540,
      "લીધો": 1541,
      "નંબર": 1542,
      "ધ્": 1543,
      "હાઈ": 1544,
      "મૃત્યુ": 1545,
      "શિયા": 1546,
      "રહેતા": 1547,
      "ટુ": 1548,
      "ટૂ": 1549,
      "કાશ": 1550,
      "કિંગ": 1551,
      "ઉત્તર": 1552,
      "સિટી": 1553,
      "ઉદ": 1554,
      "ખ્": 1555,
      "સ્પે": 1556,
      "નેશન": 1557,
      "સમાવેશ": 1558,
      "અપા": 1559,
      "આરી": 1560,
      "આંક": 1561,
      "નલ": 1562,
      "સરકારી": 1563,
      "માલ": 1564,
      "સમયમાં": 1565,
      "સ્ત્રી": 1566,
      "બાર": 1567,
      "સોશિયલ": 1568,
      "રાષ્ટ્રીય": 1569,
      "ચલા": 1570,
      "હજુ": 1571,
      "આયોજન": 1572,
      "કટ": 1573,
      "ફાય": 1574,
      "ક્રિકેટ": 1575,
      "બચા": 1576,
      "રસી": 1577,
      "સ્સા": 1578,
      "વિડ": 1579,
      "પરીક્ષા": 1580,
      "્રો": 1581,
      "નહિ": 1582,
      "કુમાર": 1583,
      "પ્રક્રિયા": 1584,
      "થોડા": 1585,
      "16": 1586,
      "તેનું": 1587,
      "બેન્": 1588,
      "સભ્ય": 1589,
      "કહી": 1590,
      "સ્થાન": 1591,
      "મામલે": 1592,
      "કમિ": 1593,
      "નરેન્દ્ર": 1594,
      "વાહ": 1595,
      "વ્યવસ્થા": 1596,
      "બેઠક": 1597,
      "ઓછા": 1598,
      "વડો": 1599,
      "શાહ": 1600,
      "સુધીમાં": 1601,
      "૧૫": 1602,
      "વિદેશ": 1603,
      "પ્રી": 1604,
      "હતુ": 1605,
      "પુરા": 1606,
      "શહેરમાં": 1607,
      "સલ": 1608,
      "વાઇ": 1609,
      "રોકાણ": 1610,
      "ગૃ": 1611,
      "નક્કી": 1612,
      "પના": 1613,
      "કરવાનું": 1614,
      "પ્રશ્": 1615,
      "લેવામાં": 1616,
      "કરવું": 1617,
      "શિક્ષણ": 1618,
      "સાઇ": 1619,
      "વેલ": 1620,
      "ધારે": 1621,
      "લક્ષ": 1622,
      "હાઇ": 1623,
      "વર્ષની": 1624,
      "નંદ": 1625,
      "સું": 1626,
      "સ્પ": 1627,
      "લીધી": 1628,
      "પૈસા": 1629,
      "ખરે": 1630,
      "ૂટ": 1631,
      "રાહુ": 1632,
      "ધ્યાન": 1633,
      "સન": 1634,
      "સારા": 1635,
      "ખરા": 1636,
      "વગર": 1637,
      "ઓનો": 1638,
      "જન્મ": 1639,
      "in": 1640,
      "અલ": 1641,
      "સાઈ": 1642,
      "સંસ્થા": 1643,
      "દીધી": 1644,
      "ંભ": 1645,
      "આપ્યો": 1646,
      "ચં": 1647,
      "દુનિયા": 1648,
      "સ્કૂ": 1649,
      "ધરપકડ": 1650,
      "ar": 1651,
      "એફ": 1652,
      "પગલે": 1653,
      "હાર્": 1654,
      "પાટી": 1655,
      "હોસ્પિટલમાં": 1656,
      "ણો": 1657,
      "આંત": 1658,
      "મીર": 1659,
      "દેશો": 1660,
      "સામ": 1661,
      "ભૂમિ": 1662,
      "તમારે": 1663,
      "બ્રિ": 1664,
      "પ્રેમ": 1665,
      "તારી": 1666,
      "વિરોધ": 1667,
      "મેન": 1668,
      "અંદર": 1669,
      "000": 1670,
      "13": 1671,
      "વળ": 1672,
      "પ્રાપ્ત": 1673,
      "વિસ્તારો": 1674,
      "વડોદરા": 1675,
      "નહો": 1676,
      "પારી": 1677,
      "સંક્ર": 1678,
      "કિંમત": 1679,
      "કરવી": 1680,
      "કોન્": 1681,
      "મુક": 1682,
      "દાખલ": 1683,
      "વાળી": 1684,
      "નીતિ": 1685,
      "ખેલા": 1686,
      "ચ્ચ": 1687,
      "ડાઉન": 1688,
      "રવિ": 1689,
      "ર્ષ": 1690,
      "વિધા": 1691,
      "24": 1692,
      "ડુ": 1693,
      "વહે": 1694,
      "મેં": 1695,
      "ઝે": 1696,
      "ન્યા": 1697,
      "સમાજ": 1698,
      "ચાર્": 1699,
      "મિનિ": 1700,
      "બાં": 1701,
      "પંચા": 1702,
      "બહે": 1703,
      "થતાં": 1704,
      "નોકરી": 1705,
      "સિવાય": 1706,
      "200": 1707,
      "ઓફિ": 1708,
      "બોર્ડ": 1709,
      "રમ": 1710,
      "પરથી": 1711,
      "પોસ્ટ": 1712,
      "વિરુ": 1713,
      "રોમાં": 1714,
      "સ્થાનિક": 1715,
      "ઝડપી": 1716,
      "વિના": 1717,
      "હોઈ": 1718,
      "ગ્રાહ": 1719,
      "પ્રયાસ": 1720,
      "ડની": 1721,
      "પણે": 1722,
      "જૂરી": 1723,
      "કલે": 1724,
      "હત્યા": 1725,
      "યુવતી": 1726,
      "૧૨": 1727,
      "વોર્ડ": 1728,
      "ખર": 1729,
      "મંગ": 1730,
      "મ્યુ": 1731,
      "કરીએ": 1732,
      "દેશના": 1733,
      "અર્થ": 1734,
      "લાગી": 1735,
      "રેલી": 1736,
      "દારૂ": 1737,
      "ઘે": 1738,
      "બાકી": 1739,
      "લય": 1740,
      "સૈ": 1741,
      "સુરક્ષા": 1742,
      "વતી": 1743,
      "તરફથી": 1744,
      "ંતા": 1745,
      "ઠવા": 1746,
      "ભાજપના": 1747,
      "વડાપ્રધાન": 1748,
      "મોરબી": 1749,
      "બોલ": 1750,
      "દેવામાં": 1751,
      "દારો": 1752,
      "કોરોનાના": 1753,
      "અરજી": 1754,
      "ખર્ચ": 1755,
      "અક": 1756,
      "મુલાકાત": 1757,
      "હોવાની": 1758,
      "વવાની": 1759,
      "ઉન્ડ": 1760,
      "એન્ડ": 1761,
      "તને": 1762,
      "શ્વર": 1763,
      "પરિસ્થિતિ": 1764,
      "યમ": 1765,
      "ક્શન": 1766,
      "મેશા": 1767,
      "નિવે": 1768,
      "અધ્ય": 1769,
      "પોઝિ": 1770,
      "ક્રો": 1771,
      "મેળવી": 1772,
      "લાંબા": 1773,
      "ઓછી": 1774,
      "ગઇ": 1775,
      "વીર": 1776,
      "દિવસો": 1777,
      "કોઈપણ": 1778,
      "ગરી": 1779,
      "વાંચ": 1780,
      "ંગ્": 1781,
      "ખરીદી": 1782,
      "ગાર": 1783,
      "આધારે": 1784,
      "ટક": 1785,
      "ટું": 1786,
      "પાલ": 1787,
      "વેચા": 1788,
      "લોકોએ": 1789,
      "ચીન": 1790,
      "કાયદા": 1791,
      "સ્પષ્ટ": 1792,
      "ડમાં": 1793,
      "પસાર": 1794,
      "મોટો": 1795,
      "ન્ડિયા": 1796,
      "ક્ષેત્ર": 1797,
      "ચોક્": 1798,
      "મંડ": 1799,
      "વરણ": 1800,
      "21": 1801,
      "કરતી": 1802,
      "આવેલી": 1803,
      "ખુબ": 1804,
      "લઇને": 1805,
      "જમીન": 1806,
      "કોલે": 1807,
      "લીધા": 1808,
      "ગેરે": 1809,
      "અભ્યાસ": 1810,
      "ઘો": 1811,
      "રન": 1812,
      "ષા": 1813,
      "સત્તા": 1814,
      "જિલ્લાના": 1815,
      "સુવિધા": 1816,
      "રસ્તા": 1817,
      "લિયા": 1818,
      "હવા": 1819,
      "ભાવના": 1820,
      "શિક્ષ": 1821,
      "તસ": 1822,
      "હંમેશા": 1823,
      "વિરુદ્ધ": 1824,
      "થયેલા": 1825,
      "બસ": 1826,
      "બેંક": 1827,
      "આત્": 1828,
      "ગામમાં": 1829,
      "મીટર": 1830,
      "જણાવી": 1831,
      "ક્રે": 1832,
      "રાહુલ": 1833,
      "બતા": 1834,
      "ટીવી": 1835,
      "સિસ્ટ": 1836,
      "ભૂત": 1837,
      "ગેર": 1838,
      "રાજ્યના": 1839,
      "લં": 1840,
      "પાત્ર": 1841,
      "જાણવા": 1842,
      "ટ્રોલ": 1843,
      "૧૮": 1844,
      "૩૦": 1845,
      "જોઇએ": 1846,
      "ચોક્કસ": 1847,
      "વ્યું": 1848,
      "માગ": 1849,
      "જયારે": 1850,
      "તૈયારી": 1851,
      "બળ": 1852,
      "મ્બ": 1853,
      "ઝડપ": 1854,
      "વાળ": 1855,
      "ંડી": 1856,
      "પલ": 1857,
      "કાલે": 1858,
      "ન્ન": 1859,
      "ફરજ": 1860,
      "સમાચાર": 1861,
      "ત્યારબાદ": 1862,
      "શક્તિ": 1863,
      "મળ્યા": 1864,
      "એચ": 1865,
      "ભાગે": 1866,
      "નિંગ": 1867,
      "શિવ": 1868,
      "ખેલાડી": 1869,
      "કટર": 1870,
      "ઝન": 1871,
      "નદી": 1872,
      "સેના": 1873,
      "કેટલીક": 1874,
      "ફાઈ": 1875,
      "પ્રોજે": 1876,
      "ક્યાં": 1877,
      "ડ્રા": 1878,
      "ઢા": 1879,
      "દર્શા": 1880,
      "સ્તી": 1881,
      "કેશ": 1882,
      "ચિંતા": 1883,
      "અધ્યક્ષ": 1884,
      "વેપારી": 1885,
      "લીધે": 1886,
      "લોકોની": 1887,
      "મજબ": 1888,
      "સવા": 1889,
      "પીએમ": 1890,
      "અંદા": 1891,
      "આસ": 1892,
      "મજબૂ": 1893,
      "લોકોના": 1894,
      "માર્કેટ": 1895,
      "25": 1896,
      "આર્": 1897,
      "રિયા": 1898,
      "હાજર": 1899,
      "સાંભ": 1900,
      "સુંદર": 1901,
      "વ્": 1902,
      "કોવિડ": 1903,
      "લિંગ": 1904,
      "કોંગ્રેસના": 1905,
      "ક્ષિ": 1906,
      "થિ": 1907,
      "an": 1908,
      "er": 1909,
      "ન્યૂ": 1910,
      "સિંગ": 1911,
      "ત્તિ": 1912,
      "ક્રા": 1913,
      "ચિત": 1914,
      "બહુ": 1915,
      "શં": 1916,
      "વાથી": 1917,
      "પોર": 1918,
      "સહિતના": 1919,
      "હોસ્પિટલ": 1920,
      "ખાનગી": 1921,
      "ફુ": 1922,
      "સમિ": 1923,
      "હરણ": 1924,
      "વિધાન": 1925,
      "કારા": 1926,
      "સંપર્": 1927,
      "કાર્ડ": 1928,
      "આનંદ": 1929,
      "ઠે": 1930,
      "રેલ": 1931,
      "ટેડ": 1932,
      "એના": 1933,
      "છુ": 1934,
      "સ્ટી": 1935,
      "ગ્રે": 1936,
      "્યોગ": 1937,
      "હાય": 1938,
      "દિવસમાં": 1939,
      "મહારાષ્ટ્ર": 1940,
      "દબા": 1941,
      "લૂ": 1942,
      "૧૧": 1943,
      "દૂધ": 1944,
      "ઉત્પાદન": 1945,
      "ખરાબ": 1946,
      "ફક્ત": 1947,
      "ગણા": 1948,
      "ભરા": 1949,
      "યાત્રા": 1950,
      "ગામના": 1951,
      "હિં": 1952,
      "ફોટો": 1953,
      "at": 1954,
      "કમા": 1955,
      "પૂછ": 1956,
      "મૂળ": 1957,
      "આર્થ": 1958,
      "ગઢ": 1959,
      "ડૉ": 1960,
      "શબ્": 1961,
      "લાઇન": 1962,
      "ઘરમાં": 1963,
      "ઉલ્લેખનીય": 1964,
      "વીજ": 1965,
      "દ્ધિ": 1966,
      "કંઈ": 1967,
      "આપણા": 1968,
      "ગાંધીનગર": 1969,
      "તાર": 1970,
      "સને": 1971,
      "રાજી": 1972,
      "ન્ને": 1973,
      "કૌ": 1974,
      "ગૌ": 1975,
      "તેવા": 1976,
      "ઘટાડો": 1977,
      "મુશ્કેલી": 1978,
      "પરત": 1979,
      "રોને": 1980,
      "તિહા": 1981,
      "સ્થળે": 1982,
      "મૂક": 1983,
      "વિશ્વાસ": 1984,
      "જામનગર": 1985,
      "),": 1986,
      "જમા": 1987,
      "વિસ્તારોમાં": 1988,
      "ર્ન": 1989,
      "જોખ": 1990,
      "સ્ટિ": 1991,
      "જન્સી": 1992,
      "શૈ": 1993,
      "વિશેષ": 1994,
      "નેશનલ": 1995,
      "પંચ": 1996,
      "વાતા": 1997,
      "રાખવામાં": 1998,
      "પ્રાથ": 1999,
      "ઠો": 2000,
      "ફ્ર": 2001,
      "રાત્રે": 2002,
      "ડિંગ": 2003,
      "શ્રેષ્ઠ": 2004,
      "ખબર": 2005,
      "પાલન": 2006,
      "જેટલા": 2007,
      "તાલુકાના": 2008,
      "સાફ": 2009,
      "હેરા": 2010,
      "લ્પ": 2011,
      "રાજ્યો": 2012,
      "તરમાં": 2013,
      "ચોરી": 2014,
      "આસપાસ": 2015,
      "પ્રવેશ": 2016,
      "ટ્રી": 2017,
      "સામેલ": 2018,
      "અના": 2019,
      "ડામાં": 2020,
      "મળ્યો": 2021,
      "ભાગના": 2022,
      "કેસમાં": 2023,
      "સાંજે": 2024,
      "ઓન": 2025,
      "કિલો": 2026,
      "પંચાયત": 2027,
      "પ્રાથમિક": 2028,
      "લ્લી": 2029,
      "ડીયા": 2030,
      "૦૦૦": 2031,
      "આર્થિક": 2032,
      "આદેશ": 2033,
      "કન્": 2034,
      "પશ્": 2035,
      "રકમ": 2036,
      "ડાય": 2037,
      "શ્મીર": 2038,
      "પ્લે": 2039,
      "ભારતના": 2040,
      "મેને": 2041,
      "રાજય": 2042,
      "ફોર્મ": 2043,
      "બ્ધ": 2044,
      "ગુજરાતના": 2045,
      "તબ": 2046,
      "મતી": 2047,
      "વગેરે": 2048,
      "કિત": 2049,
      "કિસ્સા": 2050,
      "પુત્ર": 2051,
      "વધુમાં": 2052,
      "પહેલી": 2053,
      "અકસ્મા": 2054,
      "ડવામાં": 2055,
      "શનિ": 2056,
      "મારે": 2057,
      "ગુરુ": 2058,
      "અહે": 2059,
      "મરા": 2060,
      "કેશન": 2061,
      "સ્ટ્રી": 2062,
      "જાણકારી": 2063,
      "ફ્રે": 2064,
      "ગામે": 2065,
      "ટેક": 2066,
      "આવતી": 2067,
      "જુદા": 2068,
      "બદલ": 2069,
      "જની": 2070,
      "૫૦": 2071,
      "મંજૂરી": 2072,
      "વર્ષના": 2073,
      "મંગળ": 2074,
      "વેચાણ": 2075,
      "વિધાનસભા": 2076,
      "સાત": 2077,
      "જેની": 2078,
      "સ્વાસ્થ": 2079,
      "સફળતા": 2080,
      "કું": 2081,
      "ગતિ": 2082,
      "વ્યવસાય": 2083,
      "ંડા": 2084,
      "થતી": 2085,
      "ક્કા": 2086,
      "ગાળા": 2087,
      "કોર્ટે": 2088,
      "નહી": 2089,
      "શંકા": 2090,
      "૧૪": 2091,
      "મારો": 2092,
      "પ્રકાશ": 2093,
      "ઉપલ": 2094,
      "એક્સ": 2095,
      "રચના": 2096,
      "સામા": 2097,
      "બનાવવામાં": 2098,
      "અંતિ": 2099,
      "હળ": 2100,
      "પૈકી": 2101,
      "કાઉન્ટ": 2102,
      "ટની": 2103,
      "બૂ": 2104,
      "બ્રે": 2105,
      "તાજે": 2106,
      "દ્ધા": 2107,
      "રિંગ": 2108,
      "ચ્છા": 2109,
      "જણાવ્યા": 2110,
      "સંખ્યામાં": 2111,
      "મોદીએ": 2112,
      "અંતિમ": 2113,
      "અગ્ર": 2114,
      "ઈન": 2115,
      "ઉજ": 2116,
      "ડક": 2117,
      "સ્પર્": 2118,
      "સુખ": 2119,
      "ાર્થ": 2120,
      "વ્યક્ત": 2121,
      "મેળવવા": 2122,
      "શહેરના": 2123,
      "ધરાવે": 2124,
      "દક્ષિ": 2125,
      "મથ": 2126,
      "શહે": 2127,
      "હ્": 2128,
      "૧૭": 2129,
      "યોગી": 2130,
      "ગૃહ": 2131,
      "એપ્રિ": 2132,
      "નાખ": 2133,
      "આવક": 2134,
      "સ્ટર": 2135,
      "હુમલા": 2136,
      "અઠવા": 2137,
      "કરનાર": 2138,
      "વનગર": 2139,
      "બિન": 2140,
      "પ્રકારની": 2141,
      "વાદી": 2142,
      "નારી": 2143,
      "યુનિવર્": 2144,
      "સ્વાસ્થ્ય": 2145,
      "લક્ષણ": 2146,
      "રૂપે": 2147,
      "આપતા": 2148,
      "બાળક": 2149,
      "ઉમેદવા": 2150,
      "ઓવર": 2151,
      "હિન્": 2152,
      "સોમ": 2153,
      "લાઈન": 2154,
      "કોર્પોરે": 2155,
      "પશ્ચિ": 2156,
      "es": 2157,
      "અડ": 2158,
      "જંગ": 2159,
      "નજર": 2160,
      "ૃતિ": 2161,
      "કાઢ": 2162,
      "આપ્યું": 2163,
      "પિત": 2164,
      "100": 2165,
      "40": 2166,
      "રલ": 2167,
      "મંત્રા": 2168,
      "કાર્યક્રમ": 2169,
      "માટેની": 2170,
      "વધારા": 2171,
      "સૂર": 2172,
      "બદલે": 2173,
      "સહાય": 2174,
      "પ્રદર્શન": 2175,
      "વાતચી": 2176,
      "ધમ": 2177,
      "લડ": 2178,
      "લોજી": 2179,
      "રાહત": 2180,
      "મિત્રો": 2181,
      "વર્ષો": 2182,
      "વર્ષથી": 2183,
      "પસંદગી": 2184,
      "દક્ષિણ": 2185,
      "આઉ": 2186,
      "જિક": 2187,
      "સવાર": 2188,
      "લાગુ": 2189,
      "વિત": 2190,
      "દીધો": 2191,
      "મળ્યું": 2192,
      "પૂર્વક": 2193,
      "અમારા": 2194,
      "જમાં": 2195,
      "ઝને": 2196,
      "શર્": 2197,
      "ભાવનગર": 2198,
      "ગ્રહ": 2199,
      "જગ્યાએ": 2200,
      "પાકિસ્તાન": 2201,
      "ઉપલબ્ધ": 2202,
      "ણું": 2203,
      "થવાની": 2204,
      "સવ": 2205,
      "ષ્ણ": 2206,
      "જાણો": 2207,
      "મહામારી": 2208,
      "સ્ટાફ": 2209,
      "તના": 2210,
      "મગ": 2211,
      "તાઓ": 2212,
      "ઉપા": 2213,
      "એડ": 2214,
      "જવાબદ": 2215,
      "દય": 2216,
      "રની": 2217,
      "ષિ": 2218,
      "કાશ્મીર": 2219,
      "વધાર": 2220,
      "પુસ્ત": 2221,
      "ફેલા": 2222,
      "કહેવામાં": 2223,
      "લોકસભા": 2224,
      "૧૬": 2225,
      "વાડી": 2226,
      "બોલા": 2227,
      "વિદ્યાર્થીઓ": 2228,
      "નુકસાન": 2229,
      "માની": 2230,
      "કોલ": 2231,
      "સેન્": 2232,
      "રાજકીય": 2233,
      "અધિકારીઓ": 2234,
      "ઝડપથી": 2235,
      "આશા": 2236,
      "ઉચ્ચ": 2237,
      "ગિ": 2238,
      "તેલ": 2239,
      "રાખે": 2240,
      "શાંત": 2241,
      "સામનો": 2242,
      "સંઘ": 2243,
      "છોડ": 2244,
      "સ્થળ": 2245,
      "ફરીથી": 2246,
      "વાયરસ": 2247,
      "ઓળખ": 2248,
      "પોઝિટિવ": 2249,
      "પ્રોજેક્ટ": 2250,
      "નગરપાલિકા": 2251,
      "પ્રકારના": 2252,
      "ચાર્જ": 2253,
      "બધી": 2254,
      "વાહન": 2255,
      "કોની": 2256,
      "પ્રજા": 2257,
      "મેડિ": 2258,
      "દિશા": 2259,
      "ષ્ટિ": 2260,
      "નિર્માણ": 2261,
      "ધરાવતા": 2262,
      "વૃત્તિ": 2263,
      "મજબૂત": 2264,
      "અમારી": 2265,
      "ઉદા": 2266,
      "બન્ને": 2267,
      "કેસો": 2268,
      "જાળ": 2269,
      "દેવા": 2270,
      "બંધી": 2271,
      "ધ્યાનમાં": 2272,
      "ચુક": 2273,
      "ચંદ્ર": 2274,
      "આટ": 2275,
      "તાપ": 2276,
      "ક્ષમતા": 2277,
      "પૂરી": 2278,
      "ટ્વિ": 2279,
      "નાથ": 2280,
      "નાગઢ": 2281,
      "ઉત્પાદ": 2282,
      "પરિણામ": 2283,
      "ફેરફ": 2284,
      "જવાબદારી": 2285,
      ".’": 2286,
      "કચ્છ": 2287,
      "તની": 2288,
      "વાગ્યા": 2289,
      "ગુમા": 2290,
      "ઇન્ટર": 2291,
      "કેપ્": 2292,
      "ખેતી": 2293,
      "જતાં": 2294,
      "વડ": 2295,
      "સન્": 2296,
      "ડોલર": 2297,
      "શકશે": 2298,
      "આરોપ": 2299,
      "કોર્ટમાં": 2300,
      "ક્યારેય": 2301,
      "ડલ": 2302,
      "ક્રી": 2303,
      "પ્રતિબંધ": 2304,
      "શુક્ર": 2305,
      "ગાડી": 2306,
      "ગુણ": 2307,
      "મૂલ": 2308,
      "ઉર્": 2309,
      "જળ": 2310,
      "વણ": 2311,
      "પાન": 2312,
      "ડિસે": 2313,
      "યુનિવર્સિટી": 2314,
      "અફ": 2315,
      "ફિક": 2316,
      "કોર": 2317,
      "પોતે": 2318,
      "સમર્થ": 2319,
      "યુવા": 2320,
      "આંદો": 2321,
      "માળ": 2322,
      "ક્ટો": 2323,
      "મિશ્ર": 2324,
      "વર્ગ": 2325,
      "ચેરી": 2326,
      "બનાવે": 2327,
      "ગુજરા": 2328,
      "સમિતિ": 2329,
      "એને": 2330,
      "ઘટ": 2331,
      "સંભા": 2332,
      "ગુનો": 2333,
      "ડિઝા": 2334,
      "ન્ટિ": 2335,
      "ંચી": 2336,
      "જુઓ": 2337,
      "નોંધાયા": 2338,
      "ડ્ર": 2339,
      "સાવ": 2340,
      "વાનગી": 2341,
      "વાયરલ": 2342,
      "બાબતે": 2343,
      "on": 2344,
      "પ્રાર": 2345,
      "યુક્ત": 2346,
      "સૌરાષ્ટ્ર": 2347,
      "હુમલો": 2348,
      "૧૩": 2349,
      "પ્રત્ય": 2350,
      "રહેલી": 2351,
      "કેટલા": 2352,
      "આઉટ": 2353,
      "આપ્યા": 2354,
      "સ્તર": 2355,
      "વર્ષમાં": 2356,
      "દુર": 2357,
      "એસટી": 2358,
      "નિયમો": 2359,
      "લખ્યું": 2360,
      "22": 2361,
      "સમાન": 2362,
      "લેક્": 2363,
      "સંભ": 2364,
      "સંગઠ": 2365,
      "મહિનામાં": 2366,
      "વ્ર": 2367,
      "૨૫": 2368,
      "કાલ": 2369,
      "વેક્સિ": 2370,
      "સંક": 2371,
      "અમદાવાદમાં": 2372,
      "ઉંમર": 2373,
      "સપ્ટે": 2374,
      "દાવો": 2375,
      "ત્ત": 2376,
      "ભરમાં": 2377,
      "નવે": 2378,
      "વાર્": 2379,
      "કર્યુ": 2380,
      "સાધ": 2381,
      "દીપ": 2382,
      "સીબી": 2383,
      "ગાય": 2384,
      "શાંતિ": 2385,
      "ંઘ": 2386,
      "તળા": 2387,
      "યહોવા": 2388,
      "પાં": 2389,
      "જાન્યુ": 2390,
      "તેનાથી": 2391,
      "રાખવા": 2392,
      "પશ્ચિમ": 2393,
      "અમિત": 2394,
      "વજન": 2395,
      "વપરા": 2396,
      "સચિ": 2397,
      "હકી": 2398,
      "રાહ": 2399,
      "વિગ": 2400,
      "યાદી": 2401,
      "છોડી": 2402,
      "જનતા": 2403,
      "અમને": 2404,
      "હાર્દિ": 2405,
      "ધર્મ": 2406,
      "સજા": 2407,
      "રાશિ": 2408,
      "ભાગી": 2409,
      "સુપ્રી": 2410,
      "ડાં": 2411,
      "સારું": 2412,
      "કાયદે": 2413,
      "ભૂમિકા": 2414,
      "સર્જા": 2415,
      "યૂ": 2416,
      "કેલ": 2417,
      "્યાન": 2418,
      "સલાહ": 2419,
      "ઉદ્યોગ": 2420,
      "આગે": 2421,
      "એવો": 2422,
      "ઓગ": 2423,
      "કન": 2424,
      "પ્રય": 2425,
      "લીમ": 2426,
      "સ્તો": 2427,
      "ડીઝ": 2428,
      "માનવામાં": 2429,
      "શક્યતા": 2430,
      "તાજેતરમાં": 2431,
      "ચોક": 2432,
      "ફિલ્મો": 2433,
      "લોકડાઉન": 2434,
      "ફ્ટ": 2435,
      "ખરીદ": 2436,
      "અનુભવ": 2437,
      "વાતાવરણ": 2438,
      "જાન્યુઆરી": 2439,
      "ઉઠા": 2440,
      "ઓપરે": 2441,
      "ટરી": 2442,
      "તરા": 2443,
      "દમ": 2444,
      "મચી": 2445,
      "લને": 2446,
      "ન્સર": 2447,
      "ટેક્સ": 2448,
      "મોકલ": 2449,
      "સેન્ટર": 2450,
      "સંક્રમણ": 2451,
      "પ્રયત્": 2452,
      "થયેલી": 2453,
      "ફટ": 2454,
      "ભય": 2455,
      "કેર": 2456,
      "રૂપાણી": 2457,
      "હાજરી": 2458,
      "ધીમે": 2459,
      "તેવું": 2460,
      "પ્રસંગ": 2461,
      "મેલ": 2462,
      "વર્લ્ડ": 2463,
      "બાદમાં": 2464,
      "સૂત્રો": 2465,
      "વસ્તુઓ": 2466,
      "રેલવે": 2467,
      "કૉ": 2468,
      "થયેલ": 2469,
      "સબ": 2470,
      "કોણ": 2471,
      "ન્ચ": 2472,
      "ટાઇ": 2473,
      "ચૂંટણીમાં": 2474,
      "સામગ્રી": 2475,
      "ઘુ": 2476,
      "વાસ્ત": 2477,
      "તાથી": 2478,
      "કરવાના": 2479,
      "ખોરા": 2480,
      "માર્ચ": 2481,
      "મિનિટ": 2482,
      "નિવેદન": 2483,
      "પ્રારંભ": 2484,
      "ઇડ": 2485,
      "ટને": 2486,
      "મણી": 2487,
      "સિવિ": 2488,
      "આપશે": 2489,
      "બન્યા": 2490,
      "આકર્": 2491,
      "જારો": 2492,
      "દંડ": 2493,
      "યી": 2494,
      "સંચાલ": 2495,
      "કરાઈ": 2496,
      "નીકળ": 2497,
      "આઠ": 2498,
      "ઝર": 2499,
      "શરુ": 2500,
      "ટાઈ": 2501,
      "પોતાનો": 2502,
      "નિયમ": 2503,
      "નાણાં": 2504,
      "વશે": 2505,
      "વાજ": 2506,
      "મળતી": 2507,
      "પુરુ": 2508,
      "દેશની": 2509,
      "કેન્દ્રીય": 2510,
      "ંપ": 2511,
      "એજન્સી": 2512,
      "શાક": 2513,
      "ધારાસભ્ય": 2514,
      "ધૂ": 2515,
      "કારક": 2516,
      "યુવાન": 2517,
      "પહોંચા": 2518,
      "જીવનમાં": 2519,
      "સ્વામી": 2520,
      "આદિ": 2521,
      "તબી": 2522,
      "માધ્ય": 2523,
      "રાજા": 2524,
      "કોએ": 2525,
      "િયાત": 2526,
      "ધોરણ": 2527,
      "બનશે": 2528,
      "સંપર્ક": 2529,
      "ચું": 2530,
      "રમત": 2531,
      "શખ્": 2532,
      "સાબ": 2533,
      "વિદેશી": 2534,
      "શર્મા": 2535,
      "આશ": 2536,
      "બુધ": 2537,
      "ટ્રાન્સ": 2538,
      "નાગરિ": 2539,
      "કદા": 2540,
      "તૃ": 2541,
      "માથા": 2542,
      "વિવાદ": 2543,
      "તેમનો": 2544,
      "ગરમ": 2545,
      "થોડી": 2546,
      "શુભ": 2547,
      "આંતર": 2548,
      "ચન": 2549,
      "શભાઈ": 2550,
      "ભોગ": 2551,
      "ભોજન": 2552,
      "સ્માર્ટ": 2553,
      "ધ્ધ": 2554,
      "સમુ": 2555,
      "૨૪": 2556,
      "સ્સો": 2557,
      "રાષ્ટ્રપતિ": 2558,
      "મુંબઇ": 2559,
      "ખસે": 2560,
      "બધું": 2561,
      "તાની": 2562,
      "હેલ્": 2563,
      "મોબાઈ": 2564,
      "પુન": 2565,
      "ચેર": 2566,
      "કંપનીઓ": 2567,
      "મુદ્દે": 2568,
      "વિગતો": 2569,
      "ચૌ": 2570,
      "ડના": 2571,
      "હૈ": 2572,
      "ત્કા": 2573,
      "લિવ": 2574,
      "પહોંચ્યા": 2575,
      "ટ્વી": 2576,
      "દર્દીઓ": 2577,
      "અનિ": 2578,
      "નામાં": 2579,
      "વેબ": 2580,
      "કમિશન": 2581,
      "ઈએ": 2582,
      "જાણે": 2583,
      "હોલ": 2584,
      "ફેસ": 2585,
      "ફેબ્ર": 2586,
      "સરકારની": 2587,
      "અંતર્": 2588,
      ".”": 2589,
      "પૂજા": 2590,
      "ઉદાહરણ": 2591,
      "અટકા": 2592,
      "ગમ": 2593,
      "રીને": 2594,
      "હાઉ": 2595,
      "ન્ડર": 2596,
      "રાખો": 2597,
      "ણમાં": 2598,
      "બચ": 2599,
      "વારં": 2600,
      "પોલીસને": 2601,
      "દરમ્યાન": 2602,
      "લક્ષણો": 2603,
      "ઓસ્ટ્રે": 2604,
      "દના": 2605,
      "રું": 2606,
      "તેજ": 2607,
      "તેમનું": 2608,
      "મ્સ": 2609,
      "બુક": 2610,
      "પુરુષ": 2611,
      "કચેરી": 2612,
      "ખંડ": 2613,
      "સમી": 2614,
      "નાય": 2615,
      "નામે": 2616,
      "યાં": 2617,
      "ગીર": 2618,
      "બોલી": 2619,
      "જનક": 2620,
      "આતંક": 2621,
      "ક્રિય": 2622,
      "સપ્તા": 2623,
      "કારાત્મક": 2624,
      "અંતર્ગત": 2625,
      "ઘટી": 2626,
      "જલ": 2627,
      "વં": 2628,
      "કોર્ડ": 2629,
      "ભાષા": 2630,
      "લિયન": 2631,
      "યુવાનો": 2632,
      "સમયથી": 2633,
      "લોકપ્રિય": 2634,
      "વારંવાર": 2635,
      "કતા": 2636,
      "દારી": 2637,
      "રૃ": 2638,
      "કરતો": 2639,
      "ડાના": 2640,
      "ક્ષિત": 2641,
      "કરાવી": 2642,
      "મહત્વપૂર્ણ": 2643,
      "પ્રમાણમાં": 2644,
      "ગુજરાતી": 2645,
      "પૃ": 2646,
      "રીયા": 2647,
      "પાડી": 2648,
      "લેક": 2649,
      "કરવાથી": 2650,
      "સારો": 2651,
      "તેઓએ": 2652,
      "કદાચ": 2653,
      "વિકેટ": 2654,
      "યુદ્ધ": 2655,
      "સરકારના": 2656,
      "જેટલી": 2657,
      "સુપ્રીમ": 2658,
      "આંગ": 2659,
      "કલી": 2660,
      "કલ્": 2661,
      "શકા": 2662,
      "માને": 2663,
      "કલાકમાં": 2664,
      "મેડિકલ": 2665,
      "ફ્રા": 2666,
      "શૂ": 2667,
      "હજી": 2668,
      "પાટ": 2669,
      "લિત": 2670,
      "ફાઇ": 2671,
      "કોરોનાની": 2672,
      "સંબંધિત": 2673,
      "આંકડા": 2674,
      "અચા": 2675,
      "પશુ": 2676,
      "ખાલી": 2677,
      "રહેવા": 2678,
      "માનવ": 2679,
      "બિઝને": 2680,
      "અભિને": 2681,
      "વાહનો": 2682,
      "અચાનક": 2683,
      "જઇ": 2684,
      "વાતો": 2685,
      "કારણો": 2686,
      "બાળકોને": 2687,
      "ભગવાન": 2688,
      "બાંધ": 2689,
      "અભિનેત્રી": 2690,
      "એની": 2691,
      "ત્યા": 2692,
      "મતદાન": 2693,
      "સાંસદ": 2694,
      "ઘન": 2695,
      "રજા": 2696,
      "વહી": 2697,
      "વારી": 2698,
      "ટેક્": 2699,
      "આપવાની": 2700,
      "સ્થિતિમાં": 2701,
      "બજારમાં": 2702,
      "સામાજિક": 2703,
      ".\"": 2704,
      "ડતા": 2705,
      "નર્મ": 2706,
      "તાના": 2707,
      "રૂમ": 2708,
      "દીધા": 2709,
      "મિત્ર": 2710,
      "વર્તન": 2711,
      "સિસ્ટમ": 2712,
      "ફેરફાર": 2713,
      "સ્ત્ર": 2714,
      "વેરા": 2715,
      "દીકરી": 2716,
      "વર્તમા": 2717,
      "બેઠકો": 2718,
      "તારીખ": 2719,
      "23": 2720,
      "ધર્": 2721,
      "નનો": 2722,
      "સરે": 2723,
      "સર્વ": 2724,
      "નર્મદા": 2725,
      "રક્ષણ": 2726,
      "વય": 2727,
      "નામના": 2728,
      "રેકોર્ડ": 2729,
      "સમજ": 2730,
      "માણસ": 2731,
      "ટ્રાફિક": 2732,
      "મુશ્કેલ": 2733,
      "બળા": 2734,
      "૨૧": 2735,
      "સ્પી": 2736,
      "પાઠ": 2737,
      "પ્રાણી": 2738,
      "મુદ્દા": 2739,
      "છૂટ": 2740,
      "તહે": 2741,
      "રાં": 2742,
      "જેઓ": 2743,
      "પોતાનું": 2744,
      "દુર્": 2745,
      "બિલ": 2746,
      "સપ્ટેમ્બર": 2747,
      "or": 2748,
      "ંચે": 2749,
      "દૃ": 2750,
      "બંગા": 2751,
      "ક્કર": 2752,
      "બંદર": 2753,
      "પ્લાન્ટ": 2754,
      "આક્ષે": 2755,
      "વિશા": 2756,
      "બાઇ": 2757,
      "મ્પિ": 2758,
      "કહ્યુ": 2759,
      "ભાગમાં": 2760,
      "સાયટી": 2761,
      "ઉમેદ": 2762,
      "બિલ્": 2763,
      "મકા": 2764,
      "યણ": 2765,
      "ળના": 2766,
      "હરા": 2767,
      "તાને": 2768,
      "તામાં": 2769,
      "વર્ક": 2770,
      "સોસાયટી": 2771,
      "ડ્રે": 2772,
      "યાર": 2773,
      "માઇ": 2774,
      "સ્લિ": 2775,
      "પેટ્રોલ": 2776,
      "ઉપસ્થિત": 2777,
      "ફાળ": 2778,
      "ફાયર": 2779,
      "પ્રત્યે": 2780,
      "સાબિત": 2781,
      "ફેબ્રુ": 2782,
      "en": 2783,
      "અલ્": 2784,
      "અક્ષ": 2785,
      "બારી": 2786,
      "વેચ": 2787,
      "રોની": 2788,
      "આવું": 2789,
      "પહેર": 2790,
      "કરાશે": 2791,
      "પ્રધાનમંત્રી": 2792,
      "સોમવારે": 2793,
      "ડિસેમ્બર": 2794,
      "ઓનું": 2795,
      "ચિત્ર": 2796,
      "કહેવું": 2797,
      "લાગણી": 2798,
      "ઉજવણી": 2799,
      "અદા": 2800,
      "અમુક": 2801,
      "ઇન્ડિયા": 2802,
      "ળમાં": 2803,
      "શકી": 2804,
      "કેન્સર": 2805,
      "પ્રવાસ": 2806,
      "કાર્યો": 2807,
      "લોટ": 2808,
      "લેતા": 2809,
      "સેક્સ": 2810,
      "છોકરી": 2811,
      "સર્વિ": 2812,
      "60": 2813,
      "એપ": 2814,
      "સવાલ": 2815,
      "માલિ": 2816,
      "ર્જી": 2817,
      "કોના": 2818,
      "રીઝ": 2819,
      "ણાં": 2820,
      "રજૂઆત": 2821,
      "ફ્રી": 2822,
      "સિદ્ધ": 2823,
      "ડોઝ": 2824,
      "કરેલ": 2825,
      "શીલ": 2826,
      "ખરેખર": 2827,
      "રવ": 2828,
      "કરાયો": 2829,
      "મર્યા": 2830,
      "રાખીને": 2831,
      "આશરે": 2832,
      "મોબાઈલ": 2833,
      "વટ": 2834,
      "શને": 2835,
      "સાહ": 2836,
      "પાછા": 2837,
      "જોર": 2838,
      "ટીમે": 2839,
      "કુદર": 2840,
      "પટેલે": 2841,
      "ગણતરી": 2842,
      "વાતચીત": 2843,
      "વર્તમાન": 2844,
      "ફેબ્રુઆરી": 2845,
      "અટ": 2846,
      "ઓક્ટો": 2847,
      "બેડ": 2848,
      "સીસી": 2849,
      "ળામાં": 2850,
      "ટિસ": 2851,
      "ખુશ": 2852,
      "ટ્રેન": 2853,
      "કાંઠા": 2854,
      "વિષય": 2855,
      "28": 2856,
      "અબ": 2857,
      "ભવિષ": 2858,
      "શનમાં": 2859,
      "ડિગ્રી": 2860,
      "એટલું": 2861,
      "પ્રોડ": 2862,
      "ગર્ભ": 2863,
      "ઉમેદવાર": 2864,
      "ભવિષ્ય": 2865,
      "રમાં": 2866,
      "માસ્ક": 2867,
      "જાડે": 2868,
      "નિધિ": 2869,
      "જીલ્લા": 2870,
      "ખાતરી": 2871,
      "ગરમી": 2872,
      "જવાનો": 2873,
      "અંબા": 2874,
      "અત્યારે": 2875,
      "ઠ્": 2876,
      "રમા": 2877,
      "સક્રિય": 2878,
      "લામાં": 2879,
      "નોલોજી": 2880,
      "વેસ્ટ": 2881,
      "દીધું": 2882,
      "ટિક": 2883,
      "કર્મચારીઓ": 2884,
      "દબાણ": 2885,
      "શુક્રવારે": 2886,
      "જાડેજા": 2887,
      "પ્રવૃત્તિ": 2888,
      "ટેલ": 2889,
      "સંભાવના": 2890,
      "કિશો": 2891,
      "કહેવાય": 2892,
      "પ્રશ્નો": 2893,
      "મ્યુનિ": 2894,
      "તબક્કા": 2895,
      "અઠવાડિયા": 2896,
      "કેપ્ટન": 2897,
      "શખ્સો": 2898,
      "કઈ": 2899,
      "કપૂર": 2900,
      "પદ્ધ": 2901,
      "વમાં": 2902,
      "૪૦": 2903,
      "તાત્કા": 2904,
      "દેવી": 2905,
      "સુપર": 2906,
      "બદલી": 2907,
      "પંજા": 2908,
      "વૃક્ષ": 2909,
      "હવામાન": 2910,
      "મંગળવારે": 2911,
      "ચક": 2912,
      "કોમ": 2913,
      "ભાજી": 2914,
      "તિક": 2915,
      "સલમાન": 2916,
      "સૂર્ય": 2917,
      "પદ્ધતિ": 2918,
      "પન": 2919,
      "સ્ના": 2920,
      "કાઢી": 2921,
      "મોટું": 2922,
      "સંજય": 2923,
      "વ્યવહાર": 2924,
      "ધુનિક": 2925,
      "ઓસ્ટ્રેલિયા": 2926,
      "ધં": 2927,
      "હૃ": 2928,
      "જાત": 2929,
      "ગોમાં": 2930,
      "આંદોલન": 2931,
      "કાયદેસર": 2932,
      "ઇન્ટ": 2933,
      "એકાઉન્ટ": 2934,
      "કડક": 2935,
      "જથ્": 2936,
      "ન્સી": 2937,
      "ધામ": 2938,
      "ક્રમ": 2939,
      "પુલ": 2940,
      "માનસિક": 2941,
      "ંડો": 2942,
      "તારા": 2943,
      "મરી": 2944,
      "ર્તિ": 2945,
      "મુકા": 2946,
      "ચાં": 2947,
      "રિઝ": 2948,
      "ગ્રુ": 2949,
      "2020": 2950,
      "ભારતની": 2951,
      "શકતા": 2952,
      "સર્વે": 2953,
      "પત્તિ": 2954,
      "હિન્દુ": 2955,
      "બજેટ": 2956,
      "સદી": 2957,
      "સપાટી": 2958,
      "કેમ્પ": 2959,
      "ંગી": 2960,
      "રેડ": 2961,
      "ક્ષી": 2962,
      "દિવાળી": 2963,
      "જૂનાગઢ": 2964,
      "પગલાં": 2965,
      "ટમેન્ટ": 2966,
      "ભલે": 2967,
      "પ્રવાસી": 2968,
      "પરં": 2969,
      "ત્રણે": 2970,
      "આવશ્ય": 2971,
      "બીજ": 2972,
      "ચેક": 2973,
      "ળીને": 2974,
      "ફોર્": 2975,
      "જ્ઞાન": 2976,
      "અગ્રણી": 2977,
      "સ્પર્ધા": 2978,
      "ધમકી": 2979,
      "26": 2980,
      "ંત્રણ": 2981,
      "અતિ": 2982,
      "ફર્": 2983,
      "તાએ": 2984,
      "કાના": 2985,
      "એકવાર": 2986,
      "સેટ": 2987,
      "પેટ": 2988,
      "ગોઠ": 2989,
      "પાર્ક": 2990,
      "નિયંત્રણ": 2991,
      "જમ્": 2992,
      "બૉ": 2993,
      "ોમાં": 2994,
      "લાસ": 2995,
      "ન્ડે": 2996,
      "લોન": 2997,
      "ડાની": 2998,
      "મિલ": 2999,
      "સ્થાને": 3000,
      "ઘાત": 3001,
      "આંખો": 3002,
      "એરપોર્ટ": 3003,
      "કિસ્સામાં": 3004,
      "સંભાળ": 3005,
      "ખત": 3006,
      "જૈ": 3007,
      "થતો": 3008,
      "સંતો": 3009,
      "સમજા": 3010,
      "તમારું": 3011,
      "કિટ": 3012,
      "દરરોજ": 3013,
      "2019": 3014,
      "આંખ": 3015,
      "તસવીર": 3016,
      "સપ્તાહ": 3017,
      "હૃદય": 3018,
      "પરંપરા": 3019,
      "િંગ": 3020,
      "કાપી": 3021,
      "ન્ના": 3022,
      "મુસ્લિ": 3023,
      "દરવા": 3024,
      "ત્રીજા": 3025,
      "પડ્યો": 3026,
      "સંપૂર્ણપણે": 3027,
      "એપ્રિલ": 3028,
      "આથી": 3029,
      "રને": 3030,
      "ટેલિ": 3031,
      "ડાઈ": 3032,
      "ખેડૂત": 3033,
      "નવેમ્બર": 3034,
      "પમાં": 3035,
      "શભાઇ": 3036,
      "૨૦૦": 3037,
      "ગ્રસ્ત": 3038,
      "દુકા": 3039,
      "હોવાનો": 3040,
      "મોટાભાગના": 3041,
      "વિભાગના": 3042,
      "અપી": 3043,
      "તૂ": 3044,
      "સીન": 3045,
      "પુરી": 3046,
      "al": 3047,
      "ઇજા": 3048,
      "ઉભી": 3049,
      "લ્યુ": 3050,
      "આવો": 3051,
      "ાર્ડ": 3052,
      "મળીને": 3053,
      "મૂકી": 3054,
      "પાણીની": 3055,
      "ફિલ્મમાં": 3056,
      "રવિવારે": 3057,
      "તસવી": 3058,
      "ભરી": 3059,
      "રાય": 3060,
      "તોને": 3061,
      "એકબીજા": 3062,
      "વધે": 3063,
      "જુલાઈ": 3064,
      "જોખમ": 3065,
      "મંત્રાલય": 3066,
      "સ્ય": 3067,
      "મેરા": 3068,
      "રેન્": 3069,
      "ટીવ": 3070,
      "દરિયા": 3071,
      "પ્રેમી": 3072,
      "સ્કૃતિ": 3073,
      "દિલ્હીમાં": 3074,
      "નેતાઓ": 3075,
      "લગાવી": 3076,
      "સાંભળ": 3077,
      "શાકભાજી": 3078,
      "ંસ": 3079,
      "ઈન્ડિયા": 3080,
      "કબ": 3081,
      "જારી": 3082,
      "ઢો": 3083,
      "નમ": 3084,
      "નવો": 3085,
      "બપોરે": 3086,
      "રના": 3087,
      "ટીના": 3088,
      "પ્સ": 3089,
      "વર્ષીય": 3090,
      "એટલા": 3091,
      "સ્વીકાર": 3092,
      "હાર્દિક": 3093,
      "અજાણ": 3094,
      "આરામ": 3095,
      "દ્યા": 3096,
      "માંડ": 3097,
      "રાશ": 3098,
      "લોકોમાં": 3099,
      "શોધી": 3100,
      "વવાનો": 3101,
      "તેઓને": 3102,
      "નામની": 3103,
      "મહિલાઓ": 3104,
      "લક્ષ્": 3105,
      "બુધવારે": 3106,
      "ચેરમેન": 3107,
      "અલી": 3108,
      "અસરકાર": 3109,
      "સાથ": 3110,
      "વિપક્ષ": 3111,
      "પામ": 3112,
      "સ્ટાર": 3113,
      "કર્મી": 3114,
      "સ્વરૂપ": 3115,
      "બાબત": 3116,
      "શનિવારે": 3117,
      "તાપમાન": 3118,
      "ન્ય": 3119,
      "ૂડ": 3120,
      "રાજે": 3121,
      "લીઝ": 3122,
      "સરખા": 3123,
      "સ્ટિક": 3124,
      "તરત": 3125,
      "સ્થળો": 3126,
      "કલમ": 3127,
      "દેખાય": 3128,
      "st": 3129,
      "કક્ષા": 3130,
      "બનવા": 3131,
      "ભલા": 3132,
      "રં": 3133,
      "વાગ્ય": 3134,
      "સ્ત્રો": 3135,
      "પુત્રી": 3136,
      "ડેટા": 3137,
      "ચોમા": 3138,
      "શીખ": 3139,
      "અભિયાન": 3140,
      "આતંકી": 3141,
      "બેઠકમાં": 3142,
      "પોરબંદર": 3143,
      "ખોરાક": 3144,
      "વાગ્યે": 3145,
      "છતા": 3146,
      "જને": 3147,
      "પથ": 3148,
      "વેપાર": 3149,
      "મળતા": 3150,
      "તરણ": 3151,
      "સૂચ": 3152,
      "ઝડપા": 3153,
      "વાયરસના": 3154,
      "મેચમાં": 3155,
      "બહેન": 3156,
      "દિવસોમાં": 3157,
      "સન્માન": 3158,
      "આધુનિક": 3159,
      "જરે": 3160,
      "દઈએ": 3161,
      "સરો": 3162,
      "સત્ય": 3163,
      "હલી": 3164,
      "સંબો": 3165,
      "સુધ": 3166,
      "બેસી": 3167,
      "સાથેની": 3168,
      "સમક્ષ": 3169,
      "શ્વાસ": 3170,
      "કરાયું": 3171,
      "મહાન": 3172,
      "કૃષિ": 3173,
      "ed": 3174,
      "આપો": 3175,
      "ગમે": 3176,
      "ભ્ર": 3177,
      "વસ": 3178,
      "મોકલી": 3179,
      "દ્વાર": 3180,
      "ગુલા": 3181,
      "નિષ્ફળ": 3182,
      "કયા": 3183,
      "કડા": 3184,
      "પિયા": 3185,
      "ફસા": 3186,
      "સેલ": 3187,
      "સ્ટ્ર": 3188,
      "સરકારને": 3189,
      "સર્ચ": 3190,
      "થ્થ": 3191,
      "ડિઝાઇન": 3192,
      "70": 3193,
      "એજ": 3194,
      "ખિ": 3195,
      "લત": 3196,
      "કરનારા": 3197,
      "સંદર્": 3198,
      "સુના": 3199,
      "પીએસ": 3200,
      "પ્રશ્ન": 3201,
      "સ્કૂલ": 3202,
      "શૈલી": 3203,
      "ઓગસ્ટ": 3204,
      "35": 3205,
      "ઈજા": 3206,
      "ઓફર": 3207,
      "છૂ": 3208,
      "દરો": 3209,
      "સહી": 3210,
      "માસ": 3211,
      "યાત": 3212,
      "મોડે": 3213,
      "ચેત": 3214,
      "પ્લેટ": 3215,
      "દ્રા": 3216,
      "નિષ્ણા": 3217,
      "કુદરતી": 3218,
      "ઓથી": 3219,
      "રસો": 3220,
      "સ્મ": 3221,
      "સ્કાર": 3222,
      "પ્રદેશમાં": 3223,
      "પરમાર": 3224,
      "માટેના": 3225,
      "સીપી": 3226,
      "કરેલા": 3227,
      "અભિનેતા": 3228,
      "ફૂટ": 3229,
      "શબ્દો": 3230,
      "આદ": 3231,
      "રદ": 3232,
      "કાળા": 3233,
      "ક્યારેક": 3234,
      "ઓક્સિ": 3235,
      "કથા": 3236,
      "પત": 3237,
      "સાથી": 3238,
      "સાણા": 3239,
      "વિંદ": 3240,
      "પર્યા": 3241,
      "જેનો": 3242,
      "હોમ": 3243,
      "વર્ણ": 3244,
      "શોક": 3245,
      "માર્ગદર્શન": 3246,
      "ક્ષેત્રમાં": 3247,
      "બિઝનેસ": 3248,
      "અપીલ": 3249,
      "90": 3250,
      "ચલ": 3251,
      "બરા": 3252,
      "રત": 3253,
      "વેટ": 3254,
      "અંતે": 3255,
      "કાળજી": 3256,
      "મૂલ્ય": 3257,
      "ડ્રગ": 3258,
      "ઉના": 3259,
      "ફંડ": 3260,
      "મશી": 3261,
      "રક્ષા": 3262,
      "વટી": 3263,
      "માનો": 3264,
      "વારો": 3265,
      "ક્લિક": 3266,
      "બાઇલ": 3267,
      "મોબાઇલ": 3268,
      "જોગ": 3269,
      "સંકે": 3270,
      "મુક્ત": 3271,
      "સહિતની": 3272,
      "ધરવામાં": 3273,
      "નીકળી": 3274,
      "અકસ્માત": 3275,
      "સિવિલ": 3276,
      "વિશાળ": 3277,
      "આખા": 3278,
      "એસો": 3279,
      "વકી": 3280,
      "તાનો": 3281,
      "રાત્રી": 3282,
      "કોહલી": 3283,
      "પ્રકા": 3284,
      "હોત": 3285,
      "દિત": 3286,
      "દિગ્": 3287,
      "બીમારી": 3288,
      "સુરક્ષિત": 3289,
      "ટ્ટી": 3290,
      "મદદથી": 3291,
      "નાણાકીય": 3292,
      "હેલ્થ": 3293,
      "500": 3294,
      "એમાં": 3295,
      "તત્": 3296,
      "પડા": 3297,
      "હોટ": 3298,
      "મોડી": 3299,
      "ડિયન": 3300,
      "પોતાને": 3301,
      "બિહાર": 3302,
      "મારું": 3303,
      "પકડી": 3304,
      "માંગણી": 3305,
      "બેન્ક": 3306,
      "ઓક્ટોબર": 3307,
      "27": 3308,
      "રજુ": 3309,
      "વાવા": 3310,
      "વિરા": 3311,
      "પ્રભા": 3312,
      "પોલિ": 3313,
      "જીતી": 3314,
      "તીવ્ર": 3315,
      "ક્રમે": 3316,
      "દિવસથી": 3317,
      "કહેવા": 3318,
      "ઘણાં": 3319,
      "કલેકટર": 3320,
      "ફ્રિ": 3321,
      "હેડ": 3322,
      "ણીએ": 3323,
      "સ્થાપિત": 3324,
      "ખોલ": 3325,
      "મનાથ": 3326,
      "ક્ષણિક": 3327,
      "યુવક": 3328,
      "સ્ટોર": 3329,
      "29": 3330,
      "દમાં": 3331,
      "વળી": 3332,
      "સ્કી": 3333,
      "નોટ": 3334,
      "પાવર": 3335,
      "જેલ": 3336,
      "ંગના": 3337,
      "ભાગ્ય": 3338,
      "હોવાના": 3339,
      "નોંધી": 3340,
      "સંગ્ર": 3341,
      "આધારિત": 3342,
      "ફાયદો": 3343,
      "અહેવાલ": 3344,
      "જમ્મુ": 3345,
      "80": 3346,
      "હેતુ": 3347,
      "પાક": 3348,
      "ભારતે": 3349,
      "કરેલી": 3350,
      "શ્રદ્ધા": 3351,
      "સુરતમાં": 3352,
      "ફાયદા": 3353,
      "ભલામણ": 3354,
      "ch": 3355,
      "ઇલેક્": 3356,
      "ઉભા": 3357,
      "વને": 3358,
      "વિરૂ": 3359,
      "મોહ": 3360,
      "જીની": 3361,
      "ત્સવ": 3362,
      "વધારી": 3363,
      "ન્ડસ્ટ્રી": 3364,
      "અમરેલી": 3365,
      "બાળકી": 3366,
      "સ્ટેટ": 3367,
      "પરિવારના": 3368,
      "ત્વચા": 3369,
      "ધારાસભ્યો": 3370,
      "જવાબદાર": 3371,
      "અસરકારક": 3372,
      "આના": 3373,
      "આયુ": 3374,
      "ઊંચા": 3375,
      "બગ": 3376,
      "હૂ": 3377,
      "નાખી": 3378,
      "તોડી": 3379,
      "વારના": 3380,
      "2021": 3381,
      "ભરત": 3382,
      "નોંધાયો": 3383,
      "તકલી": 3384,
      "અફઘા": 3385,
      "આકર્ષ": 3386,
      "કચ": 3387,
      "કડી": 3388,
      "જિત": 3389,
      "મથી": 3390,
      "ોને": 3391,
      "રાઈ": 3392,
      "ઉપયોગી": 3393,
      "જુદી": 3394,
      "ભાવમાં": 3395,
      "હાથમાં": 3396,
      "સ્વસ્થ": 3397,
      "પ્રદેશના": 3398,
      "લક્ષ્મી": 3399,
      "આભાર": 3400,
      "જતી": 3401,
      "પજ": 3402,
      "ળુ": 3403,
      "વના": 3404,
      "સફે": 3405,
      "વિમાન": 3406,
      "વિતરણ": 3407,
      "સેક": 3408,
      "રૂમમાં": 3409,
      "શિયન": 3410,
      "વવાનું": 3411,
      "ધારણ": 3412,
      "બદલા": 3413,
      "પ્રતિનિધિ": 3414,
      "નિયમિત": 3415,
      "નારાયણ": 3416,
      "ન્યાય": 3417,
      "વપરાશ": 3418,
      "ઇસ": 3419,
      "ગલ": 3420,
      "જમી": 3421,
      "ષ્ય": 3422,
      "૭૦": 3423,
      "વિગત": 3424,
      "મેસે": 3425,
      "સંપત્તિ": 3426,
      "ડીયો": 3427,
      "સોલ": 3428,
      "સોના": 3429,
      "કંપનીએ": 3430,
      "મહેસાણા": 3431,
      "કંઈક": 3432,
      "મેનેજ": 3433,
      "તસવીરો": 3434,
      "વાવાઝો": 3435,
      "ચ્યુ": 3436,
      "ચહેરા": 3437,
      "વાલી": 3438,
      "કામો": 3439,
      "રીના": 3440,
      "ખાને": 3441,
      "બીજો": 3442,
      "ટ્રસ્ટ": 3443,
      "શનના": 3444,
      "ગુરૂ": 3445,
      "જણાવ્યુ": 3446,
      "કૃતિ": 3447,
      "ગ્રામ્ય": 3448,
      "અમેરિકાના": 3449,
      "સફેદ": 3450,
      "આકાર": 3451,
      "ચારે": 3452,
      "સક": 3453,
      "ન્સિ": 3454,
      "બાયો": 3455,
      "મળવા": 3456,
      "દિવસની": 3457,
      "તાલુકામાં": 3458,
      "કાર્યક્રમો": 3459,
      "પ્રયત્ન": 3460,
      "પ્રસંગે": 3461,
      "45": 3462,
      "ધ્ર": 3463,
      "ભજ": 3464,
      "રમી": 3465,
      "વત્તા": 3466,
      "ષી": 3467,
      "લાખો": 3468,
      "પ્રદ": 3469,
      "નિકો": 3470,
      "જીએસટી": 3471,
      "રિત": 3472,
      "ગોલ્ડ": 3473,
      "વ્યક્તિને": 3474,
      "અંગેની": 3475,
      "ચર્ય": 3476,
      "કૃષ્ણ": 3477,
      "પાડવામાં": 3478,
      "હજારો": 3479,
      "સાઉ": 3480,
      "વેર": 3481,
      "પીડિ": 3482,
      "ભૂલ": 3483,
      "આપણી": 3484,
      "ફ્લો": 3485,
      "હકીકત": 3486,
      "આક્ષેપ": 3487,
      "તાત્કાલિક": 3488,
      "અત્ય": 3489,
      "ઉકેલ": 3490,
      "દસ": 3491,
      "કરશો": 3492,
      "એકદમ": 3493,
      "ત્સા": 3494,
      "વ્યૂ": 3495,
      "ગોળી": 3496,
      "સંગી": 3497,
      "રાજકોટમાં": 3498,
      "સંકળા": 3499,
      "ઓછું": 3500,
      "ફાર્": 3501,
      "શારી": 3502,
      "રોલ": 3503,
      "લોહી": 3504,
      "સંયુક્ત": 3505,
      "હાં": 3506,
      "મુસાફ": 3507,
      "પીડા": 3508,
      "શાળી": 3509,
      "આવેલું": 3510,
      "સૂચના": 3511,
      "પ્રેસ": 3512,
      "વિકલ્પ": 3513,
      "શ્રેણી": 3514,
      "આંતરરાષ્ટ્રીય": 3515,
      "આતંકવાદી": 3516,
      "આશ્": 3517,
      "ગણે": 3518,
      "જમ": 3519,
      "તણા": 3520,
      "બજા": 3521,
      "વડે": 3522,
      "સાહે": 3523,
      "લેવાની": 3524,
      "દીકરા": 3525,
      "ગીત": 3526,
      "કોઈને": 3527,
      "દુકાન": 3528,
      "દોડ": 3529,
      "ઘરની": 3530,
      "ખેડૂતોને": 3531,
      "પરિણામો": 3532,
      "રોકડ": 3533,
      "મિશ્રણ": 3534,
      "સાધનો": 3535,
      "વાસ્તવિક": 3536,
      "એવોર્ડ": 3537,
      "ખં": 3538,
      "લૉ": 3539,
      "બાપુ": 3540,
      "જૂના": 3541,
      "અમલ": 3542,
      "ખુશી": 3543,
      "નોંધપાત્ર": 3544,
      "પરિણામે": 3545,
      "કૌભા": 3546,
      "ઉમેદવારો": 3547,
      "પૃથ્": 3548,
      "it": 3549,
      "આખરે": 3550,
      "ગૂ": 3551,
      "લવ": 3552,
      "સ્તે": 3553,
      "સ્વચ્": 3554,
      "સ્પદ": 3555,
      "જાતિ": 3556,
      "રેજ": 3557,
      "રેક્ટર": 3558,
      "ડિટ": 3559,
      "યેલો": 3560,
      "ખુલા": 3561,
      "સ્વતંત્ર": 3562,
      "રૂપિયાની": 3563,
      "લાગ્યો": 3564,
      "વિચારો": 3565,
      "ઓક્સિજન": 3566,
      "ઓછો": 3567,
      "ઝુ": 3568,
      "ટણી": 3569,
      "ણંદ": 3570,
      "તં": 3571,
      "૨૨": 3572,
      "તાલીમ": 3573,
      "વિધિ": 3574,
      "ભાવે": 3575,
      "ચાલે": 3576,
      "સરદાર": 3577,
      "દુઃ": 3578,
      "અધિકાર": 3579,
      "લાંબી": 3580,
      "ઉમેર": 3581,
      "લાઇટ": 3582,
      "કલાકે": 3583,
      "ગરીબ": 3584,
      "શંકર": 3585,
      "શબ્દ": 3586,
      "ઇમ": 3587,
      "ઈન્ટર": 3588,
      "ખું": 3589,
      "રણા": 3590,
      "ક્ષમ": 3591,
      "સીએ": 3592,
      "રિય": 3593,
      "તમારો": 3594,
      "પરીક્ષણ": 3595,
      "અત્યંત": 3596,
      "આશ્ચર્ય": 3597,
      "ઠું": 3598,
      "ફત": 3599,
      "ફતે": 3600,
      "ભિ": 3601,
      "લખી": 3602,
      "વાને": 3603,
      "નાઇ": 3604,
      "વિદ્યા": 3605,
      "લોમાં": 3606,
      "ટીંગ": 3607,
      "શાહી": 3608,
      "પેપર": 3609,
      "ચેપ": 3610,
      "....": 3611,
      "ચીફ": 3612,
      "સિંહે": 3613,
      "સ્ટેશનમાં": 3614,
      "ing": 3615,
      "36": 3616,
      "as": 3617,
      "જગ": 3618,
      "મજા": 3619,
      "વની": 3620,
      "રાઉન્ડ": 3621,
      "લાની": 3622,
      "પરછ": 3623,
      "લોન્ચ": 3624,
      "મોહન": 3625,
      "આવતાં": 3626,
      "શનની": 3627,
      "ખ્યાત": 3628,
      "વિદ્યાર્થીઓને": 3629,
      "ઓછામાં": 3630,
      "વહેલી": 3631,
      "મુસ્લિમ": 3632,
      "શારીરિક": 3633,
      "ઉદ્": 3634,
      "એકા": 3635,
      "ધાર્": 3636,
      "ૈયા": 3637,
      "વાડ": 3638,
      "પ્રચાર": 3639,
      "જેલમાં": 3640,
      "નિયર": 3641,
      "દેહ": 3642,
      "ડાયા": 3643,
      "ટોક": 3644,
      "મૂર્તિ": 3645,
      "પગાર": 3646,
      "વધીને": 3647,
      "ંગ્લેન્ડ": 3648,
      "અનામત": 3649,
      "ત્રણેય": 3650,
      "31": 3651,
      "નવું": 3652,
      "ભવ્ય": 3653,
      "વાયુ": 3654,
      "સુધાર": 3655,
      "બેક": 3656,
      "સરહ": 3657,
      "શ્ચિત": 3658,
      "દુષ્": 3659,
      "બ્લેક": 3660,
      "જોઈને": 3661,
      "બ્રો": 3662,
      "તુલ": 3663,
      "બન્યો": 3664,
      "આગાહી": 3665,
      "કાર્યક્રમમાં": 3666,
      "સરખામણી": 3667,
      "સુધારો": 3668,
      "જ્યો": 3669,
      "વડી": 3670,
      "સહે": 3671,
      "કરાર": 3672,
      "દાસ": 3673,
      "લિસ્ટ": 3674,
      "પેટ્રો": 3675,
      "રહેતી": 3676,
      "કરાયા": 3677,
      "દર્શ": 3678,
      "કરોડની": 3679,
      "નોંધાવી": 3680,
      "જાણીતા": 3681,
      "ટૂંક": 3682,
      "નહોતી": 3683,
      "ઓફિસ": 3684,
      "ગુણવત્તા": 3685,
      "વેક્સિન": 3686,
      "જથ્થો": 3687,
      "સુનાવણી": 3688,
      "પૃથ્વી": 3689,
      "ક્યુ": 3690,
      "રમે": 3691,
      "રાત્રિ": 3692,
      "સંસદ": 3693,
      "સુરેન્દ્ર": 3694,
      "કર્તા": 3695,
      "ભંગ": 3696,
      "હટા": 3697,
      "વાં": 3698,
      "રાવ": 3699,
      "હોઇ": 3700,
      "સેસ": 3701,
      "સીએમ": 3702,
      "દિને": 3703,
      "મીના": 3704,
      "લોકોનો": 3705,
      "કિર્": 3706,
      "ફાઇન": 3707,
      "કાર્યકરો": 3708,
      "ધોની": 3709,
      "ચૂક્યા": 3710,
      "ઓળખા": 3711,
      "કોલેજ": 3712,
      "ટ્વીટ": 3713,
      "99": 3714,
      "મકાન": 3715,
      "શખ": 3716,
      "માહોલ": 3717,
      "સાગર": 3718,
      "સાથેના": 3719,
      "સોમનાથ": 3720,
      "રિટી": 3721,
      "રિલીઝ": 3722,
      "પોલીસની": 3723,
      "પાણીમાં": 3724,
      "બ્રહ્": 3725,
      "શરૂઆતમાં": 3726,
      "આગેવાનો": 3727,
      "આવશ્યક": 3728,
      "આશ્ર": 3729,
      "ઇતિહા": 3730,
      "ઓલ": 3731,
      "પથ્થ": 3732,
      "હલ": 3733,
      "લાગ્યા": 3734,
      "કોમાં": 3735,
      "જેમાંથી": 3736,
      "લીધું": 3737,
      "તોડ": 3738,
      "સેવ": 3739,
      "ગામની": 3740,
      "બોલિવ": 3741,
      "મહેન": 3742,
      "વાંચો": 3743,
      "મ્બરે": 3744,
      "ઉમ": 3745,
      "હરી": 3746,
      "સ્ક્રી": 3747,
      "રાઇ": 3748,
      "ક્લિ": 3749,
      "જેવું": 3750,
      "સમજી": 3751,
      "ટ્રક": 3752,
      "શિત": 3753,
      "ગેસ": 3754,
      "વ્યક્તિગત": 3755,
      "મામલો": 3756,
      "બાબતો": 3757,
      "કપડાં": 3758,
      "ધાર્મિક": 3759,
      "દસ્તા": 3760,
      "ધારી": 3761,
      "પવિ": 3762,
      "ર્વ": 3763,
      "પાઈ": 3764,
      "જાપા": 3765,
      "ડાંગ": 3766,
      "સીટ": 3767,
      "મિશન": 3768,
      "બનાવ્યા": 3769,
      "કર્ણા": 3770,
      "આપીને": 3771,
      "પાર્ટમેન્ટ": 3772,
      "દેખાવ": 3773,
      "પાર્ટીના": 3774,
      "વૈજ્ઞા": 3775,
      "શરીરમાં": 3776,
      "મુલાકા": 3777,
      "અંદાજ": 3778,
      "કિલોમીટર": 3779,
      "ટ્વિટર": 3780,
      "સમર્થન": 3781,
      "અવાજ": 3782,
      "બર્": 3783,
      "વરિ": 3784,
      "તેવો": 3785,
      "બાત": 3786,
      "સંત": 3787,
      "આવ્યુ": 3788,
      "ફોટા": 3789,
      "કલ્યા": 3790,
      "સ્થિર": 3791,
      "આજથી": 3792,
      "વૉ": 3793,
      "સણ": 3794,
      "વિરો": 3795,
      "રહેવું": 3796,
      "ઉપકરણ": 3797,
      "તરના": 3798,
      "જનરલ": 3799,
      "મહત્વનું": 3800,
      "ન્યૂઝ": 3801,
      "કમાણી": 3802,
      "સર્વિસ": 3803,
      "મર્યાદા": 3804,
      "ic": 3805,
      "ઘૂ": 3806,
      "ળની": 3807,
      "વતો": 3808,
      "૨૮": 3809,
      "૬૦": 3810,
      "પરવાનગી": 3811,
      "સંજો": 3812,
      "ટાઉ": 3813,
      "પેટા": 3814,
      "જૂન": 3815,
      "કેસની": 3816,
      "લોકડાઉ": 3817,
      "જેનાથી": 3818,
      "અપના": 3819,
      "નુકશાન": 3820,
      "નિવેદ": 3821,
      "ઉત્પાદનો": 3822,
      "દરવાજા": 3823,
      "દસ્તાવે": 3824,
      "અગ": 3825,
      "ગારી": 3826,
      "ભટ્": 3827,
      "મૌ": 3828,
      "વવું": 3829,
      "સાહિ": 3830,
      "રીત": 3831,
      "ક્લ": 3832,
      "ક્વો": 3833,
      "ચાઇ": 3834,
      "સ્તરે": 3835,
      "ળીયા": 3836,
      "કરાવવા": 3837,
      "ઉત્તમ": 3838,
      "પહોંચે": 3839,
      "ગ્રાઉન્ડ": 3840,
      "કંપનીના": 3841,
      "નામું": 3842,
      "પંથ": 3843,
      "મહત્ત્વ": 3844,
      "એન્જિ": 3845,
      "આંતરિક": 3846,
      "આત્મ": 3847,
      "ાર્થના": 3848,
      "રીમાં": 3849,
      "ક્સી": 3850,
      "પાઇ": 3851,
      "લેશન": 3852,
      "લ્લે": 3853,
      "મુસા": 3854,
      "સિસ": 3855,
      "રહેલ": 3856,
      "ખોટી": 3857,
      "કાયદો": 3858,
      "ભરતી": 3859,
      "અમદાવાદના": 3860,
      "જ્જ": 3861,
      "કમિશનર": 3862,
      "પવિત્ર": 3863,
      "અશ્": 3864,
      "કૈ": 3865,
      "તલ": 3866,
      "તસ્વી": 3867,
      "વસા": 3868,
      "હર્ષ": 3869,
      "કરું": 3870,
      "લાવી": 3871,
      "સુધીની": 3872,
      "દોઢ": 3873,
      "પડ્યા": 3874,
      "લાખની": 3875,
      "સ્વાગત": 3876,
      "સાઇટ": 3877,
      "ગુરુવારે": 3878,
      "દિશામાં": 3879,
      "75": 3880,
      "le": 3881,
      "ઇચ્છા": 3882,
      "રક્ત": 3883,
      "માઈ": 3884,
      "લાવવા": 3885,
      "કાગ": 3886,
      "પ્રશં": 3887,
      "મિન": 3888,
      "કીટ": 3889,
      "પેઢી": 3890,
      "ડિસ્": 3891,
      "ફરાર": 3892,
      "જૂથ": 3893,
      "પહોંચ્યો": 3894,
      "અમેરિકન": 3895,
      "ઓનલાઇન": 3896,
      "ઓનલાઈન": 3897,
      "ઉર્ફે": 3898,
      "ંટી": 3899,
      "અપે": 3900,
      "ઘણો": 3901,
      "જવાની": 3902,
      "ઠંડી": 3903,
      "નજરે": 3904,
      "૧૦૦": 3905,
      "૨૩": 3906,
      "૨૬": 3907,
      "કેમેરા": 3908,
      "કોશિ": 3909,
      "પ્રધા": 3910,
      "નિસ્તા": 3911,
      "સીટી": 3912,
      "ત્કાર": 3913,
      "પેદા": 3914,
      "ટિકિટ": 3915,
      "ડુંગ": 3916,
      "આંકડો": 3917,
      "બચાવ": 3918,
      "અલબ": 3919,
      "બાંધકામ": 3920,
      "ચાંદી": 3921,
      "કલ્યાણ": 3922,
      "ંજ": 3923,
      "છત": 3924,
      "વાણી": 3925,
      "સ્વાદ": 3926,
      "વિભાગે": 3927,
      "ડીએ": 3928,
      "ખાંડ": 3929,
      "વધા": 3930,
      "રાજસ્થા": 3931,
      "ટોચ": 3932,
      "દોષ": 3933,
      "દોડી": 3934,
      "નગરમાં": 3935,
      "કોર્ટના": 3936,
      "જોડાયેલા": 3937,
      "લાયન્સ": 3938,
      "રસીકરણ": 3939,
      "ડ્રાઈ": 3940,
      "સમીક્ષા": 3941,
      "આચાર": 3942,
      "જવામાં": 3943,
      "પંડ": 3944,
      "યં": 3945,
      "ર૦": 3946,
      "તેમાંથી": 3947,
      "પ્રભાવ": 3948,
      "પામી": 3949,
      "લીપ": 3950,
      "રોહિત": 3951,
      "લ્ટ": 3952,
      "ટીમના": 3953,
      "સંબંધી": 3954,
      "આવવા": 3955,
      "સોની": 3956,
      "રિયલ": 3957,
      "યુરો": 3958,
      "જુગાર": 3959,
      "કુશ": 3960,
      "બાળકને": 3961,
      "અંગ્રે": 3962,
      "પગલા": 3963,
      "દાયક": 3964,
      "પાટીદાર": 3965,
      "કપાસ": 3966,
      "ગું": 3967,
      "ગયેલા": 3968,
      "મસ": 3969,
      "હરિ": 3970,
      "માંગે": 3971,
      "રાની": 3972,
      "કેના": 3973,
      "વિંગ": 3974,
      "વિડીયો": 3975,
      "હોવું": 3976,
      "રેટ": 3977,
      "ટીસ": 3978,
      "સંવે": 3979,
      "ટ્રિક": 3980,
      "એસપી": 3981,
      "પ્રોત્સા": 3982,
      "વૃદ્ધિ": 3983,
      "સંબંધો": 3984,
      "વૈશ્": 3985,
      "જઈને": 3986,
      "સરળતાથી": 3987,
      "ઉપાય": 3988,
      "સચિવ": 3989,
      "શૂટિંગ": 3990,
      "તકલીફ": 3991,
      "૩૧": 3992,
      "સાચી": 3993,
      "લીના": 3994,
      "લીલા": 3995,
      "રોએ": 3996,
      "નિમણ": 3997,
      "લ્વે": 3998,
      "જીના": 3999,
      "ચાહ": 4000,
      "સ્ટ્રો": 4001,
      "રાજસ્થાન": 4002,
      "કરોડો": 4003,
      "ટોપ": 4004,
      "ફોર": 4005,
      "બન્યું": 4006,
      "નાગરિક": 4007,
      "રંગો": 4008,
      "કાળમાં": 4009,
      "કોન્ટ્રા": 4010,
      "વીજળી": 4011,
      "આદિવાસી": 4012,
      "શકાશે": 4013,
      "કૌભાંડ": 4014,
      ").": 4015,
      "ડ્રો": 4016,
      "મલ્": 4017,
      "ળું": 4018,
      "વરી": 4019,
      "વસ્તી": 4020,
      "મેટ": 4021,
      "જાે": 4022,
      "લેશે": 4023,
      "મોંઘ": 4024,
      "ત્વે": 4025,
      "ચામ": 4026,
      "યેલું": 4027,
      "વરસા": 4028,
      "સ્થાપના": 4029,
      "પડતા": 4030,
      "સર્જન": 4031,
      "દિલ્હીઃ": 4032,
      "જરૂરિયાત": 4033,
      "અર્થે": 4034,
      "પ્રિયંકા": 4035,
      "સંક્રમિત": 4036,
      "સંભવિત": 4037,
      "ગ્રુપ": 4038,
      "34": 4039,
      "om": 4040,
      "અજય": 4041,
      "આઝા": 4042,
      "એપ્": 4043,
      "ળતા": 4044,
      "૨૯": 4045,
      "૩૫": 4046,
      "તેટ": 4047,
      "વિટા": 4048,
      "વીમા": 4049,
      "કાર્યા": 4050,
      "કારકિર્": 4051,
      "પણી": 4052,
      "જાગ": 4053,
      "લેથી": 4054,
      "મોં": 4055,
      "જોતા": 4056,
      "આવ્યાં": 4057,
      "બેં": 4058,
      "ન્ટ્સ": 4059,
      "ગેટ": 4060,
      "ફેન્સ": 4061,
      "સમયગાળા": 4062,
      "પુરમાં": 4063,
      "આઈપી": 4064,
      "મહત્વની": 4065,
      "ટૂંકા": 4066,
      "માગણી": 4067,
      "શહેરી": 4068,
      "સરેરાશ": 4069,
      "ચોમાસા": 4070,
      "બરાબર": 4071,
      "વિરાટ": 4072,
      "આજના": 4073,
      "આખી": 4074,
      "કસ્ટ": 4075,
      "જવું": 4076,
      "ભરે": 4077,
      "શય": 4078,
      "તોની": 4079,
      "તીય": 4080,
      "હાણ": 4081,
      "દિન": 4082,
      "ગામો": 4083,
      "ચાવી": 4084,
      "ટ્રમ્પ": 4085,
      "બોટ": 4086,
      "બનાવો": 4087,
      "મહિને": 4088,
      "સમાજના": 4089,
      "ત્યાંથી": 4090,
      "ઘાયલ": 4091,
      "રસપ્રદ": 4092,
      "સમસ્યાઓ": 4093,
      "દુનિયામાં": 4094,
      "ઠેર": 4095,
      "તૃત્વ": 4096,
      "અજાણ્યા": 4097,
      "અફઘાનિસ્તા": 4098,
      "અલબત્ત": 4099,
      "કારકિર્દી": 4100,
      "am": 4101,
      "આણંદ": 4102,
      "ઊભા": 4103,
      "ઓટો": 4104,
      "મલ": 4105,
      "કોચ": 4106,
      "સાબર": 4107,
      "ડીમાં": 4108,
      "ચાઈ": 4109,
      "વધશે": 4110,
      "પેન": 4111,
      "શોધન": 4112,
      "કંઇ": 4113,
      "પુરવ": 4114,
      "અમેરિકામાં": 4115,
      "વિષે": 4116,
      "ઓપરેશન": 4117,
      "તહેવાર": 4118,
      "મેનેજમેન્ટ": 4119,
      "32": 4120,
      "આકાશ": 4121,
      "ઊભી": 4122,
      "મય": 4123,
      "રજ": 4124,
      "રશિયા": 4125,
      "છેલ્લી": 4126,
      "નોને": 4127,
      "કામાં": 4128,
      "રીંગ": 4129,
      "પ્રાર્થના": 4130,
      "ક્લા": 4131,
      "પરના": 4132,
      "પોઇન્ટ": 4133,
      "સંશોધન": 4134,
      "દ્દ": 4135,
      "વધતા": 4136,
      "લિટી": 4137,
      "ડેરી": 4138,
      "વ્યકિત": 4139,
      "થોડો": 4140,
      "અંતર": 4141,
      "વિશ્વમાં": 4142,
      "એક્ટિવ": 4143,
      "મીડિયામાં": 4144,
      "એન્ટ્રી": 4145,
      "ક્રેડિટ": 4146,
      "હિંસા": 4147,
      "ફ્રેન્ડ": 4148,
      "વહીવટી": 4149,
      "છબી": 4150,
      "થવું": 4151,
      "યથા": 4152,
      "વાલો": 4153,
      "રાઠો": 4154,
      "પ્રમો": 4155,
      "રેલ્વે": 4156,
      "મુકેશ": 4157,
      "મંત્ર": 4158,
      "ડોક્ટર": 4159,
      "પરિવર્તન": 4160,
      "કોરોનાથી": 4161,
      "ગુજરાતની": 4162,
      "ર્સને": 4163,
      "પ્રતિક્રિયા": 4164,
      "પ્લાસ્ટિક": 4165,
      "કલેક્ટર": 4166,
      "ડ્રાઇ": 4167,
      "મેસેજ": 4168,
      "ov": 4169,
      "અણ": 4170,
      "ઉડા": 4171,
      "મસા": 4172,
      "વસૂ": 4173,
      "નાનો": 4174,
      "વિજે": 4175,
      "જેવો": 4176,
      "નિરા": 4177,
      "િયાણા": 4178,
      "શાસ્ત્રી": 4179,
      "ડોક્ટ": 4180,
      "જણાવે": 4181,
      "2018": 4182,
      "જૂર": 4183,
      "ઘાટ": 4184,
      "મોદીના": 4185,
      "ફૂલ": 4186,
      "ચર્ચામાં": 4187,
      "બ્રાન્ડ": 4188,
      "બચાવવા": 4189,
      "લૂંટ": 4190,
      "મરાન": 4191,
      "પુસ્તક": 4192,
      "સમુદ્ર": 4193,
      "અક્ષય": 4194,
      "ચેતવણી": 4195,
      "મહેનત": 4196,
      "ac": 4197,
      "ઓર્": 4198,
      "કબ્": 4199,
      "કતમાં": 4200,
      "ગન": 4201,
      "બ્યુ": 4202,
      "વનાર": 4203,
      "હથિ": 4204,
      "૮૦": 4205,
      "વાયા": 4206,
      "વાયું": 4207,
      "તેણી": 4208,
      "પ્રવ": 4209,
      "રોગો": 4210,
      "હોવી": 4211,
      "સેક્ટર": 4212,
      "આવરી": 4213,
      "બેસ": 4214,
      "સીની": 4215,
      "દિલ": 4216,
      "દેશી": 4217,
      "ગોળ": 4218,
      "ફાં": 4219,
      "એટલી": 4220,
      "બનેલા": 4221,
      "જોડાયા": 4222,
      "ડૉક્ટર": 4223,
      "વૈશ્વિક": 4224,
      "આમાં": 4225,
      "તકે": 4226,
      "દયા": 4227,
      "મહો": 4228,
      "યક": 4229,
      "રસ્તો": 4230,
      "સરા": 4231,
      "વિન": 4232,
      "ટેબલ": 4233,
      "લીન": 4234,
      "બાય": 4235,
      "ડીના": 4236,
      "લિમિ": 4237,
      "2017": 4238,
      "દિવસના": 4239,
      "ગાંધીએ": 4240,
      "ગ્લો": 4241,
      "શાનદાર": 4242,
      "અબજ": 4243,
      "ઈલ": 4244,
      "જગત": 4245,
      "ટુંબ": 4246,
      "ડ્સ": 4247,
      "મું": 4248,
      "લયે": 4249,
      "સક્ષમ": 4250,
      "નારાજ": 4251,
      "તાલિ": 4252,
      "સ્કો": 4253,
      "સામાન": 4254,
      "જાતે": 4255,
      "નિશાન": 4256,
      "સુશાંત": 4257,
      "ધાની": 4258,
      "પેશ": 4259,
      "કિં": 4260,
      "જુન": 4261,
      "એમની": 4262,
      "કોંગ્રેસે": 4263,
      "દવાઓ": 4264,
      "મંદિરમાં": 4265,
      "અંદાજે": 4266,
      "રાજ્યોમાં": 4267,
      "યાદીમાં": 4268,
      "અથ": 4269,
      "અંક": 4270,
      "આફ્રિ": 4271,
      "વાર્ષ": 4272,
      "કોનો": 4273,
      "જીભાઈ": 4274,
      "બેઠા": 4275,
      "સમૃ": 4276,
      "ટ્રિ": 4277,
      "છોકરા": 4278,
      "ત્રીજી": 4279,
      "પડતી": 4280,
      "રાજ્યસભા": 4281,
      "ભૂલી": 4282,
      "મુખ્યત્વે": 4283,
      "વિસ્તારના": 4284,
      "હાલત": 4285,
      "પ્લાન": 4286,
      "સેવાઓ": 4287,
      "સહયોગ": 4288,
      "મૂકવામાં": 4289,
      "ટેકનોલોજી": 4290,
      "હાઉસ": 4291,
      "38": 4292,
      "ઘણું": 4293,
      "ભણ": 4294,
      "માફ": 4295,
      "વાણ": 4296,
      "વાડા": 4297,
      "તેનાં": 4298,
      "ર્વે": 4299,
      "ન્શન": 4300,
      "જાન": 4301,
      "જામીન": 4302,
      "રેખા": 4303,
      "લોડ": 4304,
      "લોની": 4305,
      "એકત્ર": 4306,
      "ટીમો": 4307,
      "ડીંગ": 4308,
      "હિંમત": 4309,
      "ષ્ટા": 4310,
      "રાખવી": 4311,
      "ચૂકી": 4312,
      "આપણને": 4313,
      "ચાલક": 4314,
      "કૃપા": 4315,
      "ચુકા": 4316,
      "મંડળ": 4317,
      "દર્શાવે": 4318,
      "તબીબી": 4319,
      "ફેસબુક": 4320,
      "પંજાબ": 4321,
      "સંગ્રહ": 4322,
      "સોલંકી": 4323,
      "ad": 4324,
      "ંદા": 4325,
      "ગટ": 4326,
      "જ્ય": 4327,
      "ધિક": 4328,
      "૨૭": 4329,
      "માટી": 4330,
      "છેતર": 4331,
      "મેદા": 4332,
      "પાડે": 4333,
      "લીક": 4334,
      "રેશ": 4335,
      "બાગ": 4336,
      "બીજે": 4337,
      "પરિષ": 4338,
      "માણસો": 4339,
      "પરિવારજનો": 4340,
      "પાકિસ્તાનના": 4341,
      "એન્ટી": 4342,
      "પરેશાન": 4343,
      "સંકેત": 4344,
      "વરિષ્ઠ": 4345,
      "મુસાફરી": 4346,
      "ol": 4347,
      "ગાર્ડ": 4348,
      "શ્યા": 4349,
      "સસ્પે": 4350,
      "નાશ": 4351,
      "સ્કે": 4352,
      "લાશ": 4353,
      "મિતા": 4354,
      "રાજુ": 4355,
      "કામના": 4356,
      "કોરોનાને": 4357,
      "નજીકના": 4358,
      "ઠીક": 4359,
      "કૂળ": 4360,
      "વ્હી": 4361,
      "નાયબ": 4362,
      "પ્રોડક્ટ": 4363,
      "ગણેશ": 4364,
      "વિરોધી": 4365,
      "is": 4366,
      "ટર્": 4367,
      "કાની": 4368,
      "ન્જ": 4369,
      "પાય": 4370,
      "હોવ": 4371,
      "નિશ્ચિત": 4372,
      "મોડા": 4373,
      "આવનાર": 4374,
      "પીપ": 4375,
      "સીઝ": 4376,
      "સીના": 4377,
      "શાહે": 4378,
      "આપવાનું": 4379,
      "બનાસ": 4380,
      "કાર્યરત": 4381,
      "થોડું": 4382,
      "માત્રા": 4383,
      "વ્યાપક": 4384,
      "કરોડના": 4385,
      "મહત્યા": 4386,
      "199": 4387,
      "ભેગા": 4388,
      "ઘણીવાર": 4389,
      "રોકવા": 4390,
      "ગ્રાહકોને": 4391,
      "સત્તાવાર": 4392,
      "બીજું": 4393,
      "37": 4394,
      "ટ્યુ": 4395,
      "દૈ": 4396,
      "દની": 4397,
      "બપોર": 4398,
      "માસિક": 4399,
      "કેબિ": 4400,
      "રોષ": 4401,
      "સમૂ": 4402,
      "ઉપચાર": 4403,
      "થઈને": 4404,
      "પ્રેરણા": 4405,
      "ખુલ્લા": 4406,
      "ભાજપે": 4407,
      "ગઈકાલે": 4408,
      "પક્ષી": 4409,
      "પ્લાય": 4410,
      "મ્પ્યુ": 4411,
      "શરૃ": 4412,
      "મુદ્દો": 4413,
      "આત્મહત્યા": 4414,
      "ધંધા": 4415,
      "તણાવ": 4416,
      "વાર્ષિક": 4417,
      "ઉતાર": 4418,
      "ઝૂ": 4419,
      "ણની": 4420,
      "મતે": 4421,
      "હમ": 4422,
      "હારી": 4423,
      "વાવે": 4424,
      "મેલા": 4425,
      "લીમાં": 4426,
      "સંસ્કૃતિ": 4427,
      "મુકી": 4428,
      "ત્તી": 4429,
      "પુરૂ": 4430,
      "ભૂકં": 4431,
      "ભીડ": 4432,
      "ઘરના": 4433,
      "ફૂડ": 4434,
      "કમિટી": 4435,
      "હાઇવે": 4436,
      "અપેક્ષા": 4437,
      "55": 4438,
      "ઈડ": 4439,
      "રજિ": 4440,
      "સતા": 4441,
      "નેતૃત્વ": 4442,
      "પાત": 4443,
      "નિધન": 4444,
      "સીધા": 4445,
      "ખાઈ": 4446,
      "સરસ": 4447,
      "ંતર": 4448,
      "શાખા": 4449,
      "દેશભરમાં": 4450,
      "શિકાર": 4451,
      "ચીનના": 4452,
      "રાજ્યની": 4453,
      "અધિકારીએ": 4454,
      "દર્દીઓની": 4455,
      "બનાવવાની": 4456,
      "પૂરતી": 4457,
      "કોન્ફર": 4458,
      "ગુમાવી": 4459,
      "સંગીત": 4460,
      "અખ": 4461,
      "ટકી": 4462,
      "ડબલ": 4463,
      "નર્": 4464,
      "પબ્": 4465,
      "પન્ન": 4466,
      "ભરૂ": 4467,
      "સ્પો": 4468,
      "નોમાં": 4469,
      "સુધારા": 4470,
      "સરપંચ": 4471,
      "શામેલ": 4472,
      "સોંપ": 4473,
      "પૂરા": 4474,
      "યુપી": 4475,
      "જૂની": 4476,
      "બ્લડ": 4477,
      "મહેતા": 4478,
      "ક્ષેત્રે": 4479,
      "ંદગી": 4480,
      "નોંધનીય": 4481,
      "નહોતો": 4482,
      "ati": 4483,
      "કેટલાંક": 4484,
      "વાર્ટર": 4485,
      "ti": 4486,
      "આલ્": 4487,
      "આશી": 4488,
      "થતું": 4489,
      "ફળી": 4490,
      "બળો": 4491,
      "મનુ": 4492,
      "માલિક": 4493,
      "સાજા": 4494,
      "વિશિ": 4495,
      "કારમાં": 4496,
      "સ્ટાર્": 4497,
      "ટિલ": 4498,
      "કરાઇ": 4499,
      "દોરી": 4500,
      "પોલીસના": 4501,
      "ઉપયોગમાં": 4502,
      "દર્દીઓને": 4503,
      "બનેલી": 4504,
      "દેશોમાં": 4505,
      "બાકીના": 4506,
      "સંતોષ": 4507,
      "પર્યાવરણ": 4508,
      "ખુલાસો": 4509,
      "વિજેતા": 4510,
      "એમ્": 4511,
      "ચકાસ": 4512,
      "ઝિક": 4513,
      "ટર્સ": 4514,
      "પટ": 4515,
      "સાર્": 4516,
      "હનુ": 4517,
      "નોટિસ": 4518,
      "ડાઇ": 4519,
      "રૂા": 4520,
      "દાંત": 4521,
      "બેગ": 4522,
      "દીઠ": 4523,
      "ગુના": 4524,
      "યુઝ": 4525,
      "ડેમ": 4526,
      "પહેલેથી": 4527,
      "ભારતને": 4528,
      "એમના": 4529,
      "પ્રાઇ": 4530,
      "મારફતે": 4531,
      "રોજગારી": 4532,
      "સ્વયં": 4533,
      "વરસાદની": 4534,
      "પક્ષો": 4535,
      "બતાવી": 4536,
      "ક્રાઈ": 4537,
      "છુપા": 4538,
      "સંઘર્ષ": 4539,
      "સંગઠન": 4540,
      "જોરદાર": 4541,
      "વિરૂદ્ધ": 4542,
      ".)": 4543,
      "એક્ટ": 4544,
      "જસ્ટિ": 4545,
      "ઝઘ": 4546,
      "લભ": 4547,
      "વજ": 4548,
      "વાયો": 4549,
      "વિભા": 4550,
      "વિઝન": 4551,
      "મીની": 4552,
      "હિલ": 4553,
      "પ્તિ": 4554,
      "મ્પે": 4555,
      "દુખા": 4556,
      "સમાપ્ત": 4557,
      "બ્લોક": 4558,
      "નિર્દેશ": 4559,
      "વ્યાજ": 4560,
      "તપાસમાં": 4561,
      "પક્ષના": 4562,
      "સ્ટ્રેશન": 4563,
      "શિવસેના": 4564,
      "આસપાસના": 4565,
      "જાળવી": 4566,
      "કિશોર": 4567,
      "શખ્સ": 4568,
      "ઊંઘ": 4569,
      "ચમચી": 4570,
      "ટર્ન": 4571,
      "ડતી": 4572,
      "ળવા": 4573,
      "નીચા": 4574,
      "વિનં": 4575,
      "મેડી": 4576,
      "લીં": 4577,
      "રેશન": 4578,
      "મોટે": 4579,
      "સિત": 4580,
      "ચાલો": 4581,
      "ખાતા": 4582,
      "શાસન": 4583,
      "રાજકો": 4584,
      "મંજુ": 4585,
      "શ્ર્": 4586,
      "પરિવારમાં": 4587,
      "હાલતમાં": 4588,
      "અરવિંદ": 4589,
      "બાઈક": 4590,
      "ગ્રાહકો": 4591,
      "ભૂતપૂર્વ": 4592,
      "હિંદુ": 4593,
      "તિહાસિક": 4594,
      "રંજન": 4595,
      "સુરેન્દ્રનગર": 4596,
      "પથ્થર": 4597,
      "સાહિત્ય": 4598,
      "કવિ": 4599,
      "બહા": 4600,
      "મધ": 4601,
      "સરી": 4602,
      "સ્તિ": 4603,
      "સ્ફો": 4604,
      "લેશ": 4605,
      "મીએ": 4606,
      "ળાની": 4607,
      "ખેંચ": 4608,
      "દોર": 4609,
      "મહાનગરપાલિકા": 4610,
      "પગલું": 4611,
      "મનોજ": 4612,
      "ઉમેરો": 4613,
      "ગંધ": 4614,
      "ઝોન": 4615,
      "ગૌરવ": 4616,
      "મેનેજર": 4617,
      "મંત્રાલયે": 4618,
      "ડીઝલ": 4619,
      "પ્રારંભિક": 4620,
      "પુનઃ": 4621,
      "ST": 4622,
      "et": 4623,
      "અયો": 4624,
      "અશોક": 4625,
      "આહાર": 4626,
      "ઘી": 4627,
      "નવાર": 4628,
      "લહેર": 4629,
      "વતાં": 4630,
      "વહન": 4631,
      "સત્ર": 4632,
      "સફર": 4633,
      "૯૦": 4634,
      "માફી": 4635,
      "કેટે": 4636,
      "પ્રભુ": 4637,
      "ક્તા": 4638,
      "પોઈ": 4639,
      "ટીમને": 4640,
      "ડીઓ": 4641,
      "આવતો": 4642,
      "મીઠું": 4643,
      "પૂરો": 4644,
      "વ્યસ્ત": 4645,
      "ફેક્ટ": 4646,
      "બંધાર": 4647,
      "પાણીના": 4648,
      "લાઈટ": 4649,
      "જરૂરિયા": 4650,
      "મહત્તમ": 4651,
      "ગ્નિ": 4652,
      "મૃતદેહ": 4653,
      "પદાર્": 4654,
      "કલાકારો": 4655,
      "શ્યલ": 4656,
      "ગ્રાહક": 4657,
      "લંબ": 4658,
      "પૂછપરછ": 4659,
      "ઠ્ઠી": 4660,
      "નિમણૂ": 4661,
      ".'": 4662,
      "આને": 4663,
      "ઇંચ": 4664,
      "ઇન્ડસ્ટ્રી": 4665,
      "લમ": 4666,
      "ર્ક": 4667,
      "સાધન": 4668,
      "કાઈ": 4669,
      "ન્ટે": 4670,
      "ંગો": 4671,
      "સિડ": 4672,
      "શાની": 4673,
      "સોફ્ટ": 4674,
      "રાજકારણ": 4675,
      "રાજધાની": 4676,
      "પ્લો": 4677,
      "ખેડુ": 4678,
      "રાખવું": 4679,
      "રાખવાની": 4680,
      "બિં": 4681,
      "ટ્વિટ": 4682,
      "એસોસિ": 4683,
      "તાલિબા": 4684,
      "ઇચ્છ": 4685,
      "પવન": 4686,
      "રજી": 4687,
      "લઘુ": 4688,
      "શ્યો": 4689,
      "સળ": 4690,
      "માગે": 4691,
      "માન્ડ": 4692,
      "માંગી": 4693,
      "માંગો": 4694,
      "સ્વિ": 4695,
      "લાત": 4696,
      "પ્રવાહ": 4697,
      "મેયર": 4698,
      "પોઝી": 4699,
      "રિલાયન્સ": 4700,
      "લિન": 4701,
      "યુગ": 4702,
      "વર્ષનો": 4703,
      "સુધીના": 4704,
      "શહેરની": 4705,
      "જિંગ": 4706,
      "એક્ટ્રે": 4707,
      "ગ્રહણ": 4708,
      "વાર્તા": 4709,
      "અવાર": 4710,
      "ઉઠ": 4711,
      "ઐતિહાસિક": 4712,
      "કતો": 4713,
      "કસર": 4714,
      "ચમ": 4715,
      "માછ": 4716,
      "ર્વાદ": 4717,
      "પ્રવાહી": 4718,
      "જીવી": 4719,
      "સંકટ": 4720,
      "આવનારા": 4721,
      "ણીય": 4722,
      "દાદા": 4723,
      "પીઠ": 4724,
      "મીઠા": 4725,
      "વધતી": 4726,
      "લિટર": 4727,
      "ડોના": 4728,
      "પ્રાઈ": 4729,
      "માર્યા": 4730,
      "થયાં": 4731,
      "માન્યતા": 4732,
      "ભાજપને": 4733,
      "ધ્યાને": 4734,
      "પરિવારને": 4735,
      "બાળકોના": 4736,
      "શાળામાં": 4737,
      "વલસા": 4738,
      "ક્રાઇમ": 4739,
      "વધારવા": 4740,
      "માધ્યમથી": 4741,
      "પુરુષો": 4742,
      "ડુંગળી": 4743,
      "બનાસકાંઠા": 4744,
      "el": 4745,
      "ંટા": 4746,
      "ઉતર": 4747,
      "એટી": 4748,
      "એમને": 4749,
      "નબળા": 4750,
      "પર્સ": 4751,
      "બચ્ચ": 4752,
      "સફાઈ": 4753,
      "સજ્જ": 4754,
      "હસ્તે": 4755,
      "તાન": 4756,
      "રાના": 4757,
      "ર્ણ": 4758,
      "પ્રસ્તા": 4759,
      "લેવી": 4760,
      "નિકલ": 4761,
      "સીમા": 4762,
      "રિસર્ચ": 4763,
      "રહેતો": 4764,
      "ગોંડ": 4765,
      "ચીની": 4766,
      "ન્સમાં": 4767,
      "તુર": 4768,
      "મોદીની": 4769,
      "લાખથી": 4770,
      "અધિકારીઓએ": 4771,
      "ખરીદવા": 4772,
      "સ્ટાગ્રામ": 4773,
      "કપડા": 4774,
      "પુરાવા": 4775,
      "રોકાણકારો": 4776,
      "શિક્ષક": 4777,
      "શહેરોમાં": 4778,
      "વર્ષોથી": 4779,
      "તૂટી": 4780,
      "તત્વો": 4781,
      "અગત્ય": 4782,
      "અયોધ્યા": 4783,
      "કન્યા": 4784,
      "થયુ": 4785,
      "મતો": 4786,
      "વ્યુ": 4787,
      "વનારા": 4788,
      "સહન": 4789,
      "લાના": 4790,
      "પ્રગતિ": 4791,
      "મેડલ": 4792,
      "જાઓ": 4793,
      "નિપજ": 4794,
      "ડિજિ": 4795,
      "ગેંગ": 4796,
      "દર્શક": 4797,
      "ર્ડર": 4798,
      "૨૦૧૯": 4799,
      "લાગશે": 4800,
      "ખર્ચે": 4801,
      "ઓફિસર": 4802,
      "ઘોષ": 4803,
      "ખેલાડીઓ": 4804,
      "સંચાલન": 4805,
      "ચૌહાણ": 4806,
      "પ્લેટફોર્મ": 4807,
      "ડ્રગ્સ": 4808,
      "પ્રભાવિત": 4809,
      "સાહેબ": 4810,
      "એપ્લિ": 4811,
      "સમૂહ": 4812,
      "મ્પ્યુટર": 4813,
      "હનુમાન": 4814,
      "39": 4815,
      "PM": 4816,
      "ંદર": 4817,
      "ગઠ": 4818,
      "દલી": 4819,
      "પ્ય": 4820,
      "વવી": 4821,
      "વાપર": 4822,
      "કેલા": 4823,
      "કાપ": 4824,
      "વિચારી": 4825,
      "પ્રસાદ": 4826,
      "જેનું": 4827,
      "નિત": 4828,
      "નિમિ": 4829,
      "મોટર": 4830,
      "જોડી": 4831,
      "આવીને": 4832,
      "પુષ્": 4833,
      "ખેડા": 4834,
      "શકશો": 4835,
      "નંદન": 4836,
      "કર્મચારીઓને": 4837,
      "પ્રયાસો": 4838,
      "ગેરકાયદેસર": 4839,
      "મહારાષ્ટ્રમાં": 4840,
      "ખસેડવામાં": 4841,
      "બાઇક": 4842,
      "પ્રોત્સાહન": 4843,
      "64": 4844,
      "અબ્": 4845,
      "આખો": 4846,
      "ઈંચ": 4847,
      "ચક્ર": 4848,
      "જ્યુ": 4849,
      "ડ્": 4850,
      "ભક્": 4851,
      "ભવન": 4852,
      "શહી": 4853,
      "સાડા": 4854,
      "રીની": 4855,
      "સંતુ": 4856,
      "ડાન્સ": 4857,
      "પિંગ": 4858,
      "ખેલ": 4859,
      "પડ્યું": 4860,
      "ઘટનાઓ": 4861,
      "ચાલતી": 4862,
      "હોસ્પિટલના": 4863,
      "આગળની": 4864,
      "નવસારી": 4865,
      "ખ્ત": 4866,
      "સુવિધાઓ": 4867,
      "સંબોધ": 4868,
      "મશીન": 4869,
      "સંજોગોમાં": 4870,
      "વિનંતી": 4871,
      "પદાર્થો": 4872,
      "અત્રે": 4873,
      "અટક": 4874,
      "ઊંચી": 4875,
      "ણના": 4876,
      "નસ": 4877,
      "પ્યુ": 4878,
      "મહી": 4879,
      "સન્સ": 4880,
      "રાતે": 4881,
      "લાએ": 4882,
      "હેરો": 4883,
      "આપને": 4884,
      "પ્પા": 4885,
      "ફ્ટી": 4886,
      "જેટલો": 4887,
      "મામલત": 4888,
      "મહત્વના": 4889,
      "અપહરણ": 4890,
      "સુરતના": 4891,
      "ચલાવી": 4892,
      "વળતર": 4893,
      "શૈક્ષણિક": 4894,
      "સવારથી": 4895,
      "33": 4896,
      "ur": 4897,
      "ચિક": 4898,
      "ટકો": 4899,
      "ટક્કર": 4900,
      "મનમાં": 4901,
      "સપોર્ટ": 4902,
      "સખત": 4903,
      "વિઝ": 4904,
      "જેણે": 4905,
      "રોહ": 4906,
      "ભાવો": 4907,
      "માટેનો": 4908,
      "નિદાન": 4909,
      "કરીશ": 4910,
      "ચાવડા": 4911,
      "ખાં": 4912,
      "હિસ્સો": 4913,
      "લોકોનું": 4914,
      "ડોશી": 4915,
      "ફેશન": 4916,
      "ફાઉ": 4917,
      "બિગ": 4918,
      "શક્યા": 4919,
      "ઠાકોર": 4920,
      "ઘટનામાં": 4921,
      "અધિકારીઓને": 4922,
      "ધરાવતી": 4923,
      "હજારથી": 4924,
      "વુડ": 4925,
      "કન્ટે": 4926,
      "તેજસ્વી": 4927,
      "અંબાણી": 4928,
      "પરંપરાગત": 4929,
      "દુઃખ": 4930,
      "રાઠોડ": 4931,
      "ઔષ": 4932,
      "ઠંડ": 4933,
      "ભરો": 4934,
      "શની": 4935,
      "સગી": 4936,
      "૪૫": 4937,
      "વાઘે": 4938,
      "મેટ્રો": 4939,
      "જીને": 4940,
      "ક્ષક": 4941,
      "બેસ્ટ": 4942,
      "મિલિયન": 4943,
      "શાસ્ત્ર": 4944,
      "યુએસ": 4945,
      "આપવાનો": 4946,
      "આપઘાત": 4947,
      "નાંખ": 4948,
      "ન્દ્રસિંહ": 4949,
      "પડકાર": 4950,
      "રોજગાર": 4951,
      "ઘટનાની": 4952,
      "ત્યારથી": 4953,
      "ભેદ": 4954,
      "ગ્રામજનો": 4955,
      "ગણવામાં": 4956,
      "વલણ": 4957,
      "શોધવા": 4958,
      "નાગરિકો": 4959,
      "આચાર્ય": 4960,
      "લિમિટેડ": 4961,
      "મોડાસા": 4962,
      "il": 4963,
      "ઇચ્": 4964,
      "ઉઠી": 4965,
      "જલ્": 4966,
      "બંગ": 4967,
      "રક": 4968,
      "રહો": 4969,
      "રવાના": 4970,
      "લંકા": 4971,
      "૩૩": 4972,
      "કેદી": 4973,
      "ક્વાર્ટર": 4974,
      "પાડવા": 4975,
      "વેદી": 4976,
      "લ્પો": 4977,
      "દેવું": 4978,
      "સિને": 4979,
      "ચેનલ": 4980,
      "થવાના": 4981,
      "ન્દ્રા": 4982,
      "એમણે": 4983,
      "ઉપરથી": 4984,
      "ભેટ": 4985,
      "મૃતક": 4986,
      "લગાવ્યો": 4987,
      "વિભાગની": 4988,
      "નોંધણી": 4989,
      "હરિયાણા": 4990,
      "સલામતી": 4991,
      "અનુભવી": 4992,
      "નીતિન": 4993,
      "શિક્ષકો": 4994,
      "નદીમાં": 4995,
      "તબક્કામાં": 4996,
      "પ્રશંસા": 4997,
      "સંવેદન": 4998,
      "દૈનિક": 4999,
      "ir": 5000,
      "આંચ": 5001,
      "એશન": 5002,
      "એશિયા": 5003,
      "કથ": 5004,
      "કળા": 5005,
      "ગંગા": 5006,
      "જતો": 5007,
      "વવો": 5008,
      "શલ": 5009,
      "મેટા": 5010,
      "હેન્ડ": 5011,
      "રેસ્ટોર": 5012,
      "ટીકા": 5013,
      "દાહો": 5014,
      "સ્ટ્રા": 5015,
      "રહેવાની": 5016,
      "બોક્સ": 5017,
      "જણાવવામાં": 5018,
      "કાયમી": 5019,
      "નિર્ભર": 5020,
      "ભરવા": 5021,
      "ફિલ્મના": 5022,
      "ભાજપની": 5023,
      "રોગચા": 5024,
      "નેટવર્ક": 5025,
      "યોજાશે": 5026,
      "લક્ષી": 5027,
      "સાઈટ": 5028,
      "તૈયારીઓ": 5029,
      "મગફળી": 5030,
      "હકીકતમાં": 5031,
      "અટકાવવા": 5032,
      "સીસીટીવી": 5033,
      "ભ્રષ્ટા": 5034,
      "જોગવાઈ": 5035,
      "વાવેતર": 5036,
      "માછલી": 5037,
      "\",": 5038,
      "th": 5039,
      "ઇએ": 5040,
      "એન્ટિ": 5041,
      "કણ": 5042,
      "ચય": 5043,
      "જરુ": 5044,
      "જટિલ": 5045,
      "થુ": 5046,
      "દળો": 5047,
      "૭૫": 5048,
      "કાબુ": 5049,
      "વેચી": 5050,
      "બાંગ્": 5051,
      "ટીન": 5052,
      "દાતા": 5053,
      "બેટિંગ": 5054,
      "સીબ": 5055,
      "હિક": 5056,
      "રહ્યુ": 5057,
      "2014": 5058,
      "ચોથા": 5059,
      "ખોટા": 5060,
      "ફિટ": 5061,
      "મહિનાથી": 5062,
      "પૂરું": 5063,
      "મધ્યમ": 5064,
      "ફુલ": 5065,
      "મથકે": 5066,
      "ઓવરમાં": 5067,
      "મિલકત": 5068,
      "દુકાનો": 5069,
      "સાઉથ": 5070,
      "જ્યોતિ": 5071,
      "વિશિષ્ટ": 5072,
      "રાજકોટના": 5073,
      "ફાઉન્ડે": 5074,
      "!!": 5075,
      "અગ્નિ": 5076,
      "એનો": 5077,
      "કશન": 5078,
      "જયે": 5079,
      "રશિયન": 5080,
      "૪૮": 5081,
      "રાણ": 5082,
      "બાલ": 5083,
      "ડાને": 5084,
      "હાથે": 5085,
      "મિર": 5086,
      "વર્ત": 5087,
      "ટાટા": 5088,
      "ગુપ્ત": 5089,
      "વોટ": 5090,
      "માનવું": 5091,
      "ગોલ": 5092,
      "કરાયેલા": 5093,
      "ચોંકા": 5094,
      "સમારોહ": 5095,
      "પુરના": 5096,
      "મળેલી": 5097,
      "જેમણે": 5098,
      "સંસ્થાઓ": 5099,
      "બ્રિગે": 5100,
      "સંપર્કમાં": 5101,
      "હળવા": 5102,
      "તળાવ": 5103,
      "પ્રયત્નો": 5104,
      "ફટકારી": 5105,
      "ઘટીને": 5106,
      "જૈન": 5107,
      "બાંગ્લા": 5108,
      "આક્ર": 5109,
      "ઓર": 5110,
      "જપ્ત": 5111,
      "નૂ": 5112,
      "યાર્": 5113,
      "નેગે": 5114,
      "સ્પતિ": 5115,
      "પ્રયોગ": 5116,
      "પ્રસિદ્ધ": 5117,
      "ટેક્ટ": 5118,
      "મેગા": 5119,
      "વેક": 5120,
      "લીયા": 5121,
      "લેસ": 5122,
      "સેવન": 5123,
      "સીધી": 5124,
      "સિરીઝ": 5125,
      "ગાળો": 5126,
      "બીએસ": 5127,
      "રાજનીતિ": 5128,
      "જુનાગઢ": 5129,
      "રુપિયા": 5130,
      "ખુદ": 5131,
      "ઘટનાસ્થળે": 5132,
      "લગાવવામાં": 5133,
      "જગ્યાઓ": 5134,
      "માંગતા": 5135,
      "વીડિયોમાં": 5136,
      "મુંબઈમાં": 5137,
      "અવસાન": 5138,
      "સહકાર": 5139,
      "લક્ષ્ય": 5140,
      "વાંચવા": 5141,
      "આર્કિ": 5142,
      "વિધાનસભાની": 5143,
      "કારણોસર": 5144,
      "સ્નાન": 5145,
      "ખતરો": 5146,
      "અથડા": 5147,
      "ંતી": 5148,
      "આની": 5149,
      "તદ્": 5150,
      "દ્યોગ": 5151,
      "ધના": 5152,
      "નકારાત્મક": 5153,
      "ભારી": 5154,
      "ભંડો": 5155,
      "મચ્છ": 5156,
      "મમતા": 5157,
      "શનો": 5158,
      "સ્યો": 5159,
      "સગા": 5160,
      "રાણા": 5161,
      "વિવા": 5162,
      "ન્ટા": 5163,
      "જાતને": 5164,
      "નિવાસ": 5165,
      "કરીના": 5166,
      "હાલના": 5167,
      "ત્મા": 5168,
      "બીર": 5169,
      "પેટમાં": 5170,
      "ડિય": 5171,
      "ડેક્સ": 5172,
      "રહેવાસી": 5173,
      "ચેમ્બર": 5174,
      "ખેત": 5175,
      "કોરોનાનો": 5176,
      "રાખ્યો": 5177,
      "ભાગની": 5178,
      "નિર્ધાર": 5179,
      "ટકાનો": 5180,
      "પરિવારની": 5181,
      "કોઇપણ": 5182,
      "મંદિરના": 5183,
      "સલામત": 5184,
      "હાઈવે": 5185,
      "બાંધી": 5186,
      "કોર્પોરેશન": 5187,
      "અડધા": 5188,
      "ફિલ્મોમાં": 5189,
      "પાટણ": 5190,
      "શકીએ": 5191,
      "સંદર્ભ": 5192,
      "સ્વચ્છ": 5193,
      "ભરૂચ": 5194,
      "300": 5195,
      "uj": 5196,
      "અધિક": 5197,
      "ઈતિહા": 5198,
      "કળ": 5199,
      "ડબ્": 5200,
      "મજ": 5201,
      "મતિ": 5202,
      "યજ્ઞ": 5203,
      "રણે": 5204,
      "વલ્લી": 5205,
      "૩૮": 5206,
      "નાઈ": 5207,
      "મેક": 5208,
      "લ્લો": 5209,
      "દિલીપ": 5210,
      "ખાણ": 5211,
      "આવેદન": 5212,
      "ડોર": 5213,
      "કુટુંબ": 5214,
      "્સમાં": 5215,
      "ઉત્સાહ": 5216,
      "ર્સની": 5217,
      "શુદ્ધ": 5218,
      "સ્વપ્": 5219,
      "વ્યક્તિએ": 5220,
      "ફરીયાદ": 5221,
      "લાઈફ": 5222,
      "વૃદ્ધ": 5223,
      "એલર્ટ": 5224,
      "ઘટાડવા": 5225,
      "ઝીલેન્ડ": 5226,
      "સ્ત્રીઓ": 5227,
      "તબીબો": 5228,
      "ચુંટણી": 5229,
      "સ્માર્ટફોન": 5230,
      "ચૌધરી": 5231,
      "વરસાદી": 5232,
      "આશીર્વાદ": 5233,
      "સંવેદનશીલ": 5234,
      "di": 5235,
      "અરે": 5236,
      "ઇરા": 5237,
      "જહા": 5238,
      "લશ્": 5239,
      "કરિ": 5240,
      "ર્ના": 5241,
      "પ્રસાર": 5242,
      "વેરિ": 5243,
      "જેમને": 5244,
      "જોયા": 5245,
      "મિંગ": 5246,
      "ક્રૂ": 5247,
      "કિસાન": 5248,
      "આપવી": 5249,
      "સુધીનો": 5250,
      "થવાનો": 5251,
      "વવાના": 5252,
      "ધિકારી": 5253,
      "ખુલ": 5254,
      "ગયાં": 5255,
      "જિંદગી": 5256,
      "ઇન્જે": 5257,
      "અરવલ્લી": 5258,
      "ગ્રીન": 5259,
      "બનાવીને": 5260,
      "પત્રકાર": 5261,
      "છુટ": 5262,
      "વધારાની": 5263,
      "વાતાવરણમાં": 5264,
      "મોકલવામાં": 5265,
      "હૈદરા": 5266,
      "અનિલ": 5267,
      "બળાત્કાર": 5268,
      "આઝાદી": 5269,
      "ચકાસણી": 5270,
      "જલ્દી": 5271,
      "us": 5272,
      "ઉગ્ર": 5273,
      "ઉછા": 5274,
      "ડવાની": 5275,
      "મહ": 5276,
      "મરે": 5277,
      "શના": 5278,
      "શપથ": 5279,
      "સનો": 5280,
      "િય": 5281,
      "સ્લા": 5282,
      "રાણી": 5283,
      "ક્લો": 5284,
      "કરીશું": 5285,
      "મોડ": 5286,
      "ડીની": 5287,
      "હાનિ": 5288,
      "ત્તમ": 5289,
      "્યુલ": 5290,
      "મંજૂર": 5291,
      "ઉપવાસ": 5292,
      "મ્મદ": 5293,
      "જવાનું": 5294,
      "બ્લા": 5295,
      "ફ્લ્": 5296,
      "ઘટનાને": 5297,
      "ધરતી": 5298,
      "જેટલું": 5299,
      "અભિનંદન": 5300,
      "ઉલ્લં": 5301,
      "ચુકવણી": 5302,
      "આટલી": 5303,
      "ટ્રાન્સફર": 5304,
      "ટેક્નોલોજી": 5305,
      "વકીલ": 5306,
      "અંગ્રેજી": 5307,
      "મેદાનમાં": 5308,
      "બીજેપી": 5309,
      "ડિજિટલ": 5310,
      "88": 5311,
      "આજુ": 5312,
      "કંગના": 5313,
      "ગજ": 5314,
      "તલા": 5315,
      "વચ": 5316,
      "શસ્ત્ર": 5317,
      "સ્પોર્ટ": 5318,
      "યાની": 5319,
      "વેગ": 5320,
      "હોટલ": 5321,
      "લેટર": 5322,
      "તોફા": 5323,
      "મોઢ": 5324,
      "સેનાના": 5325,
      "હાની": 5326,
      "દિપ": 5327,
      "મિની": 5328,
      "રાજપૂ": 5329,
      "ડિસ્ટ": 5330,
      "ચેતી": 5331,
      "ચેમ્પિ": 5332,
      "મંત્રણ": 5333,
      "શિપ": 5334,
      "છોડીને": 5335,
      "પૂર્વે": 5336,
      "ચીનની": 5337,
      "ન્સની": 5338,
      "સમાધાન": 5339,
      "પહેલાથી": 5340,
      "ઉપરો": 5341,
      "રૂપિયાના": 5342,
      "વિકલ્પો": 5343,
      "લેખિત": 5344,
      "એનએસ": 5345,
      "ચૂકવણી": 5346,
      "સૈન્ય": 5347,
      "ક્યાંક": 5348,
      "વેપારીઓ": 5349,
      "શંકાસ્પદ": 5350,
      "ઉઠાવી": 5351,
      "રૂપાણીએ": 5352,
      "પ્રકાશિત": 5353,
      "સેકન્ડ": 5354,
      "પંડ્યા": 5355,
      "પબ્લિક": 5356,
      "65": 5357,
      "ay": 5358,
      "ઈશ્વર": 5359,
      "ગણી": 5360,
      "પૌ": 5361,
      "રમતા": 5362,
      "સગ": 5363,
      "૫૦૦": 5364,
      "વાંકા": 5365,
      "નીલ": 5366,
      "કરતું": 5367,
      "વિકા": 5368,
      "પ્રખ્યાત": 5369,
      "લીગ": 5370,
      "બાબા": 5371,
      "ખામી": 5372,
      "કીંગ": 5373,
      "થવાનું": 5374,
      "કંટ્રોલ": 5375,
      "સર્જરી": 5376,
      "મહાદેવ": 5377,
      "વ્યક્તિની": 5378,
      "૨૦૨૦": 5379,
      "લાગ્યું": 5380,
      "વિભાગમાં": 5381,
      "સ્પેશિયલ": 5382,
      "હળવ": 5383,
      "બ્રેક": 5384,
      "વાતચીતમાં": 5385,
      "આંગણ": 5386,
      "ભવિષ્યમાં": 5387,
      "સ્થળોએ": 5388,
      "હાંસલ": 5389,
      "તંદુર": 5390,
      "યથાવત": 5391,
      "ડોનાલ્ડ": 5392,
      "તદ્દન": 5393,
      "ap": 5394,
      "આગ્રહ": 5395,
      "થકી": 5396,
      "બરે": 5397,
      "શૌ": 5398,
      "સપ્લાય": 5399,
      "માના": 5400,
      "માછી": 5401,
      "વિલંબ": 5402,
      "ટેકો": 5403,
      "વેલી": 5404,
      "જોશી": 5405,
      "જીએ": 5406,
      "ખાનની": 5407,
      "હિતે": 5408,
      "પેકે": 5409,
      "રહેતાં": 5410,
      "આપતી": 5411,
      "શોમાં": 5412,
      "ન્સના": 5413,
      "શ્રા": 5414,
      "પાણીનો": 5415,
      "નામનો": 5416,
      "શ્રીલંકા": 5417,
      "જિયો": 5418,
      "ઇન્ડિયન": 5419,
      "છેલ્લાં": 5420,
      "પાકિસ્તાની": 5421,
      "શાળાના": 5422,
      "આરોપીઓ": 5423,
      "જાણીએ": 5424,
      "સમાજની": 5425,
      "રમતો": 5426,
      "હેરાન": 5427,
      "કોર્પોરેટ": 5428,
      "કચ્છમાં": 5429,
      "રાશિના": 5430,
      "ભટ્ટ": 5431,
      "શ્યામ": 5432,
      "પુરૂષ": 5433,
      "49": 5434,
      "IP": 5435,
      "ઇંગ્લેન્ડ": 5436,
      "કમી": 5437,
      "જરા": 5438,
      "ઝમાં": 5439,
      "ડને": 5440,
      "નૌ": 5441,
      "મધુ": 5442,
      "૬૫": 5443,
      "રાકેશ": 5444,
      "વિસ્ફો": 5445,
      "વીસ": 5446,
      "ત્રુ": 5447,
      "હોદ્": 5448,
      "એકલા": 5449,
      "સેલ્": 5450,
      "દરખા": 5451,
      "ચેન": 5452,
      "આપતાં": 5453,
      "પ્પણી": 5454,
      "બોટલ": 5455,
      "દ્રષ્ટિ": 5456,
      "ફોર્સ": 5457,
      "2016": 5458,
      "પ્રાચીન": 5459,
      "ઉત્સવ": 5460,
      "ઠાકરે": 5461,
      "તુલના": 5462,
      "ઝાલા": 5463,
      "પર્વત": 5464,
      "વિકસા": 5465,
      "અર્જુન": 5466,
      "બહેનો": 5467,
      "કુંડ": 5468,
      "વૃક્ષો": 5469,
      "પ્રવાસીઓ": 5470,
      "આકર્ષક": 5471,
      "પોઈન્ટ": 5472,
      "એપ્લિકેશન": 5473,
      "મામલતદાર": 5474,
      "ujar": 5475,
      ".,": 5476,
      "/-": 5477,
      "id": 5478,
      "એપાર્ટમેન્ટ": 5479,
      "કય": 5480,
      "કૃત": 5481,
      "કબૂ": 5482,
      "બળી": 5483,
      "મૈ": 5484,
      "મસ્": 5485,
      "લડી": 5486,
      "શમાં": 5487,
      "લાવવામાં": 5488,
      "સાડી": 5489,
      "કાંત": 5490,
      "વિચિત્ર": 5491,
      "પ્રદાન": 5492,
      "વેન્ટ": 5493,
      "ભાવી": 5494,
      "જાગૃ": 5495,
      "શેરી": 5496,
      "નિકાલ": 5497,
      "બાથ": 5498,
      "જોયું": 5499,
      "દેશે": 5500,
      "મિલના": 5501,
      "ગુપ્": 5502,
      "પ્લોટ": 5503,
      "મંદી": 5504,
      "ચીજ": 5505,
      "ધોરણે": 5506,
      "માર્ક": 5507,
      "મહિલાઓને": 5508,
      "દિલ્હીની": 5509,
      "બેઠે": 5510,
      "તંત્રને": 5511,
      "વિશ્વના": 5512,
      "ખેડૂતોની": 5513,
      "ગર્ભા": 5514,
      "નહોતું": 5515,
      "ફરજિયાત": 5516,
      "દૂધની": 5517,
      "તબક્": 5518,
      "બોલાવી": 5519,
      "અદાલ": 5520,
      "સંકળાયેલા": 5521,
      "પંથકમાં": 5522,
      "જસ્ટિસ": 5523,
      "આંગણવાડી": 5524,
      "''": 5525,
      "iv": 5526,
      "એક્ટર": 5527,
      "ખર્ચા": 5528,
      "ચરણ": 5529,
      "ડકા": 5530,
      "રખા": 5531,
      "લક": 5532,
      "વસુ": 5533,
      "નારે": 5534,
      "કર્યાં": 5535,
      "તાપી": 5536,
      "ર્મો": 5537,
      "કેજરી": 5538,
      "વિનો": 5539,
      "ક્ટે": 5540,
      "પાયે": 5541,
      "પોલ": 5542,
      "મોડલ": 5543,
      "આવતું": 5544,
      "સુચના": 5545,
      "ગાવી": 5546,
      "ગ્રં": 5547,
      "ગરબા": 5548,
      "જુના": 5549,
      "જણાવેલ": 5550,
      "રહીને": 5551,
      "બંધન": 5552,
      "પડયો": 5553,
      "અનુકૂળ": 5554,
      "કારણકે": 5555,
      "આઇપી": 5556,
      "વિદ્યાર્થીઓએ": 5557,
      "ચુસ્ત": 5558,
      "ખેડૂતોના": 5559,
      "બાજુમાં": 5560,
      "પંચાય": 5561,
      "દ્વારકા": 5562,
      "સંદર્ભે": 5563,
      "નિષ્ણાતો": 5564,
      "રેસ્ટોરન્ટ": 5565,
      "ઉલ્લંઘન": 5566,
      "re": 5567,
      "અત્યા": 5568,
      "ઉમર": 5569,
      "ઊર્": 5570,
      "ખતરના": 5571,
      "ચડા": 5572,
      "ફલો": 5573,
      "બચી": 5574,
      "મફત": 5575,
      "વાણા": 5576,
      "પ્રહાર": 5577,
      "ન્ગ": 5578,
      "લીને": 5579,
      "રોકી": 5580,
      "ભાવિ": 5581,
      "સંયો": 5582,
      "મીણ": 5583,
      "ડોકટ": 5584,
      "કામકા": 5585,
      "વનસ્પતિ": 5586,
      "બિમારી": 5587,
      "સમાર": 5588,
      "શુભે": 5589,
      "મેળવો": 5590,
      "વ્યક્તિઓ": 5591,
      "પટેલની": 5592,
      "વિચારણા": 5593,
      "મહિનાની": 5594,
      "શાળાઓ": 5595,
      "પાછલા": 5596,
      "લાયક": 5597,
      "રિપોર્ટમાં": 5598,
      "માર્કેટમાં": 5599,
      "ગૃહમંત્રી": 5600,
      "હાજરીમાં": 5601,
      "બોલિવૂ": 5602,
      "પુરવઠા": 5603,
      "પોઝીટીવ": 5604,
      "અબ્દુ": 5605,
      "ભક્તો": 5606,
      "ખતરનાક": 5607,
      "ંધ": 5608,
      "આવાસ": 5609,
      "ઓપન": 5610,
      "યસ": 5611,
      "લડાઈ": 5612,
      "છેલ્લે": 5613,
      "કેને": 5614,
      "મેદાન": 5615,
      "કારને": 5616,
      "ભાવિક": 5617,
      "પોષણ": 5618,
      "બાબુ": 5619,
      "ટીમાં": 5620,
      "ટીમમાં": 5621,
      "સીલ": 5622,
      "સીમાં": 5623,
      "પૂજન": 5624,
      "ડિયમ": 5625,
      "પિક": 5626,
      "કામમાં": 5627,
      "દુષ્ટ": 5628,
      "સ્થાયી": 5629,
      "કંટા": 5630,
      "બિર": 5631,
      "મતદારો": 5632,
      "પાસપોર્ટ": 5633,
      "મોદીને": 5634,
      "દિલ્હીના": 5635,
      "નોંધાઈ": 5636,
      "યોજનાઓ": 5637,
      "ભુજ": 5638,
      "યુનિટ": 5639,
      "નહોતા": 5640,
      "બોર્ડર": 5641,
      "ઇન્ટરનેશનલ": 5642,
      "ંપતી": 5643,
      "રજુઆત": 5644,
      "બાતમી": 5645,
      "મહોત્સવ": 5646,
      "ઈસ": 5647,
      "ઈચ્છા": 5648,
      "કદ": 5649,
      "કહેર": 5650,
      "બદ્ધ": 5651,
      "બ્યૂ": 5652,
      "વરે": 5653,
      "સ્કોર": 5654,
      "કેરી": 5655,
      "કોફી": 5656,
      "પ્રકરણ": 5657,
      "ટેજ": 5658,
      "યાએ": 5659,
      "પાથ": 5660,
      "પાંદ": 5661,
      "લોના": 5662,
      "લોને": 5663,
      "એકમાત્ર": 5664,
      "સંશોધ": 5665,
      "બેટ્સ": 5666,
      "સીને": 5667,
      "સીડી": 5668,
      "સીઆર": 5669,
      "સિઝ": 5670,
      "દિષ્ટ": 5671,
      "ટ્રલ": 5672,
      "ડિઓ": 5673,
      "ળાના": 5674,
      "બોલે": 5675,
      "બોડી": 5676,
      "દ્રશ્ય": 5677,
      "ખેંચી": 5678,
      "શોભ": 5679,
      "જણાવાયું": 5680,
      "ગોર": 5681,
      "2015": 5682,
      "ભાગરૂપે": 5683,
      "બાળકના": 5684,
      "કર્તાઓ": 5685,
      "ભરના": 5686,
      "બનીને": 5687,
      "મહિલાને": 5688,
      "વાયરસની": 5689,
      "નિર્ણયો": 5690,
      "બનાવ્યો": 5691,
      "લાઇફ": 5692,
      "કાઉન્ટર": 5693,
      "વધારાના": 5694,
      "ભાગીદારી": 5695,
      "સમુદાય": 5696,
      "રિઝર્વ": 5697,
      "મોડેલ": 5698,
      "ભ્રષ્ટાચાર": 5699,
      "વાંકાને": 5700,
      "of": 5701,
      "આર્ટ": 5702,
      "આદર્શ": 5703,
      "ઋષિ": 5704,
      "એલા": 5705,
      "એવામાં": 5706,
      "કપિ": 5707,
      "કટોક": 5708,
      "ચહેરો": 5709,
      "તજ": 5710,
      "ફ્યુ": 5711,
      "મંત": 5712,
      "હૉ": 5713,
      "હસ્ત": 5714,
      "કેપ": 5715,
      "ટેન્": 5716,
      "મેઘ": 5717,
      "પાળ": 5718,
      "પાના": 5719,
      "રોટ": 5720,
      "ટીને": 5721,
      "સુત્રો": 5722,
      "સીઝન": 5723,
      "ત્તે": 5724,
      "સ્ટુ": 5725,
      "ાર્ક": 5726,
      "પ્ટર": 5727,
      "ટિકલ": 5728,
      "ટિપ્પણી": 5729,
      "જણાય": 5730,
      "યોગદાન": 5731,
      "્સની": 5732,
      "સૂત્ર": 5733,
      "ભૂખ": 5734,
      "બદલાઈ": 5735,
      "કંપનીની": 5736,
      "ખ્યાલ": 5737,
      "કોંગ્રેસને": 5738,
      "વરસાદને": 5739,
      "આપેલ": 5740,
      "પત્રમાં": 5741,
      "વિજયભાઈ": 5742,
      "નીકળે": 5743,
      "શરીરને": 5744,
      "કોન્સ્ટે": 5745,
      "ઘેરા": 5746,
      "માર્કેટિંગ": 5747,
      "સાંભળી": 5748,
      "ષ્ણુ": 5749,
      "પુસ્તકો": 5750,
      "આટલું": 5751,
      "ચકચાર": 5752,
      "મોહમ્મદ": 5753,
      "સરહદ": 5754,
      "ઇતિહાસ": 5755,
      "મિલનાડુ": 5756,
      "48": 5757,
      "અનો": 5758,
      "ઊંડા": 5759,
      "ઓર્ડર": 5760,
      "ગટર": 5761,
      "જણ": 5762,
      "તળ": 5763,
      "દવે": 5764,
      "મર્": 5765,
      "મજૂ": 5766,
      "રચા": 5767,
      "ષે": 5768,
      "હડતા": 5769,
      "૬૬": 5770,
      "વાગે": 5771,
      "નામા": 5772,
      "કેદ": 5773,
      "લાદ": 5774,
      "કાપડ": 5775,
      "વિક્રમ": 5776,
      "લીડ": 5777,
      "લોકાર્": 5778,
      "મોલ": 5779,
      "સંરક્ષણ": 5780,
      "ધીરે": 5781,
      "સીટો": 5782,
      "સિદ્ધિ": 5783,
      "હિટ": 5784,
      "ડિઝ": 5785,
      "ડિરેક્ટર": 5786,
      "પુછ": 5787,
      "પરિબળો": 5788,
      "સામેની": 5789,
      "સિંહો": 5790,
      "ખુલ્લી": 5791,
      "કંપનીમાં": 5792,
      "ફ્લે": 5793,
      "મહિલાએ": 5794,
      "રૂપિયાનો": 5795,
      "પટેલના": 5796,
      "જાહેરમાં": 5797,
      "ટ્રાયલ": 5798,
      "વરસાદના": 5799,
      "શરતો": 5800,
      "ગર્ભાવ": 5801,
      "ત્રિવેદી": 5802,
      "અર્પણ": 5803,
      "નકલી": 5804,
      "રાજીનામું": 5805,
      "કિસ્સાઓમાં": 5806,
      "હિન્દી": 5807,
      "કાશ્મીરમાં": 5808,
      "ચુક્યા": 5809,
      "આંદોલ": 5810,
      "સમિતિના": 5811,
      "માઇક્રો": 5812,
      "સ્વરૂપમાં": 5813,
      "સસ્પેન્ડ": 5814,
      "લોકાર્પણ": 5815,
      "CC": 5816,
      "આમંત્રણ": 5817,
      "જર્મ": 5818,
      "દંપતી": 5819,
      "નમૂ": 5820,
      "શત્રુ": 5821,
      "સકારાત્મક": 5822,
      "ૂપ": 5823,
      "નાત": 5824,
      "તાકાત": 5825,
      "નોની": 5826,
      "વિતા": 5827,
      "પ્રકૃતિ": 5828,
      "લેણ": 5829,
      "જોષી": 5830,
      "સંદેશ": 5831,
      "સંસ્કાર": 5832,
      "ખાવા": 5833,
      "સમર્": 5834,
      "સોં": 5835,
      "રિક્ષા": 5836,
      "શિકા": 5837,
      "બોલમાં": 5838,
      "દુબ": 5839,
      "દુશ્": 5840,
      "કરાય": 5841,
      "શ્રમ": 5842,
      "અમર": 5843,
      "ચૂંટા": 5844,
      "કલર": 5845,
      "સાંસ્કૃતિ": 5846,
      "પકડા": 5847,
      "આરટી": 5848,
      "કેન્દ્રિત": 5849,
      "સ્વામિ": 5850,
      "સ્વાદિષ્ટ": 5851,
      "ઉદ્યો": 5852,
      "ફાયરિંગ": 5853,
      "બચાવી": 5854,
      "દારૂની": 5855,
      "ગ્રેડ": 5856,
      "ભરાઈ": 5857,
      "મુશ્કેલીઓ": 5858,
      "આવતીકાલે": 5859,
      "ess": 5860,
      "ઇન્ટરનેટ": 5861,
      "પશુપાલન": 5862,
      "ડ્રેસ": 5863,
      "આદમી": 5864,
      "ચ્યુઅલ": 5865,
      "કેબિનેટ": 5866,
      "શહીદ": 5867,
      "નેગેટિવ": 5868,
      "ર્નામેન્ટ": 5869,
      "દરખાસ્ત": 5870,
      "ak": 5871,
      "અમિતા": 5872,
      "ઓપ": 5873,
      "કૅ": 5874,
      "ગડ": 5875,
      "તબિ": 5876,
      "નૈ": 5877,
      "૯૮": 5878,
      "નાસી": 5879,
      "તાવ": 5880,
      "રાગ": 5881,
      "ર્ત": 5882,
      "લાંચ": 5883,
      "ન્સે": 5884,
      "ન્ડિંગ": 5885,
      "પાછી": 5886,
      "દેપુર": 5887,
      "બેંગ": 5888,
      "ગાડ": 5889,
      "સોશ્યલ": 5890,
      "ગુન્": 5891,
      "ડિરે": 5892,
      "કિમી": 5893,
      "પ્લ": 5894,
      "શિક": 5895,
      "ટોળા": 5896,
      "પોલીસકર્મી": 5897,
      "ભાઈએ": 5898,
      "સમયસર": 5899,
      "ખોર": 5900,
      "જવાના": 5901,
      "ટકાથી": 5902,
      "ભારતીયો": 5903,
      "ટ્ટા": 5904,
      "ચરબી": 5905,
      "માતાપિતા": 5906,
      "મ્પલ": 5907,
      "પદાર્થ": 5908,
      "ઈન્ડિયન": 5909,
      "યાદવ": 5910,
      "પ્રીમિ": 5911,
      "વડોદરામાં": 5912,
      "પરિસ્થિતિમાં": 5913,
      "ઉર્જા": 5914,
      "આકર્ષણ": 5915,
      "પહોંચાડ": 5916,
      "વયના": 5917,
      "પ્રાણીઓ": 5918,
      "માલિકી": 5919,
      "આરામદાયક": 5920,
      "સહીત": 5921,
      "સ્મૃતિ": 5922,
      "દિનેશ": 5923,
      "વિટામિન": 5924,
      "બિંદુ": 5925,
      "એક્ટ્રેસ": 5926,
      "ફ્લ્મિ": 5927,
      "42": 5928,
      "ag": 5929,
      "અસ": 5930,
      "ક્યા": 5931,
      "કમ્": 5932,
      "ગયેલ": 5933,
      "ઘઉં": 5934,
      "હકારાત્મક": 5935,
      "૩૪": 5936,
      "સાક્ષી": 5937,
      "સાધારણ": 5938,
      "વિજ્ઞાન": 5939,
      "વેલા": 5940,
      "બાહ": 5941,
      "લ્ક": 5942,
      "જોવામાં": 5943,
      "ટીમની": 5944,
      "દેવે": 5945,
      "રૂપા": 5946,
      "બેક્ટે": 5947,
      "મિક્સ": 5948,
      "શાસ": 5949,
      "રહસ્ય": 5950,
      "ષ્ઠા": 5951,
      "કેટલો": 5952,
      "ફેંક": 5953,
      "કરાવવામાં": 5954,
      "ચોકી": 5955,
      "ઉત્પન્ન": 5956,
      "માર્ગો": 5957,
      "ટ્રેક": 5958,
      "આંધ્ર": 5959,
      "સાયકલ": 5960,
      "ગ્લાસ": 5961,
      "જોડાયેલી": 5962,
      "લાભાર્થી": 5963,
      "જાણીતી": 5964,
      "શરીરના": 5965,
      "કાનૂ": 5966,
      "બ્રિજ": 5967,
      "મોરબીના": 5968,
      "કોલેજો": 5969,
      "મૂળભૂત": 5970,
      "બચવા": 5971,
      "રાંધ": 5972,
      "બિલ્ડિંગ": 5973,
      "એજન્ટ": 5974,
      "મુસાફરો": 5975,
      "દુખાવો": 5976,
      "ભંડોળ": 5977,
      "ઊર્જા": 5978,
      "અપડે": 5979,
      "એમ્બ": 5980,
      "કડ": 5981,
      "ટ્યૂ": 5982,
      "ઠંડા": 5983,
      "તફા": 5984,
      "નબળી": 5985,
      "ભયા": 5986,
      "યશ": 5987,
      "વચન": 5988,
      "શણ": 5989,
      "િકા": 5990,
      "૩૭": 5991,
      "માંસ": 5992,
      "કાચ": 5993,
      "પ્રદૂ": 5994,
      "ક્વિ": 5995,
      "પરની": 5996,
      "લેષ": 5997,
      "તેમનાં": 5998,
      "દીન": 5999,
      "સીંગ": 6000,
      "સિલિ": 6001,
      "સિનિયર": 6002,
      "સોનું": 6003,
      "સોનુ": 6004,
      "દેશને": 6005,
      "શિયમ": 6006,
      "કુમારે": 6007,
      "તેઓની": 6008,
      "ફરવા": 6009,
      "ચિહ્": 6010,
      "શક્યો": 6011,
      "માર્યો": 6012,
      "રૂપમાં": 6013,
      "અંગત": 6014,
      "ગતું": 6015,
      "મરજન્સી": 6016,
      "આઇટી": 6017,
      "ગ્ગા": 6018,
      "લગ્નની": 6019,
      "બધાં": 6020,
      "દેખાઈ": 6021,
      "અંતમાં": 6022,
      "પાકિસ્તાનની": 6023,
      "બારડો": 6024,
      "ઝેરી": 6025,
      "પંચમહા": 6026,
      "અનાજ": 6027,
      "અકસ્માતમાં": 6028,
      "સૂત્રોના": 6029,
      "નાગરિકોને": 6030,
      "કલ્પના": 6031,
      "આયુર્વે": 6032,
      "જાગૃત": 6033,
      "કયારે": 6034,
      "શુભેચ્છા": 6035,
      "ગર્ભાવસ્થા": 6036,
      "CB": 6037,
      "ew": 6038,
      "અઢી": 6039,
      "અછત": 6040,
      "અસ્તિ": 6041,
      "આયાત": 6042,
      "ઇનિંગ": 6043,
      "ઈરા": 6044,
      "ઘડ": 6045,
      "ઝરી": 6046,
      "દહે": 6047,
      "નય": 6048,
      "પનું": 6049,
      "બરો": 6050,
      "શન્સ": 6051,
      "૯૯": 6052,
      "….": 6053,
      "માણી": 6054,
      "સાથો": 6055,
      "ટેલી": 6056,
      "પરો": 6057,
      "જેત": 6058,
      "હોળી": 6059,
      "રેમ": 6060,
      "લોલ": 6061,
      "નિરી": 6062,
      "જોતાં": 6063,
      "સંડો": 6064,
      "િયામાં": 6065,
      "મુક્તિ": 6066,
      "ડિયે": 6067,
      "કેટલાય": 6068,
      "હોવાને": 6069,
      "અમૃત": 6070,
      "શકય": 6071,
      "અનુમાન": 6072,
      "સૂચિ": 6073,
      "જયંતિ": 6074,
      "સ્ટેન્ડ": 6075,
      "ફિલ્મની": 6076,
      "સ્થિતી": 6077,
      "આરતી": 6078,
      "લેવાનું": 6079,
      "ગ્ને": 6080,
      "સ્તુતિ": 6081,
      "આરોપીને": 6082,
      "અમેરિકાની": 6083,
      "ભુત": 6084,
      "પાછળથી": 6085,
      "લોકસભાની": 6086,
      "સેન્ટ્રલ": 6087,
      "વાગ્યાથી": 6088,
      "સચિન": 6089,
      "ધર્મે": 6090,
      "પ્રવૃત્તિઓ": 6091,
      "બેસીને": 6092,
      "દસ્તાવેજો": 6093,
      "નિર્ધારિત": 6094,
      "જાગૃતિ": 6095,
      "ro": 6096,
      "અદ": 6097,
      "અભાવ": 6098,
      "ઉલ": 6099,
      "ઊંચ": 6100,
      "કનો": 6101,
      "ચર્": 6102,
      "પૉ": 6103,
      "પત્રો": 6104,
      "બૅ": 6105,
      "ભૌ": 6106,
      "રનની": 6107,
      "સસ્તા": 6108,
      "માસ્ટર": 6109,
      "વાલા": 6110,
      "વાશે": 6111,
      "સ્કુલ": 6112,
      "કેલી": 6113,
      "કાબૂ": 6114,
      "પ્રતી": 6115,
      "ન્ટી": 6116,
      "ભાષણ": 6117,
      "હોટેલ": 6118,
      "પોર્": 6119,
      "બાની": 6120,
      "જીતે": 6121,
      "જીતુ": 6122,
      "સિપલ": 6123,
      "ખાદ્ય": 6124,
      "મળતાં": 6125,
      "ગ્રો": 6126,
      "ચેટ": 6127,
      "ગીતો": 6128,
      "ચ્ચાર": 6129,
      "પહેલો": 6130,
      "2000": 6131,
      "પ્રાપ્તિ": 6132,
      "પ્રેક્": 6133,
      "કંપનીઓને": 6134,
      "સાંસ": 6135,
      "અરજ": 6136,
      "વિશ્વની": 6137,
      "શરદ": 6138,
      "નીચેના": 6139,
      "ક્રિકેટર": 6140,
      "સ્પષ્ટતા": 6141,
      "હંમેશાં": 6142,
      "પાંડે": 6143,
      "ઇલેક્ટ્રિક": 6144,
      "આનાથી": 6145,
      "સ્ક્રીન": 6146,
      "ચુકાદો": 6147,
      "કેટેગરી": 6148,
      "સાંસ્કૃતિક": 6149,
      "46": 6150,
      "58": 6151,
      "AM": 6152,
      "CM": 6153,
      "un": 6154,
      "અન્": 6155,
      "ઈચ્": 6156,
      "કવર": 6157,
      "ખતમ": 6158,
      "ચંદ": 6159,
      "તસ્": 6160,
      "તકની": 6161,
      "ફટા": 6162,
      "બગી": 6163,
      "સદા": 6164,
      "’,": 6165,
      "પાકની": 6166,
      "લીંગ": 6167,
      "મોના": 6168,
      "મોને": 6169,
      "લ્ટી": 6170,
      "જોબ": 6171,
      "સંવાદ": 6172,
      "હીરો": 6173,
      "બેદર": 6174,
      "લિમ્પિ": 6175,
      "પૂરે": 6176,
      "કિરણ": 6177,
      "આપના": 6178,
      "આપવું": 6179,
      "બંધા": 6180,
      "પિંડી": 6181,
      "વાતને": 6182,
      "પ્રાય": 6183,
      "પ્રાંત": 6184,
      "મંત્રીએ": 6185,
      "કહેતા": 6186,
      "પ્રેશર": 6187,
      "ભર્યા": 6188,
      "ભરપૂર": 6189,
      "નિયંત્ર": 6190,
      "ગાંઠ": 6191,
      "ટ્રેડ": 6192,
      "૨૦૨૧": 6193,
      "પરીત": 6194,
      "સ્ટોક": 6195,
      "જવાબમાં": 6196,
      "કાઉન્સિ": 6197,
      "મુકવામાં": 6198,
      "લંબાઈ": 6199,
      "and": 6200,
      "પૈકીના": 6201,
      "સાવચેતી": 6202,
      "આદિત્ય": 6203,
      "અટકાય": 6204,
      "અઠવાડિયામાં": 6205,
      "ભાગ્યે": 6206,
      "જગદી": 6207,
      "કાગળ": 6208,
      "કબ્જે": 6209,
      "સગીરા": 6210,
      "દ્યોગિક": 6211,
      "43": 6212,
      "47": 6213,
      "400": 6214,
      "ઇમાર": 6215,
      "ઓડિ": 6216,
      "બારો": 6217,
      "બજારો": 6218,
      "રશી": 6219,
      "શકિત": 6220,
      "વાળો": 6221,
      "નીઝ": 6222,
      "તેજી": 6223,
      "કોમ્": 6224,
      "સાવધા": 6225,
      "કાંડ": 6226,
      "વિડિઓ": 6227,
      "વિપરીત": 6228,
      "પ્રવા": 6229,
      "કારે": 6230,
      "દાગી": 6231,
      "દીપિ": 6232,
      "પીવાના": 6233,
      "હિમા": 6234,
      "લિપ": 6235,
      "પેમેન્ટ": 6236,
      "વોલ": 6237,
      "કિનારે": 6238,
      "ડેન્ટ": 6239,
      "ફેંકી": 6240,
      "સરકારમાં": 6241,
      "ખેતમ": 6242,
      "દિવ્યા": 6243,
      "શોષણ": 6244,
      "ખોળ": 6245,
      "શીટ": 6246,
      "નિર્માતા": 6247,
      "જિલ્લાની": 6248,
      "આરોપો": 6249,
      "મહાત્મા": 6250,
      "બાળકોની": 6251,
      "મકવાણા": 6252,
      "મહત્વનો": 6253,
      "રંગી": 6254,
      "કહીને": 6255,
      "દુનિયાના": 6256,
      "વિરોધમાં": 6257,
      "ફુટ": 6258,
      "મહારાષ્ટ્રના": 6259,
      "ગણાય": 6260,
      "સંભળા": 6261,
      "સર્જાયો": 6262,
      "ઉદ્યોગપતિ": 6263,
      "વેબસાઇટ": 6264,
      "મુદ્દામાલ": 6265,
      "સોસાયટીમાં": 6266,
      "મ્યુનિસિપલ": 6267,
      "કબજો": 6268,
      "ધ્રુ": 6269,
      "સ્વતંત્રતા": 6270,
      "એકાદ": 6271,
      "કર્ણાટ": 6272,
      "કોન્ફરન્સ": 6273,
      "ક્રાઈમ": 6274,
      "ગોંડલ": 6275,
      "મજબુ": 6276,
      "હૈદરાબાદ": 6277,
      "ચેમ્પિયન": 6278,
      "ઉપરોક્ત": 6279,
      "અસામાન્ય": 6280,
      "ઇન્સ": 6281,
      "ઉતરી": 6282,
      "ઉતારી": 6283,
      "એસિડ": 6284,
      "જંતુ": 6285,
      "પદે": 6286,
      "મૅ": 6287,
      "યારો": 6288,
      "લંડ": 6289,
      "વયે": 6290,
      "વસવા": 6291,
      "હ્યુ": 6292,
      "હરાજી": 6293,
      "ોની": 6294,
      "લાક્ષણિક": 6295,
      "કોરિયા": 6296,
      "નોન": 6297,
      "કાએ": 6298,
      "યાત્રી": 6299,
      "જેમા": 6300,
      "રોય": 6301,
      "બાલા": 6302,
      "ડાઓ": 6303,
      "ખાય": 6304,
      "શનલ": 6305,
      "વોટર": 6306,
      "પુર્ણ": 6307,
      "આપવાના": 6308,
      "મંદ": 6309,
      "બોય": 6310,
      "બોમ્બ": 6311,
      "બોલિંગ": 6312,
      "છોટાઉ": 6313,
      "કામદારો": 6314,
      "દર્શકો": 6315,
      "ચીનમાં": 6316,
      "મૂકે": 6317,
      "ચિંગ": 6318,
      "બ્રી": 6319,
      "પ્રોગ્રામ": 6320,
      "પાર્ટન": 6321,
      "વ્યાપી": 6322,
      "આઈએ": 6323,
      "મનોરંજન": 6324,
      "દર્દીને": 6325,
      "દર્દીઓના": 6326,
      "બધાને": 6327,
      "અમેરિકી": 6328,
      "ચુકી": 6329,
      "પારિ": 6330,
      "મુંબઈના": 6331,
      "રસ્તાઓ": 6332,
      "લંબા": 6333,
      "ફોટોગ્રા": 6334,
      "એક્સચે": 6335,
      "હુમલામાં": 6336,
      "જંગલ": 6337,
      "સેન્સેક્સ": 6338,
      "આટલા": 6339,
      "સ્પીડ": 6340,
      "દૃષ્ટિ": 6341,
      "મર્યાદિત": 6342,
      "કોશિશ": 6343,
      "પ્રાઇવેટ": 6344,
      "વલસાડ": 6345,
      "વિનોદ": 6346,
      "અમિતાભ": 6347,
      "95": 6348,
      "Gujar": 6349,
      "me": 6350,
      "અમી": 6351,
      "ઈંગ્લેન્ડ": 6352,
      "એણે": 6353,
      "ઔદ્યોગિક": 6354,
      "ગંદ": 6355,
      "ચર્સ": 6356,
      "છિ": 6357,
      "જજ": 6358,
      "ઝાર": 6359,
      "દળ": 6360,
      "દલિત": 6361,
      "પતા": 6362,
      "રચ": 6363,
      "વરા": 6364,
      "માઉ": 6365,
      "રામાં": 6366,
      "લેબ": 6367,
      "એકસાથે": 6368,
      "કિડની": 6369,
      "પ્શન": 6370,
      "રાખ્યું": 6371,
      "અમલી": 6372,
      "બ્લે": 6373,
      "સ્વરૂપે": 6374,
      "પ્રકારે": 6375,
      "એક્શન": 6376,
      "સમાજમાં": 6377,
      "યુવતીએ": 6378,
      "ઘેર": 6379,
      "આત્મા": 6380,
      "કાશ્મીરના": 6381,
      "વેબસાઈટ": 6382,
      "બચત": 6383,
      "લૉક": 6384,
      "દુષ્કર્મ": 6385,
      "સરખામણીમાં": 6386,
      "ડિસ્કાઉન્ટ": 6387,
      "ચાહકો": 6388,
      "લીંબુ": 6389,
      "સંદર્ભમાં": 6390,
      "બ્લાસ્ટ": 6391,
      "સ્વામિનારાયણ": 6392,
      "અસ્તિત્વ": 6393,
      "આચર": 6394,
      "ઉશ્કે": 6395,
      "ઓક": 6396,
      "કિયા": 6397,
      "કશું": 6398,
      "ખડ": 6399,
      "ગયુ": 6400,
      "ચઢા": 6401,
      "ટં": 6402,
      "તકો": 6403,
      "મહુ": 6404,
      "રજની": 6405,
      "શૂટ": 6406,
      "સત્": 6407,
      "સવલ": 6408,
      "હસ": 6409,
      "માનિત": 6410,
      "વાયેલા": 6411,
      "નાનક": 6412,
      "કાળી": 6413,
      "વિજ": 6414,
      "માટેનું": 6415,
      "સંચા": 6416,
      "સંતાનો": 6417,
      "ડીપી": 6418,
      "સુશોભ": 6419,
      "લિયો": 6420,
      "પેજ": 6421,
      "દોબ": 6422,
      "ચિકિ": 6423,
      "માર્ગે": 6424,
      "સાંજ": 6425,
      "લાખનો": 6426,
      "ભાજપમાં": 6427,
      "દરેકને": 6428,
      "૨૦૧૮": 6429,
      "૨૦૧૭": 6430,
      "મહેન્દ્ર": 6431,
      "150": 6432,
      "ખેડૂતોએ": 6433,
      "બનાવવાનો": 6434,
      "શોધખોળ": 6435,
      "અપાઈ": 6436,
      "હાર્ટ": 6437,
      "ગઇકાલે": 6438,
      "ડાયરે": 6439,
      "કાઢવામાં": 6440,
      "બંગાળ": 6441,
      "પામ્યા": 6442,
      "છૂટા": 6443,
      "ગુરૂવારે": 6444,
      "ગ્લોબલ": 6445,
      "પ્રસ્તાવ": 6446,
      "વાઘેલા": 6447,
      "આર્કિટેક્ટ": 6448,
      "આજુબાજુ": 6449,
      "તંદુરસ્ત": 6450,
      "તબિયત": 6451,
      "66": 6452,
      "આશંકા": 6453,
      "ઈને": 6454,
      "કઇ": 6455,
      "કદી": 6456,
      "ખભા": 6457,
      "ચઢ": 6458,
      "છં": 6459,
      "થનાર": 6460,
      "લખે": 6461,
      "હની": 6462,
      "૪૭": 6463,
      "કર્સ": 6464,
      "તેવામાં": 6465,
      "સ્પા": 6466,
      "સ્માર": 6467,
      "રાદ": 6468,
      "રાતો": 6469,
      "કોર્સ": 6470,
      "સાસ": 6471,
      "સાચું": 6472,
      "કાલા": 6473,
      "વિણ": 6474,
      "વિજ્ઞા": 6475,
      "વિષ્ણુ": 6476,
      "પ્રણા": 6477,
      "ક્ચર": 6478,
      "વીએ": 6479,
      "લીએ": 6480,
      "લીટર": 6481,
      "લેશ્વર": 6482,
      "ટીની": 6483,
      "સેન": 6484,
      "સુભા": 6485,
      "મુલ": 6486,
      "ગાઈડ": 6487,
      "વર્થ": 6488,
      "પેશા": 6489,
      "વારની": 6490,
      "યુનિય": 6491,
      "ડેવલ": 6492,
      "ચેન્ન": 6493,
      "બોટા": 6494,
      "કેટલું": 6495,
      "કુર": 6496,
      "થવાથી": 6497,
      "પોલીસમાં": 6498,
      "ચીને": 6499,
      "ભાઈને": 6500,
      "વિસ્તરણ": 6501,
      "ભર્યું": 6502,
      "ત્રાસ": 6503,
      "ચાલતા": 6504,
      "પતિને": 6505,
      "સભામાં": 6506,
      "મનસુખ": 6507,
      "ઉમેરી": 6508,
      "આપેલા": 6509,
      "પિતાએ": 6510,
      "ગર્લ": 6511,
      "પરીક્ષામાં": 6512,
      "સાઇડ": 6513,
      "સ્કૂલમાં": 6514,
      "ચોક્કસપણે": 6515,
      "આર્મી": 6516,
      "ગાંધીનગરમાં": 6517,
      "મથક": 6518,
      "ચોકડી": 6519,
      "સૂત્રોએ": 6520,
      "શર્માએ": 6521,
      "ભાષામાં": 6522,
      "પ્રત્યેક": 6523,
      "રેન્જ": 6524,
      "ફાર્મ": 6525,
      "તસ્વીર": 6526,
      "કાર્યાલય": 6527,
      "આક્રમક": 6528,
      "એમ્બ્યુલ": 6529,
      "નિયંત્રિત": 6530,
      "59": 6531,
      ":-": 6532,
      "ઈશ": 6533,
      "ઈમાં": 6534,
      "ઓફી": 6535,
      "ગળા": 6536,
      "જશો": 6537,
      "જબર": 6538,
      "ભવ": 6539,
      "મચા": 6540,
      "સપના": 6541,
      "૩૦૦": 6542,
      "૫૫": 6543,
      "માળા": 6544,
      "વામા": 6545,
      "વાપરી": 6546,
      "નામો": 6547,
      "લાગતું": 6548,
      "સામાં": 6549,
      "સાની": 6550,
      "કાને": 6551,
      "પરમ": 6552,
      "મેર": 6553,
      "મેઘા": 6554,
      "રેપ": 6555,
      "શેખ": 6556,
      "સેન્ટ": 6557,
      "ક્ષ્": 6558,
      "બેઝ": 6559,
      "વર્તી": 6560,
      "ટ્રસ્ટી": 6561,
      "પેનલ": 6562,
      "વારથી": 6563,
      "પુખ્ત": 6564,
      "બંદોબ": 6565,
      "બોર": 6566,
      "બોલર": 6567,
      "મૂડી": 6568,
      "શકું": 6569,
      "હુકમ": 6570,
      "સર્વો": 6571,
      "પ્રતિમા": 6572,
      "પાર્કિંગ": 6573,
      "કરોડનો": 6574,
      "કરોડનું": 6575,
      "જીવનની": 6576,
      "પર્વ": 6577,
      "મહેમાનો": 6578,
      "પ્રકારનો": 6579,
      "પડેલા": 6580,
      "મદદરૂપ": 6581,
      "ક્ષેત્રો": 6582,
      "પટેલને": 6583,
      "બનાવની": 6584,
      "ફૂલો": 6585,
      "જેવાં": 6586,
      "કલાકાર": 6587,
      "વાઈરસ": 6588,
      "સહકારી": 6589,
      "આજરોજ": 6590,
      "આજકાલ": 6591,
      "ગેરકાયદે": 6592,
      "બળતરા": 6593,
      "દર્શાવી": 6594,
      "ડૉલર": 6595,
      "કચ્છના": 6596,
      "આગેવાની": 6597,
      "કૉંગ્રે": 6598,
      "વાસ્તવમાં": 6599,
      "મકાનમાં": 6600,
      "કોમર્સ": 6601,
      "મંત્રાલયના": 6602,
      "દિગ્ગજ": 6603,
      "સ્વચ્છતા": 6604,
      "ડાયાબિ": 6605,
      "બોલિવૂડ": 6606,
      "ડ્રાઈવર": 6607,
      "સાબરકાંઠા": 6608,
      "વસૂલ": 6609,
      "દાહોદ": 6610,
      "ફાઉન્ડેશન": 6611,
      "સ્વપ્ન": 6612,
      "કપિલ": 6613,
      "બંદોબસ્ત": 6614,
      "79": 6615,
      "85": 6616,
      "અસં": 6617,
      "અપરા": 6618,
      "અસરો": 6619,
      "ઇમરાન": 6620,
      "ઈન્ડસ્ટ્રી": 6621,
      "ઘ્": 6622,
      "ઝું": 6623,
      "દઇએ": 6624,
      "નસીબ": 6625,
      "પમેન્ટ": 6626,
      "ભું": 6627,
      "શર્ટ": 6628,
      "૩૬": 6629,
      "રાજીવ": 6630,
      "ર્સે": 6631,
      "કેમિ": 6632,
      "લાભો": 6633,
      "વિપુલ": 6634,
      "પ્રચ": 6635,
      "પ્રગટ": 6636,
      "યાના": 6637,
      "વીય": 6638,
      "પાછો": 6639,
      "લીટ": 6640,
      "ંગુ": 6641,
      "લેવો": 6642,
      "પોઝ": 6643,
      "એકતા": 6644,
      "દેતા": 6645,
      "આવવાની": 6646,
      "ણીની": 6647,
      "દાવા": 6648,
      "મિલિ": 6649,
      "વોટ્સ": 6650,
      "લોકોનાં": 6651,
      "શ્મા": 6652,
      "દ્રો": 6653,
      "જુલાઇ": 6654,
      "ટિન": 6655,
      "પરિવહન": 6656,
      "ફાસ્ટ": 6657,
      "ફાઇલ": 6658,
      "રાખતા": 6659,
      "ંકડો": 6660,
      "પડતો": 6661,
      "્સના": 6662,
      "ખોલી": 6663,
      "ધોધ": 6664,
      "બાળકની": 6665,
      "સર્કલ": 6666,
      "સિંઘ": 6667,
      "પ્રેમમાં": 6668,
      "સ્થિતિને": 6669,
      "કેન્દ્રમાં": 6670,
      "લાંબો": 6671,
      "મામલામાં": 6672,
      "ફરિયાદો": 6673,
      "સ્ટાઇ": 6674,
      "ઝીણી": 6675,
      "પ્રક્રિયામાં": 6676,
      "હાઇટ": 6677,
      "અર્થતંત્ર": 6678,
      "મંડળી": 6679,
      "ખુબજ": 6680,
      "કુંભ": 6681,
      "સવારના": 6682,
      "કેસોમાં": 6683,
      "ઘટકો": 6684,
      "ટાઈમ": 6685,
      "મુકાબ": 6686,
      "ફર્નિ": 6687,
      "કક્ષાએ": 6688,
      "કક્ષાના": 6689,
      "રાત્રીના": 6690,
      "ઇલેક્ટ્રો": 6691,
      "હથિયાર": 6692,
      "એટીએમ": 6693,
      "મસ્જિ": 6694,
      "ઉદ્યોગો": 6695,
      "In": 6696,
      "oo": 6697,
      "અરુ": 6698,
      "આનં": 6699,
      "ઉભો": 6700,
      "એનું": 6701,
      "કઠો": 6702,
      "થવી": 6703,
      "થનારા": 6704,
      "પટ્ટી": 6705,
      "બસો": 6706,
      "બધુ": 6707,
      "રત્": 6708,
      "લસણ": 6709,
      "શાર": 6710,
      "સ્ને": 6711,
      "સ્ક્રિ": 6712,
      "સાચા": 6713,
      "પ્રવૃ": 6714,
      "પ્રવિણ": 6715,
      "હોટે": 6716,
      "હોર્મો": 6717,
      "રેસ": 6718,
      "િયાના": 6719,
      "થેરા": 6720,
      "ણામાં": 6721,
      "બેટરી": 6722,
      "વર્ડ": 6723,
      "રિયર": 6724,
      "કોઈએ": 6725,
      "પહેલ": 6726,
      "નાંખી": 6727,
      "ભારતનો": 6728,
      "ખોટું": 6729,
      "ધારણા": 6730,
      "પ્રાપ્ય": 6731,
      "વિસ્તૃત": 6732,
      "લોકશાહી": 6733,
      "અમદાવાદઃ": 6734,
      "આરએસ": 6735,
      "હાલની": 6736,
      "લેવાશે": 6737,
      "એલર્જી": 6738,
      "તંત્રએ": 6739,
      "દેખાશે": 6740,
      "ફિલ્મનું": 6741,
      "સ્ટોપ": 6742,
      "ઉંમરે": 6743,
      "અવરોધ": 6744,
      "યોજાઈ": 6745,
      "કિંમતમાં": 6746,
      "ઓફિસમાં": 6747,
      "શક્તિશાળી": 6748,
      "પૂછ્યું": 6749,
      "જામનગરમાં": 6750,
      "ડાયરેક્ટર": 6751,
      "રાખેલ": 6752,
      "ફેરફારો": 6753,
      "સંકલ્પ": 6754,
      "વપરાય": 6755,
      "ફટકાર": 6756,
      "ent": 6757,
      "સ્નાયુ": 6758,
      "ખંભા": 6759,
      "છેતરપિંડી": 6760,
      "બાહ્ય": 6761,
      "બેદરકારી": 6762,
      "અટકાયત": 6763,
      "ya": 6764,
      "ઈચ્છ": 6765,
      "એન્ટર": 6766,
      "જયાં": 6767,
      "ધ્રા": 6768,
      "નક્ષ": 6769,
      "પદ્": 6770,
      "મલા": 6771,
      "મમ્": 6772,
      "વલ્": 6773,
      "વાલે": 6774,
      "નીંગ": 6775,
      "નીપજ": 6776,
      "કોન્સ": 6777,
      "ટેમ્": 6778,
      "પાવ": 6779,
      "ત્રિક": 6780,
      "બેરી": 6781,
      "સીસ": 6782,
      "સિક્": 6783,
      "સિદ્ધા": 6784,
      "ખાના": 6785,
      "ખાતર": 6786,
      "બીમાર": 6787,
      "કિસ્સો": 6788,
      "આપવો": 6789,
      "બોલિ": 6790,
      "પહેરે": 6791,
      "અંધ": 6792,
      "અંડર": 6793,
      "ઉત્ત": 6794,
      "ઘાટન": 6795,
      "આર્ય": 6796,
      "ઇન્સ્ટાગ્રામ": 6797,
      "અભિપ્રાય": 6798,
      "આરોપીની": 6799,
      "પત્રકારો": 6800,
      "સિક્યો": 6801,
      "મહારાજ": 6802,
      "ટુકડા": 6803,
      "દેશોની": 6804,
      "સૈનિ": 6805,
      "બેંકના": 6806,
      "હિંસક": 6807,
      "પંચાયતના": 6808,
      "વર્ષોમાં": 6809,
      "ઉંમરના": 6810,
      "રૃપિયા": 6811,
      "ખિલ": 6812,
      "ચારેય": 6813,
      "સુધારવા": 6814,
      "સંસદમાં": 6815,
      "બ્રહ્મ": 6816,
      "ડાંગર": 6817,
      "કર્ણાટક": 6818,
      "વસાવા": 6819,
      "આઈપીએલ": 6820,
      "પરિષદ": 6821,
      "માત્રામાં": 6822,
      "સોંપવામાં": 6823,
      "કસરત": 6824,
      "ચિકન": 6825,
      "તફાવત": 6826,
      "વસવાટ": 6827,
      "સવલતો": 6828,
      "72": 6829,
      "ંકર": 6830,
      "ઊભો": 6831,
      "એસી": 6832,
      "ચણા": 6833,
      "ચમક": 6834,
      "ઠાર": 6835,
      "તૂટ": 6836,
      "નરે": 6837,
      "મકર": 6838,
      "વળા": 6839,
      "છેડા": 6840,
      "કરનારી": 6841,
      "કેક": 6842,
      "સાચ": 6843,
      "નોના": 6844,
      "વિન્": 6845,
      "રીક": 6846,
      "રીટ": 6847,
      "મેળા": 6848,
      "સેમિ": 6849,
      "સેમ્પલ": 6850,
      "હાલા": 6851,
      "મુદ": 6852,
      "દીને": 6853,
      "સીબે": 6854,
      "બીએ": 6855,
      "વોકેટ": 6856,
      "પરિણી": 6857,
      "ચારિક": 6858,
      "રાખવો": 6859,
      "ચોરસ": 6860,
      "કાર્યકર્તા": 6861,
      "ધોરાજી": 6862,
      "વચ્ચેના": 6863,
      "અમદાવાદની": 6864,
      "ઝાડ": 6865,
      "વ્યક્તિના": 6866,
      "વિસ્તારની": 6867,
      "ચૂંટણીના": 6868,
      "દર્દીના": 6869,
      "અભિગમ": 6870,
      "કલાકો": 6871,
      "જીવંત": 6872,
      "નહિં": 6873,
      "કોલેજમાં": 6874,
      "ઘોડા": 6875,
      "વ્હાઇટ": 6876,
      "કૌશલ": 6877,
      "પંચાયતઘર": 6878,
      "ક્રીમ": 6879,
      "જાન્યુઆરીએ": 6880,
      "આક્ષેપો": 6881,
      "અટકી": 6882,
      "ધંધો": 6883,
      "રાજેશ": 6884,
      "દરોડા": 6885,
      "ફાયદાકારક": 6886,
      "કચરો": 6887,
      "વાવાઝોડા": 6888,
      "ઓળખાય": 6889,
      "પ્રમોશન": 6890,
      "સમૃદ્ધ": 6891,
      "ભૂકંપ": 6892,
      "દલીલ": 6893,
      "કથિત": 6894,
      "સાંસદો": 6895,
      "41": 6896,
      "78": 6897,
      "આનો": 6898,
      "આખું": 6899,
      "ઈમરાન": 6900,
      "ઓરિ": 6901,
      "ક્ય": 6902,
      "ગમત": 6903,
      "ધવ": 6904,
      "પટા": 6905,
      "ફળો": 6906,
      "યંત્ર": 6907,
      "તાકી": 6908,
      "કોપ્ટર": 6909,
      "સાગ": 6910,
      "કાટ": 6911,
      "વિસ": 6912,
      "પામે": 6913,
      "વેન્ટિ": 6914,
      "લીની": 6915,
      "હોસ્પી": 6916,
      "રેન": 6917,
      "નિકાસ": 6918,
      "યોજવામાં": 6919,
      "દેવતા": 6920,
      "બેન્ડ": 6921,
      "સિલ્": 6922,
      "સોનાના": 6923,
      "લિંક": 6924,
      "પેરા": 6925,
      "રહયા": 6926,
      "શ્વે": 6927,
      "ગીતા": 6928,
      "કુટું": 6929,
      "પરિવારે": 6930,
      "કરાતા": 6931,
      "કરાવ્યો": 6932,
      "ફોનમાં": 6933,
      "લગતી": 6934,
      "બુદ્ધિ": 6935,
      "એટલો": 6936,
      "કોંગ્રેસમાં": 6937,
      "રૂપિયાનું": 6938,
      "સ્વાભાવિક": 6939,
      "પ્રકારનું": 6940,
      "પિતાને": 6941,
      "બનાવવાનું": 6942,
      "જીવલેણ": 6943,
      "ટેસ્ટિંગ": 6944,
      "ગર્વ": 6945,
      "અભ્યાસમાં": 6946,
      "વાઇરસ": 6947,
      "ઝેશન": 6948,
      "ગરીબો": 6949,
      "ગૌતમ": 6950,
      "સ્ટિંગ": 6951,
      "પહેલીવાર": 6952,
      "ગાળામાં": 6953,
      "લોકસભામાં": 6954,
      "ગાયક": 6955,
      "પહોંચાડી": 6956,
      "દૃશ્ય": 6957,
      "ફાળવણી": 6958,
      "સપ્તાહમાં": 6959,
      "પતંગ": 6960,
      "નોટબંધી": 6961,
      "પીડિત": 6962,
      "ઉમેર્યું": 6963,
      "નિવેદનમાં": 6964,
      "હળવદ": 6965,
      "બેઠેલા": 6966,
      "અપડેટ": 6967,
      "ખેતમજૂરી": 6968,
      "1000": 6969,
      "71": 6970,
      "અહી": 6971,
      "આમિર": 6972,
      "ઇંડા": 6973,
      "ઉજવા": 6974,
      "કહો": 6975,
      "ખ્ય": 6976,
      "જક": 6977,
      "જળા": 6978,
      "નનું": 6979,
      "નફો": 6980,
      "ફ્યૂ": 6981,
      "બનના": 6982,
      "રદ્દ": 6983,
      "વસ્ત્રો": 6984,
      "વરેજ": 6985,
      "સિયા": 6986,
      "હવામાં": 6987,
      "ુક": 6988,
      "૪૪": 6989,
      "નાખ્યા": 6990,
      "કેલ્": 6991,
      "વિદાય": 6992,
      "વેકેશન": 6993,
      "લોગ": 6994,
      "લેવું": 6995,
      "યોમાં": 6996,
      "સેલિ": 6997,
      "સેક્રે": 6998,
      "સેંકડો": 6999,
      "હાડ": 7000,
      "દાણા": 7001,
      "બેલ": 7002,
      "પીએફ": 7003,
      "સીએસ": 7004,
      "દિવાલો": 7005,
      "મિલી": 7006,
      "વર્ગી": 7007,
      "સોને": 7008,
      "ગુસ્સો": 7009,
      "માનવતા": 7010,
      "બોર્": 7011,
      "પરિચિત": 7012,
      "ગોપાલ": 7013,
      "કરાવ્યું": 7014,
      "વનડે": 7015,
      "પડતાં": 7016,
      "મૂકો": 7017,
      "વાતની": 7018,
      "ખુરશી": 7019,
      "ધાન્ય": 7020,
      "સ્વભાવ": 7021,
      "વ્યાપાર": 7022,
      "રણવીર": 7023,
      "કરોડથી": 7024,
      "સંગત": 7025,
      "મોતને": 7026,
      "કલાકની": 7027,
      "કારોબારી": 7028,
      "સ્વીકારી": 7029,
      "જાણીને": 7030,
      "બોર્ડની": 7031,
      "સૈનિકો": 7032,
      "વાળું": 7033,
      "જિકલ": 7034,
      "નગરપાલિકાના": 7035,
      "વાનગીઓ": 7036,
      "સર્જાઈ": 7037,
      "ડીઝલના": 7038,
      "ટ્રાન્સપોર્ટ": 7039,
      "યુવાનોને": 7040,
      "વેરાવળ": 7041,
      "છોકરીઓ": 7042,
      "સરોવર": 7043,
      "સંબોધન": 7044,
      "નિષ્ણાત": 7045,
      "ફાઇનલમાં": 7046,
      "સેવક": 7047,
      "મુલાકાતે": 7048,
      "ઉપકરણો": 7049,
      "કોન્ટ્રાક્ટ": 7050,
      "મોંઘવારી": 7051,
      "નિમણૂક": 7052,
      "શૌચાલ": 7053,
      "વાંકાનેર": 7054,
      "છોટાઉદેપુર": 7055,
      "સંચાલિત": 7056,
      "ફર્નિચર": 7057,
      "250": 7058,
      "44": 7059,
      "51": 7060,
      "આય": 7061,
      "આશિ": 7062,
      "આલિયા": 7063,
      "ઉદ્ધ": 7064,
      "ઊં": 7065,
      "ઋતુ": 7066,
      "એન્ટ": 7067,
      "ગળે": 7068,
      "ચકા": 7069,
      "પારો": 7070,
      "શૉ": 7071,
      "તેમા": 7072,
      "કેદાર": 7073,
      "કોડ": 7074,
      "ક્લે": 7075,
      "મેના": 7076,
      "કારની": 7077,
      "શેટ્ટી": 7078,
      "નિવાર": 7079,
      "નિફ્ટી": 7080,
      "બેસે": 7081,
      "પીવાથી": 7082,
      "દિક": 7083,
      "ખાવાથી": 7084,
      "વધવા": 7085,
      "સોનાની": 7086,
      "મળા": 7087,
      "લિશ": 7088,
      "પેસ્ટ": 7089,
      "યુકત": 7090,
      "ડેટ": 7091,
      "બંન્ને": 7092,
      "વર્ષા": 7093,
      "ટિફિ": 7094,
      "પરિવા": 7095,
      "પહેરી": 7096,
      "ગોહિલ": 7097,
      "ફાળો": 7098,
      "તેઓના": 7099,
      "કંડ": 7100,
      "બાળો": 7101,
      "જાણતા": 7102,
      "જિલ્લાઓમાં": 7103,
      "બુમરા": 7104,
      "થઇને": 7105,
      "વ્યાખ્યા": 7106,
      "વાયદા": 7107,
      "અભિનય": 7108,
      "લગ્નના": 7109,
      "વિદ્યાર્થીની": 7110,
      "ચુડા": 7111,
      "જીત્યા": 7112,
      "ઘરેથી": 7113,
      "કર્મચારીઓની": 7114,
      "પાર્ટીમાં": 7115,
      "આયોજિત": 7116,
      "જોઇને": 7117,
      "અવસર": 7118,
      "આજની": 7119,
      "યોજાયો": 7120,
      "દાયી": 7121,
      "કમિશ્": 7122,
      "સંસ્થાના": 7123,
      "વાંચી": 7124,
      "નદીના": 7125,
      "સવાલો": 7126,
      "ન્યૂઝીલેન્ડ": 7127,
      "એડવોકેટ": 7128,
      "કોલકા": 7129,
      "સૌરાષ્ટ્રમાં": 7130,
      "અટકાવી": 7131,
      "આંગળી": 7132,
      "શાકભાજીના": 7133,
      "હટાવી": 7134,
      "ટાઉન": 7135,
      "હથિયારો": 7136,
      "રાજકારણમાં": 7137,
      "અવારનવાર": 7138,
      "નિમિત્તે": 7139,
      "રાજપૂત": 7140,
      "પ્રદૂષણ": 7141,
      "અવર": 7142,
      "ઉઘ": 7143,
      "એકે": 7144,
      "ગ્યુ": 7145,
      "જર્": 7146,
      "નખ": 7147,
      "બટા": 7148,
      "બત્તી": 7149,
      "લનો": 7150,
      "સગઢ": 7151,
      "૩૨": 7152,
      "્રિ": 7153,
      "તાજ": 7154,
      "સ્સે": 7155,
      "સ્ત્રા": 7156,
      "કામે": 7157,
      "પ્રસ": 7158,
      "પ્રદીપ": 7159,
      "પરમાણ": 7160,
      "મેરી": 7161,
      "હેલિ": 7162,
      "પાતળા": 7163,
      "વેદ": 7164,
      "ભાડે": 7165,
      "રેસ્ટો": 7166,
      "લેન્સ": 7167,
      "નિવાસી": 7168,
      "તિઓ": 7169,
      "ડીજી": 7170,
      "ડાટ": 7171,
      "રૂણ": 7172,
      "ખાતામાં": 7173,
      "પેડ": 7174,
      "પુષ્ટિ": 7175,
      "સરકારનો": 7176,
      "ખેર": 7177,
      "ખેતરમાં": 7178,
      "કુળ": 7179,
      "સૂચિત": 7180,
      "ર્સના": 7181,
      "મહેશ": 7182,
      "રાજકોટઃ": 7183,
      "લગ્નમાં": 7184,
      "કારોબાર": 7185,
      "પાકિસ્તાનમાં": 7186,
      "હજારની": 7187,
      "જોડાણ": 7188,
      "મુખ્યમંત્રીએ": 7189,
      "કાંઠે": 7190,
      "બ્રાહ્": 7191,
      "કપમાં": 7192,
      "યોજાયેલી": 7193,
      "વડોદરાના": 7194,
      "વિનાશ": 7195,
      "યુવતીને": 7196,
      "સૈફ": 7197,
      "તારણ": 7198,
      "રાજયના": 7199,
      "મગજ": 7200,
      "યુનિવર્સિટીના": 7201,
      "સીબીઆઈ": 7202,
      "કેરળ": 7203,
      "બંગાળમાં": 7204,
      "ક્લબ": 7205,
      "સિનેમા": 7206,
      "અથડામણ": 7207,
      "તબક્કે": 7208,
      "શણગાર": 7209,
      "બગીચા": 7210,
      "દાગીના": 7211,
      ".[": 7212,
      "57": 7213,
      "?’": 7214,
      "ab": 7215,
      "અસ્થિ": 7216,
      "ઇમે": 7217,
      "ઝના": 7218,
      "ડ્યૂ": 7219,
      "તત્વ": 7220,
      "પને": 7221,
      "બડ": 7222,
      "બલી": 7223,
      "ભક્તિ": 7224,
      "લખા": 7225,
      "સફાઇ": 7226,
      "૪૨": 7227,
      "૬૮": 7228,
      "્યે": 7229,
      "કરન્સી": 7230,
      "સ્કિ": 7231,
      "સાંક": 7232,
      "કાફલો": 7233,
      "વિરામ": 7234,
      "ન્સિંગ": 7235,
      "લીલી": 7236,
      "ભાગોમાં": 7237,
      "જાપાન": 7238,
      "રેસીપી": 7239,
      "લેવલ": 7240,
      "નિલ": 7241,
      "નિશા": 7242,
      "ટીક": 7243,
      "સંપા": 7244,
      "દેખરે": 7245,
      "ધીમી": 7246,
      "શામાં": 7247,
      "ટ્રમ્પે": 7248,
      "વોર": 7249,
      "દરજ્": 7250,
      "શિલ્": 7251,
      "બોસ": 7252,
      "ઉપપ્રમુખ": 7253,
      "ગેમ": 7254,
      "દ્રશ્યો": 7255,
      "સ્થાપ": 7256,
      "કરાયેલી": 7257,
      "બરફ": 7258,
      "2012": 7259,
      "સમયની": 7260,
      "મહિનો": 7261,
      "એમસી": 7262,
      "એમએસ": 7263,
      "પ્રતિભા": 7264,
      "પ્રોટીન": 7265,
      "વ્યાવ": 7266,
      "કોંગ્રેસની": 7267,
      "જિન": 7268,
      "બનતા": 7269,
      "અધિકારીઓની": 7270,
      "સાયન્સ": 7271,
      "બેનર્જી": 7272,
      "લાગતા": 7273,
      "શાળાઓમાં": 7274,
      "વતન": 7275,
      "ટેસ્ટમાં": 7276,
      "પત્નીને": 7277,
      "બ્રાન્ચ": 7278,
      "બેન્કો": 7279,
      "ટ્રીક": 7280,
      "અઠવાડિયે": 7281,
      "ઓળખવામાં": 7282,
      "શરુઆત": 7283,
      "પાઠવી": 7284,
      "જમીનમાં": 7285,
      "આશ્રમ": 7286,
      "ફાંસો": 7287,
      "બપોરના": 7288,
      "રજિસ્ટ્રેશન": 7289,
      "પાંદડા": 7290,
      "ews": 7291,
      "પ્રેક્ટિસ": 7292,
      "સેક્રેટરી": 7293,
      "દેખરેખ": 7294,
      "):": 7295,
      "52": 7296,
      "sh": 7297,
      "ul": 7298,
      "ઉત": 7299,
      "ઉપાડ": 7300,
      "કડો": 7301,
      "ગયેલી": 7302,
      "ણુ": 7303,
      "દં": 7304,
      "નૃ": 7305,
      "પલા": 7306,
      "પદા": 7307,
      "પચારિક": 7308,
      "વનારી": 7309,
      "હદ": 7310,
      "૧પ": 7311,
      "કરના": 7312,
      "તાજા": 7313,
      "સ્વર": 7314,
      "કોમ્પ્યુટર": 7315,
      "કાકા": 7316,
      "રીક્ષા": 7317,
      "ક્સીન": 7318,
      "જાવ": 7319,
      "જાતીય": 7320,
      "હોવો": 7321,
      "રેતી": 7322,
      "લેતાં": 7323,
      "નિહા": 7324,
      "બાજરી": 7325,
      "જીક": 7326,
      "સેમી": 7327,
      "ણીને": 7328,
      "થાક": 7329,
      "સાથેનો": 7330,
      "સિલ": 7331,
      "રિટર્ન": 7332,
      "મળવાની": 7333,
      "ડિત": 7334,
      "ડેમો": 7335,
      "આપનાર": 7336,
      "બોલ્ડ": 7337,
      "ગરમા": 7338,
      "પરિવારો": 7339,
      "ટોચના": 7340,
      "2013": 7341,
      "અમલમાં": 7342,
      "શકતી": 7343,
      "પાણીથી": 7344,
      "નગરના": 7345,
      "પ્રતિષ્ઠા": 7346,
      "વચ્ચેની": 7347,
      "નામથી": 7348,
      "ખીલ": 7349,
      "જીવનસાથી": 7350,
      "કેન્દ્રો": 7351,
      "ટ્રેનિંગ": 7352,
      "વડાપ્રધા": 7353,
      "૨૦૧૬": 7354,
      "લગાવવા": 7355,
      "બનાવશે": 7356,
      "વિચાર્યું": 7357,
      "બાબતમાં": 7358,
      "મંદિરની": 7359,
      "શરમ": 7360,
      "પરેશ": 7361,
      "માર્ગદર્": 7362,
      "પત્નીએ": 7363,
      "ઓળખી": 7364,
      "ઝોનમાં": 7365,
      "બતાવે": 7366,
      "મૂકવા": 7367,
      "જોખમી": 7368,
      "ઉમેદવારી": 7369,
      "મહામારીના": 7370,
      "ડિસેમ્બરે": 7371,
      "ડ્રિ": 7372,
      "વેક્સિનેશન": 7373,
      "ધૂમ": 7374,
      "વહીવટ": 7375,
      "દુર્ઘટના": 7376,
      "અલ્પેશ": 7377,
      "જથ્થા": 7378,
      "ગોઠવી": 7379,
      "નમ્ર": 7380,
      "માંડવી": 7381,
      "સાઉદી": 7382,
      "વાંધો": 7383,
      "નારાજગી": 7384,
      "ઝઘડો": 7385,
      "અત્યાચાર": 7386,
      "સમારંભ": 7387,
      "કોન્સ્ટેબલ": 7388,
      "ષેક": 7389,
      "બેક્ટેરિયા": 7390,
      "છંટકા": 7391,
      "સિક્યોરિટી": 7392,
      "68": 7393,
      "ot": 7394,
      "um": 7395,
      "આજનો": 7396,
      "ઇઝ": 7397,
      "ઈલેક્": 7398,
      "એપિ": 7399,
      "જં": 7400,
      "ઠરા": 7401,
      "દસ્ત": 7402,
      "પક્ષે": 7403,
      "મકી": 7404,
      "રસના": 7405,
      "સગીર": 7406,
      "હંગા": 7407,
      "લાવે": 7408,
      "વિડિયો": 7409,
      "વિસર્જન": 7410,
      "મેન્યુ": 7411,
      "પાલી": 7412,
      "વેલ્": 7413,
      "વેક્સીન": 7414,
      "લોસ": 7415,
      "બાપા": 7416,
      "તિયા": 7417,
      "ટીએ": 7418,
      "દેદારો": 7419,
      "દામ": 7420,
      "મુળ": 7421,
      "પીટર": 7422,
      "સીધો": 7423,
      "વધ્યો": 7424,
      "સમજવા": 7425,
      "ક્રુ": 7426,
      "વોલ્": 7427,
      "ડિપ્રે": 7428,
      "મંચ": 7429,
      "ફેલ": 7430,
      "ટોલ": 7431,
      "પહેરીને": 7432,
      "ગોધરા": 7433,
      "ગોવિંદ": 7434,
      "ભારતનું": 7435,
      "પડયા": 7436,
      "ભૂષણ": 7437,
      "છાપ": 7438,
      "બુટ": 7439,
      "ભરૃ": 7440,
      "પ્રતિકારક": 7441,
      "વિસ્તારમાંથી": 7442,
      "આઈસી": 7443,
      "ઝડપે": 7444,
      "મળેલ": 7445,
      "લેવાયો": 7446,
      "કોઇને": 7447,
      "તંત્રની": 7448,
      "વિદ્યાર્થીઓની": 7449,
      "નિર્ણયને": 7450,
      "બનાવ્યું": 7451,
      "નિયામક": 7452,
      "ઘટાડે": 7453,
      "જોડાઈ": 7454,
      "ધ્વ": 7455,
      "વહેંચ": 7456,
      "યુવતીના": 7457,
      "મોરબીમાં": 7458,
      "સેનાએ": 7459,
      "સાંભળીને": 7460,
      "સુંદરતા": 7461,
      "પ્લેસ": 7462,
      "નાખવાની": 7463,
      "અડધી": 7464,
      "મહામારીને": 7465,
      "સંચાલક": 7466,
      "માધ્યમિક": 7467,
      "ફાઇના": 7468,
      "જીલ્લાના": 7469,
      "શખ્સોએ": 7470,
      "વધારીને": 7471,
      "ઈન્ટરનેટ": 7472,
      "મસાલા": 7473,
      "સ્ટાર્ટ": 7474,
      "નમૂના": 7475,
      "પંચમહાલ": 7476,
      "જેતપુર": 7477,
      "સુભાષ": 7478,
      "નક્ષત્ર": 7479,
      "પરમાણુ": 7480,
      "વ્યાવસાય": 7481,
      "56": 7482,
      "PS": 7483,
      "av": 7484,
      "એમે": 7485,
      "ઑફ": 7486,
      "ઓલિમ્પિ": 7487,
      "કપરા": 7488,
      "ગવર્": 7489,
      "છરી": 7490,
      "ઝમ": 7491,
      "નગ": 7492,
      "નફા": 7493,
      "પછા": 7494,
      "બારા": 7495,
      "મંગા": 7496,
      "લબ": 7497,
      "લદ્": 7498,
      "વંચ": 7499,
      "વ્યાં": 7500,
      "સતી": 7501,
      "૪૯": 7502,
      "માપ": 7503,
      "વાગ": 7504,
      "છેઃ": 7505,
      "તાલ": 7506,
      "કોળી": 7507,
      "કાળો": 7508,
      "પર્ય": 7509,
      "મેથી": 7510,
      "મેચો": 7511,
      "પાડીને": 7512,
      "કારના": 7513,
      "વેરો": 7514,
      "હોબાળો": 7515,
      "લોકલ": 7516,
      "લોખંડ": 7517,
      "લેવાનો": 7518,
      "લેનાર": 7519,
      "બાજી": 7520,
      "જોડ": 7521,
      "યોગે": 7522,
      "એકમ": 7523,
      "ડીસા": 7524,
      "દેસાઈ": 7525,
      "િયાએ": 7526,
      "સુખી": 7527,
      "સુરેશ": 7528,
      "બેટ": 7529,
      "ચાંદ": 7530,
      "ખાત": 7531,
      "રિયો": 7532,
      "રિસો": 7533,
      "રિટેલ": 7534,
      "ડેપ્યુ": 7535,
      "પ્ટ": 7536,
      "શિય": 7537,
      "તરફે": 7538,
      "કોઈની": 7539,
      "રાખવાનો": 7540,
      "સમયના": 7541,
      "ટકાના": 7542,
      "ઉપરના": 7543,
      "જોવાનું": 7544,
      "ભાજપા": 7545,
      "સાંજના": 7546,
      "અંગેના": 7547,
      "સિંહની": 7548,
      "તૈનાત": 7549,
      "આગમન": 7550,
      "રૂપિયામાં": 7551,
      "નવીન": 7552,
      "નેતાઓએ": 7553,
      "મનપસંદ": 7554,
      "સાયબર": 7555,
      "ભેર": 7556,
      "યુવકે": 7557,
      "એનસીપી": 7558,
      "સ્તુત": 7559,
      "ફરિયાદી": 7560,
      "અપમાન": 7561,
      "પિતાની": 7562,
      "લ્સને": 7563,
      "અગાઉના": 7564,
      "સ્ટેશનના": 7565,
      "દાયકા": 7566,
      "ધ્ધા": 7567,
      "શિયાળામાં": 7568,
      "ચલાવતા": 7569,
      "વોર્ડમાં": 7570,
      "ગણાવી": 7571,
      "પાલનપુર": 7572,
      "પંચાયતની": 7573,
      "વિધાનસભામાં": 7574,
      "કોર્પોરેટર": 7575,
      "મૂલ્યાં": 7576,
      "જલદી": 7577,
      "ઠ્ઠા": 7578,
      "કાયદેસરની": 7579,
      "વસતી": 7580,
      "ગુલાબ": 7581,
      "શૈલીમાં": 7582,
      "સરખામણીએ": 7583,
      "લિસ્ટમાં": 7584,
      "રાજસ્થાનના": 7585,
      "સાબરમતી": 7586,
      "મેડીકલ": 7587,
      "પેકેજ": 7588,
      "બેટ્સમેન": 7589,
      "બારડોલી": 7590,
      "દીપિકા": 7591,
      "પાવડર": 7592,
      "લદ્દાખ": 7593,
      "RT": 7594,
      "kar": 7595,
      "ne": 7596,
      "oc": 7597,
      "ter": 7598,
      "આરા": 7599,
      "આદર": 7600,
      "ઇક": 7601,
      "એડવા": 7602,
      "ઓથો": 7603,
      "કમો": 7604,
      "ખવડા": 7605,
      "ઘડી": 7606,
      "ઘરોમાં": 7607,
      "ણ્ય": 7608,
      "પૅ": 7609,
      "બહુમ": 7610,
      "ભણા": 7611,
      "સઘન": 7612,
      "માએ": 7613,
      "મારુ": 7614,
      "કેવું": 7615,
      "સાસુ": 7616,
      "વિર": 7617,
      "પ્રસ્તુત": 7618,
      "ક્લાસ": 7619,
      "યાન": 7620,
      "પાઉન્ડ": 7621,
      "પાડોશી": 7622,
      "લીઓ": 7623,
      "મોની": 7624,
      "એકઠા": 7625,
      "ધીરજ": 7626,
      "દિવ્ય": 7627,
      "કીને": 7628,
      "બીના": 7629,
      "બીસી": 7630,
      "પેન્શન": 7631,
      "ગુમ": 7632,
      "ગુણો": 7633,
      "ડિલિવ": 7634,
      "ટિશ": 7635,
      "સ્થાનો": 7636,
      "સૌપ્રથમ": 7637,
      "વાદળી": 7638,
      "્સને": 7639,
      "નિર્દોષ": 7640,
      "સ્ટેજ": 7641,
      "કંપનીઓના": 7642,
      "પુરસ્કાર": 7643,
      "મેળવવામાં": 7644,
      "ફ્લાઇ": 7645,
      "આઈટી": 7646,
      "ચાલશે": 7647,
      "પતિએ": 7648,
      "ડૂબી": 7649,
      "વ્યવસ્થિત": 7650,
      "મનીષ": 7651,
      "ઇન્ડેક્સ": 7652,
      "વિકસિત": 7653,
      "પાકિસ્તાનને": 7654,
      "નવરાત્રી": 7655,
      "સ્ટાઇલ": 7656,
      "અગાઉથી": 7657,
      "મધ્યપ્રદેશ": 7658,
      "લક્ષ્યાં": 7659,
      "જન્મદિવસ": 7660,
      "એચડી": 7661,
      "ક્યાંય": 7662,
      "રાજયમાં": 7663,
      "અહેવાલો": 7664,
      "મથકમાં": 7665,
      "સેન્જર": 7666,
      "માળખું": 7667,
      "પૃષ્ઠ": 7668,
      "ગર્ભવતી": 7669,
      "કાળજીપૂર્વક": 7670,
      "વિરૂધ્ધ": 7671,
      "ભજવી": 7672,
      "પાઇપ": 7673,
      "નિરાશા": 7674,
      "હમણાં": 7675,
      "સગવડ": 7676,
      "સંયોજન": 7677,
      "કામકાજ": 7678,
      "ટંકારા": 7679,
      "થેરાપી": 7680,
      "વલ્લભ": 7681,
      "છંટકાવ": 7682,
      "ડેપ્યુટી": 7683,
      "54": 7684,
      "62": 7685,
      "69": 7686,
      "83": 7687,
      "AT": 7688,
      "અન્ન": 7689,
      "ઇશ": 7690,
      "ઉછે": 7691,
      "એડિ": 7692,
      "ઓમ": 7693,
      "ઓઇલ": 7694,
      "કમર": 7695,
      "કમન": 7696,
      "ચળ": 7697,
      "થું": 7698,
      "દને": 7699,
      "ધડા": 7700,
      "નકારી": 7701,
      "નડિયા": 7702,
      "પરાજય": 7703,
      "ફં": 7704,
      "ભડ": 7705,
      "રપ": 7706,
      "વત્": 7707,
      "વશો": 7708,
      "વડિયા": 7709,
      "ષો": 7710,
      "ષિત": 7711,
      "ેશ": 7712,
      "૪૩": 7713,
      "૭૮": 7714,
      "માથે": 7715,
      "કરની": 7716,
      "સ્કુ": 7717,
      "કેચ": 7718,
      "ટેન": 7719,
      "મેડ": 7720,
      "પાયલ": 7721,
      "નિકા": 7722,
      "નિવૃ": 7723,
      "સેમ": 7724,
      "િયાં": 7725,
      "રૂટ": 7726,
      "સિમેન્ટ": 7727,
      "મીઠી": 7728,
      "વર્તુ": 7729,
      "રિમાન્ડ": 7730,
      "પેટે": 7731,
      "પેન્દ્ર": 7732,
      "ચેન્ના": 7733,
      "શિખર": 7734,
      "બોન્ડ": 7735,
      "પિયન": 7736,
      "છોડા": 7737,
      "શોખ": 7738,
      "2011": 7739,
      "બિલા": 7740,
      "લુક": 7741,
      "યરની": 7742,
      "અમૂ": 7743,
      "અનુષ્": 7744,
      "વ્યક્તિત્વ": 7745,
      "પહોંચતા": 7746,
      "હોસ્પિટલની": 7747,
      "મણિ": 7748,
      "બંનેએ": 7749,
      "અભિષેક": 7750,
      "સ્ટોરી": 7751,
      "પૂરતા": 7752,
      "પાકિસ્તાને": 7753,
      "સંબંધમાં": 7754,
      "ગામડા": 7755,
      "મોરચા": 7756,
      "શરત": 7757,
      "પ્રમાણપત્ર": 7758,
      "હાર્ડ": 7759,
      "ન્યાયા": 7760,
      "ગાળાના": 7761,
      "સામાજીક": 7762,
      "નાખ્યો": 7763,
      "ધમધ": 7764,
      "ઉત્પાદક": 7765,
      "સંભાળી": 7766,
      "વ્રત": 7767,
      "યૂઝ": 7768,
      "નીકળ્યા": 7769,
      "ટેલિકોમ": 7770,
      "સહેજ": 7771,
      "ઇતિહાસમાં": 7772,
      "વૈજ્ઞાનિક": 7773,
      "વૈજ્ઞાનિકો": 7774,
      "એન્જિન": 7775,
      "અંકલેશ્વર": 7776,
      "નર્સિંગ": 7777,
      "મનુષ્ય": 7778,
      "ખેડુતો": 7779,
      "કાનૂની": 7780,
      "પાર્ટનર": 7781,
      "મમ્મી": 7782,
      "કમિશ્નર": 7783,
      "ભરૃચ": 7784,
      "',": 7785,
      "IM": 7786,
      "RP": 7787,
      "ow": 7788,
      "અવા": 7789,
      "અશક્ય": 7790,
      "અતુલ": 7791,
      "આડ": 7792,
      "ઈક": 7793,
      "જવર": 7794,
      "જસદ": 7795,
      "દહીં": 7796,
      "પંક": 7797,
      "મલે": 7798,
      "યાર્ડ": 7799,
      "વટે": 7800,
      "વંત": 7801,
      "ષડ": 7802,
      "હડ": 7803,
      "ેય": 7804,
      "૪૧": 7805,
      "૫૨": 7806,
      "માય": 7807,
      "માગી": 7808,
      "તાણ": 7809,
      "કોપ": 7810,
      "નોટો": 7811,
      "ન્ટેડ": 7812,
      "ટેક્ષ": 7813,
      "પાચન": 7814,
      "વેળા": 7815,
      "જેક્શન": 7816,
      "જોવી": 7817,
      "જીબી": 7818,
      "દેવાની": 7819,
      "સુનીલ": 7820,
      "દાની": 7821,
      "ક્ષર": 7822,
      "ણાંક": 7823,
      "દ્વી": 7824,
      "ધાના": 7825,
      "બીચ": 7826,
      "સોજો": 7827,
      "રાજસિંહ": 7828,
      "ટાંકી": 7829,
      "પેક": 7830,
      "પેરે": 7831,
      "કિરીટ": 7832,
      "દરમાં": 7833,
      "બોરે": 7834,
      "દ્રારા": 7835,
      "ફેલાઈ": 7836,
      "ટિવિ": 7837,
      "પરિણ": 7838,
      "દોડા": 7839,
      "ફોલો": 7840,
      "રાખંડ": 7841,
      "ન્સને": 7842,
      "ચોર": 7843,
      "ચોથી": 7844,
      "મૂં": 7845,
      "ઉત્સા": 7846,
      "તુર્": 7847,
      "ઝાં": 7848,
      "સિંહના": 7849,
      "મારામારી": 7850,
      "ધ્યાત્": 7851,
      "ચાલકો": 7852,
      "મનોહર": 7853,
      "વાયરસને": 7854,
      "ારામ": 7855,
      "લેખક": 7856,
      "સ્ટોલ": 7857,
      "કનેક્શન": 7858,
      "જોડાયેલ": 7859,
      "આરોપીઓને": 7860,
      "૧૯૯": 7861,
      "સદસ્ય": 7862,
      "નરમ": 7863,
      "નજીકથી": 7864,
      "ડ્રાય": 7865,
      "ક્રાંતિ": 7866,
      "ઠેકા": 7867,
      "પૂછવામાં": 7868,
      "નાખવામાં": 7869,
      "ઇન્ટરવ્યૂ": 7870,
      "નિયમોનું": 7871,
      "માધ્યમ": 7872,
      "માલિકો": 7873,
      "આવશ્યકતા": 7874,
      "નિષ્ફળતા": 7875,
      "તુલસી": 7876,
      "ફાઇનલ": 7877,
      "ઓર્ગે": 7878,
      "પ્રવક્તા": 7879,
      "વિભાગો": 7880,
      "બચ્ચન": 7881,
      "કન્ટેનર": 7882,
      "ક્વાર્ટરમાં": 7883,
      "ઈતિહાસ": 7884,
      "ઉછાળો": 7885,
      "ઉદ્ધવ": 7886,
      "ચુડાસમા": 7887,
      "બ્રાહ્મણ": 7888,
      "નૃત્ય": 7889,
      "77": 7890,
      "BI": 7891,
      "Bh": 7892,
      "ંખ": 7893,
      "અદ્": 7894,
      "ઇં": 7895,
      "કવાય": 7896,
      "છત્તી": 7897,
      "તમિલનાડુ": 7898,
      "ધવન": 7899,
      "ફફ": 7900,
      "ફૉ": 7901,
      "વસંત": 7902,
      "૫૪": 7903,
      "વાવ": 7904,
      "છેવટે": 7905,
      "સ્પ્રે": 7906,
      "કોસ્ટ": 7907,
      "કોલોની": 7908,
      "વિઝા": 7909,
      "પ્રસા": 7910,
      "જેમની": 7911,
      "રોનો": 7912,
      "હોતી": 7913,
      "નિર": 7914,
      "મોઢા": 7915,
      "લ્ટા": 7916,
      "જીવો": 7917,
      "સંચાર": 7918,
      "સુપ્રિ": 7919,
      "રૂખ": 7920,
      "સીમ": 7921,
      "ત્તર": 7922,
      "રાજનાથ": 7923,
      "ગુને": 7924,
      "ડિપાર્ટમેન્ટ": 7925,
      "પુર્વ": 7926,
      "ડેલી": 7927,
      "વ્યકત": 7928,
      "પિયો": 7929,
      "ખેંચા": 7930,
      "શોર્ટ": 7931,
      "કામની": 7932,
      "ફોડ": 7933,
      "રાખ્યા": 7934,
      "રાખશે": 7935,
      "ચોખા": 7936,
      "શ્રમિ": 7937,
      "શીપ": 7938,
      "મારવા": 7939,
      "રાજ્યપાલ": 7940,
      "ગ્રાન્ટ": 7941,
      "છાયા": 7942,
      "છાતી": 7943,
      "બુલેટ": 7944,
      "પ્રોફે": 7945,
      "મેળવે": 7946,
      "વ્યાસ": 7947,
      "ફ્લેટ": 7948,
      "મહિલાના": 7949,
      "મહિલાઓની": 7950,
      "આઈડી": 7951,
      "ચૂંટણીની": 7952,
      "ટ્રેક્ટર": 7953,
      "રાજકોટની": 7954,
      "ગ્લે": 7955,
      "ભેળ": 7956,
      "તાલુકાઓ": 7957,
      "એનર્જી": 7958,
      "વિભાગને": 7959,
      "લાલચ": 7960,
      "પાડ્યો": 7961,
      "સભ્યોની": 7962,
      "કુમારની": 7963,
      "દુનિયાની": 7964,
      "બ્રિટ": 7965,
      "ઢાંક": 7966,
      "એપ્રિલે": 7967,
      "ન્ટિંગ": 7968,
      "સૌરાષ્ટ્રના": 7969,
      "ભયંકર": 7970,
      "ટ્વીટર": 7971,
      "ફર્સ્ટ": 7972,
      "એકબીજાને": 7973,
      "ઢોર": 7974,
      "સ્ત્રોત": 7975,
      "ઝડપાયો": 7976,
      "ઉમટી": 7977,
      "મુલાકાતી": 7978,
      "એકત્રિત": 7979,
      "પ્રાઈવેટ": 7980,
      "આવેદનપત્ર": 7981,
      "લશ્કરી": 7982,
      "વિકાસના": 7983,
      "IPL": 7984,
      "એલાન": 7985,
      "જર્મની": 7986,
      "સાથોસાથ": 7987,
      "હિમાચલ": 7988,
      "વંચિત": 7989,
      "છત્તીસગઢ": 7990,
      "61": 7991,
      "98": 7992,
      "pm": 7993,
      "ra": 7994,
      "ri": 7995,
      "અન્ડર": 7996,
      "ઈના": 7997,
      "કપા": 7998,
      "કમ્પ્યુટર": 7999,
      "ગને": 8000,
      "જું": 8001,
      "ઝની": 8002,
      "થવો": 8003,
      "નર્સ": 8004,
      "પઠા": 8005,
      "મચાવી": 8006,
      "રથ": 8007,
      "વસે": 8008,
      "િયે": 8009,
      "૩૯": 8010,
      "માયા": 8011,
      "માંડી": 8012,
      "નીએ": 8013,
      "તાબેન": 8014,
      "કેપિ": 8015,
      "કેશો": 8016,
      "ભાભી": 8017,
      "રેટિંગ": 8018,
      "લેવાય": 8019,
      "પોપ": 8020,
      "જોધ": 8021,
      "યોને": 8022,
      "સેને": 8023,
      "બેંગ્": 8024,
      "સિન": 8025,
      "સિઝન": 8026,
      "મિટ": 8027,
      "મિસ": 8028,
      "વર્ધ": 8029,
      "વર્સ": 8030,
      "બીલ": 8031,
      "બીસીસી": 8032,
      "લિઝ": 8033,
      "ટાપુ": 8034,
      "ગુનામાં": 8035,
      "ડિવિઝન": 8036,
      "શિક્ષા": 8037,
      "બનાવતા": 8038,
      "પહેલું": 8039,
      "કરાયેલ": 8040,
      "2010": 8041,
      "શકતો": 8042,
      "પ્રેરિત": 8043,
      "પ્રોસે": 8044,
      "પુરવાર": 8045,
      "મહામંત્રી": 8046,
      "ફિટને": 8047,
      "મોટાભાગની": 8048,
      "આરબી": 8049,
      "ટ્રેનો": 8050,
      "ટ્રેન્ડ": 8051,
      "ચાલકે": 8052,
      "ગાંધીના": 8053,
      "મહેમાન": 8054,
      "ટ્રાન્": 8055,
      "લેખમાં": 8056,
      "તંત્રના": 8057,
      "યોજનાનો": 8058,
      "નવરાત્રિ": 8059,
      "ગણિત": 8060,
      "અનુભવો": 8061,
      "વાઇસ": 8062,
      "ડાઉનલોડ": 8063,
      "બોલ્યા": 8064,
      "ક્ષેત્રની": 8065,
      "માગતા": 8066,
      "ફાઈનલ": 8067,
      "થિયે": 8068,
      "કાઢવા": 8069,
      "માનીએ": 8070,
      "સન્માનિત": 8071,
      "અફવા": 8072,
      "સમિતિની": 8073,
      "ધૂળ": 8074,
      "ઓસ્ટ્રેલિયામાં": 8075,
      "કબજે": 8076,
      "સૂચનો": 8077,
      "સૂચવે": 8078,
      "આદત": 8079,
      "સ્કીમ": 8080,
      "નાઇટેડ": 8081,
      "ચાંદીના": 8082,
      "ંજલિ": 8083,
      "મોંઘી": 8084,
      "આફ્રિકા": 8085,
      "સમૃદ્ધિ": 8086,
      "અબ્દુલ": 8087,
      "સમર્પિત": 8088,
      "ફટાકડા": 8089,
      "સુશોભન": 8090,
      "ઉત્તરાખંડ": 8091,
      "હેલિકોપ્ટર": 8092,
      "em": 8093,
      "li": 8094,
      "આડે": 8095,
      "ઈં": 8096,
      "ખમ": 8097,
      "ખળ": 8098,
      "પકા": 8099,
      "પગે": 8100,
      "પડોશી": 8101,
      "મજૂરી": 8102,
      "રર": 8103,
      "રબારી": 8104,
      "શૅ": 8105,
      "સભર": 8106,
      "સનીય": 8107,
      "૨ા": 8108,
      "માસમાં": 8109,
      "કરૂ": 8110,
      "કાશી": 8111,
      "પ્રવી": 8112,
      "પ્રભારી": 8113,
      "ન્ડા": 8114,
      "હોસ્ટે": 8115,
      "શેઠ": 8116,
      "મોતી": 8117,
      "મોસમ": 8118,
      "ટીપી": 8119,
      "તીર્થ": 8120,
      "હીરા": 8121,
      "સુગંધ": 8122,
      "દાળ": 8123,
      "મુર": 8124,
      "થાઇ": 8125,
      "દીકરો": 8126,
      "પીએ": 8127,
      "સિક્કા": 8128,
      "ત્સ": 8129,
      "ખાઇ": 8130,
      "ખાવાનું": 8131,
      "હિમ": 8132,
      "શાસિત": 8133,
      "ધાતુ": 8134,
      "ડિફેન્સ": 8135,
      "યુકે": 8136,
      "ચેલે": 8137,
      "પરિચય": 8138,
      "કાર્યકર": 8139,
      "કાર્યક્ષમતા": 8140,
      "લુરુ": 8141,
      "પડવા": 8142,
      "અંકુશ": 8143,
      "ઉત્તે": 8144,
      "મારીને": 8145,
      "સૂકા": 8146,
      "સૂચન": 8147,
      "ભૂતિ": 8148,
      "બુલ": 8149,
      "પ્રેક્ષ": 8150,
      "બદલો": 8151,
      "કંપનીઓએ": 8152,
      "ફ્લાઇટ": 8153,
      "પંદર": 8154,
      "મેન્ટિક": 8155,
      "મળેલા": 8156,
      "નેતાઓને": 8157,
      "અહીંના": 8158,
      "મનપા": 8159,
      "રિકવરી": 8160,
      "નેટવર્": 8161,
      "હાઈકોર્ટે": 8162,
      "દુનિયાભરમાં": 8163,
      "સ્કૂલો": 8164,
      "ઝેર": 8165,
      "ers": 8166,
      "ગ્રેજ્યુ": 8167,
      "મુશ્કેલીમાં": 8168,
      "ફ્રન્ટ": 8169,
      "ઉમેદવારોને": 8170,
      "જાળવણી": 8171,
      "માળખા": 8172,
      "મુંબઇમાં": 8173,
      "ધર્મો": 8174,
      "બજેટમાં": 8175,
      "ગુલાબી": 8176,
      "સ્ટ્રિ": 8177,
      "ઊંચાઈ": 8178,
      "ફ્લોર": 8179,
      "સમીક્ષાઓ": 8180,
      "પુરવઠો": 8181,
      "acc": 8182,
      "સેક્ટરમાં": 8183,
      "આલ્બ": 8184,
      "ઘોષણા": 8185,
      "ઇચ્છે": 8186,
      "dia": 8187,
      "વસુલ": 8188,
      "નિરીક્ષણ": 8189,
      "શકયતા": 8190,
      "મજબુત": 8191,
      "Gujarati": 8192,
      "વોટ્સએપ": 8193,
      "માર્ગદર્શિકા": 8194,
      "63": 8195,
      "600": 8196,
      "89": 8197,
      "ID": 8198,
      "os": 8199,
      "આક્રો": 8200,
      "ઇસ્લા": 8201,
      "એસ્ટેટ": 8202,
      "ટર્મ": 8203,
      "નકલ": 8204,
      "ફરે": 8205,
      "ભં": 8206,
      "ભઠ્ઠી": 8207,
      "મ્યૂ": 8208,
      "૬૭": 8209,
      "નાખે": 8210,
      "સ્ડ": 8211,
      "રાવણ": 8212,
      "કાકડી": 8213,
      "ન્ડી": 8214,
      "પામેલા": 8215,
      "લેપ": 8216,
      "સેફ": 8217,
      "સેલે": 8218,
      "સંતા": 8219,
      "ડીઆર": 8220,
      "હાથી": 8221,
      "ગાઇડ": 8222,
      "ખાડા": 8223,
      "સરસ્વ": 8224,
      "સોયા": 8225,
      "કરવામા": 8226,
      "પેશી": 8227,
      "આવેલો": 8228,
      "ગ્રહો": 8229,
      "ડોને": 8230,
      "બોનસ": 8231,
      "ત્રીજો": 8232,
      "જુએ": 8233,
      "ગોવા": 8234,
      "પછીના": 8235,
      "ફર્યા": 8236,
      "બ્લુ": 8237,
      "પાસના": 8238,
      "ચિત્રો": 8239,
      "સ્ટેડિયમ": 8240,
      "પ્રતિષ્ઠ": 8241,
      "પ્રોગ્રા": 8242,
      "પ્રોપર્": 8243,
      "મેળવ્યો": 8244,
      "બનતી": 8245,
      "બનવાની": 8246,
      "ટ્રેનમાં": 8247,
      "પ્રિન્ટ": 8248,
      "108": 8249,
      "જરૃ": 8250,
      "હોસ્પિટલોમાં": 8251,
      "બંનેને": 8252,
      "બાળકોમાં": 8253,
      "મદદની": 8254,
      "યુવકની": 8255,
      "મામલા": 8256,
      "મંદિરે": 8257,
      "રંગના": 8258,
      "રંગની": 8259,
      "નવજાત": 8260,
      "ઘટાડ": 8261,
      "ત્રિમ": 8262,
      "ન્યુઝ": 8263,
      "પાલિકાના": 8264,
      "ધ્વજ": 8265,
      "સ્પેસ": 8266,
      "ચલાવે": 8267,
      "પૈસાની": 8268,
      "દેશોના": 8269,
      "બ્રિટિશ": 8270,
      "તારીખે": 8271,
      "દારૂનો": 8272,
      "રસ્તામાં": 8273,
      "ફેલાયો": 8274,
      "સંક્રમણને": 8275,
      "પુનરા": 8276,
      "ફેસબુ": 8277,
      "નાયક": 8278,
      "બિલ્ડીંગ": 8279,
      "હરાવી": 8280,
      "વેચવા": 8281,
      "સિદ્ધાર્થ": 8282,
      "જીલ્લામાં": 8283,
      "અંબાજી": 8284,
      "તાત્કાલીક": 8285,
      "વિપક્ષી": 8286,
      "રાજેન્દ્ર": 8287,
      "પર્યાપ્ત": 8288,
      "બિહારના": 8289,
      "બદલાવ": 8290,
      "ઉદ્દેશ": 8291,
      "બાતમીના": 8292,
      "મલ્ટી": 8293,
      "ચામડી": 8294,
      "ડ્રાઇવર": 8295,
      "તકેદારી": 8296,
      "માફક": 8297,
      "ation": 8298,
      "જરૂરિયાતો": 8299,
      "અયોધ્યામાં": 8300,
      "જયેશ": 8301,
      "કટોકટી": 8302,
      "પ્લસ": 8303,
      "સાવધાની": 8304,
      "બોટાદ": 8305,
      "હાલાકી": 8306,
      "સિલ્વર": 8307,
      "રેસ્ટોરાં": 8308,
      "મૂલ્યાંકન": 8309,
      "પ્રોફેસર": 8310,
      "\".": 8311,
      "73": 8312,
      "74": 8313,
      "IA": 8314,
      "hat": 8315,
      "ps": 8316,
      "અમારો": 8317,
      "આકરા": 8318,
      "ઇંગ": 8319,
      "ગરો": 8320,
      "ચટણી": 8321,
      "જડ": 8322,
      "ડ્યુ": 8323,
      "દત્": 8324,
      "દંત": 8325,
      "દમ્બર": 8326,
      "બર્થ": 8327,
      "ભરેલી": 8328,
      "ભરીને": 8329,
      "મહેર": 8330,
      "શનથી": 8331,
      "નેહા": 8332,
      "કરુ": 8333,
      "સ્તિક": 8334,
      "કેળા": 8335,
      "સાધુ": 8336,
      "કાદ": 8337,
      "વિયે": 8338,
      "વિદેશમાં": 8339,
      "ટેબ": 8340,
      "ટેન્ડર": 8341,
      "મેટિક": 8342,
      "પાપ": 8343,
      "રોમેન્ટિક": 8344,
      "રેગ્યુ": 8345,
      "મોર્ટ": 8346,
      "એકમો": 8347,
      "જીભ": 8348,
      "જીભાઇ": 8349,
      "સેનાની": 8350,
      "સંકુ": 8351,
      "સંકલ": 8352,
      "સંતાન": 8353,
      "ણાના": 8354,
      "દિવાલ": 8355,
      "ગાઢ": 8356,
      "સોનિયા": 8357,
      "મળતો": 8358,
      "વોલ્યુ": 8359,
      "યુનાઇટેડ": 8360,
      "રહેલું": 8361,
      "સ્તન": 8362,
      "કેટલાં": 8363,
      "ફેરી": 8364,
      "સારૂ": 8365,
      "જૂને": 8366,
      "ખોટ": 8367,
      "મતલબ": 8368,
      "ચિદમ્બર": 8369,
      "અનુસર": 8370,
      "ગ્રામીણ": 8371,
      "સ્તાન": 8372,
      "બુકિંગ": 8373,
      "પહોંચવા": 8374,
      "ઘાસ": 8375,
      "બીજાને": 8376,
      "બંનેના": 8377,
      "લેવાયા": 8378,
      "ભેજ": 8379,
      "યુવકને": 8380,
      "આપેલી": 8381,
      "વતની": 8382,
      "દાખલા": 8383,
      "રોગના": 8384,
      "અપાઇ": 8385,
      "ક્રિકેટમાં": 8386,
      "ન્યાયી": 8387,
      "રમવા": 8388,
      "દિવસોથી": 8389,
      "ફાઈલ": 8390,
      "પ્રોજેકટ": 8391,
      "દર્શાવવામાં": 8392,
      "સફળતાપૂર્વક": 8393,
      "એક્સપ્રેસ": 8394,
      "તેલંગા": 8395,
      "દેવાયો": 8396,
      "સંગઠનો": 8397,
      "કેરળમાં": 8398,
      "આતંકવાદ": 8399,
      "બિલ્ડર": 8400,
      "વર્ણન": 8401,
      "સંકેતો": 8402,
      "હૂં": 8403,
      "નાખીને": 8404,
      "મુસાફરોને": 8405,
      "રમેશ": 8406,
      "રાજસ્થાનમાં": 8407,
      "તેટલી": 8408,
      "ગામોમાં": 8409,
      "મંજુરી": 8410,
      "સંતુલન": 8411,
      "સમારોહમાં": 8412,
      "પંચાયતમાં": 8413,
      "સોંપી": 8414,
      "દિવ્યાંગ": 8415,
      "ડેવલપમેન્ટ": 8416,
      "ઝુંબે": 8417,
      "વળાંક": 8418,
      "પ્રવીણ": 8419,
      "સરસ્વતી": 8420,
      "53": 8421,
      "Ar": 8422,
      "CA": 8423,
      "Ch": 8424,
      "ec": 8425,
      "ev": 8426,
      "અહ": 8427,
      "આધ્યાત્": 8428,
      "ઉક": 8429,
      "એવુ": 8430,
      "કસો": 8431,
      "ગભરા": 8432,
      "જગા": 8433,
      "તળે": 8434,
      "દશ": 8435,
      "નહેર": 8436,
      "પપ્પા": 8437,
      "બૌ": 8438,
      "ભંડ": 8439,
      "ભક્ત": 8440,
      "લડવા": 8441,
      "વતું": 8442,
      "હક": 8443,
      "હસ્તા": 8444,
      "ોના": 8445,
      "૪૦૦": 8446,
      "૭૩": 8447,
      "વાસ્તુ": 8448,
      "નાસ્તા": 8449,
      "નીપ": 8450,
      "કેવો": 8451,
      "કાઓ": 8452,
      "રીઓ": 8453,
      "મેલે": 8454,
      "પાઉ": 8455,
      "જેડી": 8456,
      "જેમના": 8457,
      "રોયલ": 8458,
      "ભાવેશ": 8459,
      "જાદુ": 8460,
      "નિગ": 8461,
      "નિક્સ": 8462,
      "મોકલા": 8463,
      "જોયો": 8464,
      "તિવારી": 8465,
      "ડાએ": 8466,
      "પીવાની": 8467,
      "પીછો": 8468,
      "પીઆઇ": 8469,
      "દિપક": 8470,
      "દ્વિ": 8471,
      "મીટિંગ": 8472,
      "હિદ": 8473,
      "રાજપીપ": 8474,
      "ગુસ્સે": 8475,
      "પૂન": 8476,
      "ડિટી": 8477,
      "ડેડ": 8478,
      "શ્વ": 8479,
      "બંદૂ": 8480,
      "શિલા": 8481,
      "શિંગ": 8482,
      "અન્યા": 8483,
      "ફેડ": 8484,
      "ળીમાં": 8485,
      "ફામ": 8486,
      "દોને": 8487,
      "જન્ય": 8488,
      "મુખી": 8489,
      "ભાઈના": 8490,
      "અંજામ": 8491,
      "અનુરોધ": 8492,
      "પાણીનું": 8493,
      "સર્જાય": 8494,
      "ટકાવારી": 8495,
      "ભૂગર્ભ": 8496,
      "પ્રતિસાદ": 8497,
      "આપણું": 8498,
      "કેન્દ્રની": 8499,
      "બહારના": 8500,
      "પ્રકારનાં": 8501,
      "પડેલી": 8502,
      "એલસીબી": 8503,
      "માતાના": 8504,
      "રંગા": 8505,
      "જીતવા": 8506,
      "જીત્યો": 8507,
      "પાર્ટીએ": 8508,
      "નોંધવું": 8509,
      "રોધક": 8510,
      "ચૂક્યો": 8511,
      "પાછળના": 8512,
      "લાયસન્સ": 8513,
      "થોડાક": 8514,
      "સમાજને": 8515,
      "2008": 8516,
      "બોર્ડના": 8517,
      "મ્યુચ્યુઅલ": 8518,
      "ક્ષેત્રના": 8519,
      "આપણાં": 8520,
      "મૂક્યો": 8521,
      "પ્રકાશમાં": 8522,
      "જંગલમાં": 8523,
      "ગાયબ": 8524,
      "મુદ્દાઓ": 8525,
      "ઝડપાયા": 8526,
      "દરોડો": 8527,
      "રસોઇ": 8528,
      "કહેવાયું": 8529,
      "બગડી": 8530,
      "ભજવે": 8531,
      "મજાક": 8532,
      "દસ્તાવેજ": 8533,
      "ચોમાસામાં": 8534,
      "અફઘાનિસ્તાન": 8535,
      "કંઇક": 8536,
      "ક્લાસિક": 8537,
      "નિપજ્યું": 8538,
      "કેજરીવાલ": 8539,
      "તજવીજ": 8540,
      "ગંદકી": 8541,
      "ઝારખંડ": 8542,
      "પેશાબ": 8543,
      "અસંખ્ય": 8544,
      "કેમિકલ": 8545,
      "વેન્ટિલેટર": 8546,
      "ડિલિવરી": 8547,
      "પ્રતિષ્ઠિત": 8548,
      "81": 8549,
      "આજીવન": 8550,
      "ઈઓ": 8551,
      "એલિ": 8552,
      "કયાં": 8553,
      "ગાર્": 8554,
      "ઙ્": 8555,
      "ટાર્": 8556,
      "ઠુ": 8557,
      "તપ": 8558,
      "ફાર": 8559,
      "બરી": 8560,
      "ભળા": 8561,
      "મસ્તી": 8562,
      "વખાણ": 8563,
      "ષભ": 8564,
      "સૃ": 8565,
      "હર્": 8566,
      "૭૭": 8567,
      "વારિક": 8568,
      "વાંસ": 8569,
      "નાક": 8570,
      "નાટ": 8571,
      "નાનું": 8572,
      "નામુ": 8573,
      "માંડીને": 8574,
      "છેક": 8575,
      "તેણીએ": 8576,
      "કેલિ": 8577,
      "લાલા": 8578,
      "લાવશે": 8579,
      "કોરા": 8580,
      "કોમો": 8581,
      "પ્રતાપ": 8582,
      "પરસે": 8583,
      "હેમત": 8584,
      "હેલ્પ": 8585,
      "જાં": 8586,
      "જાસૂ": 8587,
      "ંગે": 8588,
      "લેષણ": 8589,
      "નિરાશ": 8590,
      "નિભાવી": 8591,
      "પોત": 8592,
      "જોડે": 8593,
      "એકલ": 8594,
      "તીન": 8595,
      "સંજીવ": 8596,
      "હાસ્ય": 8597,
      "બેસા": 8598,
      "દીધુ": 8599,
      "પીસી": 8600,
      "સીય": 8601,
      "સરની": 8602,
      "ધાને": 8603,
      "ટાળવા": 8604,
      "પેસેન્જર": 8605,
      "તમામને": 8606,
      "ગુડ": 8607,
      "ડિસ": 8608,
      "કિલ્લા": 8609,
      "પુણે": 8610,
      "ડેન": 8611,
      "ચેકિંગ": 8612,
      "આપતો": 8613,
      "માનતા": 8614,
      "શિશુ": 8615,
      "વધુને": 8616,
      "ફેલાય": 8617,
      "ફેડર": 8618,
      "શોભા": 8619,
      "કોરોનાનું": 8620,
      "ચોટી": 8621,
      "ચોકમાં": 8622,
      "મહિન્દ્રા": 8623,
      "ધોવા": 8624,
      "લાકડા": 8625,
      "કાયમ": 8626,
      "પાસેના": 8627,
      "પહોચ": 8628,
      "સિંચાઈ": 8629,
      "પહોંચશે": 8630,
      "લાખના": 8631,
      "આરંભ": 8632,
      "ધ્યાય": 8633,
      "ર્મલ": 8634,
      "અહીંથી": 8635,
      "સારવારમાં": 8636,
      "કૃત્રિમ": 8637,
      "સંખ્યાબંધ": 8638,
      "પિતાના": 8639,
      "રાખીએ": 8640,
      "એન્જી": 8641,
      "શરીરની": 8642,
      "સભ્યોએ": 8643,
      "ટુર્નામેન્ટ": 8644,
      "પ્રીત": 8645,
      "બ્રિટી": 8646,
      "યુવતીઓ": 8647,
      "દારૂના": 8648,
      "બેંકમાં": 8649,
      "ભૂતકાળ": 8650,
      "ગઢવી": 8651,
      "જઇને": 8652,
      "રમાશે": 8653,
      "સ્પર્ધામાં": 8654,
      "દરિયામાં": 8655,
      "વિપક્ષના": 8656,
      "એજ્યુ": 8657,
      "જોગવાઇ": 8658,
      "વિગતવાર": 8659,
      "ભિન્ન": 8660,
      "માઈક્રો": 8661,
      "ડ્રાઈવ": 8662,
      "શહેરીજનો": 8663,
      "કસ્ટમ": 8664,
      "કિંમતો": 8665,
      "વ્હીલર": 8666,
      "એસોસિએશન": 8667,
      "અગત્યનું": 8668,
      "ભરોસો": 8669,
      "રોગચાળા": 8670,
      "બાંગ્લાદેશ": 8671,
      "તલાટી": 8672,
      "સ્પોર્ટ્સ": 8673,
      "તોફાની": 8674,
      "પ્રકરણમાં": 8675,
      "સિઝનમાં": 8676,
      "સ્ટુડ": 8677,
      "હડતાળ": 8678,
      "પુછપરછ": 8679,
      "સિલિન્ડર": 8680,
      "જીતેન્દ્ર": 8681,
      "પારિવારિક": 8682,
      "એક્સચેન્જ": 8683,
      "જબરદસ્ત": 8684,
      "ડાયાબિટીસ": 8685,
      "આનંદી": 8686,
      "પ્રસન્ન": 8687,
      "એપિસો": 8688,
      "બહુમતી": 8689,
      "ષડયંત્ર": 8690,
      "આદુ": 8691,
      "ઉન": 8692,
      "જતું": 8693,
      "ઝવે": 8694,
      "ઠલ": 8695,
      "બલ્": 8696,
      "બર્ડ": 8697,
      "બસમાં": 8698,
      "ભગત": 8699,
      "મિયા": 8700,
      "સસરા": 8701,
      "૦૯": 8702,
      "૨ી": 8703,
      "૬૪": 8704,
      "’.": 8705,
      "મારૂ": 8706,
      "માધવ": 8707,
      "નાર્": 8708,
      "નારો": 8709,
      "છેડતી": 8710,
      "રાએ": 8711,
      "કોણે": 8712,
      "રીયલ": 8713,
      "ન્ઝ": 8714,
      "ટેકની": 8715,
      "પાડા": 8716,
      "પાછું": 8717,
      "લોજિ": 8718,
      "લેબોરે": 8719,
      "યોજી": 8720,
      "િયાને": 8721,
      "સુનિશ્ચિત": 8722,
      "હાણે": 8723,
      "બેફામ": 8724,
      "મુહૂ": 8725,
      "થાઓ": 8726,
      "પીંડી": 8727,
      "સિધ્ધ": 8728,
      "મિલ્": 8729,
      "સમ્": 8730,
      "ગ્રસ્તો": 8731,
      "ડિપોઝિ": 8732,
      "કિસ": 8733,
      "બોગ": 8734,
      "મ્બે": 8735,
      "ફેફસા": 8736,
      "ટોળ": 8737,
      "દુલ્": 8738,
      "કરાવ્યા": 8739,
      "કરાવવાની": 8740,
      "ફોડી": 8741,
      "ચોખ્": 8742,
      "ભાઈઓ": 8743,
      "સૌર": 8744,
      "સૌને": 8745,
      "પડતું": 8746,
      "ખોટો": 8747,
      "ચિંત": 8748,
      "શક્યું": 8749,
      "જયપુર": 8750,
      "જયંતી": 8751,
      "ક્સમાં": 8752,
      "ભાઇના": 8753,
      "માર્ચે": 8754,
      "થયાત્રા": 8755,
      "મહિલાની": 8756,
      "લાઈવ": 8757,
      "ખાતેથી": 8758,
      "ઇન્સ્ટિ": 8759,
      "ગ્ન": 8760,
      "યુવરાજ": 8761,
      "ટ્રોફી": 8762,
      "જગ્યામાં": 8763,
      "રંગે": 8764,
      "માંગરો": 8765,
      "ખાનને": 8766,
      "ઘટાડા": 8767,
      "એક્સેસ": 8768,
      "આરોપીએ": 8769,
      "સમસ્યાને": 8770,
      "અર્ધ": 8771,
      "સભ્યોને": 8772,
      "ઉદય": 8773,
      "શાહરૂખ": 8774,
      "૧૫૦": 8775,
      "હાઇકોર્ટ": 8776,
      "એફસી": 8777,
      "2009": 8778,
      "મ્યુઝિક": 8779,
      "ઘેરી": 8780,
      "દારોને": 8781,
      "મંડળના": 8782,
      "મજબૂર": 8783,
      "સિંગર": 8784,
      "અગ્રવાલ": 8785,
      "સુખદ": 8786,
      "શહેરો": 8787,
      "ભાવનગરમાં": 8788,
      "સંઘના": 8789,
      "વાયરસથી": 8790,
      "વાયરસનો": 8791,
      "ડોલરની": 8792,
      "સંભવ": 8793,
      "કેલરી": 8794,
      "સપ્તાહે": 8795,
      "કલ્ચર": 8796,
      "રજાઓ": 8797,
      "દિવાળીના": 8798,
      "ફોર્મે": 8799,
      "દુકાનમાં": 8800,
      "ગુલામ": 8801,
      "પીએસઆઇ": 8802,
      "મોડેલો": 8803,
      "ખોલવા": 8804,
      "ગોળીઓ": 8805,
      "બ્રહ્મા": 8806,
      "લોકડાઉનના": 8807,
      "ટોચની": 8808,
      "time": 8809,
      "સાર્વ": 8810,
      "પુષ્કળ": 8811,
      "જરુર": 8812,
      "વિસ્ફોટ": 8813,
      "દ્રષ્ટિએ": 8814,
      "ગર્ભાશય": 8815,
      "બોલિવૂડમાં": 8816,
      "ચર્ચ": 8817,
      "કેટેગરીમાં": 8818,
      "તસ્કરો": 8819,
      "ઓકટો": 8820,
      "રત્ન": 8821,
      "દરજ્જો": 8822,
      "વ્યાવસાયિક": 8823,
      "નિવૃત્ત": 8824,
      "પ્રોપર્ટી": 8825,
      "એજ્યુકેશન": 8826,
      "67": 8827,
      "84": 8828,
      "IST": 8829,
      "TV": 8830,
      "hi": 8831,
      "ંદી": 8832,
      "અવિ": 8833,
      "આજી": 8834,
      "આઘાત": 8835,
      "ઇટ": 8836,
      "ઉડ": 8837,
      "ગના": 8838,
      "ઘડિયા": 8839,
      "ચડ": 8840,
      "ચક્કર": 8841,
      "છવાઈ": 8842,
      "જસ": 8843,
      "ઝલ": 8844,
      "બાર્": 8845,
      "રડ": 8846,
      "રવી": 8847,
      "રમક": 8848,
      "લારી": 8849,
      "લડાઇ": 8850,
      "સ્રો": 8851,
      "સસ્તી": 8852,
      "૬૩": 8853,
      "૮૫": 8854,
      "નાટક": 8855,
      "તેલા": 8856,
      "રાઉ": 8857,
      "રાને": 8858,
      "કેન": 8859,
      "થીમ": 8860,
      "વિસાવ": 8861,
      "મેટલ": 8862,
      "લેતી": 8863,
      "બાના": 8864,
      "મોર્": 8865,
      "એકપણ": 8866,
      "જીયાત": 8867,
      "ડીલ": 8868,
      "દેશા": 8869,
      "આવકમાં": 8870,
      "િયાની": 8871,
      "િયાનમાં": 8872,
      "હાના": 8873,
      "ખાનના": 8874,
      "સરમાં": 8875,
      "બીન": 8876,
      "સોદા": 8877,
      "ટાયર": 8878,
      "વોડા": 8879,
      "ચેકીંગ": 8880,
      "ઉપસ્થિતિમાં": 8881,
      "અનન્ય": 8882,
      "જુની": 8883,
      "કુમ": 8884,
      "કુમારી": 8885,
      "કોઈના": 8886,
      "સ્થાપક": 8887,
      "ધિરાણ": 8888,
      "ફરતા": 8889,
      "સૌંદર": 8890,
      "જવાન": 8891,
      "ચિંતિ": 8892,
      "નિર્ણા": 8893,
      "સર્વા": 8894,
      "કંપનીઓની": 8895,
      "વચ્ચેનો": 8896,
      "પાર્ટ": 8897,
      "સ્વરાજ": 8898,
      "મેળવીને": 8899,
      "નિયમન": 8900,
      "ફિલ": 8901,
      "શ્રીમતી": 8902,
      "દિલ્લી": 8903,
      "ટ્ટો": 8904,
      "પતિની": 8905,
      "ક્રિષ્": 8906,
      "જન્મેલા": 8907,
      "મનમોહન": 8908,
      "સાયણ": 8909,
      "અરબ": 8910,
      "લગાવ્યા": 8911,
      "લગાવીને": 8912,
      "પક્ષમાં": 8913,
      "ધન્ય": 8914,
      "આગળના": 8915,
      "દેવની": 8916,
      "વિશ્વભરમાં": 8917,
      "ઘટાડી": 8918,
      "જ્ઞાતિ": 8919,
      "નોંધવામાં": 8920,
      "પરેશાની": 8921,
      "અવગણ": 8922,
      "લખન": 8923,
      "લખવામાં": 8924,
      "લેન્ડર": 8925,
      "મધ્યમાં": 8926,
      "સ્કૂલના": 8927,
      "અર્થમાં": 8928,
      "એન્ડ્રો": 8929,
      "ક્રોનિક": 8930,
      "ખેલાડીઓને": 8931,
      "ચિંતાજનક": 8932,
      "ભરાયા": 8933,
      "શૈલેષ": 8934,
      "રાજ્યોની": 8935,
      "એપ્રિલના": 8936,
      "est": 8937,
      "સ્ટાફને": 8938,
      "પ્રતિબંધિત": 8939,
      "નવેમ્બરે": 8940,
      "સેન્ટરમાં": 8941,
      "સિવિલમાં": 8942,
      "વાજબી": 8943,
      "બોલીવ": 8944,
      "સમજવું": 8945,
      "દુર્લભ": 8946,
      "અદાણી": 8947,
      "સાહસ": 8948,
      "પદ્ધતિઓ": 8949,
      "દરવાજો": 8950,
      "પ્રેમીઓ": 8951,
      "પથારી": 8952,
      "ઈજાગ્રસ્ત": 8953,
      "રસોડામાં": 8954,
      "શબ્દોમાં": 8955,
      "ઉનાળામાં": 8956,
      "આકર્ષિત": 8957,
      "ફાર્મા": 8958,
      "ગૂગલ": 8959,
      "નાઇટ": 8960,
      "પેટ્રોલિંગ": 8961,
      "સમયગાળામાં": 8962,
      "નિરાકરણ": 8963,
      "2017માં": 8964,
      "સોફ્ટવેર": 8965,
      "શ્રાવણ": 8966,
      "કબૂલાત": 8967,
      "ખર્ચાળ": 8968,
      "રેમડે": 8969,
      "પ્રતીક": 8970,
      "પ્રવાસે": 8971,
      "લૉકડાઉન": 8972,
      "સ્મારક": 8973,
      "કાલાવડ": 8974,
      "બુટલે": 8975,
      "રિસોર્ટ": 8976,
      "ખળભળા": 8977,
      "શૅર": 8978,
      "access": 8979,
      "hats": 8980,
      "લેબોરેટરી": 8981,
      "ખળભળાટ": 8982,
      "130": 8983,
      "86": 8984,
      "BS": 8985,
      "HO": 8986,
      "IT": 8987,
      "Whats": 8988,
      "_time": 8989,
      "અડા": 8990,
      "અમારું": 8991,
      "આસા": 8992,
      "ઇમરજન્સી": 8993,
      "એલો": 8994,
      "કથી": 8995,
      "કઢા": 8996,
      "ડાર્ક": 8997,
      "ઢે": 8998,
      "તત્કા": 8999,
      "દશા": 9000,
      "ફકત": 9001,
      "ફગાવી": 9002,
      "બક": 9003,
      "બૂટ": 9004,
      "મૃ": 9005,
      "રૈયા": 9006,
      "હવાઈ": 9007,
      "્ડ": 9008,
      "૪૬": 9009,
      "માહી": 9010,
      "માળીયા": 9011,
      "નાખો": 9012,
      "તાજી": 9013,
      "રાવલ": 9014,
      "કેતન": 9015,
      "લાવવાની": 9016,
      "કોમેડી": 9017,
      "નોર": 9018,
      "રીય": 9019,
      "ટેલા": 9020,
      "પરસ્": 9021,
      "યાજી": 9022,
      "રેસ્ક": 9023,
      "નિવૃત્તિ": 9024,
      "પોષ": 9025,
      "બાપ": 9026,
      "તોના": 9027,
      "મોન": 9028,
      "સેશન": 9029,
      "સેતુ": 9030,
      "ડીવી": 9031,
      "આવકાર": 9032,
      "સુરે": 9033,
      "દાવ": 9034,
      "દાવે": 9035,
      "દાંડી": 9036,
      "બેને": 9037,
      "મુદા": 9038,
      "દીપક": 9039,
      "સીમમાં": 9040,
      "ખાણી": 9041,
      "ખાવાની": 9042,
      "સમયા": 9043,
      "બીપી": 9044,
      "રિન": 9045,
      "લિય": 9046,
      "ટાં": 9047,
      "ક્રમમાં": 9048,
      "ડેપો": 9049,
      "રહેશો": 9050,
      "શ્મી": 9051,
      "દેશનું": 9052,
      "મ્સમાં": 9053,
      "છોટા": 9054,
      "બાદથી": 9055,
      "ખેતર": 9056,
      "શોએ": 9057,
      "શોપિંગ": 9058,
      "સ્થામાં": 9059,
      "કરાવે": 9060,
      "કહું": 9061,
      "ચીમકી": 9062,
      "કાર્યમાં": 9063,
      "મહિનાના": 9064,
      "જણાવતા": 9065,
      "ખોદ": 9066,
      "મારતા": 9067,
      "ટકાની": 9068,
      "ંડુ": 9069,
      "સ્ટેડિય": 9070,
      "કેસનો": 9071,
      "શુષ્": 9072,
      "માણસને": 9073,
      "મહાનગર": 9074,
      "કોંગ્રેસી": 9075,
      "તરફી": 9076,
      "વ્યક્તિનું": 9077,
      "ઘરમાંથી": 9078,
      "નિકળ": 9079,
      "વિસ્તારને": 9080,
      "ઇનકાર": 9081,
      "તપાસની": 9082,
      "ચૂંટણીને": 9083,
      "ગાંધીધામ": 9084,
      "નેતાઓની": 9085,
      "નોંધાયું": 9086,
      "નોંધાયેલા": 9087,
      "આંશિક": 9088,
      "અહીંયા": 9089,
      "દર્દીની": 9090,
      "વરસાદથી": 9091,
      "પાંચમી": 9092,
      "એનજી": 9093,
      "૧૦૮": 9094,
      "નવલ": 9095,
      "અપલોડ": 9096,
      "કતાર": 9097,
      "કાંઈ": 9098,
      "વિજયભાઇ": 9099,
      "નીચેની": 9100,
      "જઈએ": 9101,
      "યોજાનાર": 9102,
      "મૃત્યુઆંક": 9103,
      "રસીના": 9104,
      "પરીક્ષાઓ": 9105,
      "રાહુલે": 9106,
      "સ્કૂટર": 9107,
      "રવિવાર": 9108,
      "મિનિટમાં": 9109,
      "સૈનિક": 9110,
      "કાયદાના": 9111,
      "કોલેજના": 9112,
      "એનાથી": 9113,
      "ગણાતા": 9114,
      "કમાન્ડ": 9115,
      "કમાન્ડર": 9116,
      "અહેમદ": 9117,
      "ફ્રેમ": 9118,
      "લડત": 9119,
      "વધારવામાં": 9120,
      "યુવાને": 9121,
      "મિશ્રા": 9122,
      "નીકળતા": 9123,
      "હાઉસિંગ": 9124,
      "લોકપ્રિયતા": 9125,
      "બિલકુલ": 9126,
      "કેમ્પમાં": 9127,
      "કાપીને": 9128,
      "સાંભળવા": 9129,
      "હેતુથી": 9130,
      "શ્રદ્ધાળુ": 9131,
      "ધારાસભ્યોને": 9132,
      "વનારો": 9133,
      "ખુલાસા": 9134,
      "હરીફ": 9135,
      "સંજોગો": 9136,
      "મહત્ત્વની": 9137,
      "આત્મનિર્ભર": 9138,
      "યુરોપિયન": 9139,
      "બોટલો": 9140,
      "ડબલ્યુ": 9141,
      "બહાને": 9142,
      "તુરંત": 9143,
      "હેન્ડલ": 9144,
      "મહંત": 9145,
      "હાનિકારક": 9146,
      "પ્રીમિયમ": 9147,
      "અન્વયે": 9148,
      "માઉન્ટ": 9149,
      "સર્વોચ્ચ": 9150,
      "અરુણ": 9151,
      "આશિષ": 9152,
      "અનુષ્કા": 9153,
      "આધ્યાત્મિક": 9154,
      "ફેડરલ": 9155,
      "access_time": 9156,
      "GB": 9157,
      "IC": 9158,
      "ંછ": 9159,
      "અયોગ્ય": 9160,
      "અવત": 9161,
      "આયોગ": 9162,
      "ઇવેન્ટ": 9163,
      "ઈની": 9164,
      "ઉકે": 9165,
      "ઓમાંથી": 9166,
      "ઓઈલ": 9167,
      "કલો": 9168,
      "ઘર્": 9169,
      "છલ": 9170,
      "જ્યા": 9171,
      "ઝવણ": 9172,
      "ણને": 9173,
      "બલે": 9174,
      "ર્ય": 9175,
      "રઘુ": 9176,
      "રથયાત્રા": 9177,
      "વહા": 9178,
      "સ્યુ": 9179,
      "હ્ર": 9180,
      "૧ર": 9181,
      "માપદ": 9182,
      "વાલમાં": 9183,
      "રામા": 9184,
      "ર્શિયલ": 9185,
      "કોન": 9186,
      "સાના": 9187,
      "સાચો": 9188,
      "સામૂ": 9189,
      "કાચા": 9190,
      "પ્રશાંત": 9191,
      "પ્રસરી": 9192,
      "વીમો": 9193,
      "પાયા": 9194,
      "પાકને": 9195,
      "લીલ": 9196,
      "જાનથી": 9197,
      "શેરોમાં": 9198,
      "લેવ": 9199,
      "તોમાં": 9200,
      "લ્ફ": 9201,
      "જોવું": 9202,
      "એકસ": 9203,
      "સેક્સી": 9204,
      "દાદી": 9205,
      "પીટ": 9206,
      "પીવા": 9207,
      "દિકરી": 9208,
      "દ્દીન": 9209,
      "ગાંગુ": 9210,
      "ંતરે": 9211,
      "વર્તા": 9212,
      "શાસક": 9213,
      "મળતું": 9214,
      "લિયમ": 9215,
      "કરવાને": 9216,
      "ક્રૂડ": 9217,
      "ગુલ": 9218,
      "વોર્": 9219,
      "ગ્રૂપ": 9220,
      "ડિસ્ક": 9221,
      "કિનારા": 9222,
      "ડેમમાં": 9223,
      "ડેવિડ": 9224,
      "રહેલો": 9225,
      "રહેવાનું": 9226,
      "અનંત": 9227,
      "ગેશન": 9228,
      "મ્પર": 9229,
      "ફાટ": 9230,
      "ચારા": 9231,
      "સામેના": 9232,
      "વન્યુ": 9233,
      "ચોંકી": 9234,
      "સમયગાળો": 9235,
      "કાર્યકારી": 9236,
      "શ્રો": 9237,
      "શીખી": 9238,
      "જવાથી": 9239,
      "એસઓ": 9240,
      "મતદા": 9241,
      "બાળપણ": 9242,
      "દારને": 9243,
      "ભરવામાં": 9244,
      "ખુલ્લે": 9245,
      "ફિલ્મને": 9246,
      "ર્સમાં": 9247,
      "રોજના": 9248,
      "અધિકારો": 9249,
      "નિયત": 9250,
      "જ્વેલ": 9251,
      "રૂપિયાથી": 9252,
      "વિશ્લેષણ": 9253,
      "પંપ": 9254,
      "ટ્રેડિંગ": 9255,
      "હોસ્પિટલો": 9256,
      "૨૦૧૫": 9257,
      "મહેસૂ": 9258,
      "લેવાના": 9259,
      "પત્નિ": 9260,
      "માતાએ": 9261,
      "યોજનાના": 9262,
      "વિચારધારા": 9263,
      "વિશ્વસનીય": 9264,
      "પદના": 9265,
      "આયોજીત": 9266,
      "ઠીયા": 9267,
      "બ્રાંચ": 9268,
      "રોગપ્રતિકારક": 9269,
      "વુડમાં": 9270,
      "કૂતરા": 9271,
      "અપાશે": 9272,
      "પ્રક્રિયાને": 9273,
      "કહીએ": 9274,
      "હત્યાનો": 9275,
      "અર્થવ્યવસ્થા": 9276,
      "કાયદાકીય": 9277,
      "વિશ્વાસઘાત": 9278,
      "કન્ટ્રોલ": 9279,
      "સ્પર્શ": 9280,
      "આવકવેરા": 9281,
      "હુમલાની": 9282,
      "સહાયક": 9283,
      "ઉપાયો": 9284,
      "વધારવાની": 9285,
      "કેસોની": 9286,
      "જાળવવા": 9287,
      "પાનખર": 9288,
      "યુનિવર્સિટીમાં": 9289,
      "સમર્થનમાં": 9290,
      "ડિઝાઇ": 9291,
      "વંશ": 9292,
      "ફ્રાસ્ટ્ર": 9293,
      "તહેવા": 9294,
      "સપ્ટેમ્બરના": 9295,
      "વેસ્ટમેન્ટ": 9296,
      "2019માં": 9297,
      "ઇજાગ્રસ્ત": 9298,
      "મૂકીને": 9299,
      "હોટલમાં": 9300,
      "બિહારમાં": 9301,
      "પ્રતિનિધિત્વ": 9302,
      "વાલીઓ": 9303,
      "ઈન્ટરનેશનલ": 9304,
      "askar": 9305,
      "વૈજ્ઞાનિ": 9306,
      "મોંઘા": 9307,
      "ડ્રાઇવ": 9308,
      "છેતરપીંડી": 9309,
      "પ્રોડક્ટ્સ": 9310,
      "ટ્યુબ": 9311,
      "એમ્પ્લો": 9312,
      "સફરજન": 9313,
      "અટકળો": 9314,
      "આંચકા": 9315,
      "ઇન્જેક્શન": 9316,
      "હોદ્દેદારો": 9317,
      "દુશ્મનો": 9318,
      "ભયાનક": 9319,
      "ફોટોગ્રાફ": 9320,
      "ધોધમાર": 9321,
      "સિદ્ધાંત": 9322,
      "શૌચાલય": 9323,
      "શિલ્પા": 9324,
      "ઓથોરિટી": 9325,
      "પંકજ": 9326,
      "કવાયત": 9327,
      "ફફડાટ": 9328,
      "ડોનેશિયા": 9329,
      "ટાર્ગેટ": 9330,
      "સૌંદર્ય": 9331,
      "ચિંતિત": 9332,
      "સામૂહિક": 9333,
      "82": 9334,
      "87": 9335,
      "GST": 9336,
      "News": 9337,
      "SP": 9338,
      "ost": 9339,
      "ut": 9340,
      "અકાઉન્ટ": 9341,
      "આતો": 9342,
      "આતુર": 9343,
      "ઈઝ": 9344,
      "ઈનિંગ": 9345,
      "ઉગા": 9346,
      "ઉચ્ચાર": 9347,
      "એકર": 9348,
      "જયા": 9349,
      "જહેમત": 9350,
      "ડભો": 9351,
      "તંગી": 9352,
      "દારે": 9353,
      "પચા": 9354,
      "ફની": 9355,
      "બત": 9356,
      "બલિ": 9357,
      "ભજન": 9358,
      "મટી": 9359,
      "રૈ": 9360,
      "રૉ": 9361,
      "લૅ": 9362,
      "સૉ": 9363,
      "૬૧": 9364,
      "વાઘા": 9365,
      "વાઇન": 9366,
      "નાસ્તો": 9367,
      "નીર": 9368,
      "સ્કર": 9369,
      "સ્વર્ગ": 9370,
      "રાફેલ": 9371,
      "લાડ": 9372,
      "લાંગ": 9373,
      "લાબેન": 9374,
      "વિગેરે": 9375,
      "વિવેક": 9376,
      "પ્રથા": 9377,
      "પ્રદુ": 9378,
      "મેજ": 9379,
      "મેહુ": 9380,
      "મેલન": 9381,
      "પાયો": 9382,
      "લીટી": 9383,
      "પણું": 9384,
      "ભાનુ": 9385,
      "જાના": 9386,
      "જામાં": 9387,
      "લોર": 9388,
      "નિયુક્ત": 9389,
      "બાજ": 9390,
      "જોવાની": 9391,
      "તિન": 9392,
      "સંસ્ક": 9393,
      "રૂપી": 9394,
      "હાન": 9395,
      "હાજી": 9396,
      "ણાની": 9397,
      "દીવા": 9398,
      "દીકરીને": 9399,
      "દીવાલ": 9400,
      "મિલન": 9401,
      "વધ્યા": 9402,
      "સમજુ": 9403,
      "શાલ": 9404,
      "ટાળ": 9405,
      "ટાઇલ": 9406,
      "પેલા": 9407,
      "ક્રમાં": 9408,
      "કિમ": 9409,
      "પ્તા": 9410,
      "શિવા": 9411,
      "વરસી": 9412,
      "છોકરો": 9413,
      "કરાયુ": 9414,
      "ફોનની": 9415,
      "બિરાજ": 9416,
      "દિવસનો": 9417,
      "દિવસનું": 9418,
      "સ્ટેશનો": 9419,
      "કંપનીને": 9420,
      "મોટાભાગે": 9421,
      "આઈઆર": 9422,
      "આઈપીએસ": 9423,
      "દિલ્હીથી": 9424,
      "જીવનને": 9425,
      "અધિકારીને": 9426,
      "અધિકારીની": 9427,
      "ત્રાસવા": 9428,
      "બેઠો": 9429,
      "વૃદ્ધા": 9430,
      "ફીટ": 9431,
      "આઇડી": 9432,
      "આઇસી": 9433,
      "ઇન્સ્પે": 9434,
      "લેવાથી": 9435,
      "સ્ટાન્ડ": 9436,
      "ધુમા": 9437,
      "એક્ટિંગ": 9438,
      "કર્મચારીઓના": 9439,
      "ચર્ચાઓ": 9440,
      "શક્યતાઓ": 9441,
      "વૈયા": 9442,
      "વૈકલ્": 9443,
      "પાડ્યા": 9444,
      "લેન્ડમાં": 9445,
      "બ્રાન્": 9446,
      "યોજાયેલ": 9447,
      "હાઈકોર્ટમાં": 9448,
      "ચલાવવા": 9449,
      "સાઈડ": 9450,
      "સામ્રા": 9451,
      "પરિસ્થિતિને": 9452,
      "ક્રોધ": 9453,
      "ઘોં": 9454,
      "રાજ્યોને": 9455,
      "બ્રેરી": 9456,
      "સ્પર્ધ": 9457,
      "બાળકનું": 9458,
      "જંગી": 9459,
      "બોલાચાલી": 9460,
      "મૂલ્યો": 9461,
      "ભૂમિકામાં": 9462,
      "ઓપરેટ": 9463,
      "એજન્સીઓ": 9464,
      "યુવાનને": 9465,
      "શૂન્ય": 9466,
      "ધર્મના": 9467,
      "બંગાળના": 9468,
      "અલ્ટ્રા": 9469,
      "ગણતરીના": 9470,
      "વસતા": 9471,
      "પ્રકાશન": 9472,
      "પોલિસ": 9473,
      "બજાવતા": 9474,
      "લખીને": 9475,
      "નિવેદનો": 9476,
      "કેનાલ": 9477,
      "તેટલું": 9478,
      "તેણીને": 9479,
      "નેતૃત્વમાં": 9480,
      "યુઝર્સ": 9481,
      "નિમણૂંક": 9482,
      "રજીસ્ટ્રેશન": 9483,
      "છુટકારો": 9484,
      "તુલનામાં": 9485,
      "આરએસએસ": 9486,
      "નીપજ્યું": 9487,
      "મુદત": 9488,
      "કેલ્શિયમ": 9489,
      "પ્લેસમેન્ટ": 9490,
      "મલેશિયા": 9491,
      "ફિટનેસ": 9492,
      "ચેલેન્જ": 9493,
      "બૌદ્ધ": 9494,
      "અન્યાય": 9495,
      "ઘર્ષણ": 9496,
      "ત્રાસવાદી": 9497,
      "વૈકલ્પિક": 9498,
      "Div": 9499,
      "SC": 9500,
      "અપક્ષ": 9501,
      "અમીર": 9502,
      "અસાધારણ": 9503,
      "આસ્થા": 9504,
      "આમંત્ર": 9505,
      "ઇમ્": 9506,
      "ઈંગ": 9507,
      "ઉતા": 9508,
      "ઉંચ": 9509,
      "એડી": 9510,
      "એટેક": 9511,
      "ઔર": 9512,
      "ઔપચારિક": 9513,
      "કમળ": 9514,
      "કનુ": 9515,
      "કહાની": 9516,
      "ખ્રિ": 9517,
      "ઘટે": 9518,
      "ચણ": 9519,
      "ટૉ": 9520,
      "તડ": 9521,
      "તલાક": 9522,
      "થર": 9523,
      "દઈ": 9524,
      "નમા": 9525,
      "પારે": 9526,
      "પસી": 9527,
      "બચ્": 9528,
      "મૉ": 9529,
      "શત": 9530,
      "સયાજી": 9531,
      "૯૪": 9532,
      "નાજુ": 9533,
      "છેકે": 9534,
      "નીરવ": 9535,
      "સ્થી": 9536,
      "લાવ્યા": 9537,
      "કોમ્પ": 9538,
      "સાપ": 9539,
      "વિશ્ર્": 9540,
      "પ્રણ": 9541,
      "પ્રત": 9542,
      "પ્રદાય": 9543,
      "ટેશન": 9544,
      "ટેન્શન": 9545,
      "વેક્સી": 9546,
      "રોજી": 9547,
      "હોલ્ડ": 9548,
      "રેસિ": 9549,
      "લેજ": 9550,
      "બાઉ": 9551,
      "બામાં": 9552,
      "આવવું": 9553,
      "સુષ્": 9554,
      "ડાયો": 9555,
      "ડાભી": 9556,
      "રૂમની": 9557,
      "ણીયા": 9558,
      "હાહા": 9559,
      "સિમ": 9560,
      "ખાનામાં": 9561,
      "હિર": 9562,
      "હિરો": 9563,
      "વર્ગો": 9564,
      "સોલા": 9565,
      "સોનલ": 9566,
      "રિયન": 9567,
      "ટાવર": 9568,
      "તમાકુ": 9569,
      "વોચ": 9570,
      "યુર": 9571,
      "ડેસ્ક": 9572,
      "ડેલ્ટા": 9573,
      "રહેવાનો": 9574,
      "આપની": 9575,
      "સ્તું": 9576,
      "વારાણ": 9577,
      "દિવસીય": 9578,
      "ટિક્સ": 9579,
      "શોના": 9580,
      "શોને": 9581,
      "ફાન": 9582,
      "ચીજો": 9583,
      "વાતનો": 9584,
      "લાકડી": 9585,
      "જાણકારો": 9586,
      "પ્રેમની": 9587,
      "રોજિ": 9588,
      "તરીકેની": 9589,
      "મેળવ્યા": 9590,
      "વ્યક્તિઓને": 9591,
      "જારા": 9592,
      "ધ્યક્ષ": 9593,
      "પકડવા": 9594,
      "વાયદો": 9595,
      "નોંધાઇ": 9596,
      "મોતનો": 9597,
      "મૃતકના": 9598,
      "વિદ્યાર્થીઓના": 9599,
      "માતાને": 9600,
      "દેખાઇ": 9601,
      "બનાવમાં": 9602,
      "રંગમાં": 9603,
      "યોજનાને": 9604,
      "બાબતની": 9605,
      "સ્ટોરેજ": 9606,
      "પૂરતો": 9607,
      "પૂરતું": 9608,
      "ઘરેલુ": 9609,
      "ટ્સમાં": 9610,
      "ઈન્સ્ટાગ્રામ": 9611,
      "કામગીરીમાં": 9612,
      "આરોગ્યની": 9613,
      "અવકાશ": 9614,
      "રોકડા": 9615,
      "ચલાવવામાં": 9616,
      "નોકરીની": 9617,
      "2007": 9618,
      "બાકીની": 9619,
      "ક્રોસ": 9620,
      "ગેરરી": 9621,
      "તૈયારીમાં": 9622,
      "વેપારીઓને": 9623,
      "વ્યવસાયમાં": 9624,
      "હળદર": 9625,
      "તાજેતરના": 9626,
      "નાખ્યું": 9627,
      "બોલાવવામાં": 9628,
      "ગુમાવ્યા": 9629,
      "વર્ગના": 9630,
      "ઉંમરમાં": 9631,
      "સપ્ટેમ્બરે": 9632,
      "માથાના": 9633,
      "વંશી": 9634,
      "ફ્રાય": 9635,
      "ઘનશ્યામ": 9636,
      "મકાઈ": 9637,
      "પહેરવા": 9638,
      "મરીન": 9639,
      "ઓગસ્ટના": 9640,
      "આતંકવાદીઓ": 9641,
      "ગૂંચ": 9642,
      "આશ્ચર્યજનક": 9643,
      "વિદ્યાલય": 9644,
      "દાસજી": 9645,
      "ક્લિનિકલ": 9646,
      "સણખો": 9647,
      "ક્વોલિ": 9648,
      "ડિસ્ચાર્જ": 9649,
      "2018માં": 9650,
      "ભૂકંપના": 9651,
      "સ્પોટ": 9652,
      "પથ્થરમારો": 9653,
      "ગઠબંધન": 9654,
      "યાર્ડમાં": 9655,
      "મચ્છર": 9656,
      "ગુપ્તા": 9657,
      "ચૂંટાયેલા": 9658,
      "બેંગલુરુ": 9659,
      "ગુન્હો": 9660,
      "ભૌતિક": 9661,
      "બજારોમાં": 9662,
      "ગર્લફ્રેન્ડ": 9663,
      "એમ્બ્યુલન્સ": 9664,
      "નિવારણ": 9665,
      "પદાધિકારી": 9666,
      "લક્ષ્યાંક": 9667,
      "Bhaskar": 9668,
      "સંકલન": 9669,
      "કસોટી": 9670,
      "હસ્તાક્ષર": 9671,
      "બોગસ": 9672,
      "સ્ટાન્ડર્ડ": 9673,
      "Divya": 9674,
      "01": 9675,
      "92": 9676,
      "ly": 9677,
      "od": 9678,
      "અઘ": 9679,
      "અમારે": 9680,
      "એસીબી": 9681,
      "એશિયન": 9682,
      "કઠ": 9683,
      "કશ્મીર": 9684,
      "ખની": 9685,
      "ગારે": 9686,
      "ઝટકો": 9687,
      "ઠપ": 9688,
      "નતા": 9689,
      "મશરૂ": 9690,
      "રન્સ": 9691,
      "રતન": 9692,
      "હરે": 9693,
      "૩૭૦": 9694,
      "૫૧": 9695,
      "૫૭": 9696,
      "૮૪": 9697,
      "માવ": 9698,
      "વાવણી": 9699,
      "્રપાન": 9700,
      "તેવુ": 9701,
      "તાળા": 9702,
      "કેળ": 9703,
      "કેવા": 9704,
      "કોષ્ટ": 9705,
      "કોમ્યુનિ": 9706,
      "સાબુ": 9707,
      "કાઇ": 9708,
      "વિખ્યાત": 9709,
      "રીપોર્ટ": 9710,
      "પ્રગ": 9711,
      "પ્રૂ": 9712,
      "ન્ની": 9713,
      "ટેપ": 9714,
      "પાસા": 9715,
      "રોન": 9716,
      "ભાન": 9717,
      "હોં": 9718,
      "નિપ": 9719,
      "પોપટ": 9720,
      "જોત": 9721,
      "ટી20": 9722,
      "ટીમનો": 9723,
      "ટીપાં": 9724,
      "જીયા": 9725,
      "સેફ્ટી": 9726,
      "સંમત": 9727,
      "દેવાઈ": 9728,
      "ણીઓ": 9729,
      "બેર": 9730,
      "બેલેન્સ": 9731,
      "પીઆઈ": 9732,
      "સિડી": 9733,
      "ગાબ": 9734,
      "ગાજર": 9735,
      "મીમી": 9736,
      "મિનલ": 9737,
      "શાસ્ત્રો": 9738,
      "પેઇ": 9739,
      "યુએ": 9740,
      "રહેણાંક": 9741,
      "ડોકટર": 9742,
      "વરણી": 9743,
      "પિયર": 9744,
[...]
