{
  "version": "1.0",
  "truncation": null,
  "padding": null,
  "added_tokens": [
    {
      "id": 0,
      "content": "[UNK]",
      "single_word": false,
      "lstrip": false,
      "rstrip": false,
      "normalized": false,
      "special": true
    },
    {
      "id": 1,
      "content": "[PAD]",
      "single_word": false,
      "lstrip": false,
      "rstrip": false,
      "normalized": false,
      "special": true
    },
    {
      "id": 2,
      "content": "[BOS]",
      "single_word": false,
      "lstrip": false,
      "rstrip": false,
      "normalized": false,
      "special": true
    },
    {
      "id": 3,
      "content": "[EOS]",
      "single_word": false,
      "lstrip": false,
      "rstrip": false,
      "normalized": false,
      "special": true
    }
  ],
  "normalizer": {
    "type": "NFC"
  },
  "pre_tokenizer": {
    "type": "Whitespace"
  },
  "post_processor": null,
  "decoder": null,
  "model": {
    "type": "BPE",
    "dropout": null,
    "unk_token": "[UNK]",
    "continuing_subword_prefix": null,
    "end_of_word_suffix": null,
    "fuse_unk": false,
    "byte_fallback": false,
    "ignore_merges": false,
    "vocab": {
      "[UNK]": 0,
      "[PAD]": 1,
      "[BOS]": 2,
      "[EOS]": 3,
      "!": 4,
      "\"": 5,
      "#": 6,
      "$": 7,
      "%": 8,
      "&": 9,
      "'": 10,
      "(": 11,
      ")": 12,
      "*": 13,
      "+": 14,
      ",": 15,
      "-": 16,
      ".": 17,
      "/": 18,
      "0": 19,
      "1": 20,
      "2": 21,
      "3": 22,
      "4": 23,
      "5": 24,
      "6": 25,
      "7": 26,
      "8": 27,
      "9": 28,
      ":": 29,
      ";": 30,
      "<": 31,
      "=": 32,
      ">": 33,
      "?": 34,
      "@": 35,
      "A": 36,
      "B": 37,
      "C": 38,
      "D": 39,
      "E": 40,
      "F": 41,
      "G": 42,
      "H": 43,
      "I": 44,
      "J": 45,
      "K": 46,
      "L": 47,
      "M": 48,
      "N": 49,
      "O": 50,
      "P": 51,
      "Q": 52,
      "R": 53,
      "S": 54,
      "T": 55,
      "U": 56,
      "V": 57,
      "W": 58,
      "X": 59,
      "Y": 60,
      "Z": 61,
      "[": 62,
      "\\": 63,
      "]": 64,
      "^": 65,
      "_": 66,
      "`": 67,
      "a": 68,
      "b": 69,
      "c": 70,
      "d": 71,
      "e": 72,
      "f": 73,
      "g": 74,
      "h": 75,
      "i": 76,
      "j": 77,
      "k": 78,
      "l": 79,
      "m": 80,
      "n": 81,
      "o": 82,
      "p": 83,
      "q": 84,
      "r": 85,
      "s": 86,
      "t": 87,
      "u": 88,
      "v": 89,
      "w": 90,
      "x": 91,
      "y": 92,
      "z": 93,
      "{": 94,
      "|": 95,
      "}": 96,
      "~": 97,
      "": 98,
      "": 99,
      "": 100,
      "": 101,
      "": 102,
      "": 103,
      "£": 104,
      "¤": 105,
      "¥": 106,
      "§": 107,
      "¨": 108,
      "©": 109,
      "«": 110,
      "¬": 111,
      "­": 112,
      "®": 113,
      "°": 114,
      "±": 115,
      "²": 116,
      "³": 117,
      "µ": 118,
      "·": 119,
      "¹": 120,
      "º": 121,
      "»": 122,
      "¼": 123,
      "½": 124,
      "¾": 125,
      "¿": 126,
      "À": 127,
      "Â": 128,
      "Ä": 129,
      "Å": 130,
      "Æ": 131,
      "Ç": 132,
      "È": 133,
      "É": 134,
      "Ê": 135,
      "Ì": 136,
      "Î": 137,
      "Ñ": 138,
      "×": 139,
      "Ù": 140,
      "Ú": 141,
      "Ý": 142,
      "Þ": 143,
      "ß": 144,
      "à": 145,
      "á": 146,
      "â": 147,
      "ã": 148,
      "ä": 149,
      "å": 150,
      "æ": 151,
      "ç": 152,
      "è": 153,
      "é": 154,
      "ê": 155,
      "ë": 156,
      "í": 157,
      "î": 158,
      "ï": 159,
      "ð": 160,
      "ñ": 161,
      "ò": 162,
      "ó": 163,
      "ô": 164,
      "õ": 165,
      "ö": 166,
      "÷": 167,
      "ú": 168,
      "û": 169,
      "ü": 170,
      "þ": 171,
      "ā": 172,
      "č": 173,
      "ě": 174,
      "ğ": 175,
      "ī": 176,
      "ı": 177,
      "ń": 178,
      "ō": 179,
      "ő": 180,
      "Ś": 181,
      "ş": 182,
      "š": 183,
      "ū": 184,
      "Ź": 185,
      "ǐ": 186,
      "ɑ": 187,
      "ɔ": 188,
      "ə": 189,
      "ɪ": 190,
      "ʃ": 191,
      "ˈ": 192,
      "ː": 193,
      "˗": 194,
      "˚": 195,
      "˜": 196,
      "̃": 197,
      "̊": 198,
      "Α": 199,
      "Δ": 200,
      "Μ": 201,
      "Ψ": 202,
      "ί": 203,
      "α": 204,
      "β": 205,
      "ε": 206,
      "ζ": 207,
      "η": 208,
      "θ": 209,
      "ι": 210,
      "κ": 211,
      "λ": 212,
      "μ": 213,
      "ν": 214,
      "ξ": 215,
      "ο": 216,
      "π": 217,
      "ρ": 218,
      "σ": 219,
      "τ": 220,
      "υ": 221,
      "φ": 222,
      "ω": 223,
      "А": 224,
      "В": 225,
      "С": 226,
      "а": 227,
      "б": 228,
      "в": 229,
      "г": 230,
      "д": 231,
      "е": 232,
      "з": 233,
      "и": 234,
      "й": 235,
      "к": 236,
      "л": 237,
      "м": 238,
      "н": 239,
      "о": 240,
      "п": 241,
      "р": 242,
      "с": 243,
      "т": 244,
      "у": 245,
      "х": 246,
      "ч": 247,
      "щ": 248,
      "ъ": 249,
      "ы": 250,
      "ь": 251,
      "ю": 252,
      "я": 253,
      "і": 254,
      "إ": 255,
      "ئ": 256,
      "ا": 257,
      "ة": 258,
      "ت": 259,
      "ج": 260,
      "ح": 261,
      "د": 262,
      "ر": 263,
      "س": 264,
      "ف": 265,
      "ق": 266,
      "ل": 267,
      "م": 268,
      "ن": 269,
      "ه": 270,
      "و": 271,
      "ي": 272,
      "َ": 273,
      "ِ": 274,
      "ْ": 275,
      "پ": 276,
      "ک": 277,
      "گ": 278,
      "ہ": 279,
      "ی": 280,
      "ँ": 281,
      "ं": 282,
      "ः": 283,
      "अ": 284,
      "आ": 285,
      "इ": 286,
      "ई": 287,
      "उ": 288,
      "ऊ": 289,
      "ऋ": 290,
      "ए": 291,
      "ओ": 292,
      "औ": 293,
      "क": 294,
      "ख": 295,
      "ग": 296,
      "घ": 297,
      "ङ": 298,
      "च": 299,
      "छ": 300,
      "ज": 301,
      "झ": 302,
      "ञ": 303,
      "ट": 304,
      "ड": 305,
      "ढ": 306,
      "ण": 307,
      "त": 308,
      "थ": 309,
      "द": 310,
      "ध": 311,
      "न": 312,
      "प": 313,
      "फ": 314,
      "ब": 315,
      "भ": 316,
      "म": 317,
      "य": 318,
      "र": 319,
      "ल": 320,
      "ळ": 321,
      "व": 322,
      "श": 323,
      "ष": 324,
      "स": 325,
      "ह": 326,
      "़": 327,
      "ऽ": 328,
      "ा": 329,
      "ि": 330,
      "ी": 331,
      "ु": 332,
      "ू": 333,
      "ृ": 334,
      "ॅ": 335,
      "े": 336,
      "ै": 337,
      "ॉ": 338,
      "ो": 339,
      "ौ": 340,
      "्": 341,
      "ॐ": 342,
      "।": 343,
      "॥": 344,
      "०": 345,
      "२": 346,
      "३": 347,
      "४": 348,
      "७": 349,
      "॰": 350,
      "ং": 351,
      "আ": 352,
      "ক": 353,
      "গ": 354,
      "চ": 355,
      "জ": 356,
      "ট": 357,
      "ড": 358,
      "ণ": 359,
      "ত": 360,
      "দ": 361,
      "ন": 362,
      "ম": 363,
      "র": 364,
      "শ": 365,
      "স": 366,
      "হ": 367,
      "়": 368,
      "া": 369,
      "ি": 370,
      "ী": 371,
      "ু": 372,
      "ৃ": 373,
      "ে": 374,
      "ো": 375,
      "্": 376,
      "ৰ": 377,
      "ৱ": 378,
      "੨": 379,
      "ઁ": 380,
      "ં": 381,
      "ઃ": 382,
      "અ": 383,
      "આ": 384,
      "ઇ": 385,
      "ઈ": 386,
      "ઉ": 387,
      "ઊ": 388,
      "ઋ": 389,
      "ઍ": 390,
      "એ": 391,
      "ઐ": 392,
      "ઑ": 393,
      "ઓ": 394,
      "ઔ": 395,
      "ક": 396,
      "ખ": 397,
      "ગ": 398,
      "ઘ": 399,
      "ઙ": 400,
      "ચ": 401,
      "છ": 402,
      "જ": 403,
      "ઝ": 404,
      "ઞ": 405,
      "ટ": 406,
      "ઠ": 407,
      "ડ": 408,
      "ઢ": 409,
      "ણ": 410,
      "ત": 411,
      "થ": 412,
      "દ": 413,
      "ધ": 414,
      "ન": 415,
      "પ": 416,
      "ફ": 417,
      "બ": 418,
      "ભ": 419,
      "મ": 420,
      "ય": 421,
      "ર": 422,
      "઱": 423,
      "લ": 424,
      "ળ": 425,
      "વ": 426,
      "શ": 427,
      "ષ": 428,
      "સ": 429,
      "હ": 430,
      "઼": 431,
      "ઽ": 432,
      "ા": 433,
      "િ": 434,
      "ી": 435,
      "ુ": 436,
      "ૂ": 437,
      "ૃ": 438,
      "ૄ": 439,
      "ૅ": 440,
      "ે": 441,
      "ૈ": 442,
      "ૉ": 443,
      "ો": 444,
      "ૌ": 445,
      "્": 446,
      "ૐ": 447,
      "ૠ": 448,
      "ૢ": 449,
      "૤": 450,
      "૦": 451,
      "૧": 452,
      "૨": 453,
      "૩": 454,
      "૪": 455,
      "૫": 456,
      "૬": 457,
      "૭": 458,
      "૮": 459,
      "૯": 460,
      "૱": 461,
      "૳": 462,
      "૴": 463,
      "ନ": 464,
      "ବ": 465,
      "ଭ": 466,
      "ର": 467,
      "ଶ": 468,
      "ୁ": 469,
      "େ": 470,
      "୍": 471,
      "ୱ": 472,
      "ச": 473,
      "ர": 474,
      "ழ": 475,
      "ோ": 476,
      "்": 477,
      "త": 478,
      "ప": 479,
      "భ": 480,
      "మ": 481,
      "ష": 482,
      "హ": 483,
      "ి": 484,
      "ూ": 485,
      "ే": 486,
      "్": 487,
      "ἐ": 488,
      "‎": 489,
      "–": 490,
      "—": 491,
      "‘": 492,
      "’": 493,
      "‚": 494,
      "‛": 495,
      "“": 496,
      "”": 497,
      "†": 498,
      "•": 499,
      "…": 500,
      "‪": 501,
      "‬": 502,
      "′": 503,
      "″": 504,
      "‹": 505,
      "⁠": 506,
      "€": 507,
      "₹": 508,
      "№": 509,
      "™": 510,
      "←": 511,
      "↑": 512,
      "→": 513,
      "⇓": 514,
      "−": 515,
      "√": 516,
      "≈": 517,
      "≤": 518,
      "⓿": 519,
      "▪": 520,
      "▲": 521,
      "►": 522,
      "◆": 523,
      "○": 524,
      "●": 525,
      "★": 526,
      "☔": 527,
      "☞": 528,
      "☺": 529,
      "♡": 530,
      "♦": 531,
      "♲": 532,
      "⚫": 533,
      "⛳": 534,
      "✓": 535,
      "✔": 536,
      "✖": 537,
      "❣": 538,
      "❤": 539,
      "➡": 540,
      "➢": 541,
      "⦁": 542,
      "⬛": 543,
      "⭕": 544,
      "、": 545,
      "【": 546,
      "】": 547,
      "〒": 548,
      "〖": 549,
      "〗": 550,
      "ア": 551,
      "ゲ": 552,
      "ナ": 553,
      "リ": 554,
      "ン": 555,
      "㎡": 556,
      "七": 557,
      "三": 558,
      "中": 559,
      "京": 560,
      "人": 561,
      "仏": 562,
      "佛": 563,
      "共": 564,
      "北": 565,
      "华": 566,
      "卐": 567,
      "合": 568,
      "同": 569,
      "和": 570,
      "国": 571,
      "國": 572,
      "夕": 573,
      "大": 574,
      "娜": 575,
      "子": 576,
      "学": 577,
      "安": 578,
      "宝": 579,
      "戈": 580,
      "東": 581,
      "棚": 582,
      "機": 583,
      "止": 584,
      "武": 585,
      "民": 586,
      "狮": 587,
      "獅": 588,
      "琵": 589,
      "琶": 590,
      "略": 591,
      "胡": 592,
      "菩": 593,
      "華": 594,
      "萄": 595,
      "萨": 596,
      "葡": 597,
      "薩": 598,
      "語": 599,
      "連": 600,
      "酪": 601,
      "際": 602,
      "": 603,
      "": 604,
      "": 605,
      "": 606,
      "": 607,
      "": 608,
      "": 609,
      "": 610,
      "️": 611,
      "（": 612,
      "，": 613,
      "／": 614,
      "：": 615,
      "｜": 616,
      "ﾍ": 617,
      "ﾗ": 618,
      "ﾠ": 619,
      "�": 620,
      "🍁": 621,
      "🍉": 622,
      "🍋": 623,
      "🍎": 624,
      "🍚": 625,
      "🎹": 626,
      "🎼": 627,
      "🏥": 628,
      "👈": 629,
      "👉": 630,
      "👍": 631,
      "👏": 632,
      "👣": 633,
      "💁": 634,
      "💐": 635,
      "💦": 636,
      "💫": 637,
      "📌": 638,
      "📱": 639,
      "📸": 640,
      "🔘": 641,
      "🔱": 642,
      "🔲": 643,
      "🕸": 644,
      "😀": 645,
      "😁": 646,
      "😊": 647,
      "😋": 648,
      "😲": 649,
      "😳": 650,
      "🙂": 651,
      "🙏": 652,
      "🚤": 653,
      "🚩": 654,
      "🤔": 655,
      "🥑": 656,
      "મા": 657,
      "વા": 658,
      "ના": 659,
      "્ય": 660,
      "ને": 661,
      "માં": 662,
      "્ર": 663,
      "ાર": 664,
      "છે": 665,
      "ની": 666,
      "કર": 667,
      "ું": 668,
      "તા": 669,
      "તે": 670,
      "સ્": 671,
      "રા": 672,
      "ર્": 673,
      "કે": 674,
      "લા": 675,
      "થી": 676,
      "અને": 677,
      "કો": 678,
      "સા": 679,
      "નો": 680,
      "કા": 681,
      "વિ": 682,
      "રી": 683,
      "પ્ર": 684,
      "ન્": 685,
      "ક્": 686,
      "ટે": 687,
      "્યા": 688,
      "પર": 689,
      "હત": 690,
      "યા": 691,
      "વી": 692,
      "મે": 693,
      "હે": 694,
      "પા": 695,
      "કાર": 696,
      "વે": 697,
      "જે": 698,
      "લી": 699,
      "રો": 700,
      "પણ": 701,
      "જા": 702,
      "ભા": 703,
      "ત્ર": 704,
      "હો": 705,
      "ંગ": 706,
      "રે": 707,
      "શે": 708,
      "લો": 709,
      "લે": 710,
      "માટે": 711,
      "નિ": 712,
      "બા": 713,
      "કરી": 714,
      "પો": 715,
      "વામાં": 716,
      "નું": 717,
      "લ્": 718,
      "મો": 719,
      "જો": 720,
      "તો": 721,
      "યો": 722,
      "તિ": 723,
      "એક": 724,
      "ટી": 725,
      "જી": 726,
      "્યો": 727,
      "્યું": 728,
      "તી": 729,
      "સે": 730,
      "સં": 731,
      "હી": 732,
      "આવ": 733,
      "ડી": 734,
      "િયા": 735,
      "સુ": 736,
      "દે": 737,
      "ડા": 738,
      "રૂ": 739,
      "ણી": 740,
      "દા": 741,
      "હા": 742,
      "થે": 743,
      "તેમ": 744,
      "ણા": 745,
      "બે": 746,
      "ક્ષ": 747,
      "મુ": 748,
      "પી": 749,
      "ધી": 750,
      "સાથે": 751,
      "દી": 752,
      "ારે": 753,
      "થા": 754,
      "સી": 755,
      "ગા": 756,
      "મી": 757,
      "ત્": 758,
      "દિ": 759,
      "દ્": 760,
      "સિ": 761,
      "હતી": 762,
      "ખા": 763,
      "ચા": 764,
      "હિ": 765,
      "સર": 766,
      "સ્ટ": 767,
      "વધ": 768,
      "મિ": 769,
      "વર્": 770,
      "ંત": 771,
      "ણે": 772,
      "સમ": 773,
      "શા": 774,
      "ધા": 775,
      "બી": 776,
      "કી": 777,
      "સો": 778,
      "મળ": 779,
      "ટા": 780,
      "રિ": 781,
      "કરવા": 782,
      "હતા": 783,
      "આપ": 784,
      "લિ": 785,
      "રાજ": 786,
      "ટ્ર": 787,
      "રહ": 788,
      "હતો": 789,
      "ક્ર": 790,
      "નથી": 791,
      "ત્ય": 792,
      "આવે": 793,
      "શન": 794,
      "વાર": 795,
      "ગુ": 796,
      "તમા": 797,
      "પૂ": 798,
      "વો": 799,
      "દર": 800,
      "આવી": 801,
      "લોકો": 802,
      "ડિ": 803,
      "ગ્ર": 804,
      "રહે": 805,
      "યુ": 806,
      "પુ": 807,
      "ષ્": 808,
      "ડે": 809,
      "કિ": 810,
      "યે": 811,
      "કરવામાં": 812,
      "પે": 813,
      "ારી": 814,
      "શ્": 815,
      "ચે": 816,
      "હતું": 817,
      "પ્": 818,
      "દેશ": 819,
      "ાર્": 820,
      "સ્ત": 821,
      "ન્ટ": 822,
      "મં": 823,
      "માન": 824,
      "બં": 825,
      "ડો": 826,
      "્યુ": 827,
      "ગી": 828,
      "વર્ષ": 829,
      "શિ": 830,
      "બો": 831,
      "હોય": 832,
      "ળા": 833,
      "વારા": 834,
      "છી": 835,
      "ભાર": 836,
      "દ્વારા": 837,
      "ંચ": 838,
      "અન": 839,
      "તર": 840,
      "ગર": 841,
      "વું": 842,
      "ઉપ": 843,
      "ગે": 844,
      "િલ્": 845,
      "તાં": 846,
      "મ્": 847,
      "વર": 848,
      "ત્રી": 849,
      "વધુ": 850,
      "વાની": 851,
      "દ્ર": 852,
      "પિ": 853,
      "પોલી": 854,
      "ફે": 855,
      "બાદ": 856,
      "સ્થ": 857,
      "વ્ય": 858,
      "સુધી": 859,
      "્રે": 860,
      "્યાં": 861,
      "સરકાર": 862,
      "કેટ": 863,
      "જુ": 864,
      "થઈ": 865,
      "દિવ": 866,
      "છો": 867,
      "બના": 868,
      "ન્ડ": 869,
      "કરે": 870,
      "પોતા": 871,
      "ચ્": 872,
      "જણા": 873,
      "ટિ": 874,
      "શકે": 875,
      "ટર": 876,
      "કોઈ": 877,
      "કરો": 878,
      "કુ": 879,
      "ખે": 880,
      "સાર": 881,
      "પરિ": 882,
      "ંતુ": 883,
      "શો": 884,
      "પહે": 885,
      "ળી": 886,
      "કામ": 887,
      "િત": 888,
      "પરંતુ": 889,
      "ટો": 890,
      "રોના": 891,
      "હીં": 892,
      "સ્થા": 893,
      "તમે": 894,
      "ફા": 895,
      "ગો": 896,
      "દુ": 897,
      "ફો": 898,
      "20": 899,
      "રીતે": 900,
      "રહી": 901,
      "માંથી": 902,
      "કરા": 903,
      "કોરોના": 904,
      "જન": 905,
      "દો": 906,
      "તેના": 907,
      "હેર": 908,
      "ચાર": 909,
      "દર્": 910,
      "્યારે": 911,
      "રાત": 912,
      "મને": 913,
      "યોગ": 914,
      "કહ": 915,
      "ર્ટ": 916,
      "બર": 917,
      "થવા": 918,
      "સામે": 919,
      "ધિ": 920,
      "ત્યારે": 921,
      "વવા": 922,
      "નાં": 923,
      "લગ": 924,
      "..": 925,
      "નમાં": 926,
      "હાર": 927,
      "પછી": 928,
      "પૂર્": 929,
      "િક": 930,
      "પોલીસ": 931,
      "રાખ": 932,
      "બંધ": 933,
      "મુખ": 934,
      "કં": 935,
      "મહિ": 936,
      "ચી": 937,
      "ારો": 938,
      "જૂ": 939,
      "ફર": 940,
      "ચો": 941,
      "ન્સ": 942,
      "કાર્ય": 943,
      "સમય": 944,
      "થાય": 945,
      "કહ્યું": 946,
      "ંક": 947,
      "લમાં": 948,
      "ગુજ": 949,
      "ન્દ્ર": 950,
      "ભાગ": 951,
      "સૌ": 952,
      "શ્ર": 953,
      "બિ": 954,
      "તેઓ": 955,
      "લુ": 956,
      "ભાઈ": 957,
      "જણાવ": 958,
      "ભારત": 959,
      "રહ્યા": 960,
      "વન": 961,
      "પડ": 962,
      "યું": 963,
      "જ્યારે": 964,
      "એમ": 965,
      "કારણે": 966,
      "ચૂ": 967,
      "ધો": 968,
      "વાદ": 969,
      "મૂ": 970,
      "સમા": 971,
      "્સ": 972,
      "હવે": 973,
      "જવા": 974,
      "મળી": 975,
      "કારી": 976,
      "તરી": 977,
      "શી": 978,
      "યર": 979,
      "ખો": 980,
      "તેની": 981,
      "દિવસ": 982,
      "હોવા": 983,
      "શરૂ": 984,
      "કાય": 985,
      "અં": 986,
      "ઓને": 987,
      "મત": 988,
      "પહેલા": 989,
      "તેને": 990,
      "વાત": 991,
      "વારે": 992,
      "રુ": 993,
      "ગુજરાત": 994,
      "નહીં": 995,
      "લાક": 996,
      "ચિ": 997,
      "બાળ": 998,
      "અમ": 999,
      "અમે": 1000,
      "ધાર": 1001,
      "પાસ": 1002,
      "અનુ": 1003,
      "જરૂ": 1004,
      "કર્": 1005,
      "પાસે": 1006,
      "હુ": 1007,
      "એસ": 1008,
      "પ્રા": 1009,
      "અથવા": 1010,
      "કર્યો": 1011,
      "કલ": 1012,
      "ક્તિ": 1013,
      "પાણી": 1014,
      "ટકા": 1015,
      "બ્": 1016,
      "00": 1017,
      "રાજ્ય": 1018,
      "ઉત્": 1019,
      "નગર": 1020,
      "નોં": 1021,
      "શક": 1022,
      "આજે": 1023,
      "આપી": 1024,
      "સર્": 1025,
      "જોઈ": 1026,
      "નુ": 1027,
      "નિર્": 1028,
      "પની": 1029,
      "ંડ": 1030,
      "સ્તા": 1031,
      "દરમ": 1032,
      "વિસ્ત": 1033,
      "જિલ્": 1034,
      "ટના": 1035,
      "છા": 1036,
      "જાણ": 1037,
      "સૂ": 1038,
      "મંત્રી": 1039,
      "જિલ્લા": 1040,
      "રૂપ": 1041,
      "ગ્રા": 1042,
      "ક્સ": 1043,
      "દાર": 1044,
      "માર": 1045,
      "પહો": 1046,
      "િયાન": 1047,
      "મારી": 1048,
      "બ્ર": 1049,
      "અંગ": 1050,
      "લઈ": 1051,
      "ફિલ્": 1052,
      "કહે": 1053,
      "આવ્યા": 1054,
      "માર્": 1055,
      "રમાં": 1056,
      "જય": 1057,
      "હિત": 1058,
      "આરો": 1059,
      "સિં": 1060,
      "નામ": 1061,
      "ભૂ": 1062,
      "તેમના": 1063,
      "કરતા": 1064,
      "આવ્યો": 1065,
      "ક્ષા": 1066,
      "ભાઇ": 1067,
      "બુ": 1068,
      "જેમાં": 1069,
      "ંટ": 1070,
      "અભ": 1071,
      "ખુ": 1072,
      "મમાં": 1073,
      "તમારા": 1074,
      "જણાવ્યું": 1075,
      "કારણ": 1076,
      "સ્ટે": 1077,
      "કેસ": 1078,
      "કરીને": 1079,
      "એટ": 1080,
      "રોજ": 1081,
      "થઇ": 1082,
      "ગયા": 1083,
      "તેમણે": 1084,
      "મુખ્ય": 1085,
      "જોવા": 1086,
      "થો": 1087,
      "અન્ય": 1088,
      "શું": 1089,
      "ષ્ટ્ર": 1090,
      "વચ્": 1091,
      "ઠા": 1092,
      "ખૂ": 1093,
      "પ્રે": 1094,
      "તથા": 1095,
      "તમામ": 1096,
      "નની": 1097,
      "પોતાના": 1098,
      "દરમિયાન": 1099,
      "ઉપર": 1100,
      "જબ": 1101,
      "નના": 1102,
      "ભાવ": 1103,
      "બદ": 1104,
      "ર્ડ": 1105,
      "તરીકે": 1106,
      "ર્સ": 1107,
      "ગત": 1108,
      "સૌથી": 1109,
      "સ્થિ": 1110,
      "ંદ": 1111,
      "પ્રતિ": 1112,
      "અધિ": 1113,
      "શુ": 1114,
      "સુર": 1115,
      "દ્ધ": 1116,
      "ભાજ": 1117,
      "કંપની": 1118,
      "મહા": 1119,
      "થયા": 1120,
      "માત્ર": 1121,
      "ધાન": 1122,
      "ક્ષણ": 1123,
      "મના": 1124,
      "દૂ": 1125,
      "પ્રો": 1126,
      "નવા": 1127,
      "ત્રણ": 1128,
      "૦૦": 1129,
      "ભી": 1130,
      "ઉપયોગ": 1131,
      "લ્લા": 1132,
      "વચ્ચે": 1133,
      "તેમજ": 1134,
      "તુ": 1135,
      "રહ્યો": 1136,
      "ભર": 1137,
      "જના": 1138,
      "વ્યા": 1139,
      "આવશે": 1140,
      "અંગે": 1141,
      "મહિલા": 1142,
      "ડિયા": 1143,
      "ક્ત": 1144,
      "પાર્": 1145,
      "ંગ્રે": 1146,
      "પૂર્ણ": 1147,
      "શહેર": 1148,
      "વખ": 1149,
      "જાય": 1150,
      "લોક": 1151,
      "રણ": 1152,
      "તરફ": 1153,
      "આવ્યું": 1154,
      "સાં": 1155,
      "ખૂબ": 1156,
      "જાર": 1157,
      "મેળ": 1158,
      "ર્થ": 1159,
      "લું": 1160,
      "હાથ": 1161,
      "પગ": 1162,
      "બની": 1163,
      "યેલા": 1164,
      "ફિ": 1165,
      "આત": 1166,
      "ફ્": 1167,
      "તેમને": 1168,
      "વવામાં": 1169,
      "પુર": 1170,
      "ત્યાર": 1171,
      "જોઈએ": 1172,
      "કોંગ્રે": 1173,
      "નિય": 1174,
      "વ્યક્તિ": 1175,
      "પક": 1176,
      "લના": 1177,
      "ઝા": 1178,
      "વાનો": 1179,
      "થશે": 1180,
      "થયો": 1181,
      "માણ": 1182,
      "રૂપિયા": 1183,
      "ધ્ય": 1184,
      "ત્યાં": 1185,
      "સ્થિતિ": 1186,
      "યલ": 1187,
      "નિક": 1188,
      "લાખ": 1189,
      "સહિત": 1190,
      "શ્રી": 1191,
      "ઘટના": 1192,
      "કરોડ": 1193,
      "સ્વ": 1194,
      "તેમની": 1195,
      "મદ": 1196,
      "આપણ": 1197,
      "પહોંચ": 1198,
      "ફરી": 1199,
      "અમદા": 1200,
      "રાષ્ટ્ર": 1201,
      "મોટા": 1202,
      "તૈ": 1203,
      "આગ": 1204,
      "વિશે": 1205,
      "આર": 1206,
      "કર્યું": 1207,
      "ઘા": 1208,
      "વિસ્તાર": 1209,
      "જ્": 1210,
      "અમદાવાદ": 1211,
      "સિંહ": 1212,
      "કુલ": 1213,
      "માન્ય": 1214,
      "ખ્યા": 1215,
      "ધ્યા": 1216,
      "સ્પિ": 1217,
      "ચૂંટ": 1218,
      "બહાર": 1219,
      "મોદી": 1220,
      "કૃ": 1221,
      "નાર": 1222,
      "કર્યા": 1223,
      "ચૂંટણી": 1224,
      "ગાં": 1225,
      "ઓની": 1226,
      "પોર્ટ": 1227,
      "આઈ": 1228,
      "પં": 1229,
      "ફળ": 1230,
      "જિ": 1231,
      "ભાજપ": 1232,
      "ખી": 1233,
      "આપવામાં": 1234,
      "લાઈ": 1235,
      "સના": 1236,
      "તું": 1237,
      "ઇન": 1238,
      "કરવાની": 1239,
      "તપાસ": 1240,
      "મહત": 1241,
      "ત્રો": 1242,
      "હું": 1243,
      "વિશ્": 1244,
      "ઘણા": 1245,
      "દિલ્": 1246,
      "ગ્યા": 1247,
      "શકો": 1248,
      "બેઠ": 1249,
      "પ્રિ": 1250,
      "કોટ": 1251,
      "તૈય": 1252,
      "નવી": 1253,
      "સ્પિટ": 1254,
      "૨૦": 1255,
      "રેક": 1256,
      "પતિ": 1257,
      "મેન્ટ": 1258,
      "તમને": 1259,
      "સાદ": 1260,
      "પોતાની": 1261,
      "વાસ": 1262,
      "કેન્દ્ર": 1263,
      "ટ્રે": 1264,
      "થમ": 1265,
      "ભારતી": 1266,
      "10": 1267,
      "પ્રથમ": 1268,
      "મળે": 1269,
      "જરૂર": 1270,
      "મણ": 1271,
      "ત્રા": 1272,
      "જેટ": 1273,
      "ળો": 1274,
      "અધિકારી": 1275,
      "દિલ્હી": 1276,
      "વ્યવ": 1277,
      "19": 1278,
      "હોસ્પિટ": 1279,
      "પટે": 1280,
      "સંગ": 1281,
      "જર": 1282,
      "વૃ": 1283,
      "વાય": 1284,
      "મુજબ": 1285,
      "ર્મ": 1286,
      "બન": 1287,
      "લાં": 1288,
      "જાહેર": 1289,
      "રહ્યું": 1290,
      "નોંધા": 1291,
      "વાન": 1292,
      "ધરા": 1293,
      "ચાલ": 1294,
      "રહેશે": 1295,
      "ટ્": 1296,
      "કેટલાક": 1297,
      "ગઈ": 1298,
      "વડા": 1299,
      "ધર": 1300,
      "ક્ટ": 1301,
      "હાલ": 1302,
      "ખાતે": 1303,
      "ખેડ": 1304,
      "મહત્": 1305,
      "ીય": 1306,
      "દરેક": 1307,
      "સ્વા": 1308,
      "ગયો": 1309,
      "દર્દી": 1310,
      "પર્": 1311,
      "મૃ": 1312,
      "સામાન્ય": 1313,
      "અલગ": 1314,
      "ફી": 1315,
      "જન્": 1316,
      "દ્ય": 1317,
      "બીજા": 1318,
      "સાય": 1319,
      "બંને": 1320,
      "પ્રકાર": 1321,
      "સભ": 1322,
      "પરિવાર": 1323,
      "પોલીસે": 1324,
      "સભા": 1325,
      "ઝડ": 1326,
      "પૂર્વ": 1327,
      "ંત્ર": 1328,
      "શકાય": 1329,
      "ભે": 1330,
      "ક્રિ": 1331,
      "કરશે": 1332,
      "ઓમાં": 1333,
      "તાલુ": 1334,
      "ગાંધી": 1335,
      "મર": 1336,
      "ઘર": 1337,
      "મન": 1338,
      "બાળકો": 1339,
      "નેતા": 1340,
      "મોત": 1341,
      "લોકોને": 1342,
      "ફિલ્મ": 1343,
      "ભારતીય": 1344,
      "વણી": 1345,
      "તાલુકા": 1346,
      "મહે": 1347,
      "દન": 1348,
      "મદદ": 1349,
      "નં": 1350,
      "તમારી": 1351,
      "આઇ": 1352,
      "કમાં": 1353,
      "અર": 1354,
      "લઇ": 1355,
      "ઇન્": 1356,
      "ખાસ": 1357,
      "રાંત": 1358,
      "લેવા": 1359,
      "્યૂ": 1360,
      "...": 1361,
      "વતા": 1362,
      "એટલે": 1363,
      "અહીં": 1364,
      "ક્ષે": 1365,
      "અનેક": 1366,
      "કોઇ": 1367,
      "ઓએ": 1368,
      "વધારે": 1369,
      "વરસાદ": 1370,
      "યન": 1371,
      "કરતાં": 1372,
      "વિધ": 1373,
      "કૂ": 1374,
      "ંકા": 1375,
      "જીવન": 1376,
      "દવા": 1377,
      "ાર્થી": 1378,
      "રાજકોટ": 1379,
      "ભો": 1380,
      "ઉપરાંત": 1381,
      "નિર્ણ": 1382,
      "વાયર": 1383,
      "પડે": 1384,
      "ગ્": 1385,
      "ક્ટર": 1386,
      "ઉમે": 1387,
      "ભગ": 1388,
      "મામ": 1389,
      "લગ્": 1390,
      "ળે": 1391,
      "વેશ": 1392,
      "મારા": 1393,
      "પ્રધાન": 1394,
      "મનો": 1395,
      "ુંબ": 1396,
      "ખેડૂ": 1397,
      "કોર્": 1398,
      "આં": 1399,
      "પસં": 1400,
      "નારા": 1401,
      "વિક": 1402,
      "ટ્રા": 1403,
      "ખરી": 1404,
      "માતા": 1405,
      "પસંદ": 1406,
      "ચર": 1407,
      "ઓના": 1408,
      "ષ્ટ": 1409,
      "અભિ": 1410,
      "તમાં": 1411,
      "છેલ્લા": 1412,
      "સારવાર": 1413,
      "બધા": 1414,
      "સમયે": 1415,
      "બીજી": 1416,
      "લગા": 1417,
      "મની": 1418,
      "પક્ષ": 1419,
      "બાબ": 1420,
      "ત્વ": 1421,
      "જેના": 1422,
      "મક": 1423,
      "દૂર": 1424,
      "પડી": 1425,
      "ડવા": 1426,
      "વતી": 1427,
      "દેખા": 1428,
      "સમાં": 1429,
      "લેખ": 1430,
      "મોટી": 1431,
      "દાન": 1432,
      "ારા": 1433,
      "જરૂરી": 1434,
      "નાના": 1435,
      "પરી": 1436,
      "આવેલા": 1437,
      "નિર્ણય": 1438,
      "મંદિ": 1439,
      "આપે": 1440,
      "્રા": 1441,
      "પત્": 1442,
      "છું": 1443,
      "દેશમાં": 1444,
      "પ્ત": 1445,
      "લઈને": 1446,
      "ચારી": 1447,
      "ચના": 1448,
      "માહિ": 1449,
      "રામ": 1450,
      "અમેરિ": 1451,
      "પાંચ": 1452,
      "વિદ્ય": 1453,
      "તેણે": 1454,
      "જ્ઞ": 1455,
      "જેથી": 1456,
      "બેન": 1457,
      "ઘણી": 1458,
      "તેમાં": 1459,
      "ટ્રો": 1460,
      "માહિતી": 1461,
      "લર": 1462,
      "તંત્ર": 1463,
      "બનાવ": 1464,
      "સંખ્યા": 1465,
      "કાસ": 1466,
      "લાગ": 1467,
      "લ્ડ": 1468,
      "પરા": 1469,
      "જોકે": 1470,
      "જેમ": 1471,
      "થયું": 1472,
      "એલ": 1473,
      "કર્મ": 1474,
      "ડિયો": 1475,
      "ગ્રામ": 1476,
      "પૈ": 1477,
      "પટેલ": 1478,
      "પાલ": 1479,
      "મ્બર": 1480,
      "પૂર": 1481,
      "વિવિધ": 1482,
      "વિદ્યાર્થી": 1483,
      "મહિના": 1484,
      "વધી": 1485,
      "સત": 1486,
      "વાહ": 1487,
      "તક": 1488,
      "તૈયાર": 1489,
      "કમ": 1490,
      "અંત": 1491,
      "આરોપી": 1492,
      "છતાં": 1493,
      "હશે": 1494,
      "કાર્": 1495,
      "ગં": 1496,
      "જીવ": 1497,
      "કોંગ્રેસ": 1498,
      "કારો": 1499,
      "ફરિયા": 1500,
      "કરણ": 1501,
      "મહત્વ": 1502,
      "નાગ": 1503,
      "રોડ": 1504,
      "કોર્ટ": 1505,
      "મિક": 1506,
      "નને": 1507,
      "હજાર": 1508,
      "આગળ": 1509,
      "નજી": 1510,
      "ઝિ": 1511,
      "ચુ": 1512,
      "રંગ": 1513,
      "ન્ટર": 1514,
      "ગ્ય": 1515,
      "વિશ્વ": 1516,
      "તેથી": 1517,
      "મુંબ": 1518,
      "વલ": 1519,
      "પ્લા": 1520,
      "વાનું": 1521,
      "માંગ": 1522,
      "વાહી": 1523,
      "કિસ્તા": 1524,
      "ર્ચા": 1525,
      "15": 1526,
      "લાઇ": 1527,
      "ક્રિયા": 1528,
      "દિવસે": 1529,
      "વિચાર": 1530,
      "પાકિસ્તા": 1531,
      "સારી": 1532,
      "સ્તુ": 1533,
      "આગા": 1534,
      "યેલ": 1535,
      "જ્યાં": 1536,
      "કલાક": 1537,
      "યેલી": 1538,
      "અપ": 1539,
      "યોજના": 1540,
      "સ્ટો": 1541,
      "સંબંધ": 1542,
      "વિભાગ": 1543,
      "નિયા": 1544,
      "ઘટા": 1545,
      "એન": 1546,
      "વાલ": 1547,
      "ભારે": 1548,
      "પાર્ટી": 1549,
      "ધારા": 1550,
      "સમગ્ર": 1551,
      "જગ્યા": 1552,
      "વર્ષે": 1553,
      "પિતા": 1554,
      "ગીરી": 1555,
      "વખત": 1556,
      "ટન": 1557,
      "ફૂ": 1558,
      "પાર": 1559,
      "હતાં": 1560,
      "સરકારે": 1561,
      "છીએ": 1562,
      "શાળા": 1563,
      "વિસ્તારમાં": 1564,
      "દર્શન": 1565,
      "ધુ": 1566,
      "બને": 1567,
      "આવતા": 1568,
      "લિક": 1569,
      "સેવા": 1570,
      "ઓફ": 1571,
      "સ્યા": 1572,
      "અસર": 1573,
      "મોર": 1574,
      "સ્ટા": 1575,
      "બલ": 1576,
      "મીડિયા": 1577,
      "લગ્ન": 1578,
      "પ્રમુખ": 1579,
      "સ્ટ્ર": 1580,
      "સતત": 1581,
      "સહ": 1582,
      "ત્તા": 1583,
      "ગણ": 1584,
      "હેઠ": 1585,
      "૧૦": 1586,
      "આમ": 1587,
      "યોગ્ય": 1588,
      "જોડા": 1589,
      "મુખ્યમંત્રી": 1590,
      "ગ્રી": 1591,
      "ધન": 1592,
      "12": 1593,
      "ખેડૂતો": 1594,
      "હેઠળ": 1595,
      "અનુસાર": 1596,
      "શિયલ": 1597,
      "ખાન": 1598,
      "એક્": 1599,
      "રસ": 1600,
      "હોવાનું": 1601,
      "વાના": 1602,
      "આવેલ": 1603,
      "૧૯": 1604,
      "તેનો": 1605,
      "મળશે": 1606,
      "કાર્યક્ર": 1607,
      "કને": 1608,
      "ઉં": 1609,
      "ગામ": 1610,
      "ઘરે": 1611,
      "ટ્સ": 1612,
      "ઉલ્": 1613,
      "બનાવી": 1614,
      "વૈ": 1615,
      "વધારો": 1616,
      "વ્યો": 1617,
      "જ્ઞા": 1618,
      "કર્મચારી": 1619,
      "મિત": 1620,
      "મુદ્": 1621,
      "ચર્ચા": 1622,
      "એવી": 1623,
      "આયો": 1624,
      "શરી": 1625,
      "લાભ": 1626,
      "કીય": 1627,
      "મ્પ": 1628,
      "પત્ર": 1629,
      "જેવા": 1630,
      "કેવી": 1631,
      "ટીમ": 1632,
      "તેવી": 1633,
      "પહેલાં": 1634,
      "આવા": 1635,
      "પ્રદેશ": 1636,
      "રના": 1637,
      "કની": 1638,
      "પાછ": 1639,
      "ફરિયાદ": 1640,
      "રાખી": 1641,
      "ટિંગ": 1642,
      "ઉત્પા": 1643,
      "જીત": 1644,
      "કલા": 1645,
      "રમ": 1646,
      "સમસ્યા": 1647,
      "પડશે": 1648,
      "કના": 1649,
      "એવું": 1650,
      "સ્વી": 1651,
      "નવ": 1652,
      "કાં": 1653,
      "તમ": 1654,
      "લાલ": 1655,
      "સિક": 1656,
      "કાર્યવાહી": 1657,
      "પદ": 1658,
      "દરા": 1659,
      "ચાલી": 1660,
      "વિરો": 1661,
      "વખતે": 1662,
      "રેન્દ્ર": 1663,
      "નીય": 1664,
      "ધું": 1665,
      "ઝી": 1666,
      "એન્": 1667,
      "કત": 1668,
      "વીડિયો": 1669,
      "દાખ": 1670,
      "વાળા": 1671,
      "સફળ": 1672,
      "ટમાં": 1673,
      "પહોંચી": 1674,
      "રજૂ": 1675,
      "નોંધ": 1676,
      "મીન": 1677,
      "શ્કે": 1678,
      "સ્મા": 1679,
      "હુમ": 1680,
      "ષ્ઠ": 1681,
      "વાઈ": 1682,
      "ત્રે": 1683,
      "ટિવ": 1684,
      "ડાઉ": 1685,
      "શેર": 1686,
      "ચૂક": 1687,
      "જનો": 1688,
      "લની": 1689,
      "પરિણા": 1690,
      "એવા": 1691,
      "એર": 1692,
      "વત": 1693,
      "શક્ય": 1694,
      "ટેસ્ટ": 1695,
      "દેવ": 1696,
      "આપણે": 1697,
      "લાગે": 1698,
      "વિકાસ": 1699,
      "18": 1700,
      "ફ્ર": 1701,
      "કાળ": 1702,
      "કામગીરી": 1703,
      "ઈન્": 1704,
      "સુરત": 1705,
      "ંગા": 1706,
      "ખર્": 1707,
      "ઠી": 1708,
      "વિષ": 1709,
      "ફોન": 1710,
      "અમેરિકા": 1711,
      "પ્રયા": 1712,
      "ચ્છ": 1713,
      "વસ્તુ": 1714,
      "ચાલુ": 1715,
      "શ્રે": 1716,
      "બનાવવા": 1717,
      "કોને": 1718,
      "યાદ": 1719,
      "આગામી": 1720,
      "કપ": 1721,
      "જવાબ": 1722,
      "વુ": 1723,
      "જોઇ": 1724,
      "સંપૂર્ણ": 1725,
      "જાણી": 1726,
      "અગા": 1727,
      "ષણ": 1728,
      "લ્સ": 1729,
      "પરે": 1730,
      "નાણા": 1731,
      "જેને": 1732,
      "કિં": 1733,
      "થતા": 1734,
      "ધે": 1735,
      "માર્ગ": 1736,
      "શાન": 1737,
      "નીક": 1738,
      "મેચ": 1739,
      "સલા": 1740,
      "ઝો": 1741,
      "યત": 1742,
      "જેવી": 1743,
      "પત્ની": 1744,
      "રિક": 1745,
      "આપવા": 1746,
      "મુશ્કે": 1747,
      "લગભગ": 1748,
      "ંકી": 1749,
      "લખ": 1750,
      "વાસી": 1751,
      "આરોગ્ય": 1752,
      "લાય": 1753,
      "સપ્": 1754,
      "ઢી": 1755,
      "સદ": 1756,
      "ન્યુ": 1757,
      "ઇલ": 1758,
      "થ્": 1759,
      "મુંબઈ": 1760,
      "અગાઉ": 1761,
      "પકડ": 1762,
      "પાછળ": 1763,
      "માણે": 1764,
      "સવારે": 1765,
      "નાની": 1766,
      "શર": 1767,
      "જામ": 1768,
      "સાન": 1769,
      "જશે": 1770,
      "વિજય": 1771,
      "લેન્ડ": 1772,
      "હર": 1773,
      "ટલ": 1774,
      "કાત": 1775,
      "અવ": 1776,
      "જિલ્લામાં": 1777,
      "સ્ત્રી": 1778,
      "બ્રા": 1779,
      "30": 1780,
      "ગૃ": 1781,
      "50": 1782,
      "રોકા": 1783,
      "પાડ": 1784,
      "અર્": 1785,
      "જાહે": 1786,
      "હજુ": 1787,
      "ગુજરાતમાં": 1788,
      "પોરે": 1789,
      "ભુ": 1790,
      "નુક": 1791,
      "કસ": 1792,
      "લિકા": 1793,
      "સરળ": 1794,
      "જઈ": 1795,
      "ણો": 1796,
      "નીચે": 1797,
      "ધરી": 1798,
      "કાઉ": 1799,
      "ગંભી": 1800,
      "14": 1801,
      "પ્લે": 1802,
      "આધાર": 1803,
      "પાસેથી": 1804,
      "ત્રિ": 1805,
      "ક્યારે": 1806,
      "કરવાનો": 1807,
      "બાજુ": 1808,
      "શરૂઆત": 1809,
      "મુલા": 1810,
      "હોવાથી": 1811,
      "યોજા": 1812,
      "ક્સિ": 1813,
      "હાલમાં": 1814,
      "ઉલ્લેખ": 1815,
      "ત્યુ": 1816,
      "ગંભીર": 1817,
      "ટુ": 1818,
      "રહ્યાં": 1819,
      "ફેર": 1820,
      "રસી": 1821,
      "અત્યાર": 1822,
      "તન": 1823,
      "બેઠક": 1824,
      "પ્રમાણે": 1825,
      "સભ્યો": 1826,
      "કાન": 1827,
      "ંચા": 1828,
      "અપા": 1829,
      "ધ્યાન": 1830,
      "ડર": 1831,
      "સની": 1832,
      "કેટલી": 1833,
      "ફાય": 1834,
      "રોગ": 1835,
      "પ્રિય": 1836,
      "ક્કી": 1837,
      "ગર્": 1838,
      "માલ": 1839,
      "in": 1840,
      "જરી": 1841,
      "બાઈ": 1842,
      "રાજ્યમાં": 1843,
      "ધ્": 1844,
      "શિયા": 1845,
      "યુનિ": 1846,
      "દાય": 1847,
      "સ્થિત": 1848,
      "ભારતમાં": 1849,
      "ચલા": 1850,
      "11": 1851,
      "વીને": 1852,
      "કેમ": 1853,
      "જતા": 1854,
      "આરી": 1855,
      "હતુ": 1856,
      "રહેલા": 1857,
      "હારા": 1858,
      "સોશિયલ": 1859,
      "જન્મ": 1860,
      "રિપોર્ટ": 1861,
      "મૃત્યુ": 1862,
      "આંક": 1863,
      "ડું": 1864,
      "ત્મક": 1865,
      "મંદિર": 1866,
      "નેશન": 1867,
      "જાહેરાત": 1868,
      "નર": 1869,
      "દેશો": 1870,
      "નેટ": 1871,
      "મોરબી": 1872,
      "ઓળ": 1873,
      "હં": 1874,
      "પાલિકા": 1875,
      "સરકારી": 1876,
      "વ્યવસ્થા": 1877,
      "હાઈ": 1878,
      "બજાર": 1879,
      "થોડા": 1880,
      "ંતિ": 1881,
      "નક": 1882,
      "ઉદ": 1883,
      "શોધ": 1884,
      "આયોજન": 1885,
      "મધ્ય": 1886,
      "કમિ": 1887,
      "મહારા": 1888,
      "આજ": 1889,
      "નંદ": 1890,
      "સાઇ": 1891,
      "રાષ્ટ્રીય": 1892,
      "સંક્ર": 1893,
      "રહેતા": 1894,
      "પ્રી": 1895,
      "લીધો": 1896,
      "અનુભ": 1897,
      "ટૂ": 1898,
      "કરવો": 1899,
      "બાર": 1900,
      "પ્રમાણ": 1901,
      "હિં": 1902,
      "સ્ટેશન": 1903,
      "વેલ": 1904,
      "સભ્ય": 1905,
      "પના": 1906,
      "ચ્ચ": 1907,
      "ઓછા": 1908,
      "નંબર": 1909,
      "શ્ય": 1910,
      "ar": 1911,
      "વળ": 1912,
      "કરવું": 1913,
      "હોસ્પિટલમાં": 1914,
      "સંસ્થા": 1915,
      "રવિ": 1916,
      "ડ્ર": 1917,
      "હાઇ": 1918,
      "અલ": 1919,
      "વર્ષની": 1920,
      "સુધીમાં": 1921,
      "ઉત્તર": 1922,
      "ડીને": 1923,
      "વાઇ": 1924,
      "મામલે": 1925,
      "સ્પે": 1926,
      "સ્પ": 1927,
      "સ્ટ્રે": 1928,
      "વડો": 1929,
      "કહી": 1930,
      "લેવામાં": 1931,
      "પ્રશ્": 1932,
      "સું": 1933,
      "અભ્યા": 1934,
      "વિરોધ": 1935,
      "બ્રિ": 1936,
      "ખ્": 1937,
      "અર્થ": 1938,
      "શિક્ષણ": 1939,
      "શહેરમાં": 1940,
      "દાખલ": 1941,
      "16": 1942,
      "નક્કી": 1943,
      "ધારે": 1944,
      "આપ્યો": 1945,
      "કટ": 1946,
      "ગયું": 1947,
      "પુરા": 1948,
      "નિષ્": 1949,
      "એફ": 1950,
      "થતાં": 1951,
      "મુક": 1952,
      "ખરા": 1953,
      "પોસ્ટ": 1954,
      "સાઈ": 1955,
      "સમાવેશ": 1956,
      "દીધી": 1957,
      "દારો": 1958,
      "રોક": 1959,
      "બેન્": 1960,
      "કિંગ": 1961,
      "સ્સા": 1962,
      "કરવાનું": 1963,
      "પ્રક્રિયા": 1964,
      "સારા": 1965,
      "નજીક": 1966,
      "આંત": 1967,
      "જૂરી": 1968,
      "સન": 1969,
      "ત્યારબાદ": 1970,
      "નરેન્દ્ર": 1971,
      "અરજી": 1972,
      "નલ": 1973,
      "અંદર": 1974,
      "વિસ્તારો": 1975,
      "નીતિ": 1976,
      "17": 1977,
      "કલે": 1978,
      "પંચા": 1979,
      "ખર્ચ": 1980,
      "યુવ": 1981,
      "મ્યુ": 1982,
      "શાહ": 1983,
      "સિટી": 1984,
      "વગર": 1985,
      "બોર્ડ": 1986,
      "પાટી": 1987,
      "વિધા": 1988,
      "બાં": 1989,
      "તરફથી": 1990,
      "રેલી": 1991,
      "તમારે": 1992,
      "લીધી": 1993,
      "કરવી": 1994,
      "મતા": 1995,
      "હત્યા": 1996,
      "દેશના": 1997,
      "સમયમાં": 1998,
      "ખરે": 1999,
      "કુમાર": 2000,
      "000": 2001,
      "સુરક્ષા": 2002,
      "21": 2003,
      "બોલ": 2004,
      "પૈસા": 2005,
      "તેનું": 2006,
      "વિડ": 2007,
      "સ્થાન": 2008,
      "અક": 2009,
      "સ્ક": 2010,
      "કિંમત": 2011,
      "ઓફિ": 2012,
      "ભૂમિ": 2013,
      "દિવસો": 2014,
      "મેન": 2015,
      "પ્રયાસ": 2016,
      "વડોદરા": 2017,
      "200": 2018,
      "૧૫": 2019,
      "હોઈ": 2020,
      "ઓનો": 2021,
      "ધરપકડ": 2022,
      "રોકાણ": 2023,
      "કાશ": 2024,
      "ંગ્": 2025,
      "ક્રિકેટ": 2026,
      "રન": 2027,
      "દુનિયા": 2028,
      "પોઝિ": 2029,
      "ગેરે": 2030,
      "પણે": 2031,
      "લક્ષ": 2032,
      "લોકોએ": 2033,
      "ઝે": 2034,
      "પરથી": 2035,
      "24": 2036,
      "વહે": 2037,
      "બચા": 2038,
      "ન્ડિયા": 2039,
      "ંતા": 2040,
      "બેંક": 2041,
      "તારી": 2042,
      "એવો": 2043,
      "પારી": 2044,
      "ંભ": 2045,
      "નહો": 2046,
      "સલ": 2047,
      "ઝડપી": 2048,
      "ચં": 2049,
      "રાહુ": 2050,
      "વાળી": 2051,
      "કરતી": 2052,
      "પ્રાપ્ત": 2053,
      "ટક": 2054,
      "બહે": 2055,
      "લાગી": 2056,
      "ક્રે": 2057,
      "at": 2058,
      "પ્રેમ": 2059,
      "સત્તા": 2060,
      "મેં": 2061,
      "ગાર": 2062,
      "નોકરી": 2063,
      "ગઇ": 2064,
      "કોરોનાના": 2065,
      "સમાજ": 2066,
      "લય": 2067,
      "કન": 2068,
      "સ્પષ્ટ": 2069,
      "વિધાન": 2070,
      "ડાઉન": 2071,
      "વિદેશ": 2072,
      "ખર": 2073,
      "બૂ": 2074,
      "મેળવી": 2075,
      "રસ્તા": 2076,
      "ચાર્": 2077,
      "લાંબા": 2078,
      "ર્ષ": 2079,
      "સુવિધા": 2080,
      "13": 2081,
      "વાળ": 2082,
      "સ્થાનિક": 2083,
      "રોમાં": 2084,
      "સ્કૂ": 2085,
      "ડની": 2086,
      "આવેલી": 2087,
      "૧૨": 2088,
      "અધ્ય": 2089,
      "સામ": 2090,
      "૧૮": 2091,
      "ખુબ": 2092,
      "કોઈપણ": 2093,
      "વડાપ્રધાન": 2094,
      "મિનિ": 2095,
      "મંગ": 2096,
      "લઇને": 2097,
      "મંડ": 2098,
      "જાણવા": 2099,
      "સમાચાર": 2100,
      "આર્થ": 2101,
      "સિવાય": 2102,
      "વિના": 2103,
      "છૂ": 2104,
      "બાકી": 2105,
      "કાયદા": 2106,
      "ગ્રાહ": 2107,
      "ક્શન": 2108,
      "હોવાની": 2109,
      "કોન્": 2110,
      "પગલે": 2111,
      "આધારે": 2112,
      "મુલાકાત": 2113,
      "હન": 2114,
      "જમીન": 2115,
      "રેલ": 2116,
      "ડમાં": 2117,
      "આવતી": 2118,
      "ભાગે": 2119,
      "કાલે": 2120,
      "સૈ": 2121,
      "ક્રો": 2122,
      "ન્ન": 2123,
      "ભાજપના": 2124,
      "ઠવા": 2125,
      "દેવામાં": 2126,
      "ખરીદી": 2127,
      "કોર્ટે": 2128,
      "શ્વર": 2129,
      "રની": 2130,
      "પરીક્ષા": 2131,
      "લાડી": 2132,
      "25": 2133,
      "),": 2134,
      "વરણ": 2135,
      "ફાઈ": 2136,
      "કરીએ": 2137,
      "લોકોના": 2138,
      "હવા": 2139,
      "ગામમાં": 2140,
      "સુંદર": 2141,
      "કોલે": 2142,
      "ભાવના": 2143,
      "વેચા": 2144,
      "હાર્": 2145,
      "લોકોની": 2146,
      "યમ": 2147,
      "ગરી": 2148,
      "પલ": 2149,
      "જબૂ": 2150,
      "દ્ધિ": 2151,
      "મજબૂ": 2152,
      "યુવતી": 2153,
      "બળ": 2154,
      "ચિંતા": 2155,
      "નહિ": 2156,
      "બતા": 2157,
      "વવાની": 2158,
      "er": 2159,
      "ક્ષિ": 2160,
      "an": 2161,
      "વાંચ": 2162,
      "મોટો": 2163,
      "જણાવી": 2164,
      "એન્ડ": 2165,
      "થિ": 2166,
      "શક્તિ": 2167,
      "મૂળ": 2168,
      "વિરુ": 2169,
      "રિયા": 2170,
      "મેશા": 2171,
      "હાજર": 2172,
      "કારા": 2173,
      "ંઘ": 2174,
      "ક્રા": 2175,
      "આર્થિક": 2176,
      "ફરજ": 2177,
      "ષા": 2178,
      "ચોક્": 2179,
      "ક્ષેત્ર": 2180,
      "પાલન": 2181,
      "અભ્યાસ": 2182,
      "નિવે": 2183,
      "જોઇએ": 2184,
      "દારૂ": 2185,
      "લિંગ": 2186,
      "થયેલા": 2187,
      "લૂ": 2188,
      "વાથી": 2189,
      "આત્": 2190,
      "કૃતિ": 2191,
      "શિવ": 2192,
      "ઓછી": 2193,
      "ગણા": 2194,
      "ંડી": 2195,
      "પસાર": 2196,
      "વેપારી": 2197,
      "ન્યૂ": 2198,
      "૩૦": 2199,
      "વિધાનસભા": 2200,
      "ટું": 2201,
      "તને": 2202,
      "સને": 2203,
      "જિલ્લાના": 2204,
      "સવી": 2205,
      "પુત્ર": 2206,
      "શૈ": 2207,
      "માગ": 2208,
      "પાત્ર": 2209,
      "સિંગ": 2210,
      "આસ": 2211,
      "ઘટાડો": 2212,
      "નિંગ": 2213,
      "ઘે": 2214,
      "લન": 2215,
      "હાય": 2216,
      "ભૂત": 2217,
      "જમા": 2218,
      "ગેર": 2219,
      "હરણ": 2220,
      "કેટલીક": 2221,
      "અધ્યક્ષ": 2222,
      "ચીન": 2223,
      "ગ્રે": 2224,
      "on": 2225,
      "ઉજ": 2226,
      "પંચ": 2227,
      "૧૧": 2228,
      "મીટર": 2229,
      "ઘરમાં": 2230,
      "રાજ્યના": 2231,
      "પરિસ્થિતિ": 2232,
      "ઠે": 2233,
      "ફુ": 2234,
      "સહિતના": 2235,
      "શ્મી": 2236,
      "સ્ટી": 2237,
      "તસવી": 2238,
      "હંમેશા": 2239,
      "રાખવામાં": 2240,
      "મ્બ": 2241,
      "મૂક": 2242,
      "માર્કેટ": 2243,
      "દર્શા": 2244,
      "કિલો": 2245,
      "ફોટો": 2246,
      "સામેલ": 2247,
      "લીધા": 2248,
      "નહી": 2249,
      "અંદા": 2250,
      "મળ્યા": 2251,
      "ઘો": 2252,
      "ગૌ": 2253,
      "ચોક્કસ": 2254,
      "વ્યું": 2255,
      "ફોર્મ": 2256,
      "ઝન": 2257,
      "મંજૂરી": 2258,
      "વગેરે": 2259,
      "કું": 2260,
      "ટ્રોલ": 2261,
      "દબા": 2262,
      "શિક્ષ": 2263,
      "શ્રેષ્ઠ": 2264,
      "રાહુલ": 2265,
      "ભરા": 2266,
      "બહુ": 2267,
      "લીધે": 2268,
      "ડિંગ": 2269,
      "તૈયારી": 2270,
      "અડ": 2271,
      "રાશિ": 2272,
      "ઓન": 2273,
      "હોસ્પિટલ": 2274,
      "અકસ્મા": 2275,
      "પ્રવેશ": 2276,
      "ઢા": 2277,
      "રાત્રે": 2278,
      "તેવા": 2279,
      "ન્ને": 2280,
      "કેશ": 2281,
      "સવા": 2282,
      "પરત": 2283,
      "ખરાબ": 2284,
      "અહે": 2285,
      "રને": 2286,
      "ડુ": 2287,
      "ડ્રા": 2288,
      "કોર્પોરે": 2289,
      "તાલુકાના": 2290,
      "ડીયા": 2291,
      "es": 2292,
      "ડાય": 2293,
      "સિસ્ટ": 2294,
      "કાર્ડ": 2295,
      "ટની": 2296,
      "મહારાષ્ટ્ર": 2297,
      "ફક્ત": 2298,
      "કેસમાં": 2299,
      "ંડા": 2300,
      "કોવિડ": 2301,
      "ગાંધીનગર": 2302,
      "નદી": 2303,
      "લિયા": 2304,
      "નેશનલ": 2305,
      "ઉન્ડ": 2306,
      "જયારે": 2307,
      "પૂછ": 2308,
      "મળ્યો": 2309,
      "લાઇન": 2310,
      "સ્ટ્રી": 2311,
      "ક્યાં": 2312,
      "ગામના": 2313,
      "ચોરી": 2314,
      "તરમાં": 2315,
      "શનિ": 2316,
      "યાત્રા": 2317,
      "કન્": 2318,
      "સોમ": 2319,
      "જેટલા": 2320,
      "ફ્રે": 2321,
      "ગઢ": 2322,
      "ટેક": 2323,
      "કોલ": 2324,
      "ત્તિ": 2325,
      "શં": 2326,
      "પીએમ": 2327,
      "ગુરુ": 2328,
      "એના": 2329,
      "સફળતા": 2330,
      "કોંગ્રેસના": 2331,
      "ઝડપ": 2332,
      "પંચાયત": 2333,
      "્યોગ": 2334,
      "આસપાસ": 2335,
      "વ્": 2336,
      "છુ": 2337,
      "બ્રે": 2338,
      "સ્થળે": 2339,
      "તબ": 2340,
      "સાંજે": 2341,
      "વધુમાં": 2342,
      "ટીવી": 2343,
      "વિરુદ્ધ": 2344,
      "કંઈ": 2345,
      "સેના": 2346,
      "રાજય": 2347,
      "સ્તી": 2348,
      "પ્રાથ": 2349,
      "૧૪": 2350,
      "ખાનગી": 2351,
      "પશ્": 2352,
      "બનાવવામાં": 2353,
      "પહેલી": 2354,
      "હેરા": 2355,
      "રાજી": 2356,
      "ઉલ્લેખનીય": 2357,
      "ગતિ": 2358,
      "તાર": 2359,
      "નુકસાન": 2360,
      "કાશ્મી": 2361,
      "આશ": 2362,
      "ગાળા": 2363,
      "મુશ્કેલી": 2364,
      "બસ": 2365,
      "કેશન": 2366,
      "બદલ": 2367,
      "લ્પ": 2368,
      "પ્રકારની": 2369,
      "ચિત": 2370,
      "ર્ન": 2371,
      "આવક": 2372,
      "દૂધ": 2373,
      "ખબર": 2374,
      "ગિ": 2375,
      "આદેશ": 2376,
      "રકમ": 2377,
      "ધરાવે": 2378,
      "વાતા": 2379,
      "આનંદ": 2380,
      "વિસ્તારોમાં": 2381,
      "સંપર્": 2382,
      "જન્સી": 2383,
      "જામનગર": 2384,
      "સમિ": 2385,
      "સ્વાસ્થ": 2386,
      "વર્ષના": 2387,
      "ખેલાડી": 2388,
      "ધમ": 2389,
      "તાજે": 2390,
      "ચ્છા": 2391,
      "ડૉ": 2392,
      "સાંભ": 2393,
      "કમા": 2394,
      "ટેડ": 2395,
      "શબ્": 2396,
      "ખેતી": 2397,
      "રલ": 2398,
      "શહેરના": 2399,
      "જણાવ્યા": 2400,
      "ઉત્પાદન": 2401,
      "સાત": 2402,
      "રાહત": 2403,
      "ડવામાં": 2404,
      "બોલા": 2405,
      "કટર": 2406,
      "જેની": 2407,
      "પ્રાથમિક": 2408,
      "પોઝિટિવ": 2409,
      "વિશેષ": 2410,
      "ઠો": 2411,
      "એચ": 2412,
      "આપણા": 2413,
      "તિહા": 2414,
      "દક્ષિ": 2415,
      "કાઉન્ટ": 2416,
      "કૌ": 2417,
      "સ્ટિ": 2418,
      "મોદીએ": 2419,
      "કિસ્સા": 2420,
      "તના": 2421,
      "ક્કા": 2422,
      "શહે": 2423,
      "વીજ": 2424,
      "વનગર": 2425,
      "ણું": 2426,
      "રોને": 2427,
      "સહાય": 2428,
      "ષ્ટિ": 2429,
      "૦૦૦": 2430,
      "અના": 2431,
      "નારી": 2432,
      "પૂરી": 2433,
      "સાફ": 2434,
      "બાળક": 2435,
      "ઈન": 2436,
      "રાજ્યો": 2437,
      "ટ્રી": 2438,
      "ગામે": 2439,
      "જોખ": 2440,
      "કહેવામાં": 2441,
      "ઉચ્ચ": 2442,
      "ગુજરાતના": 2443,
      "મારે": 2444,
      "લબ્": 2445,
      "વર્ષો": 2446,
      "એક્સ": 2447,
      "વાદી": 2448,
      "ફેલા": 2449,
      "થવાની": 2450,
      "તરા": 2451,
      "કાઢ": 2452,
      "વેચાણ": 2453,
      "પશ્ચિ": 2454,
      "કેસો": 2455,
      "ગૃહ": 2456,
      "સંખ્યામાં": 2457,
      "સ્પર્": 2458,
      "૧૭": 2459,
      "સ્વાસ્થ્ય": 2460,
      "મેળવવા": 2461,
      "દિવસમાં": 2462,
      "૫૦": 2463,
      "યોગી": 2464,
      "ભાગી": 2465,
      "લ્લી": 2466,
      "ઉપલબ્": 2467,
      "ભાવનગર": 2468,
      "વાયરસ": 2469,
      "તાપ": 2470,
      "ભાગના": 2471,
      "આપ્યું": 2472,
      "લાઈન": 2473,
      "ચેરી": 2474,
      "મંગળ": 2475,
      "કોર્ટમાં": 2476,
      "કરનાર": 2477,
      "સૂર": 2478,
      "વાડી": 2479,
      "સેન્": 2480,
      "વધાર": 2481,
      "મેને": 2482,
      "જાણકારી": 2483,
      "અઠવા": 2484,
      "હળ": 2485,
      "મગ": 2486,
      "એપ્રિ": 2487,
      "મજબૂત": 2488,
      "મહામારી": 2489,
      "જમાં": 2490,
      "સામા": 2491,
      "રિંગ": 2492,
      "સમી": 2493,
      "ઉત્પાદ": 2494,
      "રાહ": 2495,
      "હ્": 2496,
      "ગુણ": 2497,
      "ઓવર": 2498,
      "રાખે": 2499,
      "વિલ": 2500,
      "ક્ટો": 2501,
      "શાંત": 2502,
      "સમાન": 2503,
      "ઓનું": 2504,
      "મળ્યું": 2505,
      "આશા": 2506,
      "થતી": 2507,
      "ઓગ": 2508,
      "પ્રોજે": 2509,
      "૧૬": 2510,
      "વ્યવસાય": 2511,
      "આઉ": 2512,
      "જગ્યાએ": 2513,
      "ધ્યાનમાં": 2514,
      "મૃત": 2515,
      "ડક": 2516,
      "તની": 2517,
      "સ્થળ": 2518,
      "દક્ષિણ": 2519,
      "વર્ષથી": 2520,
      "જની": 2521,
      "પ્રજા": 2522,
      "યૂ": 2523,
      "ડામાં": 2524,
      "વિત": 2525,
      "આર્": 2526,
      "ઉપા": 2527,
      "પૈકી": 2528,
      "સલાહ": 2529,
      "મિત્રો": 2530,
      "ટાઇ": 2531,
      "ઉદા": 2532,
      "ન્યા": 2533,
      "શુક્ર": 2534,
      "યુનિવર્": 2535,
      "દ્ધા": 2536,
      "પ્રતિબંધ": 2537,
      "જંગ": 2538,
      "્યાન": 2539,
      "મૂલ": 2540,
      "ષિ": 2541,
      "શક્યતા": 2542,
      "પ્રકારના": 2543,
      "લક્ષણ": 2544,
      "બદલે": 2545,
      "તિમ": 2546,
      "પરિણામ": 2547,
      "જુદા": 2548,
      "કોની": 2549,
      "ભારતના": 2550,
      "બાબતે": 2551,
      "ઉપલબ્ધ": 2552,
      "ન્ટિ": 2553,
      "બંધી": 2554,
      "હુમલા": 2555,
      "ક્રી": 2556,
      "ચુક": 2557,
      "શાક": 2558,
      "ચંદ્ર": 2559,
      "ગુમા": 2560,
      "પાકિસ્તાન": 2561,
      "ફટ": 2562,
      "સંક્રમણ": 2563,
      "કાર્યક્રમ": 2564,
      "અંતિમ": 2565,
      "વિશ્વાસ": 2566,
      "લોજી": 2567,
      "સુખ": 2568,
      "ઉમેદવા": 2569,
      "ઝને": 2570,
      "ઉર્": 2571,
      "મંત્રા": 2572,
      "રાજકીય": 2573,
      "યુક્ત": 2574,
      "નવે": 2575,
      "પ્રકાશ": 2576,
      "આપતા": 2577,
      "નાખ": 2578,
      "સમર્થ": 2579,
      "આરોપ": 2580,
      "ડાં": 2581,
      "સચિ": 2582,
      "મતી": 2583,
      "40": 2584,
      "સુપ્રી": 2585,
      "પ્રદર્શન": 2586,
      "મેડિ": 2587,
      "બિન": 2588,
      "નિયમો": 2589,
      "માની": 2590,
      "or": 2591,
      "વ્યક્ત": 2592,
      "100": 2593,
      "અમારા": 2594,
      "ડતા": 2595,
      "મથ": 2596,
      "નજર": 2597,
      "ગુનો": 2598,
      "શકશે": 2599,
      "જિક": 2600,
      "ગાય": 2601,
      "સામનો": 2602,
      "હિન્": 2603,
      "અગ્ર": 2604,
      "ગુજરા": 2605,
      "જાળ": 2606,
      "શૂ": 2607,
      "બન્ને": 2608,
      "દીધો": 2609,
      "નાગઢ": 2610,
      "સજા": 2611,
      "અમારી": 2612,
      "ધારાસભ્ય": 2613,
      "સવ": 2614,
      "સંગઠ": 2615,
      "ટરી": 2616,
      "દાવો": 2617,
      "વાહન": 2618,
      "સૌરાષ્ટ્ર": 2619,
      "તેલ": 2620,
      "સપ્ટે": 2621,
      "સવાર": 2622,
      "ગ્રહ": 2623,
      "નાથ": 2624,
      "અધિકારીઓ": 2625,
      "વધારા": 2626,
      "રેલવે": 2627,
      "સંક": 2628,
      "સંઘ": 2629,
      "તેનાથી": 2630,
      "વાયરલ": 2631,
      "મચી": 2632,
      "નોંધાયા": 2633,
      "અફ": 2634,
      "ચાર્જ": 2635,
      "માનવામાં": 2636,
      "દિશા": 2637,
      "સાબ": 2638,
      "મોકલ": 2639,
      "શર્": 2640,
      "જાન્યુ": 2641,
      "જવાબદ": 2642,
      "ષ્ણ": 2643,
      "સબ": 2644,
      "રચના": 2645,
      "હોલ": 2646,
      "ઘટ": 2647,
      "ટેક્સ": 2648,
      "વાનગી": 2649,
      "સીબી": 2650,
      "ફિલ્મો": 2651,
      "તૃ": 2652,
      "આંતર": 2653,
      "દેવા": 2654,
      "ડના": 2655,
      "ઉઠા": 2656,
      "સાધ": 2657,
      "ફેરફ": 2658,
      "વણ": 2659,
      "રાખવા": 2660,
      "પ્રાર": 2661,
      "યુવા": 2662,
      "ડિસે": 2663,
      "ઓળખ": 2664,
      "ભરમાં": 2665,
      "૧૩": 2666,
      "માર્ચ": 2667,
      "આઉટ": 2668,
      "મણી": 2669,
      "પ્રસંગ": 2670,
      "કરવાના": 2671,
      "કૉ": 2672,
      "પસંદગી": 2673,
      "થયેલ": 2674,
      "યાદી": 2675,
      "વર્ષમાં": 2676,
      "સ્ટાફ": 2677,
      "સન્": 2678,
      "હકી": 2679,
      "મેલ": 2680,
      "કોર": 2681,
      "વિવાદ": 2682,
      "ધરાવતા": 2683,
      "હુમલો": 2684,
      "પ્રય": 2685,
      "કેપ્": 2686,
      "ઇન્ટર": 2687,
      "ફ્ટ": 2688,
      "ડલ": 2689,
      "ન્ચ": 2690,
      "પૂર્વક": 2691,
      "પ્રત્ય": 2692,
      "22": 2693,
      "રૂપે": 2694,
      "લેટ": 2695,
      "સ્ટર": 2696,
      "ડિઝા": 2697,
      "પ્રયત્": 2698,
      ".’": 2699,
      "કાલ": 2700,
      "યુનિવર્સિટી": 2701,
      "જાન્યુઆરી": 2702,
      "વર્ગ": 2703,
      "સર્જા": 2704,
      "જાણો": 2705,
      "તાને": 2706,
      "બુધ": 2707,
      "કિત": 2708,
      "પોર": 2709,
      "માટેની": 2710,
      "ડોલર": 2711,
      "આટ": 2712,
      "ફાઇ": 2713,
      "વિગ": 2714,
      "મુદ્દે": 2715,
      "પોતે": 2716,
      "ફરીથી": 2717,
      "જુઓ": 2718,
      "દરમ્યાન": 2719,
      "વૃત્તિ": 2720,
      "ઘુ": 2721,
      "એડ": 2722,
      "જવાબદારી": 2723,
      "સૂત્રો": 2724,
      "ખોરા": 2725,
      "દય": 2726,
      "વર્લ્ડ": 2727,
      "જતાં": 2728,
      "દર્દીઓ": 2729,
      "તેવું": 2730,
      "કેલ": 2731,
      "ઉદ્યોગ": 2732,
      "તળા": 2733,
      "તાજેતરમાં": 2734,
      "લડ": 2735,
      "ત્ત": 2736,
      "શુભ": 2737,
      "જારો": 2738,
      "ઉજવણી": 2739,
      "ખંડ": 2740,
      "ાર્થ": 2741,
      "ક્ષમતા": 2742,
      "ઝડપથી": 2743,
      "અંતર્": 2744,
      "મુદ્દા": 2745,
      "સંભા": 2746,
      "લખ્યું": 2747,
      "દીપ": 2748,
      "સ્તો": 2749,
      "પુરુ": 2750,
      "કચેરી": 2751,
      "વોર્ડ": 2752,
      "તેજ": 2753,
      "ચૌ": 2754,
      "જળ": 2755,
      "નગરપાલિકા": 2756,
      "બધી": 2757,
      "વાગ્યા": 2758,
      "છોડ": 2759,
      "નિર્માણ": 2760,
      "પશ્ચિમ": 2761,
      "લાગુ": 2762,
      "ફેબ્ર": 2763,
      "સારું": 2764,
      "લોકસભા": 2765,
      "સપ્તા": 2766,
      "સાયટી": 2767,
      "થયેલી": 2768,
      "સમિતિ": 2769,
      "પશુ": 2770,
      "વાર્": 2771,
      "હાઉ": 2772,
      "માને": 2773,
      "વજન": 2774,
      "સોસાયટી": 2775,
      "પ્રારંભ": 2776,
      "લિવ": 2777,
      "લિત": 2778,
      "મળતી": 2779,
      "સ્વામી": 2780,
      "ભૂમિકા": 2781,
      "કચ્છ": 2782,
      "શરીર": 2783,
      "વિદ્યાર્થીઓ": 2784,
      "સાવ": 2785,
      "સંસ્": 2786,
      "અંતર્ગત": 2787,
      "આપ્યા": 2788,
      "રહેલી": 2789,
      "પહોંચા": 2790,
      "કર્તા": 2791,
      "કોરોનાની": 2792,
      "વપરા": 2793,
      "કોએ": 2794,
      "વેક્સિ": 2795,
      "વાતચી": 2796,
      "માળ": 2797,
      "કારક": 2798,
      "વાજ": 2799,
      "વાતાવરણ": 2800,
      "ંચી": 2801,
      "આંદો": 2802,
      "સમુ": 2803,
      "ઝર": 2804,
      "ડાના": 2805,
      "ખસે": 2806,
      "બાદમાં": 2807,
      "દારી": 2808,
      "અનિ": 2809,
      "આદિ": 2810,
      "દુર": 2811,
      "કેન્દ્રીય": 2812,
      "સુપ્રીમ": 2813,
      "ગાડી": 2814,
      "છોડી": 2815,
      "પાન": 2816,
      "પોલીસને": 2817,
      "હાજરી": 2818,
      "પાઠ": 2819,
      "એજન્સી": 2820,
      "સારો": 2821,
      "મહિનામાં": 2822,
      "આગે": 2823,
      "ટ્વિ": 2824,
      "ધર્મ": 2825,
      "કલી": 2826,
      "રૃ": 2827,
      "ટાઈ": 2828,
      "ધોરણ": 2829,
      "કરેલ": 2830,
      "en": 2831,
      "બનાવે": 2832,
      "ઉદાહરણ": 2833,
      "બાંધ": 2834,
      "ત્કા": 2835,
      "મિશ્ર": 2836,
      "હૈ": 2837,
      "ચૂંટણીમાં": 2838,
      "ઓપરે": 2839,
      "પુન": 2840,
      "વ્ર": 2841,
      "સ્થિતિમાં": 2842,
      "તાથી": 2843,
      "એને": 2844,
      "રાષ્ટ્રપતિ": 2845,
      "સરકારના": 2846,
      "ક્યારેય": 2847,
      "કોણ": 2848,
      "વિગતો": 2849,
      "સંભ": 2850,
      "બોલી": 2851,
      "દુર્": 2852,
      "હેલ્": 2853,
      "અમિત": 2854,
      "ભય": 2855,
      "આઠ": 2856,
      "દંડ": 2857,
      "વેબ": 2858,
      "અમુક": 2859,
      "તૂ": 2860,
      "મરા": 2861,
      "પુરુષ": 2862,
      "શાંતિ": 2863,
      "મ્સ": 2864,
      "વિશા": 2865,
      "વાસ્ત": 2866,
      "ધ્ધ": 2867,
      "શકા": 2868,
      "જલ": 2869,
      "નિવેદન": 2870,
      "સ્સો": 2871,
      "ભોગ": 2872,
      "િયાત": 2873,
      "કોર્ડ": 2874,
      "૨૫": 2875,
      "લીમ": 2876,
      "ચું": 2877,
      "જીલ્લા": 2878,
      "કરવાથી": 2879,
      "પાં": 2880,
      "આપવાની": 2881,
      "કેટલા": 2882,
      "નાણાં": 2883,
      "કાયદે": 2884,
      "પોતાનો": 2885,
      "તબી": 2886,
      "ટને": 2887,
      "ચન": 2888,
      "પૂજા": 2889,
      "આંગ": 2890,
      "આપશે": 2891,
      "પાડી": 2892,
      "જનક": 2893,
      "સરકારની": 2894,
      "નાય": 2895,
      "નેત્રી": 2896,
      "આકર્": 2897,
      "ઇન્ડિયા": 2898,
      "૨૧": 2899,
      "કલાકમાં": 2900,
      "બાબત": 2901,
      "વમાં": 2902,
      "પાટ": 2903,
      "ગરમ": 2904,
      "કરાવી": 2905,
      "મૂકી": 2906,
      "વાહનો": 2907,
      "થોડી": 2908,
      "અભિનેત્રી": 2909,
      "ભગવાન": 2910,
      "નિયમ": 2911,
      "અમદાવાદમાં": 2912,
      "શંકા": 2913,
      "બન્યા": 2914,
      "શભાઈ": 2915,
      "હજી": 2916,
      "માધ્ય": 2917,
      "તાના": 2918,
      "આતંક": 2919,
      "મારો": 2920,
      "વસ્તુઓ": 2921,
      "કારાત્મક": 2922,
      "ક્સી": 2923,
      "લોકડાઉન": 2924,
      "જેટલી": 2925,
      "કર્યુ": 2926,
      "ડીઝ": 2927,
      "સમયથી": 2928,
      "મતદાન": 2929,
      "ખરીદ": 2930,
      "મિત્ર": 2931,
      "દેશની": 2932,
      "ંપ": 2933,
      "ચેર": 2934,
      "યાં": 2935,
      "રૂપાણી": 2936,
      "વિદેશી": 2937,
      "સાબિત": 2938,
      "નામાં": 2939,
      "નીકળ": 2940,
      "ણમાં": 2941,
      "અનુભવ": 2942,
      "કરાઈ": 2943,
      "અમને": 2944,
      "લોકપ્રિય": 2945,
      "બજારમાં": 2946,
      "સદી": 2947,
      "એની": 2948,
      "વડ": 2949,
      "સપ્ટેમ્બર": 2950,
      ".\"": 2951,
      "બચ": 2952,
      "અટ": 2953,
      "ઇડ": 2954,
      "નામે": 2955,
      "સામગ્રી": 2956,
      "ટ્રાન્સ": 2957,
      "રોની": 2958,
      "આવું": 2959,
      "ક્રિય": 2960,
      "કહેવું": 2961,
      "કેર": 2962,
      "વર્ક": 2963,
      "કેન્": 2964,
      "જવાનો": 2965,
      "સીસી": 2966,
      "ઓક્ટો": 2967,
      "રજા": 2968,
      "રહેવા": 2969,
      "ભરી": 2970,
      "દીધા": 2971,
      "કમિશન": 2972,
      "તાની": 2973,
      "કલ્": 2974,
      "ફિક": 2975,
      "ભાજી": 2976,
      "ળના": 2977,
      "રાખો": 2978,
      "અટકા": 2979,
      "શને": 2980,
      "પંજા": 2981,
      "જીવનમાં": 2982,
      "મિનિટ": 2983,
      "કપૂર": 2984,
      "વશે": 2985,
      "વહી": 2986,
      "ગુજરાતી": 2987,
      "મુશ્કેલ": 2988,
      "સોમવારે": 2989,
      "પહેર": 2990,
      "બજેટ": 2991,
      "ધં": 2992,
      "બિલ્": 2993,
      "રાજા": 2994,
      "સંભાવના": 2995,
      "પુસ્ત": 2996,
      "પોતાનું": 2997,
      "તેમનું": 2998,
      "બેઠકો": 2999,
      "ઈએ": 3000,
      "શરુ": 3001,
      "સંચાલ": 3002,
      "al": 3003,
      "કાનો": 3004,
      "સ્માર્ટ": 3005,
      "બાળકોને": 3006,
      "દમ": 3007,
      "શખ્": 3008,
      "સપાટી": 3009,
      "ભોજન": 3010,
      "ગમ": 3011,
      "૨૪": 3012,
      "વિકેટ": 3013,
      "લક્ષણો": 3014,
      "દિક": 3015,
      "ભાષા": 3016,
      "કરતો": 3017,
      "મોબાઈ": 3018,
      "માથા": 3019,
      "ડ્રે": 3020,
      "પ્રવાસ": 3021,
      "સંબંધિત": 3022,
      "દના": 3023,
      "રેકોર્ડ": 3024,
      "નનો": 3025,
      "ભારતની": 3026,
      "તામાં": 3027,
      "સંપર્ક": 3028,
      "અલ્": 3029,
      "યુવાન": 3030,
      "છોકરી": 3031,
      "2020": 3032,
      "એપ": 3033,
      "કારણો": 3034,
      "ક્ષિત": 3035,
      "કહ્યુ": 3036,
      "સરે": 3037,
      "પિત": 3038,
      "જઇ": 3039,
      "ફ્રા": 3040,
      "રાખીને": 3041,
      "સુપર": 3042,
      "કિટ": 3043,
      "ફાયર": 3044,
      "યાર": 3045,
      "લને": 3046,
      "મહત્વપૂર્ણ": 3047,
      "કંપનીઓ": 3048,
      "વારી": 3049,
      "કદા": 3050,
      "સેક્સ": 3051,
      "ઘટી": 3052,
      "પ્રોજેક્ટ": 3053,
      "ફેબ્રુ": 3054,
      "તેમનો": 3055,
      "આંકડા": 3056,
      "મેડિકલ": 3057,
      "બધું": 3058,
      "જથ્": 3059,
      "ધીમે": 3060,
      "વારં": 3061,
      "પહોંચ્યા": 3062,
      "લામાં": 3063,
      "60": 3064,
      "રક્ષણ": 3065,
      "સ્ટાર": 3066,
      "ખાલી": 3067,
      "વાતો": 3068,
      "શાકભાજી": 3069,
      "જાત": 3070,
      "શીલ": 3071,
      "મ્પિ": 3072,
      "વારંવાર": 3073,
      "23": 3074,
      "નાગરિ": 3075,
      "સાહ": 3076,
      "પ્રમાણમાં": 3077,
      "દીધું": 3078,
      "કરાયો": 3079,
      "શર્મા": 3080,
      "ધૂ": 3081,
      "ફેબ્રુઆરી": 3082,
      "તારીખ": 3083,
      "વ્યવહાર": 3084,
      "દિવસોમાં": 3085,
      "ભવિષ": 3086,
      "રીયા": 3087,
      "ગ્રસ્ત": 3088,
      "ઉમેદ": 3089,
      "સવાલ": 3090,
      "ચેક": 3091,
      "ળામાં": 3092,
      "ભવિષ્ય": 3093,
      "બંગા": 3094,
      "અદા": 3095,
      "ચક": 3096,
      "લોન": 3097,
      "ટીના": 3098,
      "સપ્તાહ": 3099,
      "ગણતરી": 3100,
      "મર્યા": 3101,
      "સ્ત્ર": 3102,
      "કાર્યો": 3103,
      "લાગણી": 3104,
      "ધર્": 3105,
      "કાંઠા": 3106,
      "ડેજા": 3107,
      "અક્ષ": 3108,
      "સ્તર": 3109,
      "સામાજિક": 3110,
      "ડિસેમ્બર": 3111,
      "મ્યુનિ": 3112,
      "રીઝ": 3113,
      "ઉંમર": 3114,
      "70": 3115,
      "જાડેજા": 3116,
      "વિષય": 3117,
      "ઇક": 3118,
      "ટ્વી": 3119,
      "લીઝ": 3120,
      "વર્ષીય": 3121,
      "આક્ષે": 3122,
      "યી": 3123,
      "નામના": 3124,
      "28": 3125,
      "વર્તન": 3126,
      "કદાચ": 3127,
      "બદલી": 3128,
      "2019": 3129,
      "પ્રત્યે": 3130,
      "આશરે": 3131,
      "યુવાનો": 3132,
      "વર્તમા": 3133,
      "પટેલે": 3134,
      "ધમકી": 3135,
      "રમત": 3136,
      "સ્લિ": 3137,
      "કઈ": 3138,
      "બિઝને": 3139,
      "જોર": 3140,
      "ટિક": 3141,
      "એકાઉન્ટ": 3142,
      "ડોઝ": 3143,
      "મહિલાઓ": 3144,
      "ભાગમાં": 3145,
      "ફાળ": 3146,
      "પ્રોડ": 3147,
      "માસ્ક": 3148,
      "કહેવાય": 3149,
      "રૂમ": 3150,
      "ક્કર": 3151,
      "સાથી": 3152,
      "જ્ઞાન": 3153,
      "સિદ્ધ": 3154,
      "કોના": 3155,
      "દીકરી": 3156,
      "બીજ": 3157,
      "સિસ્ટમ": 3158,
      "અપી": 3159,
      "વેસ્ટ": 3160,
      "રેડ": 3161,
      "પદ્ધ": 3162,
      "યણ": 3163,
      "જાણે": 3164,
      "ફેસ": 3165,
      "વેચ": 3166,
      "જમ્": 3167,
      "દ્વાર": 3168,
      "26": 3169,
      "ઉપસ્થિત": 3170,
      "બેઠકમાં": 3171,
      "કોહ": 3172,
      "ઓસ્ટ્રે": 3173,
      "તેઓએ": 3174,
      "ચોક": 3175,
      "રવિવારે": 3176,
      "રજૂઆત": 3177,
      "ખરેખર": 3178,
      "પેટ": 3179,
      "અચા": 3180,
      "લિયન": 3181,
      "ત્યા": 3182,
      "બારી": 3183,
      "બુક": 3184,
      "અત્યારે": 3185,
      "લેક": 3186,
      "બેડ": 3187,
      "પેટ્રોલ": 3188,
      "રિઝ": 3189,
      "પદ્ધતિ": 3190,
      "અતિ": 3191,
      "એકવાર": 3192,
      "સિવિલ": 3193,
      "અચાનક": 3194,
      "પરં": 3195,
      "સેન્ટર": 3196,
      "ઠ્": 3197,
      "દબાણ": 3198,
      "ડિગ્રી": 3199,
      "અઠવાડિયા": 3200,
      "સક્રિય": 3201,
      "તહે": 3202,
      "શકી": 3203,
      "સ્પી": 3204,
      "સ્ટેટ": 3205,
      "બંદર": 3206,
      "વય": 3207,
      "ફેરફાર": 3208,
      "ઉમેદવાર": 3209,
      "શનમાં": 3210,
      "વટ": 3211,
      "દેવી": 3212,
      "માનવ": 3213,
      "ત્રીજા": 3214,
      "કૃષિ": 3215,
      "જૈ": 3216,
      "લેક્": 3217,
      "સ્થાને": 3218,
      "કાઢી": 3219,
      "કુદર": 3220,
      "તાપમાન": 3221,
      "ડાની": 3222,
      "નર્મ": 3223,
      "બળા": 3224,
      "મળતા": 3225,
      "ખુશ": 3226,
      "એટલું": 3227,
      "તબક્કા": 3228,
      "તાત્કા": 3229,
      "ંડો": 3230,
      "રું": 3231,
      "ટિસ": 3232,
      "વેરા": 3233,
      "કર્મચારીઓ": 3234,
      "પરંપરા": 3235,
      "ળમાં": 3236,
      "ગોમાં": 3237,
      "કોમ": 3238,
      "મુંબઇ": 3239,
      "સંબંધો": 3240,
      "st": 3241,
      "ન્ય": 3242,
      "રમા": 3243,
      "નવેમ્બર": 3244,
      "લેતા": 3245,
      "ફિલ્મમાં": 3246,
      "ન્સી": 3247,
      "સમજ": 3248,
      "ડેટા": 3249,
      "હોવાનો": 3250,
      "બજા": 3251,
      "ફોર્": 3252,
      "ફંડ": 3253,
      "નર્મદા": 3254,
      "વિરા": 3255,
      "ખોરાક": 3256,
      "દૃ": 3257,
      "નિધિ": 3258,
      "એરપોર્ટ": 3259,
      "સર્વે": 3260,
      "ણાં": 3261,
      "ઓગસ્ટ": 3262,
      "કડક": 3263,
      "ડાઈ": 3264,
      "ર્જી": 3265,
      "કોહલી": 3266,
      "બિલ": 3267,
      "ધામ": 3268,
      "તરણ": 3269,
      "ટીમે": 3270,
      "સરકારને": 3271,
      "મેરા": 3272,
      "એપ્રિલ": 3273,
      "ટેલ": 3274,
      "માસ": 3275,
      "પ્લાન્ટ": 3276,
      "પ્રશ્નો": 3277,
      "રજુ": 3278,
      "સૂર્ય": 3279,
      "ન્ડર": 3280,
      "ગરમી": 3281,
      "દ્રા": 3282,
      "પાક": 3283,
      "વીર": 3284,
      "વવાનો": 3285,
      "ચિત્ર": 3286,
      "છૂટ": 3287,
      "ક્રમ": 3288,
      "કરાશે": 3289,
      "લં": 3290,
      "મોબાઈલ": 3291,
      "રં": 3292,
      "યુદ્ધ": 3293,
      "પૃ": 3294,
      "હેતુ": 3295,
      "ચાં": 3296,
      "પન": 3297,
      "૪૦": 3298,
      "વાગ્ય": 3299,
      "રાય": 3300,
      "મશી": 3301,
      "સાંસદ": 3302,
      "વર્તમાન": 3303,
      "અપીલ": 3304,
      "લોટ": 3305,
      "સંતો": 3306,
      "માનસિક": 3307,
      "જનતા": 3308,
      "ંગી": 3309,
      "સંપૂર્ણપણે": 3310,
      "આથી": 3311,
      "વાગ્યે": 3312,
      "વૃક્ષ": 3313,
      "ભલા": 3314,
      "પગલાં": 3315,
      "બનશે": 3316,
      "મોબા": 3317,
      "બીમારી": 3318,
      "ઇન્ટ": 3319,
      "કરનારા": 3320,
      "જારી": 3321,
      "રાત્રી": 3322,
      "અકસ્માત": 3323,
      "કેન્સર": 3324,
      "વિસ": 3325,
      "શુક્રવારે": 3326,
      "સ્ના": 3327,
      ".”": 3328,
      "ખાતરી": 3329,
      "શૈલી": 3330,
      "મુસ્લિ": 3331,
      "પ્રશ્ન": 3332,
      "માનો": 3333,
      "ઇજા": 3334,
      "મોકલી": 3335,
      "મળીને": 3336,
      "દરરોજ": 3337,
      "મોટાભાગના": 3338,
      "સ્થળો": 3339,
      "મંત્રાલય": 3340,
      "પ્રભા": 3341,
      "સેટ": 3342,
      "વિભાગના": 3343,
      "કેપ્ટન": 3344,
      "હોવાના": 3345,
      "ભ્ર": 3346,
      "સ્વીકાર": 3347,
      "વં": 3348,
      "પાણીની": 3349,
      "ફાયદો": 3350,
      "ળીને": 3351,
      "સંજય": 3352,
      "ૂડ": 3353,
      "હવામાન": 3354,
      "આધારિત": 3355,
      "વિશાળ": 3356,
      "મુકા": 3357,
      "ફાયદા": 3358,
      "મરી": 3359,
      "રવ": 3360,
      "તત્": 3361,
      "જુલાઈ": 3362,
      "સોલ": 3363,
      "80": 3364,
      "પુત્રી": 3365,
      "ાર્ડ": 3366,
      "જૂનાગઢ": 3367,
      "હરા": 3368,
      "ત્રણે": 3369,
      "ડાયા": 3370,
      "ચલ": 3371,
      "ઓક્ટોબર": 3372,
      "નોલોજી": 3373,
      "બુધવારે": 3374,
      "ચેરમેન": 3375,
      "જતી": 3376,
      "પ્રવાસી": 3377,
      "સંદર્": 3378,
      "તરત": 3379,
      "રત": 3380,
      "તિક": 3381,
      "પ્સ": 3382,
      "ઈન્ડિયા": 3383,
      "રાજે": 3384,
      "શકતા": 3385,
      "મનાથ": 3386,
      "વાં": 3387,
      "પ્રવૃત્તિ": 3388,
      "ટ્રેન": 3389,
      "વાતચીત": 3390,
      "વકી": 3391,
      "પુલ": 3392,
      "પુરી": 3393,
      "ગીર": 3394,
      "પોલિ": 3395,
      "2021": 3396,
      "દેખાય": 3397,
      "લગાવી": 3398,
      "પડ્યો": 3399,
      "માંડ": 3400,
      "કિસ્સામાં": 3401,
      "રાશ": 3402,
      "લોકોમાં": 3403,
      "ટ્રાફિક": 3404,
      "તાલુકામાં": 3405,
      "લાસ": 3406,
      "અંબા": 3407,
      "સમજા": 3408,
      "શોધી": 3409,
      "વેપાર": 3410,
      "્રો": 3411,
      "પાછા": 3412,
      "27": 3413,
      "કાના": 3414,
      "મેચમાં": 3415,
      "પથ": 3416,
      "પામ": 3417,
      "પમાં": 3418,
      "સ્પર્ધા": 3419,
      "કડા": 3420,
      "શભાઇ": 3421,
      "ડીયો": 3422,
      "રેન્": 3423,
      "એસટી": 3424,
      "એકબીજા": 3425,
      "બેસી": 3426,
      "સૂચના": 3427,
      "ગ્રુ": 3428,
      "ic": 3429,
      "જમ્મુ": 3430,
      "ગમે": 3431,
      "મંગળવારે": 3432,
      "જિત": 3433,
      "ધારી": 3434,
      "દરવા": 3435,
      "અભિયાન": 3436,
      "આતંકી": 3437,
      "શોક": 3438,
      "ગર્ભ": 3439,
      "સંભાળ": 3440,
      "ફૂટ": 3441,
      "દિવસની": 3442,
      "કલમ": 3443,
      "પજ": 3444,
      "બાળકી": 3445,
      "સાથ": 3446,
      "ંગના": 3447,
      "બપોરે": 3448,
      "સ્ત્રો": 3449,
      "દિવાળી": 3450,
      "શખ્સો": 3451,
      "વિદ": 3452,
      "ચેત": 3453,
      "નવો": 3454,
      "વર્ણ": 3455,
      "સન્માન": 3456,
      "બરા": 3457,
      "આરામ": 3458,
      "ઈજા": 3459,
      "ફર્": 3460,
      "ગોઠ": 3461,
      "એજ": 3462,
      "ટેલિ": 3463,
      "નોંધાયો": 3464,
      "ખેડૂત": 3465,
      "પ્રધાનમંત્રી": 3466,
      "29": 3467,
      "ed": 3468,
      "એટલા": 3469,
      "ઉના": 3470,
      "ટમેન્ટ": 3471,
      "સફે": 3472,
      "સુના": 3473,
      "પોતાને": 3474,
      "નેતાઓ": 3475,
      "પરછ": 3476,
      "દેહ": 3477,
      "વધે": 3478,
      "હેલ્થ": 3479,
      "વિંદ": 3480,
      "નિયં": 3481,
      "નાણાકીય": 3482,
      "ક્યારેક": 3483,
      "વિતરણ": 3484,
      "પીએસ": 3485,
      "હોમ": 3486,
      "ણીએ": 3487,
      "જને": 3488,
      "રિય": 3489,
      "મદદથી": 3490,
      "અલી": 3491,
      "જમી": 3492,
      "નિયમિત": 3493,
      "શનિવારે": 3494,
      "રાં": 3495,
      "અહેવાલ": 3496,
      "માઇ": 3497,
      "વાલી": 3498,
      "જીતી": 3499,
      "દિલ્હીમાં": 3500,
      "ત્સા": 3501,
      "આંતરરાષ્ટ્રીય": 3502,
      "આના": 3503,
      "હૃ": 3504,
      "તાઓ": 3505,
      "અમરેલી": 3506,
      "કૃત": 3507,
      "ઘણાં": 3508,
      "પત્તિ": 3509,
      "નિયંત્રણ": 3510,
      "નમ": 3511,
      "હદ": 3512,
      "હૂ": 3513,
      "દરિયા": 3514,
      "બેન્ક": 3515,
      "it": 3516,
      "દઈએ": 3517,
      "31": 3518,
      "રસો": 3519,
      "ટીવ": 3520,
      "સફેદ": 3521,
      "ખત": 3522,
      "જેનો": 3523,
      "અંતે": 3524,
      "35": 3525,
      "અબ": 3526,
      "ર્તિ": 3527,
      "વિધિ": 3528,
      "પકડી": 3529,
      "બેં": 3530,
      "ડિઝાઇન": 3531,
      "ગલ": 3532,
      "મુક્ત": 3533,
      "તારા": 3534,
      "તોને": 3535,
      "માલિ": 3536,
      "મોડે": 3537,
      "ઓસ્ટ્રેલિયા": 3538,
      "ભલામણ": 3539,
      "રદ": 3540,
      "ર્વ": 3541,
      "પર્યા": 3542,
      "માટેના": 3543,
      "કરેલા": 3544,
      "શ્રેણી": 3545,
      "કાયદેસર": 3546,
      "સીએ": 3547,
      "ચ્યુ": 3548,
      "મોટું": 3549,
      "ડ્રગ": 3550,
      "વત્તા": 3551,
      "ધુનિક": 3552,
      "સરખા": 3553,
      "ગુરૂ": 3554,
      "ક્ષી": 3555,
      "મિલ": 3556,
      "દોષ": 3557,
      "ક્લિક": 3558,
      "વારો": 3559,
      "સાંભળ": 3560,
      "ખિ": 3561,
      "સ્ટિક": 3562,
      "ડિટ": 3563,
      "વિપક્ષ": 3564,
      "આશ્": 3565,
      "સ્વરૂપ": 3566,
      "સલમાન": 3567,
      "કરાયા": 3568,
      "કર્મી": 3569,
      "બહેન": 3570,
      "વારના": 3571,
      "સંગ્ર": 3572,
      "ફ્રી": 3573,
      "સરો": 3574,
      "પ્રાણી": 3575,
      "થતો": 3576,
      "ંબ": 3577,
      "કાળા": 3578,
      "શ્યક": 3579,
      "મૂલ્ય": 3580,
      "ફ્રિ": 3581,
      "મોબાઇલ": 3582,
      "જોગ": 3583,
      "નિષ્ફળ": 3584,
      "નોટ": 3585,
      "એસો": 3586,
      "સતા": 3587,
      "સંગી": 3588,
      "ખેડૂતોને": 3589,
      "કિશો": 3590,
      "કરાયું": 3591,
      "ઘાત": 3592,
      "સંતા": 3593,
      "દાસ": 3594,
      "ઘરની": 3595,
      "સંબો": 3596,
      "૨૨": 3597,
      "ઓક્સિ": 3598,
      "દુઃ": 3599,
      "હિન્દુ": 3600,
      "આદ": 3601,
      "ઉકેલ": 3602,
      "ટીંગ": 3603,
      "વિગત": 3604,
      "માંગણી": 3605,
      "સૂચ": 3606,
      "પગાર": 3607,
      "સ્કી": 3608,
      "બિહાર": 3609,
      "હાથમાં": 3610,
      "દરો": 3611,
      "છતા": 3612,
      "ડ્રો": 3613,
      "નામની": 3614,
      "બદલા": 3615,
      "ફ્લો": 3616,
      "વૈજ્ઞા": 3617,
      "યાત": 3618,
      "આંખ": 3619,
      "જોખમ": 3620,
      "વધીને": 3621,
      "બૉ": 3622,
      "રાવ": 3623,
      "સંયુક્ત": 3624,
      "ત્વચા": 3625,
      "પ્લેટ": 3626,
      "સંકે": 3627,
      "સ્વસ્થ": 3628,
      "આંદોલન": 3629,
      "મોહ": 3630,
      "ધારો": 3631,
      "નાખી": 3632,
      "િંગ": 3633,
      "મોડી": 3634,
      "એમાં": 3635,
      "વૃદ્ધિ": 3636,
      "મહાન": 3637,
      "માણસ": 3638,
      "ભારતે": 3639,
      "ટ્ટી": 3640,
      "સ્ય": 3641,
      "સર્ચ": 3642,
      "પોરબંદર": 3643,
      "તાત્કાલિક": 3644,
      "બિઝનેસ": 3645,
      "જોઈને": 3646,
      "જીની": 3647,
      "કુદરતી": 3648,
      "પત": 3649,
      "કહેવા": 3650,
      "જેઓ": 3651,
      "કોર્પોરેશન": 3652,
      "ગણે": 3653,
      "તકલી": 3654,
      "ઓછું": 3655,
      "ત્સવ": 3656,
      "ધરવામાં": 3657,
      "લક્ષ્": 3658,
      "કથા": 3659,
      "ન્ડે": 3660,
      "સીપી": 3661,
      "પ્રયત્ન": 3662,
      "મથી": 3663,
      "90": 3664,
      "આવશ્યક": 3665,
      "પરિવારના": 3666,
      "સાધનો": 3667,
      "ટેક્": 3668,
      "રૂમમાં": 3669,
      "as": 3670,
      "બગ": 3671,
      "કયા": 3672,
      "રીને": 3673,
      "ભૂલ": 3674,
      "ભજ": 3675,
      "લૉ": 3676,
      "નિકો": 3677,
      "આપણી": 3678,
      "ઉભી": 3679,
      "વળી": 3680,
      "હાર્દિક": 3681,
      "હૃદય": 3682,
      "કચ": 3683,
      "વડી": 3684,
      "અભિનેતા": 3685,
      "હકીકત": 3686,
      "સાણા": 3687,
      "બીજો": 3688,
      "આકર્ષ": 3689,
      "ઓથી": 3690,
      "જરે": 3691,
      "હોટ": 3692,
      "નોંધી": 3693,
      "ક્ષણિક": 3694,
      "આંખો": 3695,
      "ધારાસભ્યો": 3696,
      "અસરકાર": 3697,
      "વેર": 3698,
      "ન્ના": 3699,
      "બનવા": 3700,
      "થ્થ": 3701,
      "મજા": 3702,
      "૨૦૦": 3703,
      "ન્ડસ્ટ્રી": 3704,
      "45": 3705,
      "કબ": 3706,
      "કરોડની": 3707,
      "જાગૃ": 3708,
      "ન્યાય": 3709,
      "ડિયન": 3710,
      "ખુશી": 3711,
      "ભરત": 3712,
      "અગ્રણી": 3713,
      "સર્વ": 3714,
      "વિકલ્પ": 3715,
      "જ્યો": 3716,
      "પિયા": 3717,
      "લેવાની": 3718,
      "ઘૂ": 3719,
      "ભાગ્ય": 3720,
      "મહેન": 3721,
      "કક્ષા": 3722,
      "ઘણો": 3723,
      "વ્યાજ": 3724,
      "સ્કૂલ": 3725,
      "અસરકારક": 3726,
      "સમક્ષ": 3727,
      "દસ્તા": 3728,
      "આવો": 3729,
      "ફસા": 3730,
      "નિયર": 3731,
      "બાયો": 3732,
      "વવાનું": 3733,
      "સંકળા": 3734,
      "રોલ": 3735,
      "સેલ": 3736,
      "આપીને": 3737,
      "કાર્યક્રમમાં": 3738,
      "ઈન્ટર": 3739,
      "ચહેરા": 3740,
      "કામો": 3741,
      "શીખ": 3742,
      "રાજકોટમાં": 3743,
      "ંગ્લેન્ડ": 3744,
      "હોત": 3745,
      "કૂળ": 3746,
      "લત": 3747,
      "દસ": 3748,
      "ing": 3749,
      "સુનાવણી": 3750,
      "રેક્ટર": 3751,
      "નીકળી": 3752,
      "ક્ષેત્રમાં": 3753,
      "શબ્દો": 3754,
      "પ્રસંગે": 3755,
      "વધારી": 3756,
      "સુરક્ષિત": 3757,
      "જથ્થો": 3758,
      "યુવક": 3759,
      "દિત": 3760,
      "ચેપ": 3761,
      "સુરતમાં": 3762,
      "વિરૂ": 3763,
      "જાતિ": 3764,
      "રૂપિયાની": 3765,
      "પાઈ": 3766,
      "ધોની": 3767,
      "રમી": 3768,
      "મકા": 3769,
      "તાએ": 3770,
      "કાર્યકરો": 3771,
      "ધાર્": 3772,
      "લોહી": 3773,
      "દસ્તાવે": 3774,
      "કાળજી": 3775,
      "સ્વચ્": 3776,
      "આખા": 3777,
      "માહોલ": 3778,
      "ઓફર": 3779,
      "કંઈક": 3780,
      "સાહે": 3781,
      "ગોળી": 3782,
      "ભાવમાં": 3783,
      "રિલીઝ": 3784,
      "કરેલી": 3785,
      "ગુણવત્તા": 3786,
      "મિશન": 3787,
      "૬૦": 3788,
      "પાવર": 3789,
      "દિવસથી": 3790,
      "નોંધાવી": 3791,
      "પ્રદ": 3792,
      "કૃષ્ણ": 3793,
      "ઉદ્": 3794,
      "આવ્યુ": 3795,
      "કરાર": 3796,
      "આધુનિક": 3797,
      "નિષ્ણા": 3798,
      "શખ": 3799,
      "ચારે": 3800,
      "રહેતી": 3801,
      "ધારણ": 3802,
      "વાયરસના": 3803,
      "પ્રેમી": 3804,
      "પ્રચાર": 3805,
      "યેલો": 3806,
      "ફાર્": 3807,
      "શારી": 3808,
      "નામું": 3809,
      "ગ્રામ્ય": 3810,
      "ઠંડી": 3811,
      "સંપત્તિ": 3812,
      "પ્રતિનિધિ": 3813,
      "બાબતો": 3814,
      "વિચારો": 3815,
      "ઓછામાં": 3816,
      "આતંકવાદી": 3817,
      "સહી": 3818,
      "વહેલી": 3819,
      "દેખાવ": 3820,
      "ઝોન": 3821,
      "મૌ": 3822,
      "તીવ્ર": 3823,
      "માર્ગદર્શન": 3824,
      "ro": 3825,
      "ણંદ": 3826,
      "ળુ": 3827,
      "ગામો": 3828,
      "તમારું": 3829,
      "ક્યુ": 3830,
      "પ્રિયંકા": 3831,
      "રેજ": 3832,
      "સાથેની": 3833,
      "જવાબદાર": 3834,
      "ઊંચા": 3835,
      "પડા": 3836,
      "મકાન": 3837,
      "ઓલ": 3838,
      "પાણીમાં": 3839,
      "ઉભા": 3840,
      "વટી": 3841,
      "કેમ્પ": 3842,
      "સાગર": 3843,
      "ન્સિ": 3844,
      "વ્યૂ": 3845,
      "તણા": 3846,
      "સોમનાથ": 3847,
      "સત્ય": 3848,
      "ક્વો": 3849,
      "ઉમેર": 3850,
      "ંચે": 3851,
      "ડેરી": 3852,
      "વરી": 3853,
      "સ્પદ": 3854,
      "લેશન": 3855,
      "અંગેની": 3856,
      "માલિક": 3857,
      "પરમાર": 3858,
      "મેસે": 3859,
      "પ્રદેશના": 3860,
      "આક્ષેપ": 3861,
      "અત્ય": 3862,
      "વ્યક્તિને": 3863,
      "લાગ્યો": 3864,
      "કપડાં": 3865,
      "કોમાં": 3866,
      "આત્મ": 3867,
      "શબ્દ": 3868,
      "પરવાનગી": 3869,
      "ક્ષમ": 3870,
      "લાખો": 3871,
      "પ્રેસ": 3872,
      "ચર્ય": 3873,
      "અફઘા": 3874,
      "કાપી": 3875,
      "સમીક્ષા": 3876,
      "અજાણ": 3877,
      "ભટ્": 3878,
      "ગેસ": 3879,
      "મીના": 3880,
      "સ્ટોર": 3881,
      "દોડી": 3882,
      "આયુ": 3883,
      "રિટી": 3884,
      "મારફ": 3885,
      "ધાર્મિક": 3886,
      "હટા": 3887,
      "આવેલું": 3888,
      "હાં": 3889,
      "ગુલા": 3890,
      "પાર્ક": 3891,
      "વડે": 3892,
      "વિડીયો": 3893,
      "દિગ્": 3894,
      "કલેકટર": 3895,
      "500": 3896,
      "સ્ક્રી": 3897,
      "લાગ્યા": 3898,
      "હેડ": 3899,
      "ર્ક": 3900,
      "જેનાથી": 3901,
      "બોલિવ": 3902,
      "દર્શ": 3903,
      "નારાયણ": 3904,
      "સ્ટ્રો": 3905,
      "સોના": 3906,
      "ઓક્સિજન": 3907,
      "અત્યંત": 3908,
      "સરા": 3909,
      "પેટ્રો": 3910,
      "ઉમ": 3911,
      "રોએ": 3912,
      "જણાવ્યુ": 3913,
      "વિદ્યાર્થીઓને": 3914,
      "ૃત": 3915,
      "લોન્ચ": 3916,
      "ઈડ": 3917,
      "ગૂ": 3918,
      "કેમેરા": 3919,
      "વ્યક્તિગત": 3920,
      "આગાહી": 3921,
      "સ્થાપિત": 3922,
      "ઉપયોગી": 3923,
      "કંપનીએ": 3924,
      "તસવીર": 3925,
      "રમે": 3926,
      "વાયુ": 3927,
      "સાઉ": 3928,
      "ગારી": 3929,
      "કાગ": 3930,
      "ૈયા": 3931,
      "વાને": 3932,
      "ખોલ": 3933,
      "જુદી": 3934,
      "કંપનીના": 3935,
      "ઓફિસ": 3936,
      "આપો": 3937,
      "અધિકાર": 3938,
      "રાત્રિ": 3939,
      "શારીરિક": 3940,
      "પામી": 3941,
      "સહિતની": 3942,
      "લેશે": 3943,
      "વાવા": 3944,
      "ડિસ્": 3945,
      "અપના": 3946,
      "માઈ": 3947,
      "સુરેન્દ્ર": 3948,
      "નહોતી": 3949,
      "ખ્યાત": 3950,
      "શિયન": 3951,
      "ઠેર": 3952,
      "૨૩": 3953,
      "જવાની": 3954,
      "રેટ": 3955,
      "અમેરિકન": 3956,
      "સણ": 3957,
      "કૌભા": 3958,
      "જગ": 3959,
      "શ્રદ્ધા": 3960,
      "શરીરમાં": 3961,
      "લોડ": 3962,
      "લાવી": 3963,
      "પ્રદેશમાં": 3964,
      "મુસા": 3965,
      "એકા": 3966,
      "ઠું": 3967,
      "બન્યો": 3968,
      "કાર્યક્રમો": 3969,
      "આભાર": 3970,
      "ભવ્ય": 3971,
      "વિમાન": 3972,
      "શાળી": 3973,
      "વવું": 3974,
      "ભરતી": 3975,
      "પીડિ": 3976,
      "ખાને": 3977,
      "૧૦૦": 3978,
      "આશ્ચર્ય": 3979,
      "ભલે": 3980,
      "ચોમા": 3981,
      "પાડવામાં": 3982,
      "વિરાટ": 3983,
      "le": 3984,
      "જૂન": 3985,
      "ખં": 3986,
      "ઢો": 3987,
      "કરશો": 3988,
      "મામલો": 3989,
      "એન્જિ": 3990,
      "ખુલા": 3991,
      "બાત": 3992,
      "ભંગ": 3993,
      "તસવીરો": 3994,
      "ટોપ": 3995,
      "પીડા": 3996,
      "એવોર્ડ": 3997,
      "ક્લિ": 3998,
      "નાઇ": 3999,
      "રસીકરણ": 4000,
      "વિદ્યા": 4001,
      "ભાવે": 4002,
      "2018": 4003,
      "વાસ્તવિક": 4004,
      "પોલીસની": 4005,
      "સચિવ": 4006,
      "આવતાં": 4007,
      "ત્રીજી": 4008,
      "ગોલ્ડ": 4009,
      "નવું": 4010,
      "૭૦": 4011,
      "સરદાર": 4012,
      "મહત્ત્વ": 4013,
      "હજારો": 4014,
      "ગીત": 4015,
      "તરના": 4016,
      "દોડ": 4017,
      "તેમાંથી": 4018,
      "સમાજના": 4019,
      "મુસ્લિમ": 4020,
      "સુધારો": 4021,
      "પુરમાં": 4022,
      "ઓનલાઇન": 4023,
      "સેસ": 4024,
      "શ્ચિત": 4025,
      "બર્": 4026,
      "આખરે": 4027,
      "જેલ": 4028,
      "પગલા": 4029,
      "ખું": 4030,
      "રશિયા": 4031,
      "સ્તરે": 4032,
      "નોંધપાત્ર": 4033,
      "ભિ": 4034,
      "તેવો": 4035,
      "ખાણ": 4036,
      "રિયલ": 4037,
      "ડીમાં": 4038,
      "શ્વાસ": 4039,
      "મેનેજ": 4040,
      "99": 4041,
      "દુકાન": 4042,
      "વાંચો": 4043,
      "ોમાં": 4044,
      "વિભાગે": 4045,
      "પાઇ": 4046,
      "ઓછો": 4047,
      "ચાઇ": 4048,
      "પ્રતિક્રિયા": 4049,
      "જવામાં": 4050,
      "લીલા": 4051,
      "ટિકિટ": 4052,
      "અમલ": 4053,
      "ટણી": 4054,
      "ડૂ": 4055,
      "સમજી": 4056,
      "બનાવ્યા": 4057,
      "તાલીમ": 4058,
      "રહેલ": 4059,
      "જનરલ": 4060,
      "પ્રોત્સા": 4061,
      "તલ": 4062,
      "મોંઘ": 4063,
      "દિન": 4064,
      "અમેરિકાના": 4065,
      "હલ": 4066,
      "હોઇ": 4067,
      "પરિવારજનો": 4068,
      "ch": 4069,
      "અવાજ": 4070,
      "ટોક": 4071,
      "રક્ત": 4072,
      "દેશોમાં": 4073,
      "ચાલે": 4074,
      "કોઈને": 4075,
      "નાગરિક": 4076,
      "ઉર્ફે": 4077,
      "બાળકને": 4078,
      "ડીએ": 4079,
      "લોમાં": 4080,
      "વાવાઝો": 4081,
      "મહેસાણા": 4082,
      "વની": 4083,
      "ટૂંક": 4084,
      "ઇતિહા": 4085,
      "લોકડાઉ": 4086,
      "પણી": 4087,
      "ટ્રસ્ટ": 4088,
      "લોકોનો": 4089,
      "અપે": 4090,
      "આકાર": 4091,
      "રિત": 4092,
      "ંજ": 4093,
      "ચીફ": 4094,
      "નાયબ": 4095,
      "સંસદ": 4096,
      "પરિણામો": 4097,
      "વપરાશ": 4098,
      "am": 4099,
      "રેશ": 4100,
      "ટોચ": 4101,
      "લવ": 4102,
      "સ્વાદ": 4103,
      "મર્યાદા": 4104,
      "ટ્રમ્પ": 4105,
      "ઉત્તમ": 4106,
      "પરીક્ષણ": 4107,
      "અંદાજ": 4108,
      "સરખામણી": 4109,
      "આશ્ર": 4110,
      "વિરોધી": 4111,
      "લ્યુ": 4112,
      "શાહી": 4113,
      "પરિણામે": 4114,
      "૨૮": 4115,
      "આવ્યાં": 4116,
      "ત્રણેય": 4117,
      "re": 4118,
      "સેવ": 4119,
      "સાઇટ": 4120,
      "સરેરાશ": 4121,
      "દુષ્": 4122,
      "ઘન": 4123,
      "ઘણું": 4124,
      "વરિ": 4125,
      "કલાકે": 4126,
      "આગેવાનો": 4127,
      "જોતા": 4128,
      "ચૂક્યા": 4129,
      "ગરીબ": 4130,
      "ડુંગ": 4131,
      "સ્કો": 4132,
      "રાઉન્ડ": 4133,
      "કાયદો": 4134,
      "પાર્ટીના": 4135,
      "ઝુ": 4136,
      "બાપુ": 4137,
      "તં": 4138,
      "લહેર": 4139,
      "અશ્": 4140,
      "૨૬": 4141,
      "ટેબલ": 4142,
      "સિસ": 4143,
      "વધતા": 4144,
      "રણા": 4145,
      "વનાર": 4146,
      "રીત": 4147,
      "સંત": 4148,
      "લીધું": 4149,
      "પંજાબ": 4150,
      "જામીન": 4151,
      "જૂના": 4152,
      "લાંબી": 4153,
      "વૈશ્": 4154,
      "જમ": 4155,
      "સંક્રમિત": 4156,
      "તોડ": 4157,
      "ચાહ": 4158,
      "ક્રેડિટ": 4159,
      "આંકડો": 4160,
      "લાવવા": 4161,
      "આખી": 4162,
      "ોને": 4163,
      "જાે": 4164,
      "ત્કાર": 4165,
      "ડોક્ટર": 4166,
      "મંડળ": 4167,
      "લાખની": 4168,
      "તેટ": 4169,
      "સીએમ": 4170,
      "સિંહે": 4171,
      "ઉત્પાદનો": 4172,
      "વેક્સિન": 4173,
      "વેટ": 4174,
      "ટીસ": 4175,
      "ગેટ": 4176,
      "તોની": 4177,
      "સંબંધી": 4178,
      "સમર્થન": 4179,
      "મસા": 4180,
      "શરૂઆતમાં": 4181,
      "દિશામાં": 4182,
      "દની": 4183,
      "વવી": 4184,
      "મહો": 4185,
      "કોશિ": 4186,
      "યુરો": 4187,
      "રોગો": 4188,
      "અનામત": 4189,
      "પ્રશં": 4190,
      "મ્બરે": 4191,
      "નગરમાં": 4192,
      "ઓનલાઈન": 4193,
      "રીના": 4194,
      "ચાઈ": 4195,
      "મય": 4196,
      "is": 4197,
      "દર્દીઓને": 4198,
      "જાણીતા": 4199,
      "75": 4200,
      "આચાર": 4201,
      "રહેવું": 4202,
      "ષ્ય": 4203,
      "સાથેના": 4204,
      "જાતે": 4205,
      "પાર્ટમેન્ટ": 4206,
      "ધ્ર": 4207,
      "વિંગ": 4208,
      "તોડી": 4209,
      "બેક": 4210,
      "પ્લાન": 4211,
      "ળીયા": 4212,
      "ફોર": 4213,
      "પૂછપરછ": 4214,
      "એકદમ": 4215,
      "વના": 4216,
      "કિર્": 4217,
      "સહે": 4218,
      "રોહિત": 4219,
      "જીના": 4220,
      "ફેશન": 4221,
      "કામાં": 4222,
      "લીપ": 4223,
      "લિસ્ટ": 4224,
      "કેસની": 4225,
      "જ્જ": 4226,
      "મૃતદેહ": 4227,
      "બાંધકામ": 4228,
      "રોધ": 4229,
      "મહેનત": 4230,
      "ક્લ": 4231,
      "ન્શન": 4232,
      "સીટી": 4233,
      "તમારો": 4234,
      "વસા": 4235,
      "મુસાફ": 4236,
      "સ્વતંત્ર": 4237,
      "ખાય": 4238,
      "મૃતક": 4239,
      "શકાશે": 4240,
      "લખી": 4241,
      "ઝર્સ": 4242,
      "રક્ષા": 4243,
      "વિન": 4244,
      "પેદા": 4245,
      "ઇમ": 4246,
      "જૂર": 4247,
      "કરાવવા": 4248,
      "દમાં": 4249,
      "રીમાં": 4250,
      "મિતા": 4251,
      "વલસા": 4252,
      "મહત્વનું": 4253,
      "ગન": 4254,
      "2017": 4255,
      "હિંસા": 4256,
      "શંકર": 4257,
      "મિશ્રણ": 4258,
      "ર૦": 4259,
      "વૈશ્વિક": 4260,
      "પ્રકા": 4261,
      "હાઉસ": 4262,
      "તકલીફ": 4263,
      "સક": 4264,
      "વિશ્વમાં": 4265,
      "થોડો": 4266,
      "સ્થિર": 4267,
      "રાજસ્થા": 4268,
      "ખોટી": 4269,
      "સરળતાથી": 4270,
      "સંજો": 4271,
      "આવવા": 4272,
      "ગોંડ": 4273,
      "ઓપરેશન": 4274,
      "ટ્વીટ": 4275,
      "કરોડો": 4276,
      "કર્ણા": 4277,
      "ક્ષેત્રે": 4278,
      "કાળમાં": 4279,
      "સ્ટેશનમાં": 4280,
      "વૉ": 4281,
      "રાઇ": 4282,
      "વને": 4283,
      "લાની": 4284,
      "સુધાર": 4285,
      "હારી": 4286,
      "કુશ": 4287,
      "બ્રો": 4288,
      "રાઈ": 4289,
      "કિલોમીટર": 4290,
      "પવન": 4291,
      "મળવા": 4292,
      "રોકડ": 4293,
      "નિસ્તા": 4294,
      "બોટ": 4295,
      "સમયગાળા": 4296,
      "કમિશનર": 4297,
      "બ્રહ્": 4298,
      "પહોંચ્યો": 4299,
      "જૂથ": 4300,
      "36": 4301,
      "રાજસ્થાન": 4302,
      "ંદગી": 4303,
      "વરસા": 4304,
      "પડ્યા": 4305,
      "કૌભાંડ": 4306,
      "રાજ્યોમાં": 4307,
      "પરના": 4308,
      "ગામની": 4309,
      "લાયન્સ": 4310,
      "અંક": 4311,
      "વિટા": 4312,
      "જેલમાં": 4313,
      "પથ્થ": 4314,
      "ભરવા": 4315,
      "પંથ": 4316,
      "અશોક": 4317,
      "રાજુ": 4318,
      "મહિને": 4319,
      "કમાણી": 4320,
      "લક્ષ્મી": 4321,
      "ઉપકરણ": 4322,
      "ઘણીવાર": 4323,
      "બ્લેક": 4324,
      "રાની": 4325,
      "ફાઇન": 4326,
      "ઓટો": 4327,
      "સમસ્યાઓ": 4328,
      "ફ્રેન્ડ": 4329,
      "રેખા": 4330,
      "ક્રાઈ": 4331,
      "કાની": 4332,
      "પાડે": 4333,
      "દોઢ": 4334,
      "પૃથ્": 4335,
      "રજી": 4336,
      "કાશ્મીર": 4337,
      "આઈપી": 4338,
      "મચા": 4339,
      "જેવું": 4340,
      "દવાઓ": 4341,
      "એસપી": 4342,
      "મેદા": 4343,
      "જેમાંથી": 4344,
      "સેક": 4345,
      "૩૧": 4346,
      "નેતૃ": 4347,
      "મૂર્તિ": 4348,
      "મંદિરમાં": 4349,
      "શહેરી": 4350,
      "પ્રભાવ": 4351,
      "ચામ": 4352,
      "સર્વિસ": 4353,
      "ati": 4354,
      "૨૭": 4355,
      "ફોટા": 4356,
      "ચૂકી": 4357,
      "om": 4358,
      "ષી": 4359,
      "શૂટિંગ": 4360,
      "લીયા": 4361,
      "ટ્રક": 4362,
      "બરાબર": 4363,
      "ગું": 4364,
      "જરૂરિયાત": 4365,
      "હરી": 4366,
      "સંવે": 4367,
      "ઈન્ટ": 4368,
      "વાર્ષ": 4369,
      "હોવી": 4370,
      "મંજુ": 4371,
      "નુકશાન": 4372,
      "ધંધા": 4373,
      "કાર્યા": 4374,
      "કલ્યા": 4375,
      "નારાજ": 4376,
      "ટાઉ": 4377,
      "કોલેજ": 4378,
      "મલ્": 4379,
      "ડાઇ": 4380,
      "રસ્તો": 4381,
      "ટીની": 4382,
      "મંત્ર": 4383,
      "જણાવે": 4384,
      "સ્વાગત": 4385,
      "જોડાયેલા": 4386,
      "િયાણા": 4387,
      "સહયોગ": 4388,
      "ગણેશ": 4389,
      "હનુ": 4390,
      "મલ": 4391,
      "હોવું": 4392,
      "મુલાકા": 4393,
      "લાઇટ": 4394,
      "ન્યૂઝ": 4395,
      "ઓર્ડ": 4396,
      "સ્થાપના": 4397,
      "ઝડપા": 4398,
      "સમુદ્ર": 4399,
      "વાણી": 4400,
      "સુશાંત": 4401,
      "વિસ્તારના": 4402,
      "ad": 4403,
      "હથિ": 4404,
      "ષ્ટા": 4405,
      "ષે": 4406,
      "મોટર": 4407,
      "સેન્ટ": 4408,
      "સીન": 4409,
      "સર્જન": 4410,
      "અમેરિકામાં": 4411,
      "વળતર": 4412,
      "લ્ટ": 4413,
      "સક્ષમ": 4414,
      "ર્વે": 4415,
      "ઉપાય": 4416,
      "આણંદ": 4417,
      "દુકાનો": 4418,
      "આંતરિક": 4419,
      "ટીમો": 4420,
      "જૂની": 4421,
      "પૃથ્વી": 4422,
      "બન્યું": 4423,
      "દીકરા": 4424,
      "હર્ષ": 4425,
      "રસપ્રદ": 4426,
      "એપ્": 4427,
      "બેઠા": 4428,
      "ગયેલા": 4429,
      "ત્વે": 4430,
      "ફેન્સ": 4431,
      "છત": 4432,
      "સત્ર": 4433,
      "હરિ": 4434,
      "સ્તે": 4435,
      "એટલી": 4436,
      "ક્રમે": 4437,
      "બનાવો": 4438,
      "પુરવ": 4439,
      "કોર્ટના": 4440,
      "કોનો": 4441,
      "વીમા": 4442,
      "દીના": 4443,
      "કાર્યરત": 4444,
      "વુડ": 4445,
      "આજના": 4446,
      "જવું": 4447,
      "વતો": 4448,
      "દિવસના": 4449,
      "શોધન": 4450,
      "ગુરુવારે": 4451,
      "મુસાફરી": 4452,
      "વાયા": 4453,
      "સુધીની": 4454,
      "શાસ્ત્રી": 4455,
      "અમદાવાદના": 4456,
      "બહેનો": 4457,
      "વસ્તી": 4458,
      "લેશ": 4459,
      "બનાસ": 4460,
      "ગુજરાતની": 4461,
      "જાન": 4462,
      "રોજગાર": 4463,
      "વરસાદની": 4464,
      "નિવેદ": 4465,
      "વિશિ": 4466,
      "ફરાર": 4467,
      "માછ": 4468,
      "દીઠ": 4469,
      "મીડિયામાં": 4470,
      "દાયક": 4471,
      "આત્મહત": 4472,
      "છબી": 4473,
      "તસ્વી": 4474,
      "મોહન": 4475,
      "સંશોધન": 4476,
      "શિત": 4477,
      "પડતા": 4478,
      "ખાતા": 4479,
      "તેઓને": 4480,
      "આમાં": 4481,
      "ઊભી": 4482,
      "૮૦": 4483,
      "પ્રવ": 4484,
      "હાલત": 4485,
      "આત્મહત્યા": 4486,
      "!!": 4487,
      "ડેમ": 4488,
      "તકે": 4489,
      "વાયું": 4490,
      "કરાઇ": 4491,
      "તુલ": 4492,
      "કોરોનાથી": 4493,
      "આફ્રિ": 4494,
      "ઇલેક્": 4495,
      "લીન": 4496,
      "ખાંડ": 4497,
      "ચમચી": 4498,
      "ક્લા": 4499,
      "એકત્ર": 4500,
      "ગુના": 4501,
      "ગાંધીએ": 4502,
      "આઝા": 4503,
      "નિમણ": 4504,
      "સરપંચ": 4505,
      "....": 4506,
      "ડ્રાઇ": 4507,
      "ંતર": 4508,
      "શાખા": 4509,
      "શ્યા": 4510,
      "પ્રધા": 4511,
      "માત્રા": 4512,
      "એન્ટી": 4513,
      "અફઘાનિસ્તા": 4514,
      "વેક્સી": 4515,
      "ત્યાંથી": 4516,
      "સીટ": 4517,
      "નજીકના": 4518,
      "બ્રાન્ડ": 4519,
      "સોલંકી": 4520,
      "ઓર્": 4521,
      "ડૉક્ટર": 4522,
      "પંડ": 4523,
      "ચક્ર": 4524,
      "ળતા": 4525,
      "વધારવા": 4526,
      "શય": 4527,
      "મિન": 4528,
      "સત્તાવાર": 4529,
      "બાય": 4530,
      "દિલ": 4531,
      "શાનદાર": 4532,
      "કલ્યાણ": 4533,
      "th": 4534,
      "પૂરા": 4535,
      "પુરૂ": 4536,
      "પક્ષી": 4537,
      "વલણ": 4538,
      "ઊંઘ": 4539,
      "વાલો": 4540,
      "માંગે": 4541,
      "હિંમત": 4542,
      "મુકેશ": 4543,
      "દરવાજા": 4544,
      "સિત": 4545,
      "એક્ટ્રે": 4546,
      "ડીંગ": 4547,
      "યેલું": 4548,
      "ંતી": 4549,
      "સળ": 4550,
      "ટીમાં": 4551,
      "અંગ્રે": 4552,
      "વાર્ષિક": 4553,
      "બનાવવાની": 4554,
      "મહત્વની": 4555,
      "ટેકનોલોજી": 4556,
      "ોની": 4557,
      "સાબર": 4558,
      "રાજ્યની": 4559,
      "દર્દીઓની": 4560,
      "વાવે": 4561,
      "મશીન": 4562,
      "અપેક્ષા": 4563,
      "વરિષ્ઠ": 4564,
      "લ્લે": 4565,
      "પેપર": 4566,
      "જુગાર": 4567,
      "ટર્સ": 4568,
      "રીંગ": 4569,
      "નિશાન": 4570,
      "ઘાટ": 4571,
      "દુનિયામાં": 4572,
      "વીજળી": 4573,
      "સીની": 4574,
      "૩૫": 4575,
      "ov": 4576,
      "યથા": 4577,
      "ચેતવણી": 4578,
      "લીમાં": 4579,
      "જ્ય": 4580,
      "થવું": 4581,
      "ભરૂ": 4582,
      ").": 4583,
      "ઇંચ": 4584,
      "બહા": 4585,
      "રાના": 4586,
      "પાડવા": 4587,
      "વહીવટી": 4588,
      "કોરોનાને": 4589,
      "પોઇન્ટ": 4590,
      "ગ્લો": 4591,
      "પ્રોડક્ટ": 4592,
      "નજરે": 4593,
      "પન્ન": 4594,
      "સેવાઓ": 4595,
      "બચાવવા": 4596,
      "ખાવો": 4597,
      "લૂંટ": 4598,
      "વધા": 4599,
      "ટૂંકા": 4600,
      "અજય": 4601,
      "ળું": 4602,
      "પેટા": 4603,
      "ડોક્ટ": 4604,
      "ઇચ્છા": 4605,
      "બચ્ચ": 4606,
      "કરું": 4607,
      "નોટિસ": 4608,
      "રંજન": 4609,
      "ખુલાસો": 4610,
      "૨૯": 4611,
      "સાહિ": 4612,
      "મેટ": 4613,
      "અણ": 4614,
      "જગત": 4615,
      "દિને": 4616,
      "વધશે": 4617,
      "ટ્રિ": 4618,
      "મારું": 4619,
      "દિલ્હીઃ": 4620,
      "દાદા": 4621,
      "નેતૃત્વ": 4622,
      "કડી": 4623,
      "ભણ": 4624,
      "હમ": 4625,
      "સીના": 4626,
      "ol": 4627,
      "કૈ": 4628,
      "અર્થે": 4629,
      "ફળી": 4630,
      "ઉપયોગમાં": 4631,
      "રજ": 4632,
      "રૂા": 4633,
      "એમ્": 4634,
      "લીક": 4635,
      "ફૂલ": 4636,
      "સંગીત": 4637,
      "એશન": 4638,
      "હાણ": 4639,
      "ભારતને": 4640,
      "ગમાં": 4641,
      "ઝઘ": 4642,
      "ફૂડ": 4643,
      "ઊભા": 4644,
      "મીઠા": 4645,
      "મુખ્યત્વે": 4646,
      "નિશ્ચિત": 4647,
      "નિર્દેશ": 4648,
      "કોંગ્રેસે": 4649,
      "મેસેજ": 4650,
      "ac": 4651,
      "દોર": 4652,
      "અંતર": 4653,
      "જઈને": 4654,
      "ચૌધરી": 4655,
      "પેઢી": 4656,
      "થઈને": 4657,
      "પડકાર": 4658,
      "ડ્રાઈ": 4659,
      "બીજું": 4660,
      "ડુંગળી": 4661,
      "તાલિ": 4662,
      "નિરા": 4663,
      "બીજે": 4664,
      "શખ્સ": 4665,
      "ંદા": 4666,
      "માછલી": 4667,
      "કન્ટે": 4668,
      "ur": 4669,
      "મધ્યમ": 4670,
      "સફાઈ": 4671,
      "ગઈકાલે": 4672,
      "કારમાં": 4673,
      "પડતી": 4674,
      "સુધીના": 4675,
      "ઘટનામાં": 4676,
      "રોકાણકારો": 4677,
      "મ્પે": 4678,
      "ઘાયલ": 4679,
      "હનુમાન": 4680,
      "ંબુ": 4681,
      "ઉતર": 4682,
      "બ્યુ": 4683,
      "રાઠો": 4684,
      "ચલાવી": 4685,
      "દર્શાવે": 4686,
      "ભક્": 4687,
      "ટ્રિક": 4688,
      "તપાસમાં": 4689,
      "અધિકારીએ": 4690,
      "ચર્ચામાં": 4691,
      "સુરેન્દ્રનગર": 4692,
      "માગણી": 4693,
      "કારકિર્": 4694,
      "લેન્": 4695,
      "રાજકારણ": 4696,
      "કરોડના": 4697,
      "સંતોષ": 4698,
      "દાહો": 4699,
      "પર્યાવરણ": 4700,
      "સેક્ટર": 4701,
      "ગ્રાહકો": 4702,
      "કન્યા": 4703,
      "જાળવી": 4704,
      "ઉતાર": 4705,
      "દેશી": 4706,
      "એક્ટ": 4707,
      "ગઠ": 4708,
      "કેટે": 4709,
      "અલબ": 4710,
      "અથ": 4711,
      "રહ્યુ": 4712,
      "પ્રયાસો": 4713,
      "આજથી": 4714,
      "લેવી": 4715,
      "આવતો": 4716,
      "તબીબી": 4717,
      "નોંધનીય": 4718,
      "બાઈક": 4719,
      "દુઃખ": 4720,
      "ટુંબ": 4721,
      "ફાં": 4722,
      "રાખવું": 4723,
      "પ્રાઇ": 4724,
      "અગ": 4725,
      "પ્રેરણા": 4726,
      "મૂકવામાં": 4727,
      "કેટલાંક": 4728,
      "સંગ્રહ": 4729,
      "પર્સ": 4730,
      "ગણવામાં": 4731,
      "કવિ": 4732,
      "ઝૂ": 4733,
      "પહોંચે": 4734,
      "રોજગારી": 4735,
      "સ્વિ": 4736,
      "સ્તિ": 4737,
      "પ્રવાહ": 4738,
      "જેટલો": 4739,
      "el": 4740,
      "દેશભરમાં": 4741,
      "પ્લાસ્ટિક": 4742,
      "સંકેત": 4743,
      "લભ": 4744,
      "અંદાજે": 4745,
      "દૈ": 4746,
      "ડાંગ": 4747,
      "યુપી": 4748,
      "શ્રા": 4749,
      "રાણી": 4750,
      "બેસ": 4751,
      "શ્યલ": 4752,
      "પ્રભાવિત": 4753,
      "લાશ": 4754,
      "આપવાનો": 4755,
      "સંગઠન": 4756,
      "ચાલક": 4757,
      "ટર્": 4758,
      "પીપ": 4759,
      "શહેરની": 4760,
      "ંસ": 4761,
      "પરિષ": 4762,
      "તત્વો": 4763,
      "ટ્યુ": 4764,
      "કતમાં": 4765,
      "તેણી": 4766,
      "ટ્વિટર": 4767,
      "જીવી": 4768,
      "આપવાનું": 4769,
      "ઈલ": 4770,
      "લાના": 4771,
      "ભાજપે": 4772,
      "૪૫": 4773,
      "સમૃ": 4774,
      "રિલાયન્સ": 4775,
      "શાળામાં": 4776,
      "ળની": 4777,
      "ન્સમાં": 4778,
      "ST": 4779,
      "કોચ": 4780,
      "રાખવી": 4781,
      "જોડાયા": 4782,
      "કર્મચારીઓને": 4783,
      "કસ્ટ": 4784,
      "વિવા": 4785,
      "ચુકા": 4786,
      "મોટે": 4787,
      "ઘરના": 4788,
      "મારફતે": 4789,
      "''": 4790,
      "એમને": 4791,
      "સ્પો": 4792,
      "કેલા": 4793,
      "રેશન": 4794,
      "લોની": 4795,
      "પ્રમો": 4796,
      "ખેડુ": 4797,
      "ંટી": 4798,
      "ઇચ્છ": 4799,
      "યાદીમાં": 4800,
      "એસોસિ": 4801,
      "રજિ": 4802,
      "રોકવા": 4803,
      "કલેક્ટર": 4804,
      "ડ્": 4805,
      "ભાગો": 4806,
      "લ્વે": 4807,
      "પત્રકાર": 4808,
      "ઓફિસર": 4809,
      "કોન્ટ્રા": 4810,
      "સંભવિત": 4811,
      "પાકિસ્તાની": 4812,
      "માસિક": 4813,
      "મીઠું": 4814,
      "લિટી": 4815,
      "પેશ": 4816,
      "ચ્છે": 4817,
      "ભેદ": 4818,
      "ગ્રુપ": 4819,
      "પિંગ": 4820,
      "સીધી": 4821,
      "શાની": 4822,
      "કપાસ": 4823,
      "લઘુ": 4824,
      "માફ": 4825,
      "છેતર": 4826,
      "વર્ષોથી": 4827,
      "48": 4828,
      "લેટર": 4829,
      "શામેલ": 4830,
      "ડબલ": 4831,
      "સોંપ": 4832,
      "ઉમેરો": 4833,
      "આદિવાસી": 4834,
      "લાખથી": 4835,
      "જોરદાર": 4836,
      "સ્ટાગ્રામ": 4837,
      "સંસ્કૃતિ": 4838,
      "બનાસકાંઠા": 4839,
      "યં": 4840,
      "પ્રસાદ": 4841,
      "અરવિંદ": 4842,
      "ઘી": 4843,
      "તેજસ્વી": 4844,
      "મસ": 4845,
      "પ્રસ્તા": 4846,
      "ટીન": 4847,
      "સમાપ્ત": 4848,
      "મહેતા": 4849,
      "સાજા": 4850,
      "અનુકૂળ": 4851,
      "ઉત્સાહ": 4852,
      "એન્ટ્રી": 4853,
      "32": 4854,
      "વાડા": 4855,
      "ટીમના": 4856,
      "આવરી": 4857,
      "અક્ષય": 4858,
      "કારકિર્દી": 4859,
      "ડીના": 4860,
      "બનેલા": 4861,
      "અલબત્ત": 4862,
      "ખાઈ": 4863,
      "વ્યાપક": 4864,
      "વિજે": 4865,
      "પરેશાન": 4866,
      "મેનેજમેન્ટ": 4867,
      "કાપ": 4868,
      "કામના": 4869,
      "છુપા": 4870,
      "us": 4871,
      "કેબિ": 4872,
      "ટીમને": 4873,
      "મિંગ": 4874,
      "ભેટ": 4875,
      "37": 4876,
      "ti": 4877,
      "હેન્ડ": 4878,
      "ડિય": 4879,
      "શ્ર્": 4880,
      "નીતિન": 4881,
      "સીમા": 4882,
      "ખરીદવા": 4883,
      "ગંધ": 4884,
      "પાટણ": 4885,
      "ઉડા": 4886,
      "કોઇપણ": 4887,
      "વ્હી": 4888,
      "ંદર": 4889,
      "મનુ": 4890,
      "સ્વપ્": 4891,
      "ટકી": 4892,
      "મોં": 4893,
      "વાર્તા": 4894,
      "પરિવર્તન": 4895,
      "ટકાનો": 4896,
      "કાર્યકર્તા": 4897,
      "તુર": 4898,
      "ઉમેદવારો": 4899,
      "પુનઃ": 4900,
      "ડ્રગ્સ": 4901,
      "ભરે": 4902,
      "માન્યતા": 4903,
      "અજાણ્યા": 4904,
      "જેવો": 4905,
      "શાહે": 4906,
      "આવીને": 4907,
      "ગુમાવી": 4908,
      "દાતા": 4909,
      "બ્લડ": 4910,
      "સ્ત્રીઓ": 4911,
      "વિશિષ્ટ": 4912,
      "અત્રે": 4913,
      "કાબુ": 4914,
      "લેથી": 4915,
      "સીઝ": 4916,
      "જુન": 4917,
      "છેલ્લી": 4918,
      "શાસન": 4919,
      "રાણ": 4920,
      "મુકી": 4921,
      "બચાવ": 4922,
      "બાકીના": 4923,
      "વાણ": 4924,
      "કેના": 4925,
      "પડ્યું": 4926,
      "વ્યુ": 4927,
      "સ્ટાર્": 4928,
      "શકશો": 4929,
      "ન્દ્રસિંહ": 4930,
      "વાર્ટર": 4931,
      "જણ": 4932,
      "પોલીસના": 4933,
      "199": 4934,
      "વિધાનસભાની": 4935,
      "મું": 4936,
      "મેડી": 4937,
      "મતદારો": 4938,
      "થયાં": 4939,
      "તાલિબા": 4940,
      "ચાલો": 4941,
      "૨૦૧૯": 4942,
      "ગાર્ડ": 4943,
      "ચકાસ": 4944,
      "પ્તિ": 4945,
      "માધ્યમથી": 4946,
      "પાત": 4947,
      "ભેગા": 4948,
      "ધાની": 4949,
      "પાકિસ્તાનના": 4950,
      "ઐતિહા": 4951,
      "હિક": 4952,
      "હિસ્સો": 4953,
      "પ્રાઈ": 4954,
      "ફત": 4955,
      "લીના": 4956,
      "સુધારા": 4957,
      "રહેવાની": 4958,
      "એમના": 4959,
      "પુસ્તક": 4960,
      "મનમાં": 4961,
      "ચાવડા": 4962,
      "પગલું": 4963,
      "38": 4964,
      "પ્લો": 4965,
      "પરિવારને": 4966,
      "ક્ષક": 4967,
      "સ્ટ્રેશન": 4968,
      "સિડ": 4969,
      "કલાકારો": 4970,
      "ફેસબુક": 4971,
      "આવનાર": 4972,
      "થોડું": 4973,
      "ભીડ": 4974,
      "ટર્ન": 4975,
      "ખેંચ": 4976,
      "તણાવ": 4977,
      "ઝિક": 4978,
      "મતે": 4979,
      "પોઈન્ટ": 4980,
      "ન્ટ્સ": 4981,
      "વિશ્વના": 4982,
      "નાઈ": 4983,
      "મોદીના": 4984,
      "પૂરું": 4985,
      "જીએસટી": 4986,
      "બનેલી": 4987,
      "મમતા": 4988,
      "સાની": 4989,
      "એક્ટિવ": 4990,
      "સુવિધાઓ": 4991,
      "સફર": 4992,
      "ળવા": 4993,
      "હાલતમાં": 4994,
      "આરોપીઓ": 4995,
      "પટ": 4996,
      "સોં": 4997,
      "સિરીઝ": 4998,
      "ત્યારથી": 4999,
      "પરંપરાગત": 5000,
      "ખોટા": 5001,
      "મગફળી": 5002,
      "સ્ફો": 5003,
      "બ્રેક": 5004,
      "એનો": 5005,
      "2016": 5006,
      "મળેલી": 5007,
      "૯૦": 5008,
      "વિકા": 5009,
      "અનિલ": 5010,
      "તહેવાર": 5011,
      "સમૂ": 5012,
      "ફેક્ટ": 5013,
      "થતું": 5014,
      "મીએ": 5015,
      "રક": 5016,
      "મોડ": 5017,
      "દ્રષ્ટિ": 5018,
      "કોરોનાનો": 5019,
      "એમની": 5020,
      "ખુલ્લા": 5021,
      "આને": 5022,
      "પાણીના": 5023,
      "આપણને": 5024,
      "કબ્": 5025,
      "મધ": 5026,
      "પ્રગતિ": 5027,
      "જલ્": 5028,
      "કીટ": 5029,
      "વર્ષનો": 5030,
      "કરિ": 5031,
      "પુરાવા": 5032,
      "ઉપચાર": 5033,
      "હાઇવે": 5034,
      "સાહેબ": 5035,
      "નિમિ": 5036,
      "ગ્રીન": 5037,
      "તૂટી": 5038,
      "કતા": 5039,
      "શિક્ષક": 5040,
      "ડતી": 5041,
      "હોવ": 5042,
      "મીની": 5043,
      "ંકાને": 5044,
      "ડિજિ": 5045,
      "૨૦૨૦": 5046,
      "પેન": 5047,
      "55": 5048,
      "પવિ": 5049,
      "વસ": 5050,
      "બાઇક": 5051,
      "રાજકો": 5052,
      "નહોતો": 5053,
      "વાવેતર": 5054,
      "મતો": 5055,
      "લ્લો": 5056,
      "સોની": 5057,
      "ફ્ટી": 5058,
      "ગૌરવ": 5059,
      "ફ્યુ": 5060,
      "પ્રોત્સાહન": 5061,
      "સાચી": 5062,
      "મહત્વના": 5063,
      "સુરતના": 5064,
      "તબક્કામાં": 5065,
      "અબજ": 5066,
      "id": 5067,
      "બંધાર": 5068,
      "લક્ષી": 5069,
      "માર્કેટમાં": 5070,
      "ઉઠ": 5071,
      "નીચા": 5072,
      "આસપાસના": 5073,
      "સેલ્": 5074,
      "રહેતો": 5075,
      "વેપારીઓ": 5076,
      "જપ્ત": 5077,
      "લયે": 5078,
      "વિરૂદ્ધ": 5079,
      "વાયો": 5080,
      "નિત": 5081,
      "મામલત": 5082,
      "મેટા": 5083,
      "લિમિ": 5084,
      "મુદ્દો": 5085,
      "એશિયા": 5086,
      "વાડ": 5087,
      "સ્કે": 5088,
      "સામાન": 5089,
      "વ્યસ્ત": 5090,
      "સરી": 5091,
      "વિઝન": 5092,
      "જેનું": 5093,
      "દોરી": 5094,
      "બનાવીને": 5095,
      "ંગ્લા": 5096,
      "ભરૂચ": 5097,
      "સંઘર્ષ": 5098,
      "લશ્": 5099,
      "બેગ": 5100,
      "ડોના": 5101,
      "હિંદુ": 5102,
      "ફુલ": 5103,
      "રહો": 5104,
      "સેવન": 5105,
      "સીધા": 5106,
      "પક્ષો": 5107,
      "જ્યોતિ": 5108,
      "શહી": 5109,
      "મેક": 5110,
      "ટાટા": 5111,
      "ધ્યાને": 5112,
      "મ્પ્યુ": 5113,
      "il": 5114,
      "of": 5115,
      "મોકલવામાં": 5116,
      "આંગણ": 5117,
      "પ્પા": 5118,
      "બાંગ્લા": 5119,
      "ઐતિહાસિક": 5120,
      "સંતુ": 5121,
      "થવાના": 5122,
      "શ્યો": 5123,
      "મહારાષ્ટ્રમાં": 5124,
      "મ્મદ": 5125,
      "નેટવર્ક": 5126,
      "ટ્વિટ": 5127,
      "જીને": 5128,
      "રાખવાની": 5129,
      "ગ્રહણ": 5130,
      "પ્રયત્નો": 5131,
      "દલી": 5132,
      "પ્ય": 5133,
      "ઠાકોર": 5134,
      "ક્તા": 5135,
      "પ્તા": 5136,
      "અનુભવી": 5137,
      "ભ્રષ્ટા": 5138,
      "પવિત્ર": 5139,
      "ઈરા": 5140,
      "વતાં": 5141,
      "નીલ": 5142,
      "ટિલ": 5143,
      "નકારાત્મક": 5144,
      "પબ્": 5145,
      "હાલના": 5146,
      "રણે": 5147,
      "મેઘ": 5148,
      "મેયર": 5149,
      "જાણીએ": 5150,
      "પ્લેટફોર્મ": 5151,
      "કસર": 5152,
      "લોકોનું": 5153,
      "ર્ના": 5154,
      "બેટ્સ": 5155,
      "ઠ્ઠી": 5156,
      "પ્રભુ": 5157,
      "શિકાર": 5158,
      "જિંદગી": 5159,
      "ખર્ચે": 5160,
      "વજ": 5161,
      "માન્ડ": 5162,
      "વાપર": 5163,
      "મંજૂર": 5164,
      "વીડિયોમાં": 5165,
      "મેનેજર": 5166,
      "ir": 5167,
      "દ્વારકા": 5168,
      "આચાર્ય": 5169,
      "ન્ટે": 5170,
      "બીર": 5171,
      "પુષ્": 5172,
      "2014": 5173,
      "મહાનગરપાલિકા": 5174,
      "હરિયાણા": 5175,
      "રંગો": 5176,
      "પ્રારંભિક": 5177,
      "પ્રશંસા": 5178,
      "ધીરે": 5179,
      "વર્ત": 5180,
      "નવસારી": 5181,
      "ગ્રાહક": 5182,
      "શહેરોમાં": 5183,
      "ઓર્ડર": 5184,
      "આંગણવાડી": 5185,
      "માફી": 5186,
      "જિંગ": 5187,
      "અખ": 5188,
      "રેલ્વે": 5189,
      "સ્ટ્રા": 5190,
      "અધિકારીઓએ": 5191,
      "ભૂતપૂર્વ": 5192,
      "ઇન્ડસ્ટ્રી": 5193,
      "લાએ": 5194,
      "બીએસ": 5195,
      "પૂરો": 5196,
      "પરિવારમાં": 5197,
      "ાર્થના": 5198,
      "ઈંચ": 5199,
      "લનો": 5200,
      "સ્વચ્છ": 5201,
      "સજ્જ": 5202,
      "પહેલેથી": 5203,
      "ચીનના": 5204,
      "નવાર": 5205,
      "રાજધાની": 5206,
      "વ્યકિત": 5207,
      "ભાજપની": 5208,
      "મંદિરના": 5209,
      "ભવિષ્યમાં": 5210,
      "ભાવો": 5211,
      "ડેક્સ": 5212,
      "પ્લાય": 5213,
      "સ્માર્ટફોન": 5214,
      "34": 5215,
      "રહેવાસી": 5216,
      "પાટીદાર": 5217,
      "સાઉથ": 5218,
      "દયા": 5219,
      "દ્દ": 5220,
      "કથ": 5221,
      "પ્યુ": 5222,
      "રિસર્ચ": 5223,
      "પ્શન": 5224,
      "અવાર": 5225,
      "મર્": 5226,
      "વિચારી": 5227,
      "આપઘાત": 5228,
      "લાગશે": 5229,
      "પૂરતી": 5230,
      "કિશોર": 5231,
      "અટક": 5232,
      "ટીએમ": 5233,
      "સંકટ": 5234,
      "પેકે": 5235,
      "મહિનાથી": 5236,
      "બતાવી": 5237,
      "જતો": 5238,
      "રાજ્યસભા": 5239,
      "અટકાય": 5240,
      "બરે": 5241,
      "માંગી": 5242,
      "તાવ": 5243,
      "કાને": 5244,
      "વિનં": 5245,
      "પ્રસિદ્ધ": 5246,
      "વલસાડ": 5247,
      "સખત": 5248,
      "આવેદન": 5249,
      "અનો": 5250,
      "સપોર્ટ": 5251,
      "નાનો": 5252,
      "કરાયેલા": 5253,
      "ભૂલી": 5254,
      "મહત્તમ": 5255,
      "રજુઆત": 5256,
      "શાસ્ત્ર": 5257,
      "જુનાગઢ": 5258,
      "જવાનું": 5259,
      "શક્યા": 5260,
      "ખસેડવામાં": 5261,
      "જલ્દી": 5262,
      "ગટ": 5263,
      "કુંડ": 5264,
      "જયે": 5265,
      "યુએસ": 5266,
      "લેસ": 5267,
      "બાગ": 5268,
      "જોડી": 5269,
      "ગ્રાઉન્ડ": 5270,
      "કોન્ફર": 5271,
      "અમિતા": 5272,
      "પ્રયોગ": 5273,
      "ચેમ્પિ": 5274,
      "બાળકોના": 5275,
      "કપડા": 5276,
      "ડોર": 5277,
      "ચીની": 5278,
      "હજારથી": 5279,
      "પુરૂષ": 5280,
      "વહન": 5281,
      "સાધન": 5282,
      "હિલ": 5283,
      "છોકરા": 5284,
      "ઘટનાની": 5285,
      "સંદર્ભ": 5286,
      "ંટા": 5287,
      "દિલીપ": 5288,
      "મહી": 5289,
      "આકાશ": 5290,
      "સ્મ": 5291,
      "પીઠ": 5292,
      "ડાન્સ": 5293,
      "હાઈવે": 5294,
      "માટી": 5295,
      "દર્શકો": 5296,
      "રાશિના": 5297,
      "સંબોધ": 5298,
      "લાઈટ": 5299,
      "ધરાવતી": 5300,
      "યોજાશે": 5301,
      "iv": 5302,
      "સગી": 5303,
      "માંગો": 5304,
      "સીબ": 5305,
      "ખુદ": 5306,
      "પક્ષના": 5307,
      "ગ્યુ": 5308,
      "મતિ": 5309,
      "ઘટનાઓ": 5310,
      "મુંબઈમાં": 5311,
      "વકીલ": 5312,
      "એવામાં": 5313,
      "વૃદ્ધ": 5314,
      "સંસ્થાઓ": 5315,
      "રાજકોટના": 5316,
      "જસ્ટિ": 5317,
      "હેરો": 5318,
      "નિદાન": 5319,
      "નિપજ": 5320,
      "દૈનિક": 5321,
      "et": 5322,
      "કદ": 5323,
      "બંગ": 5324,
      "પ્રવાહી": 5325,
      "વિષે": 5326,
      "65": 5327,
      "રોષ": 5328,
      "અપહરણ": 5329,
      "શરૃ": 5330,
      "શ્યામ": 5331,
      "તીય": 5332,
      "ણીય": 5333,
      "આપવી": 5334,
      "ફોર્સ": 5335,
      "પૌ": 5336,
      "કેજરી": 5337,
      "પ્રાચીન": 5338,
      "શ્રીલ": 5339,
      "આહાર": 5340,
      "માના": 5341,
      "વેક": 5342,
      "કરીશું": 5343,
      "ચીને": 5344,
      "હોસ્પિટલના": 5345,
      "ગ્રાહકોને": 5346,
      "આપને": 5347,
      "લિન": 5348,
      "ફિટ": 5349,
      "33": 5350,
      "નિવૃ": 5351,
      "અડધા": 5352,
      "PM": 5353,
      "હૉ": 5354,
      "નિકલ": 5355,
      "દીપિ": 5356,
      "ધોરણે": 5357,
      "સાહિત્ય": 5358,
      "સામાં": 5359,
      "મિલિયન": 5360,
      "44": 5361,
      "થયુ": 5362,
      "બળો": 5363,
      "લગાવવામાં": 5364,
      "લગાવ્યો": 5365,
      "નાશ": 5366,
      "આવનારા": 5367,
      "સ્વયં": 5368,
      "અરજ": 5369,
      "સ્લા": 5370,
      "રાણા": 5371,
      "બાઇ": 5372,
      "મહિલાને": 5373,
      "ખ્ત": 5374,
      "મસ્": 5375,
      "ગાવી": 5376,
      "એપ્લિ": 5377,
      "ઈચ્છા": 5378,
      "વાંકાને": 5379,
      "પ્રસાર": 5380,
      "વધતી": 5381,
      "અવસાન": 5382,
      "આદિત્ય": 5383,
      "સંજોગોમાં": 5384,
      "સંરક્ષણ": 5385,
      "જોગવાઈ": 5386,
      "ઊર્": 5387,
      "સ્યો": 5388,
      "વસૂ": 5389,
      "સાર્": 5390,
      "રાતે": 5391,
      "ળાના": 5392,
      "નબળા": 5393,
      "લક": 5394,
      "શૈક્ષણિક": 5395,
      "વિજેતા": 5396,
      "કારણોસર": 5397,
      "ટકો": 5398,
      "દળો": 5399,
      "બદ્ધ": 5400,
      "શુભે": 5401,
      "ગ્રામજનો": 5402,
      "રાજીનામું": 5403,
      "પાય": 5404,
      "વિજ્ઞાન": 5405,
      "હસ્ત": 5406,
      "વોટ્સ": 5407,
      "કૃપા": 5408,
      "પોઝી": 5409,
      "હુકમ": 5410,
      "સ્ટોક": 5411,
      "કૃતિક": 5412,
      "બોલાવી": 5413,
      "પથ્થર": 5414,
      "સંવેદન": 5415,
      "આક્ર": 5416,
      "ડ્સ": 5417,
      "ભાવિ": 5418,
      "ચેનલ": 5419,
      "જેમણે": 5420,
      "બ્રિજ": 5421,
      "લાવવામાં": 5422,
      "રોહ": 5423,
      "બેટિંગ": 5424,
      "અટકાવવા": 5425,
      "મેડલ": 5426,
      "જાઓ": 5427,
      "ઉઠી": 5428,
      "નાંખ": 5429,
      "ફરીયાદ": 5430,
      "અદાલ": 5431,
      "નિમણૂ": 5432,
      "નૌ": 5433,
      "સહન": 5434,
      "સેનાના": 5435,
      "ઇતિહાસ": 5436,
      "ભ્રષ્ટાચાર": 5437,
      "કપિ": 5438,
      "સગા": 5439,
      "ન્સના": 5440,
      "વિનંતી": 5441,
      "માણસો": 5442,
      "ભટ્ટ": 5443,
      ".,": 5444,
      "આરતી": 5445,
      "તૈયારીઓ": 5446,
      "પાની": 5447,
      "ંગો": 5448,
      "ડોશી": 5449,
      "પુરુષો": 5450,
      "મામલતદાર": 5451,
      "પૂર્વે": 5452,
      "રૂપિયાનો": 5453,
      "સીસીટીવી": 5454,
      "એન્ટિ": 5455,
      "સ્કાર": 5456,
      "ભાગની": 5457,
      "મોદીની": 5458,
      "જૈન": 5459,
      "અંબાણી": 5460,
      "ભારી": 5461,
      "પ્રખ્યાત": 5462,
      "રોકી": 5463,
      "લાગ્યું": 5464,
      "ઉલ્લ": 5465,
      "મંત્રાલયે": 5466,
      "સંચાલન": 5467,
      "ચિક": 5468,
      "ટ્યૂ": 5469,
      "માછી": 5470,
      "બોટલ": 5471,
      "બળાત્કાર": 5472,
      "પામે": 5473,
      "બેસ્ટ": 5474,
      "મેદાનમાં": 5475,
      "ડિજિટલ": 5476,
      "આશી": 5477,
      "જાતને": 5478,
      "મુક્તિ": 5479,
      "સોફ્ટ": 5480,
      ".'": 5481,
      "અમી": 5482,
      "રોગચા": 5483,
      "એક્ટ્રેસ": 5484,
      "નારે": 5485,
      "બાંધી": 5486,
      "સૈન્ય": 5487,
      "ણની": 5488,
      "થકી": 5489,
      "મહ": 5490,
      "લાત": 5491,
      "આવતું": 5492,
      "મિક્સ": 5493,
      "આની": 5494,
      "થુ": 5495,
      "પોષણ": 5496,
      "ચોથા": 5497,
      "મહાદેવ": 5498,
      "and": 5499,
      "િય": 5500,
      "પ્રાર્થના": 5501,
      "જેણે": 5502,
      "ગેંગ": 5503,
      "લડી": 5504,
      "બાબા": 5505,
      "શિપ": 5506,
      "કાશ્મીરમાં": 5507,
      "શલ": 5508,
      "ગ્રો": 5509,
      "પ્પણી": 5510,
      "જોયું": 5511,
      "ચેન્": 5512,
      "ફટકારી": 5513,
      "સ્પતિ": 5514,
      "નિધન": 5515,
      "પેટમાં": 5516,
      "તબક્": 5517,
      "ર્ણ": 5518,
      "ખુલ": 5519,
      "ભાજપને": 5520,
      "માંગતા": 5521,
      "ઘઉં": 5522,
      "દીન": 5523,
      "્યુલ": 5524,
      "અધિકારીઓને": 5525,
      "રાઠોડ": 5526,
      "સરહદ": 5527,
      "સલામત": 5528,
      "રૂપાણીએ": 5529,
      "મહોત્સવ": 5530,
      "લ્પો": 5531,
      "ખાવા": 5532,
      "ગોંડલ": 5533,
      "ઇરા": 5534,
      "ક્વાર્ટર": 5535,
      "રહીને": 5536,
      "વિભાગની": 5537,
      "ભાગીદારી": 5538,
      "સંદર્ભે": 5539,
      "uj": 5540,
      "ઇંગ્લેન્ડ": 5541,
      "ત્મા": 5542,
      "મરે": 5543,
      "તેનાં": 5544,
      "ટ્રેડ": 5545,
      "ચાલતી": 5546,
      "ગણી": 5547,
      "વોટ": 5548,
      "ન્દ્રા": 5549,
      "સમૂહ": 5550,
      "un": 5551,
      "સંપર્કમાં": 5552,
      "જરા": 5553,
      "હડતા": 5554,
      "૩૩": 5555,
      "કાઈ": 5556,
      "જીએ": 5557,
      "ent": 5558,
      "ળાની": 5559,
      "ફિલ્મોમાં": 5560,
      "ઉઠાવી": 5561,
      "આલ્": 5562,
      "લીને": 5563,
      "જણાવવામાં": 5564,
      "ખેલાડીઓ": 5565,
      "ઇસ": 5566,
      "જહા": 5567,
      "માટેનો": 5568,
      "દિલ્હીના": 5569,
      "પદાર્": 5570,
      "પંચાય": 5571,
      "મોહમ્મદ": 5572,
      "અબ્": 5573,
      "નય": 5574,
      "૭૫": 5575,
      "માંસ": 5576,
      "સરસ": 5577,
      "સહકાર": 5578,
      "કાનૂ": 5579,
      "મરાન": 5580,
      "એક્ટર": 5581,
      "ઊંચી": 5582,
      "આગળની": 5583,
      "શિક્ષકો": 5584,
      "ઢે": 5585,
      "નોને": 5586,
      "ઉલ્લંઘ": 5587,
      "300": 5588,
      "મૈ": 5589,
      "કાપડ": 5590,
      "યથાવત": 5591,
      "દાહોદ": 5592,
      "સંવેદનશીલ": 5593,
      "તાનો": 5594,
      "ચંદ": 5595,
      "શન્સ": 5596,
      "દેખાઈ": 5597,
      "ઠીક": 5598,
      "શંકાસ્પદ": 5599,
      "બાતમી": 5600,
      "સિને": 5601,
      "ગુપ્ત": 5602,
      "શોધવા": 5603,
      "હકીકતમાં": 5604,
      "સસ્પે": 5605,
      "વેન્ટ": 5606,
      "હેરાન": 5607,
      "અમિતાભ": 5608,
      "ચય": 5609,
      "ગાળો": 5610,
      "દુખાવો": 5611,
      "પ્રાંત": 5612,
      "કંટ્રોલ": 5613,
      "સમુદાય": 5614,
      "હોટલ": 5615,
      "તંદુર": 5616,
      "સિઝ": 5617,
      "નિર્ભર": 5618,
      "વરસાદી": 5619,
      "બાલ": 5620,
      "ડીઓ": 5621,
      "સંશોધ": 5622,
      "જેટલું": 5623,
      "બાજુમાં": 5624,
      ".)": 5625,
      "વવો": 5626,
      "શની": 5627,
      "હાડ": 5628,
      "વોટર": 5629,
      "ખેડા": 5630,
      "જરૂરિયા": 5631,
      "ઘટીને": 5632,
      "ડોનાલ્ડ": 5633,
      "બ્લોક": 5634,
      "સાઈટ": 5635,
      "હૈદરા": 5636,
      "મંદી": 5637,
      "કામકા": 5638,
      "કલ્પના": 5639,
      "ક્વિ": 5640,
      "બોડી": 5641,
      "મ્પલ": 5642,
      "આખો": 5643,
      "પાંદ": 5644,
      "ગયાં": 5645,
      "ટીમમાં": 5646,
      "કુટુંબ": 5647,
      "સેન્ટ્ર": 5648,
      "યાર્": 5649,
      "કિરણ": 5650,
      "દેશને": 5651,
      "ચુંટણી": 5652,
      "બજારો": 5653,
      "ર્વાદ": 5654,
      "સીને": 5655,
      "સામેની": 5656,
      "હિન્દી": 5657,
      "IP": 5658,
      "જર્મ": 5659,
      "મધુ": 5660,
      "પ્રદાન": 5661,
      "બાબુ": 5662,
      "ક્રૂ": 5663,
      "ચૂકવણી": 5664,
      "ઊર્જા": 5665,
      "તસ્": 5666,
      "માર્ક": 5667,
      "છુટ": 5668,
      "હળવા": 5669,
      "હાંસલ": 5670,
      "સ્ક્રીન": 5671,
      "અગત્ય": 5672,
      "મ્પ્યુટર": 5673,
      "સંકળાયેલા": 5674,
      "ર્નામેન્ટ": 5675,
      "39": 5676,
      "ગજ": 5677,
      "ડિરેક્ટર": 5678,
      "ઘટાડવા": 5679,
      "ભક્તો": 5680,
      "ઠંડા": 5681,
      "ભૌ": 5682,
      "પાણીનો": 5683,
      "સન્સ": 5684,
      "જીભાઈ": 5685,
      "મહિલાએ": 5686,
      "બાળકોની": 5687,
      "ઓવરમાં": 5688,
      "રાગ": 5689,
      "બોક્સ": 5690,
      "બિગ": 5691,
      "આકર્ષક": 5692,
      "ઉગ્ર": 5693,
      "ગંગા": 5694,
      "તોફા": 5695,
      "છોડીને": 5696,
      "ફરજિયાત": 5697,
      "ઉપરથી": 5698,
      "ઝીલેન્ડ": 5699,
      "તળાવ": 5700,
      "ચૌહાણ": 5701,
      "તબિ": 5702,
      "સાડા": 5703,
      "સિદ્ધિ": 5704,
      "પકડા": 5705,
      "કમિટી": 5706,
      "૩૬": 5707,
      "ફિલ્મના": 5708,
      "પ્રકાશિત": 5709,
      "વેલા": 5710,
      "લિટર": 5711,
      "બીજેપી": 5712,
      "અટકાયત": 5713,
      "ઇએ": 5714,
      "તદ્": 5715,
      "યસ": 5716,
      "સીલ": 5717,
      "સમાધાન": 5718,
      "ઉછા": 5719,
      "ડાને": 5720,
      "મંત્રણ": 5721,
      "2015": 5722,
      "ચકાસણી": 5723,
      "વરા": 5724,
      "જોયા": 5725,
      "ખેલ": 5726,
      "પ્રવાસીઓ": 5727,
      "દર્શક": 5728,
      "થવાનું": 5729,
      "બિમારી": 5730,
      "આરોપીને": 5731,
      "ટક્કર": 5732,
      "રવાના": 5733,
      "ત્તી": 5734,
      "ક્યાંક": 5735,
      "વાતાવરણમાં": 5736,
      "સ્થળોએ": 5737,
      "દેશે": 5738,
      "બંધન": 5739,
      "પુરના": 5740,
      "જાગૃતિ": 5741,
      "શુભેચ્છા": 5742,
      "ટીકા": 5743,
      "રાજપૂ": 5744,
      "ay": 5745,
      "હોદ્": 5746,
      "દાંત": 5747,
      "અસ્તિ": 5748,
      "ભવન": 5749,
      "૫૦૦": 5750,
      "સ્પોર્ટ": 5751,
      "લેબ": 5752,
      "ગર્ભા": 5753,
      "સવારથી": 5754,
      "વધારાની": 5755,
      "પ્રહાર": 5756,
      "કામદારો": 5757,
      "આટલી": 5758,
      "ત્રિવે": 5759,
      "શ્રીલંકા": 5760,
      "કળ": 5761,
      "કેને": 5762,
      "ખ્યાલ": 5763,
      "નદીમાં": 5764,
      "યાના": 5765,
      "હિટ": 5766,
      "હિતે": 5767,
      "ડિસ્ટ": 5768,
      "વિકલ્પો": 5769,
      "અથડા": 5770,
      "હાનિ": 5771,
      "રહેતાં": 5772,
      "ટિફિ": 5773,
      "ujar": 5774,
      "બાથ": 5775,
      "ચમ": 5776,
      "વાઘે": 5777,
      "કાબૂ": 5778,
      "પદાર્થો": 5779,
      "અભાવ": 5780,
      "જરુ": 5781,
      "ટેન્": 5782,
      "આપતાં": 5783,
      "સમારોહ": 5784,
      "એમણે": 5785,
      "૨૦૧૮": 5786,
      "પટેલની": 5787,
      "મહિનાની": 5788,
      "કર્સ": 5789,
      "જોશી": 5790,
      "ડિઝ": 5791,
      "સુધીનો": 5792,
      "ધિકારી": 5793,
      "વનસ્પતિ": 5794,
      "વિકસા": 5795,
      "રમતો": 5796,
      "મિલકત": 5797,
      "લાયક": 5798,
      "નંદન": 5799,
      "ઉતરી": 5800,
      "જટિલ": 5801,
      "વિચારણા": 5802,
      "47": 5803,
      "CB": 5804,
      "મેગા": 5805,
      "થવાનો": 5806,
      "ચોંકા": 5807,
      "અંગત": 5808,
      "પશુપાલન": 5809,
      "કડ": 5810,
      "નાત": 5811,
      "નિકાસ": 5812,
      "મિલના": 5813,
      "નાગરિકો": 5814,
      "દસ્તાવેજો": 5815,
      "એલર્ટ": 5816,
      "અસ્તિત્વ": 5817,
      "મજ": 5818,
      "માર્યા": 5819,
      "ખડ": 5820,
      "વાગે": 5821,
      "વેલી": 5822,
      "વડોદરામાં": 5823,
      "રસ્તાઓ": 5824,
      "નૈ": 5825,
      "બેદર": 5826,
      "આરટી": 5827,
      "દિપ": 5828,
      "જણાવેલ": 5829,
      "મહિલાઓને": 5830,
      "બળી": 5831,
      "ભાઈએ": 5832,
      "પહેલાથી": 5833,
      "કોર્પોરેટ": 5834,
      "અંગ્રેજી": 5835,
      "ગડ": 5836,
      "કાળી": 5837,
      "ત્તે": 5838,
      "સમાર": 5839,
      "ઉપરો": 5840,
      "સાયકલ": 5841,
      "૩૭": 5842,
      "શેખ": 5843,
      "સીડી": 5844,
      "ગરબા": 5845,
      "જણાવાયું": 5846,
      "છેલ્લાં": 5847,
      "ઝોનમાં": 5848,
      "ચેમ્પિયન": 5849,
      "સેન્ટ્રલ": 5850,
      "માર્ગો": 5851,
      "ફ્રન્ટ": 5852,
      "મ્યુનિસિ": 5853,
      "આદર્શ": 5854,
      "કતો": 5855,
      "લેષ": 5856,
      "લાઈફ": 5857,
      "ભારતીયો": 5858,
      "મોડેલ": 5859,
      "અયો": 5860,
      "ચરણ": 5861,
      "શાસ": 5862,
      "આઇપી": 5863,
      "ક્રાઇમ": 5864,
      "ડવાની": 5865,
      "નીપજ": 5866,
      "વિક્રમ": 5867,
      "સોશ્યલ": 5868,
      "દરખા": 5869,
      "શુદ્ધ": 5870,
      "શાળાના": 5871,
      "વાંચવા": 5872,
      "સવાલો": 5873,
      "ચ્યુઅલ": 5874,
      "ઓર": 5875,
      "સુચના": 5876,
      "આપવું": 5877,
      "પિક": 5878,
      "46": 5879,
      "આંચ": 5880,
      "ઠંડ": 5881,
      "દહે": 5882,
      "ભંડો": 5883,
      "શપથ": 5884,
      "પહેલો": 5885,
      "મેળવો": 5886,
      "ગ્ને": 5887,
      "વચ": 5888,
      "સીમાં": 5889,
      "વ્યક્તિઓ": 5890,
      "આવતીકાલે": 5891,
      "બોલિવૂડ": 5892,
      "અહી": 5893,
      "ન્હા": 5894,
      "ખાં": 5895,
      "ટિપ્પણી": 5896,
      "રુપિયા": 5897,
      "સાંજ": 5898,
      "લાઇફ": 5899,
      "di": 5900,
      "ખતરના": 5901,
      "બગી": 5902,
      "સ્ને": 5903,
      "રાજીના": 5904,
      "ખર્ચા": 5905,
      "તલા": 5906,
      "ચીનની": 5907,
      "મનોજ": 5908,
      "લક્ષ્ય": 5909,
      "રિઝર્વ": 5910,
      "\",": 5911,
      "ર્સને": 5912,
      "પાર્ટન": 5913,
      "ફૂલો": 5914,
      "આદમી": 5915,
      "પંડ્યા": 5916,
      "ખતરનાક": 5917,
      "85": 5918,
      "યાની": 5919,
      "વવાના": 5920,
      "ત્રાસ": 5921,
      "અર્થતંત્ર": 5922,
      "દેવું": 5923,
      "અરે": 5924,
      "લડાઈ": 5925,
      "ઘોષ": 5926,
      "કનો": 5927,
      "લમ": 5928,
      "માગે": 5929,
      "પ્રતી": 5930,
      "સિલિ": 5931,
      "શોમાં": 5932,
      "મૂળભૂત": 5933,
      "ડીઝલ": 5934,
      "ચાંદી": 5935,
      "ભરો": 5936,
      "શનો": 5937,
      "નેગે": 5938,
      "કર્યાં": 5939,
      "ઇન્ડિયન": 5940,
      "ખેડૂતોની": 5941,
      "ડ્રેસ": 5942,
      "સમયસર": 5943,
      "નોંધણી": 5944,
      "હોવાને": 5945,
      "૪૮": 5946,
      "ફાઉ": 5947,
      "ખોળ": 5948,
      "પરિવારની": 5949,
      "આપેલ": 5950,
      "હળવ": 5951,
      "મથકે": 5952,
      "પૂજન": 5953,
      "વરસાદના": 5954,
      "ગ્નિ": 5955,
      "યાદવ": 5956,
      "ડાયાબિ": 5957,
      "કશું": 5958,
      "તાકાત": 5959,
      "પુછ": 5960,
      "બિર": 5961,
      "તુલના": 5962,
      "દુષ્કર્મ": 5963,
      "પંથકમાં": 5964,
      "જર્": 5965,
      "માણી": 5966,
      "પાળ": 5967,
      "હીરા": 5968,
      "જણાય": 5969,
      "બ્લા": 5970,
      "રમતા": 5971,
      "ઝેરી": 5972,
      "આંદોલ": 5973,
      "કાંડ": 5974,
      "કિડની": 5975,
      "છૂટા": 5976,
      "શકીએ": 5977,
      "કંગના": 5978,
      "સાડી": 5979,
      "વિસ્ફો": 5980,
      "સુત્રો": 5981,
      "પ્લોટ": 5982,
      "સચિન": 5983,
      "સંભળા": 5984,
      "સ્વપ્ન": 5985,
      "49": 5986,
      "ખાના": 5987,
      "૨૦૨૧": 5988,
      "વલ્લી": 5989,
      "જેક્શન": 5990,
      "ચ્ચાર": 5991,
      "ગોળ": 5992,
      "ટુકડા": 5993,
      "મુદ્દામાલ": 5994,
      "ક્રાઈમ": 5995,
      "આજુ": 5996,
      "મજૂ": 5997,
      "્સમાં": 5998,
      "આઈએ": 5999,
      "કાઉન્સિ": 6000,
      "ચુકવણી": 6001,
      "કેલી": 6002,
      "ભરના": 6003,
      "તદ્દન": 6004,
      "મનોરંજન": 6005,
      "ફલો": 6006,
      "પાછી": 6007,
      "જાહેરમાં": 6008,
      "ચકચાર": 6009,
      "સ્નાન": 6010,
      "ટેજ": 6011,
      "કુમારે": 6012,
      "સલામતી": 6013,
      "મોરબીના": 6014,
      "હકારાત્મક": 6015,
      "મીણ": 6016,
      "કામમાં": 6017,
      "કળા": 6018,
      "વાલે": 6019,
      "કેદ": 6020,
      "ક્લો": 6021,
      "નિવાસ": 6022,
      "દિષ્ટ": 6023,
      "રશી": 6024,
      "નિરી": 6025,
      "પરિણી": 6026,
      "બાળકના": 6027,
      "માર્યો": 6028,
      "એકમાત્ર": 6029,
      "યોગદાન": 6030,
      "ઘટનાસ્થળે": 6031,
      "શિવસેના": 6032,
      "અકસ્માતમાં": 6033,
      "ક્ષ્": 6034,
      "ખાતર": 6035,
      "કંપનીની": 6036,
      "બેઠે": 6037,
      "નહોતું": 6038,
      "ટ્રાન્સફર": 6039,
      "એપ્લિકેશન": 6040,
      "લેવલ": 6041,
      "મિર": 6042,
      "ભર્યા": 6043,
      "અરવલ્લી": 6044,
      "અયોધ્યા": 6045,
      "લેશ્વર": 6046,
      "લિશ": 6047,
      "શાળાઓ": 6048,
      "શરીરને": 6049,
      "તબીબો": 6050,
      "લિમિટેડ": 6051,
      "ઝાર": 6052,
      "લખે": 6053,
      "વાળો": 6054,
      "કીંગ": 6055,
      "ડોકટ": 6056,
      "કંપનીમાં": 6057,
      "રિપોર્ટમાં": 6058,
      "દીપિકા": 6059,
      "એપાર્ટમેન્ટ": 6060,
      "તફા": 6061,
      "શના": 6062,
      "કાંત": 6063,
      "વેરિ": 6064,
      "શેરી": 6065,
      "રાજનીતિ": 6066,
      "ખેંચી": 6067,
      "જસ્ટિસ": 6068,
      "In": 6069,
      "દળ": 6070,
      "કંઇ": 6071,
      "ફ્લે": 6072,
      "શરીરના": 6073,
      "ઉર્જા": 6074,
      "ભવ": 6075,
      "ખામી": 6076,
      "વ્યક્તિની": 6077,
      "ચરબી": 6078,
      "સૂત્રોના": 6079,
      "જ્યુ": 6080,
      "વેગ": 6081,
      "મોલ": 6082,
      "એકલા": 6083,
      "માનવું": 6084,
      "ess": 6085,
      "નિષ્ણાતો": 6086,
      "મ્યુનિસિપલ": 6087,
      "પાવ": 6088,
      "ઊંચ": 6089,
      "લીંબુ": 6090,
      "ભૂકં": 6091,
      "ઇંડા": 6092,
      "બરો": 6093,
      "પેમેન્ટ": 6094,
      "દારૂની": 6095,
      "બચત": 6096,
      "ul": 6097,
      "ઊંડા": 6098,
      "કશન": 6099,
      "મફત": 6100,
      "હસ્તે": 6101,
      "શ્રમ": 6102,
      "નીકળે": 6103,
      "વેબસાઇટ": 6104,
      "ap": 6105,
      "સર્જરી": 6106,
      "ચુસ્ત": 6107,
      "આશંકા": 6108,
      "ઈને": 6109,
      "તેજી": 6110,
      "કેપ": 6111,
      "સોનું": 6112,
      "ગંદ": 6113,
      "પદે": 6114,
      "….": 6115,
      "વાણા": 6116,
      "પ્રકૃતિ": 6117,
      "લીટર": 6118,
      "ષ્ઠા": 6119,
      "અમેરિકી": 6120,
      "ઉલ્લંઘન": 6121,
      "૩૮": 6122,
      "કરતું": 6123,
      "ત્તમ": 6124,
      "શોભ": 6125,
      "રૂપિયાના": 6126,
      "કલાકાર": 6127,
      "ઉદ્યો": 6128,
      "કિસ્સાઓમાં": 6129,
      "હોટેલ": 6130,
      "ઘટનાને": 6131,
      "સમાજમાં": 6132,
      "કરીના": 6133,
      "ચીજ": 6134,
      "પિંડી": 6135,
      "કાયમી": 6136,
      "નોંધાઈ": 6137,
      "લોકસભાની": 6138,
      "રાત્રીના": 6139,
      "આર્ટ": 6140,
      "ઓપ": 6141,
      "કમી": 6142,
      "ઘ્": 6143,
      "રહસ્ય": 6144,
      "કંટા": 6145,
      "પર્વ": 6146,
      "દૂધની": 6147,
      "અનાજ": 6148,
      "ગૃહમંત્રી": 6149,
      "શસ્ત્ર": 6150,
      "સંદેશ": 6151,
      "ખેત": 6152,
      "મળેલ": 6153,
      "નહોતા": 6154,
      "વનારા": 6155,
      "શમાં": 6156,
      "જેમા": 6157,
      "રશિયન": 6158,
      "રીની": 6159,
      "બાલા": 6160,
      "ગઇકાલે": 6161,
      "બિલ્ડિંગ": 6162,
      "ઇઝ": 6163,
      "મિલી": 6164,
      "ઉત્પન્ન": 6165,
      "સ્ટેબલ": 6166,
      "વૈજ્ઞાનિક": 6167,
      "તબિયત": 6168,
      "ઉતારી": 6169,
      "ધના": 6170,
      "શણ": 6171,
      "પાયે": 6172,
      "જેમને": 6173,
      "માટેનું": 6174,
      "મોડા": 6175,
      "શ્મા": 6176,
      "ઈંગ્લેન્ડ": 6177,
      "છેલ્લે": 6178,
      "ટેલી": 6179,
      "મેદાન": 6180,
      "હાથે": 6181,
      "બેઝ": 6182,
      "ફાઇલ": 6183,
      "મોદીને": 6184,
      "પાછલા": 6185,
      "મિલનાડુ": 6186,
      "નિકાલ": 6187,
      "લ્ક": 6188,
      "ટ્ટા": 6189,
      "ધરતી": 6190,
      "ઉભો": 6191,
      "ડને": 6192,
      "દ્યોગ": 6193,
      "પ્રવા": 6194,
      "રેન": 6195,
      "મોડલ": 6196,
      "સિનિયર": 6197,
      "લિમ્પિ": 6198,
      "ચેતી": 6199,
      "ખેડૂતોના": 6200,
      "અર્પણ": 6201,
      "હ્ય": 6202,
      "માયા": 6203,
      "પાછો": 6204,
      "અનુમાન": 6205,
      "નિર્ણયો": 6206,
      "શોધખોળ": 6207,
      "વૃક્ષો": 6208,
      "એજન્ટ": 6209,
      "લૉક": 6210,
      "અસ": 6211,
      "બનાવ્યો": 6212,
      "સ્પેશિયલ": 6213,
      "મચ્છ": 6214,
      "્રી": 6215,
      "નોટો": 6216,
      "ગાઈડ": 6217,
      "ખાદ્ય": 6218,
      "યોજનાઓ": 6219,
      "અર્જુન": 6220,
      "ફોટોગ્રા": 6221,
      "મહારાષ્ટ્રના": 6222,
      "રોય": 6223,
      "વર્તી": 6224,
      "ખોર": 6225,
      "નકલી": 6226,
      "ચર્": 6227,
      "શકય": 6228,
      "હંમેશાં": 6229,
      "રખા": 6230,
      "ડેવલ": 6231,
      "અમલી": 6232,
      "ટકાથી": 6233,
      "મુશ્કેલીઓ": 6234,
      "આટલા": 6235,
      "સોસાયટીમાં": 6236,
      "આશીર્વાદ": 6237,
      "આય": 6238,
      "મેટ્રો": 6239,
      "વ્યક્તિએ": 6240,
      "અંતમાં": 6241,
      "આમંત્રણ": 6242,
      "સ્વાદિષ્ટ": 6243,
      "ગેરકાયદેસર": 6244,
      "કાગળ": 6245,
      "સપ": 6246,
      "ગ્રં": 6247,
      "જિલ્લાની": 6248,
      "લેવાનું": 6249,
      "પ્રસ્તાવ": 6250,
      "ંધ": 6251,
      "અપડે": 6252,
      "જોવામાં": 6253,
      "ખોટું": 6254,
      "કેબિનેટ": 6255,
      "કણ": 6256,
      "રેસ્ટોર": 6257,
      "સુલ": 6258,
      "બોટા": 6259,
      "ર્સની": 6260,
      "ખતમ": 6261,
      "ઠાકરે": 6262,
      "મહેમાનો": 6263,
      "બોલિવૂ": 6264,
      "પબ્લિક": 6265,
      "પાના": 6266,
      "યુગ": 6267,
      "પ્લ": 6268,
      "સ્પષ્ટતા": 6269,
      "કહેર": 6270,
      "મલા": 6271,
      "કેદી": 6272,
      "લોકોનાં": 6273,
      "શિક": 6274,
      "દુબ": 6275,
      "જયંતિ": 6276,
      "ઝેશન": 6277,
      "ઇન્ટરનેટ": 6278,
      "ખતરો": 6279,
      "av": 6280,
      "ન્સે": 6281,
      "કેન્દ્રિત": 6282,
      "પિતાએ": 6283,
      "પદાર્થ": 6284,
      "ડબ્": 6285,
      "સપ્લાય": 6286,
      "ક્ષેત્રો": 6287,
      "ફેરફારો": 6288,
      "દરે": 6289,
      "મૂડી": 6290,
      "સર્વો": 6291,
      "આયુર્વે": 6292,
      "પૉ": 6293,
      "સાવધા": 6294,
      "સિદ્ધા": 6295,
      "IC": 6296,
      "હીરો": 6297,
      "કારણકે": 6298,
      "અપાઈ": 6299,
      "સર્જાયો": 6300,
      "જાગૃત": 6301,
      "વિટામિન": 6302,
      "નસ": 6303,
      "ખુલ્લી": 6304,
      "મામલામાં": 6305,
      "પાકિસ્તાનની": 6306,
      "કેટેગરી": 6307,
      "બંધા": 6308,
      "ઝાલા": 6309,
      "જિયો": 6310,
      "શરતો": 6311,
      "ર્ત": 6312,
      "ન્ટા": 6313,
      "જવાના": 6314,
      "જજ": 6315,
      "હાની": 6316,
      "પટેલના": 6317,
      "માઇક્રો": 6318,
      "બેદરકારી": 6319,
      "આચર": 6320,
      "ઇન્સ": 6321,
      "ણના": 6322,
      "લંડ": 6323,
      "સવલ": 6324,
      "લેખિત": 6325,
      "ગભરા": 6326,
      "૩૪": 6327,
      "સાચ": 6328,
      "ક્ચર": 6329,
      "ભાવી": 6330,
      "ફાઉન્ડે": 6331,
      "ઑફ": 6332,
      "પ્રેશર": 6333,
      "ગતું": 6334,
      "બનીને": 6335,
      "લીંગ": 6336,
      "પોર્": 6337,
      "ભાગરૂપે": 6338,
      "ઉત્ત": 6339,
      "નવીન": 6340,
      "ક્રીમ": 6341,
      "કચ્છમાં": 6342,
      "વાયેલા": 6343,
      "વિભાગમાં": 6344,
      "ગુમ": 6345,
      "ઉત્સવ": 6346,
      "ચુક્યા": 6347,
      "પદ્": 6348,
      "બચી": 6349,
      "પોલ": 6350,
      "રૂપમાં": 6351,
      "આર્ય": 6352,
      "ઉમેદવારી": 6353,
      "નિર્માતા": 6354,
      "ભાજપમાં": 6355,
      "જીવનસાથી": 6356,
      "પુરવઠા": 6357,
      "ઋતુ": 6358,
      "મમ્": 6359,
      "સપના": 6360,
      "નોન": 6361,
      "કલર": 6362,
      "સ્ટેન્ડ": 6363,
      "બચવા": 6364,
      "ન્સની": 6365,
      "જીવનની": 6366,
      "સંગઠનો": 6367,
      "મર્યાદિત": 6368,
      "ઓપન": 6369,
      "લોને": 6370,
      "યોજવામાં": 6371,
      "ડીપી": 6372,
      "વ્યાપી": 6373,
      "ફિલ્મનું": 6374,
      "જવાબમાં": 6375,
      "કોશિશ": 6376,
      "કવર": 6377,
      "વિજ્ઞા": 6378,
      "એકતા": 6379,
      "સંચા": 6380,
      "િયાના": 6381,
      "સ્થિતી": 6382,
      "૨૦૧૭": 6383,
      "સ્નાયુ": 6384,
      "ag": 6385,
      "કિનારે": 6386,
      "ગર્ભાવ": 6387,
      "શહીદ": 6388,
      "ગયેલ": 6389,
      "નફો": 6390,
      "યક": 6391,
      "વયે": 6392,
      "લેણ": 6393,
      "150": 6394,
      "ગાળામાં": 6395,
      "દરખાસ્ત": 6396,
      "સીસ": 6397,
      "દિવ્યા": 6398,
      "પ્રાપ્તિ": 6399,
      "ગ્લોબલ": 6400,
      "ટં": 6401,
      "અભિનય": 6402,
      "કોંગ્રેસની": 6403,
      "પિતાને": 6404,
      "ઈસ": 6405,
      "ન્ટી": 6406,
      "િયામાં": 6407,
      "ભુત": 6408,
      "ઘેરા": 6409,
      "દૃષ્ટિ": 6410,
      "કટોક": 6411,
      "ભક્તિ": 6412,
      "સગ": 6413,
      "સાધારણ": 6414,
      "ટેકો": 6415,
      "બેરી": 6416,
      "પોઝીટીવ": 6417,
      "રાકેશ": 6418,
      "સેક્રે": 6419,
      "કરાય": 6420,
      "નિયંત્ર": 6421,
      "સંસ્કાર": 6422,
      "વલ્": 6423,
      "કેટલાય": 6424,
      "વ્યક્તિના": 6425,
      "કાર્યાલય": 6426,
      "એમ્બ": 6427,
      "ઝના": 6428,
      "લાદ": 6429,
      "ફરવા": 6430,
      "ચહેરો": 6431,
      "રત્": 6432,
      "યાએ": 6433,
      "રિક્ષા": 6434,
      "ગેરકાયદે": 6435,
      "કૉંગ્રે": 6436,
      "ધંધો": 6437,
      "તજ": 6438,
      "નનું": 6439,
      "૬૫": 6440,
      "વીસ": 6441,
      "સંયો": 6442,
      "સીંગ": 6443,
      "સોનિયા": 6444,
      "જુલાઇ": 6445,
      "ગ્લાસ": 6446,
      "સ્ટાઇ": 6447,
      "ઝું": 6448,
      "ચેન": 6449,
      "ચાલતા": 6450,
      "હાજરીમાં": 6451,
      "Gujar": 6452,
      "વીએ": 6453,
      "પ્રીમિ": 6454,
      "લસણ": 6455,
      "માસ્ટર": 6456,
      "પડયો": 6457,
      "વિશ્વની": 6458,
      "ગર્લ": 6459,
      "સાંભળી": 6460,
      "સેકન્ડ": 6461,
      "વિનો": 6462,
      "લીડ": 6463,
      "સ્ટુ": 6464,
      "ડિયમ": 6465,
      "મહેન્દ્ર": 6466,
      "ટ્રાયલ": 6467,
      "પહેલીવાર": 6468,
      "કર્ણાટ": 6469,
      "બ્યૂ": 6470,
      "લડવા": 6471,
      "ણામાં": 6472,
      "બેટરી": 6473,
      "198": 6474,
      "હથિયાર": 6475,
      "400": 6476,
      "પ્રસ્તુ": 6477,
      "યાત્રી": 6478,
      "કહેતા": 6479,
      "સહીત": 6480,
      "ખની": 6481,
      "દાવા": 6482,
      "બોય": 6483,
      "ફાયદાકારક": 6484,
      "ઈતિહા": 6485,
      "પતિએ": 6486,
      "નીચેના": 6487,
      "કહીને": 6488,
      "દુનિયાના": 6489,
      "વર્ષોમાં": 6490,
      "મકવાણા": 6491,
      "છેતરપિંડી": 6492,
      "સ્કિ": 6493,
      "સીઆર": 6494,
      "ઉપવાસ": 6495,
      "સમયની": 6496,
      "ગણાય": 6497,
      "પાંડે": 6498,
      "બેસીને": 6499,
      "લીગ": 6500,
      "જોતાં": 6501,
      "મંત્રીએ": 6502,
      "લાક્ષણિક": 6503,
      "વર્ડ": 6504,
      "ટિકલ": 6505,
      "સર્કલ": 6506,
      "ઘાટન": 6507,
      "વધારાના": 6508,
      "અદ": 6509,
      "કિમી": 6510,
      "બોલમાં": 6511,
      "સરકારમાં": 6512,
      "જોઇને": 6513,
      "ઇન્ટરનેશનલ": 6514,
      "કૅ": 6515,
      "કોડ": 6516,
      "કાચ": 6517,
      "મિની": 6518,
      "પ્રકારે": 6519,
      "પાર્ટીમાં": 6520,
      "અઠવાડિયામાં": 6521,
      "કપિલ": 6522,
      "એલા": 6523,
      "સ્કોર": 6524,
      "નિફ્ટી": 6525,
      "સમર્": 6526,
      "દ્રો": 6527,
      "ગોર": 6528,
      "કરોડથી": 6529,
      "બધાને": 6530,
      "વિરોધમાં": 6531,
      "ચોકડી": 6532,
      "તંદુરસ્ત": 6533,
      "સાંસ": 6534,
      "આરોપીઓને": 6535,
      "રાંધ": 6536,
      "ગળા": 6537,
      "ર્મો": 6538,
      "કરાવવામાં": 6539,
      "ચિહ્": 6540,
      "સૂત્ર": 6541,
      "નામનો": 6542,
      "લંબા": 6543,
      "આનાથી": 6544,
      "વાંકાનેર": 6545,
      "હૈદરાબાદ": 6546,
      "મહુ": 6547,
      "ડિયે": 6548,
      "ગ્રૂ": 6549,
      "માનવી": 6550,
      "બરફ": 6551,
      "ઘેર": 6552,
      "ફટકાર": 6553,
      "ગર્ભાવસ્થા": 6554,
      "95": 6555,
      "બચાવી": 6556,
      "ચાહકો": 6557,
      "64": 6558,
      "67": 6559,
      "ak": 6560,
      "આયાત": 6561,
      "૪૪": 6562,
      "વિજ": 6563,
      "ઓફિસમાં": 6564,
      "ઈન્ડસ્ટ્રી": 6565,
      "ઉલ": 6566,
      "દવે": 6567,
      "વિચિત્ર": 6568,
      "પ્રકરણ": 6569,
      "યુનિય": 6570,
      "કિસ્સો": 6571,
      "પ્રકારનું": 6572,
      "જયાં": 6573,
      "પ્રદૂ": 6574,
      "પોલીસમાં": 6575,
      "કોલેજો": 6576,
      "એકે": 6577,
      "ક્લે": 6578,
      "આપતી": 6579,
      "આપનાર": 6580,
      "બ્રી": 6581,
      "કરોડનું": 6582,
      "અગ્નિ": 6583,
      "ઓડિ": 6584,
      "પરની": 6585,
      "જુના": 6586,
      "સ્થાયી": 6587,
      "ટ્રેક": 6588,
      "પાછળથી": 6589,
      "બળતરા": 6590,
      "ation": 6591,
      "1000": 6592,
      "પમેન્ટ": 6593,
      "ક્ટે": 6594,
      "નિવાર": 6595,
      "દેતા": 6596,
      "ટિશ": 6597,
      "ફાસ્ટ": 6598,
      "ફિલ્મની": 6599,
      "ઈન્ડિયન": 6600,
      "પરિસ્થિતિમાં": 6601,
      "ંપતી": 6602,
      "ધર્મે": 6603,
      "કસરત": 6604,
      "લબ": 6605,
      "તાપી": 6606,
      "સાચું": 6607,
      "ગાડ": 6608,
      "ખેતમ": 6609,
      "દર્શિ": 6610,
      "પ્રોફે": 6611,
      "શાકભાજીના": 6612,
      "ભાગ્યે": 6613,
      "સંદર્ભમાં": 6614,
      "ગટર": 6615,
      "ટીને": 6616,
      "ફોનમાં": 6617,
      "અભિષે": 6618,
      "ew": 6619,
      "સનો": 6620,
      "કારની": 6621,
      "શનલ": 6622,
      "બંન્ને": 6623,
      "દુશ્": 6624,
      "બિં": 6625,
      "મોતને": 6626,
      "વરસાદને": 6627,
      "અભિનંદન": 6628,
      "વાસ્તવમાં": 6629,
      "કબૂ": 6630,
      "હોળી": 6631,
      "ચિકિ": 6632,
      "સૂચિ": 6633,
      "દર્દીને": 6634,
      "કોલકા": 6635,
      "આકર્ષણ": 6636,
      "ઇનિંગ": 6637,
      "સ્ક્રિ": 6638,
      "મહત્વનો": 6639,
      "દરોડા": 6640,
      "તળ": 6641,
      "નમૂ": 6642,
      "જેત": 6643,
      "પહોંચાડી": 6644,
      "ત્રિવેદી": 6645,
      "લાભો": 6646,
      "પાકની": 6647,
      "ભાડે": 6648,
      "વારથી": 6649,
      "પામ્યા": 6650,
      "માત્રામાં": 6651,
      "આવાસ": 6652,
      "ભાગોમાં": 6653,
      "મોને": 6654,
      "સંવાદ": 6655,
      "ડીની": 6656,
      "પરીત": 6657,
      "ફાયરિંગ": 6658,
      "ટોળા": 6659,
      "ot": 6660,
      "એસિડ": 6661,
      "જબર": 6662,
      "અમૃત": 6663,
      "મનસુખ": 6664,
      "સહકારી": 6665,
      "લંબાઈ": 6666,
      "77": 6667,
      "બૅ": 6668,
      "વિપરીત": 6669,
      "મહાત્મા": 6670,
      "પતિને": 6671,
      "પટેલને": 6672,
      "ષ્ણુ": 6673,
      "લોગ": 6674,
      "રિયર": 6675,
      "કિસાન": 6676,
      "થવાથી": 6677,
      "વિસ્તૃત": 6678,
      "કોંગ્રેસને": 6679,
      "જાણીતી": 6680,
      "બ્રિગે": 6681,
      "અછત": 6682,
      "નસીબ": 6683,
      "શૌ": 6684,
      "સકારાત્મક": 6685,
      "હસ": 6686,
      "પાલી": 6687,
      "મોની": 6688,
      "બનાવની": 6689,
      "ખેડૂતોએ": 6690,
      "તફાવત": 6691,
      "દં": 6692,
      "૯૯": 6693,
      "સાધુ": 6694,
      "ખાતામાં": 6695,
      "લિયો": 6696,
      "રંગી": 6697,
      "ધ્ધા": 6698,
      "હાર્ટ": 6699,
      "દુર્ઘટના": 6700,
      "એમે": 6701,
      "પુષ્ટિ": 6702,
      "ધોધ": 6703,
      "ભરપૂર": 6704,
      "ઝાડ": 6705,
      "ગાંઠ": 6706,
      "મહેશ": 6707,
      "પત્રકારો": 6708,
      "સવલતો": 6709,
      "લાને": 6710,
      "સાક્ષી": 6711,
      "પેરા": 6712,
      "લગ્નની": 6713,
      "બોર્ડર": 6714,
      "સેક્રેટરી": 6715,
      "થું": 6716,
      "યારો": 6717,
      "આપના": 6718,
      "દુકા": 6719,
      "ચોર": 6720,
      "લાંચ": 6721,
      "બાહ્ય": 6722,
      "સોનાની": 6723,
      "કેસોમાં": 6724,
      "મંત": 6725,
      "સ્મૃ": 6726,
      "મૂકે": 6727,
      "અમદાવાદની": 6728,
      "વેક્સીન": 6729,
      "42": 6730,
      "યશ": 6731,
      "કરના": 6732,
      "કોમ્": 6733,
      "રેતી": 6734,
      "બેટ": 6735,
      "અમલમાં": 6736,
      "આપેલા": 6737,
      "બંગાળ": 6738,
      "શનના": 6739,
      "બેટ્સમેન": 6740,
      "અન્": 6741,
      "પતા": 6742,
      "લેવાનો": 6743,
      "મુકવામાં": 6744,
      "પને": 6745,
      "યજ્ઞ": 6746,
      "સ્ત્રા": 6747,
      "દર્દીઓના": 6748,
      "ફુટ": 6749,
      "મથક": 6750,
      "ધ્રુ": 6751,
      "અબ્દુ": 6752,
      "ફટા": 6753,
      "વખાણ": 6754,
      "સિવિ": 6755,
      "પહેરે": 6756,
      "વતન": 6757,
      "પંચાયતના": 6758,
      "નિયંત્રિત": 6759,
      "me": 6760,
      "નોમાં": 6761,
      "મદદરૂપ": 6762,
      "યોજાઈ": 6763,
      "મૂલ્યાં": 6764,
      "બ્રહ્મ": 6765,
      "આગ્રહ": 6766,
      "ભયા": 6767,
      "ટેમ્": 6768,
      "જોષી": 6769,
      "એટલો": 6770,
      "મણિ": 6771,
      "સમિતિના": 6772,
      "ટેક્નોલોજી": 6773,
      "મુસાફરો": 6774,
      "નેગેટિવ": 6775,
      "અઢી": 6776,
      "એનું": 6777,
      "સેલિ": 6778,
      "વર્ષા": 6779,
      "રેસ્ટોરન્ટ": 6780,
      "અવર": 6781,
      "રચ": 6782,
      "ભાષણ": 6783,
      "જીભાઇ": 6784,
      "ડેન્ટ": 6785,
      "ભાઈને": 6786,
      "કાશ્મીરના": 6787,
      "સંચાલિત": 6788,
      "નબળી": 6789,
      "૯૮": 6790,
      "રોટ": 6791,
      "માસમાં": 6792,
      "પાથ": 6793,
      "દેવે": 6794,
      "ગીતો": 6795,
      "પ્રેક્": 6796,
      "વયના": 6797,
      "ગુરૂવારે": 6798,
      "ઉદ્યોગો": 6799,
      "રાજીવ": 6800,
      "રેમ": 6801,
      "ટ્રમ્પે": 6802,
      "2000": 6803,
      "પ્રાપ્ય": 6804,
      "આંગળી": 6805,
      "ઔષ": 6806,
      "૫૫": 6807,
      "મેર": 6808,
      "નાગરિકોને": 6809,
      "આઝાદી": 6810,
      "સ્મૃતિ": 6811,
      "58": 6812,
      "બટા": 6813,
      "સાના": 6814,
      "રેસ": 6815,
      "ડાયરેક્ટર": 6816,
      "વપરાય": 6817,
      "ખંભા": 6818,
      "સગીરા": 6819,
      "ગયુ": 6820,
      "જક": 6821,
      "વાવ": 6822,
      "રામાં": 6823,
      "વેકેશન": 6824,
      "પ્ટર": 6825,
      "પરિવહન": 6826,
      "જગ્યાઓ": 6827,
      "કાનૂની": 6828,
      "os": 6829,
      "િયાએ": 6830,
      "બ્રિટ": 6831,
      "પૈકીના": 6832,
      "એમ્બ્યુલ": 6833,
      "66": 6834,
      "અત્યા": 6835,
      "થનાર": 6836,
      "૩૨": 6837,
      "૪૭": 6838,
      "માઉ": 6839,
      "રાજ્યપાલ": 6840,
      "પત્રમાં": 6841,
      "વાળું": 6842,
      "ગ્રેડ": 6843,
      "43": 6844,
      "72": 6845,
      "વેચી": 6846,
      "ગોલ": 6847,
      "જશો": 6848,
      "ડ્યુ": 6849,
      "બીચ": 6850,
      "પૂરે": 6851,
      "સિંઘ": 6852,
      "ભર્યું": 6853,
      "જન્મદિવસ": 6854,
      "અસામાન્ય": 6855,
      "મુદ": 6856,
      "ગુણો": 6857,
      "વચ્ચેના": 6858,
      "કરોડનો": 6859,
      "બનતા": 6860,
      "હાલની": 6861,
      "સ્પીડ": 6862,
      "મુકાબ": 6863,
      "અસરો": 6864,
      "પત્રો": 6865,
      "સેમ": 6866,
      "ya": 6867,
      "નર્": 6868,
      "શિયમ": 6869,
      "બોલર": 6870,
      "ચીનમાં": 6871,
      "ચિંગ": 6872,
      "કુંભ": 6873,
      "ણુ": 6874,
      "કાઓ": 6875,
      "ડેન્": 6876,
      "કુર": 6877,
      "કમિશ્": 6878,
      "ઓક": 6879,
      "ક્યા": 6880,
      "કેમિ": 6881,
      "એકસાથે": 6882,
      "હિમા": 6883,
      "ડેટ": 6884,
      "એકાદ": 6885,
      "આજુબાજુ": 6886,
      "આજનો": 6887,
      "છેડા": 6888,
      "ગોપાલ": 6889,
      "રાખ્યું": 6890,
      "એમએસ": 6891,
      "દિલ્હીની": 6892,
      "તસ્વીર": 6893,
      "સીટો": 6894,
      "સોન": 6895,
      "લિંક": 6896,
      "કેટલું": 6897,
      "2013": 6898,
      "એક્શન": 6899,
      "ખુબજ": 6900,
      "ઓલિમ્પિ": 6901,
      "શર્ટ": 6902,
      "ભાવિક": 6903,
      "રેક્ટ": 6904,
      "ખોલી": 6905,
      "લાંબો": 6906,
      "ફરિયાદો": 6907,
      "ભુજ": 6908,
      "સ્વામિ": 6909,
      "સ્વચ્છતા": 6910,
      "મોંઘવારી": 6911,
      "પેસ્ટ": 6912,
      "પ્રકારનો": 6913,
      "સાઇડ": 6914,
      "ક્રિકેટર": 6915,
      "એડવા": 6916,
      "વસવા": 6917,
      "સાચા": 6918,
      "રીક્ષા": 6919,
      "પુખ્ત": 6920,
      "મૂક્યો": 6921,
      "દિગ્ગજ": 6922,
      "બગીચા": 6923,
      "કરૂ": 6924,
      "આપવાના": 6925,
      "માર્કેટિંગ": 6926,
      "સેન્સેક્સ": 6927,
      "આરામદાયક": 6928,
      "ચારેય": 6929,
      "કમ્": 6930,
      "રચા": 6931,
      "સાસ": 6932,
      "બદલાઈ": 6933,
      "રેન્જ": 6934,
      "કબજે": 6935,
      "બસ્ત": 6936,
      "દેસાઈ": 6937,
      "ખાનની": 6938,
      "વધવા": 6939,
      "બોલે": 6940,
      "મહામંત્રી": 6941,
      "રૂપિયાનું": 6942,
      "કાઢવામાં": 6943,
      "જથ્થા": 6944,
      "ફાર્મ": 6945,
      "એણે": 6946,
      "કરવામા": 6947,
      "શકું": 6948,
      "સાંસ્": 6949,
      "ઇન્સ્ટાગ્રામ": 6950,
      "માલિકી": 6951,
      "પ્રધાને": 6952,
      "આનો": 6953,
      "લીની": 6954,
      "લાખનો": 6955,
      "ભેર": 6956,
      "સોંપવામાં": 6957,
      "41": 6958,
      "’,": 6959,
      "વાશે": 6960,
      "લિય": 6961,
      "બંદો": 6962,
      "વ્યાવ": 6963,
      "સભામાં": 6964,
      "વાયરસની": 6965,
      "લાભાર્થી": 6966,
      "મકાનો": 6967,
      "સાંક": 6968,
      "પોષ": 6969,
      "સુશોભ": 6970,
      "શક્યો": 6971,
      "સિક્યો": 6972,
      "આગેવાની": 6973,
      "સાબરકાંઠા": 6974,
      "સમૃદ્ધ": 6975,
      "ઉમર": 6976,
      "ટલે": 6977,
      "દલિત": 6978,
      "દંપતી": 6979,
      "કોરિયા": 6980,
      "સંડો": 6981,
      "બેક્ટે": 6982,
      "મળતાં": 6983,
      "મંદ": 6984,
      "નાંખી": 6985,
      "નગરના": 6986,
      "પત્નીને": 6987,
      "આરા": 6988,
      "હની": 6989,
      "તાકી": 6990,
      "મુલ": 6991,
      "યુઝર્સ": 6992,
      "કોઈની": 6993,
      "રાખંડ": 6994,
      "વાઇરસ": 6995,
      "ચોક્કસપણે": 6996,
      "વોટ્સએપ": 6997,
      "56": 6998,
      "ઋષિ": 6999,
      "નાનક": 7000,
      "વાતને": 7001,
      "પાઠવી": 7002,
      "કબ્જે": 7003,
      "ચડા": 7004,
      "થવી": 7005,
      "મકર": 7006,
      "ભારતનો": 7007,
      "અમદાવાદઃ": 7008,
      "કલાકની": 7009,
      "સૈનિકો": 7010,
      "એસી": 7011,
      "કેદાર": 7012,
      "પુર્ણ": 7013,
      "ચોકી": 7014,
      "અડધી": 7015,
      "બજાવતા": 7016,
      "પનો": 7017,
      "મેચો": 7018,
      "કારોબારી": 7019,
      "બોર્ડની": 7020,
      "મચાવી": 7021,
      "બચ્ચન": 7022,
      "દાગી": 7023,
      "નિર્ધાર": 7024,
      "લેખક": 7025,
      "ફરિયાદી": 7026,
      "જોડાયેલી": 7027,
      "ઉમેર્યું": 7028,
      "ભંડોળ": 7029,
      "કલો": 7030,
      "બાની": 7031,
      "સીધો": 7032,
      "આજકાલ": 7033,
      "કય": 7034,
      "લખા": 7035,
      "વિઝા": 7036,
      "લોખંડ": 7037,
      "બેસે": 7038,
      "સોને": 7039,
      "પેન્શન": 7040,
      "વાતની": 7041,
      "વિદ્યાર્થીઓએ": 7042,
      "કોન્સ્ટેબલ": 7043,
      "સાવચેતી": 7044,
      "આઈપીએલ": 7045,
      "ઝમાં": 7046,
      "ટાર્": 7047,
      "પચા": 7048,
      "રાખ્યો": 7049,
      "કંપનીઓને": 7050,
      "દર્દીના": 7051,
      "અપાશે": 7052,
      "વિલંબ": 7053,
      "પુસ્તકો": 7054,
      "ંજલિ": 7055,
      "ખેતમજૂરી": 7056,
      "/-": 7057,
      "પ્રવૃત્તિઓ": 7058,
      "એડિ": 7059,
      "વચન": 7060,
      "રાતો": 7061,
      "સૂત્રોએ": 7062,
      "જમીનમાં": 7063,
      "નિમિત્તે": 7064,
      "આક્રમક": 7065,
      "કોફી": 7066,
      "દેપુર": 7067,
      "અંડર": 7068,
      "ઓળખવામાં": 7069,
      "સરખામણીમાં": 7070,
      "માળા": 7071,
      "શિલ્": 7072,
      "કોઈએ": 7073,
      "બ્રિટિશ": 7074,
      "દિનેશ": 7075,
      "દ્યોગિક": 7076,
      "em": 7077,
      "૩૯": 7078,
      "ટીમની": 7079,
      "ગ્રહો": 7080,
      "પેડ": 7081,
      "પ્રતિકારક": 7082,
      "પારિ": 7083,
      "સ્વીકારી": 7084,
      "આર્મી": 7085,
      "વાલા": 7086,
      "તાજ": 7087,
      "સાથો": 7088,
      "સેમ્પલ": 7089,
      "રહયા": 7090,
      "સર્વિ": 7091,
      "સ્કૂલમાં": 7092,
      "ગમત": 7093,
      "પક્ષે": 7094,
      "વામા": 7095,
      "કાએ": 7096,
      "બાજી": 7097,
      "સીઝન": 7098,
      "સ્થિતિને": 7099,
      "લાગતા": 7100,
      "દર્શાવી": 7101,
      "હુમલામાં": 7102,
      "સપ્તાહમાં": 7103,
      "ઉંમરના": 7104,
      "બંદોબસ્ત": 7105,
      "ID": 7106,
      "હોવો": 7107,
      "નિવાસી": 7108,
      "પ્રતિમા": 7109,
      "મરજન્સી": 7110,
      "ફર્નિ": 7111,
      "તબક્કે": 7112,
      "ખ્ય": 7113,
      "ન્ડિંગ": 7114,
      "ાર્ક": 7115,
      "બોલિ": 7116,
      "ફેંકી": 7117,
      "રાખેલ": 7118,
      "ચુકાદો": 7119,
      "સસ્પેન્ડ": 7120,
      "કઇ": 7121,
      "્રિ": 7122,
      "મુખ્યમંત્રીએ": 7123,
      "સંકલ્પ": 7124,
      "નિવેદનમાં": 7125,
      "આલિયા": 7126,
      "ફ્યૂ": 7127,
      "બધુ": 7128,
      "નોની": 7129,
      "દ્રશ્ય": 7130,
      "સ્થાપ": 7131,
      "ગ્ગા": 7132,
      "વેબસાઈટ": 7133,
      "કથિત": 7134,
      "કોન્સ": 7135,
      "ખાવાથી": 7136,
      "બીમાર": 7137,
      "પાસપોર્ટ": 7138,
      "છાપ": 7139,
      "આરોપીની": 7140,
      "અલ્પેશ": 7141,
      "શર્માએ": 7142,
      "ઉશ્કે": 7143,
      "પરો": 7144,
      "કઠો": 7145,
      "ચઢા": 7146,
      "કેરી": 7147,
      "લેષણ": 7148,
      "ચુકી": 7149,
      "યોજાયો": 7150,
      "શાહરૂ": 7151,
      "સ્વરૂપમાં": 7152,
      "વ્યાવસાય": 7153,
      "પર્ય": 7154,
      "ફેંક": 7155,
      "રાખતા": 7156,
      "માર્ગે": 7157,
      "ર્સમાં": 7158,
      "અગાઉના": 7159,
      "કચરો": 7160,
      "મંગા": 7161,
      "પોલીસકર્મી": 7162,
      "અધિક": 7163,
      "તુર્": 7164,
      "આયોજિત": 7165,
      "જાણીને": 7166,
      "ભાષામાં": 7167,
      "વરે": 7168,
      "પ્ટ": 7169,
      "મતલબ": 7170,
      "વિજયભાઈ": 7171,
      "ટાઇમ": 7172,
      "ઘટકો": 7173,
      "જસદ": 7174,
      "વંત": 7175,
      "ષભ": 7176,
      "સસ્તા": 7177,
      "બ્લે": 7178,
      "પાકિસ્તાનમાં": 7179,
      "જોડાયેલ": 7180,
      "ગામડા": 7181,
      "બનાવવાનો": 7182,
      "યુનિટ": 7183,
      "ers": 7184,
      "ઓફી": 7185,
      "પટ્ટી": 7186,
      "યુઝ": 7187,
      "બોન્ડ": 7188,
      "પડયા": 7189,
      "ભૂખ": 7190,
      "કેન્દ્રમાં": 7191,
      "દાયી": 7192,
      "59": 7193,
      "કેક": 7194,
      "લિપ": 7195,
      "પરિવારો": 7196,
      "તૈનાત": 7197,
      "ફળો": 7198,
      "મકાનમાં": 7199,
      "વિનોદ": 7200,
      "ra": 7201,
      "ઉઘ": 7202,
      "તકો": 7203,
      "ર્સે": 7204,
      "રાખવો": 7205,
      "જલદી": 7206,
      "માધ્યમિક": 7207,
      "સંતાન": 7208,
      "કબજો": 7209,
      "મસ્જિ": 7210,
      "બપોર": 7211,
      "વટા": 7212,
      "ંગે": 7213,
      "સરહ": 7214,
      "બાળકની": 7215,
      "ગામોમાં": 7216,
      "૪૬": 7217,
      "વિદેશમાં": 7218,
      "રીક": 7219,
      "રૂપા": 7220,
      "મૂકો": 7221,
      "ટેસ્ટમાં": 7222,
      "આટલું": 7223,
      "ભજવી": 7224,
      "જવર": 7225,
      "ધમા": 7226,
      "નાસી": 7227,
      "ારૂ": 7228,
      "લ્વર": 7229,
      "િયાં": 7230,
      "ફેલ": 7231,
      "કેટલો": 7232,
      "થિયે": 7233,
      "આક્ષેપો": 7234,
      "સાંસ્કૃતિક": 7235,
      "બહુમ": 7236,
      "પ્રસ": 7237,
      "તિઓ": 7238,
      "ગીતા": 7239,
      "ઓર્ગે": 7240,
      "ઈશ્વર": 7241,
      "તેવામાં": 7242,
      "કેપિ": 7243,
      "જાપા": 7244,
      "લોકાર્": 7245,
      "ટોચના": 7246,
      "ઉંમરે": 7247,
      "હાઈકોર્ટે": 7248,
      "પંચાયતઘર": 7249,
      "રાજેશ": 7250,
      "વસાવા": 7251,
      "કડો": 7252,
      "વસંત": 7253,
      "તેમા": 7254,
      "સોદા": 7255,
      "ચેન્ન": 7256,
      "છોટાઉ": 7257,
      "ફોડ": 7258,
      "ધારણા": 7259,
      "કંપનીને": 7260,
      "દેખાશે": 7261,
      "ટંકારા": 7262,
      "જંતુ": 7263,
      "ભડ": 7264,
      "પરમ": 7265,
      "મેના": 7266,
      "અમેરિકાની": 7267,
      "જામનગરમાં": 7268,
      "ગાયક": 7269,
      "BI": 7270,
      "ણ્ય": 7271,
      "મળા": 7272,
      "ટિક્સ": 7273,
      "થયાત્રા": 7274,
      "ઘરેથી": 7275,
      "આજરોજ": 7276,
      "વોર્ડમાં": 7277,
      "વાતચીતમાં": 7278,
      "બોર્": 7279,
      "બોમ્બ": 7280,
      "શીટ": 7281,
      "આંધ્ર": 7282,
      "શૂટ": 7283,
      "વેરાવળ": 7284,
      "વપરાશકર્તા": 7285,
      "કાળો": 7286,
      "વેન્ટિ": 7287,
      "લેવો": 7288,
      "જયંતી": 7289,
      "પ્રોટીન": 7290,
      "અભિષેક": 7291,
      "ધીમી": 7292,
      "ગોધરા": 7293,
      "વ્યાપાર": 7294,
      "યુવતીએ": 7295,
      "ઉપપ્રમુખ": 7296,
      "પડતો": 7297,
      "ઉત્તરાખંડ": 7298,
      "બિંદુ": 7299,
      "પ્રવિ": 7300,
      "મીર": 7301,
      "નામથી": 7302,
      "પાર્કિંગ": 7303,
      "આગમન": 7304,
      "તંત્રની": 7305,
      "સૈનિ": 7306,
      "સેનાએ": 7307,
      "પાવડર": 7308,
      "78": 7309,
      "આડ": 7310,
      "દઇએ": 7311,
      "પલા": 7312,
      "કામે": 7313,
      "બોલ્ડ": 7314,
      "શોર્ટ": 7315,
      "ર્સના": 7316,
      "ભરૃ": 7317,
      "ઓળખાય": 7318,
      "જોખમી": 7319,
      "જંગલ": 7320,
      "એસોસિએશન": 7321,
      "વસવાટ": 7322,
      "ફર્નિચર": 7323,
      "લોકાર્પણ": 7324,
      "ઇંગ": 7325,
      "લાગતું": 7326,
      "સિક્": 7327,
      "ખાડા": 7328,
      "ડિલિવ": 7329,
      "ફાળો": 7330,
      "માતાપિતા": 7331,
      "અહેવાલો": 7332,
      "મકી": 7333,
      "રનની": 7334,
      "પેન્દ્ર": 7335,
      "પરિબળો": 7336,
      "્સની": 7337,
      "જન્મે": 7338,
      "ન્યૂઝીલેન્ડ": 7339,
      "વાંધો": 7340,
      "સાસુ": 7341,
      "આવવાની": 7342,
      "ખરેખ": 7343,
      "એક્સપ્રેસ": 7344,
      "ઇલેક્ટ્રો": 7345,
      "ઈમાં": 7346,
      "ચમક": 7347,
      "સોનાના": 7348,
      "ક્રુ": 7349,
      "કાઉન્ટર": 7350,
      "જીલ્લામાં": 7351,
      "મંત્રાલયના": 7352,
      "કાયદેસરની": 7353,
      "કરિયર": 7354,
      "વટે": 7355,
      "વિપુલ": 7356,
      "શેટ્ટી": 7357,
      "દામ": 7358,
      "સીમ": 7359,
      "બોલિંગ": 7360,
      "ફરતા": 7361,
      "મેળવ્યો": 7362,
      "આજની": 7363,
      "સ્પેસ": 7364,
      "યુવતીને": 7365,
      "છોકરીઓ": 7366,
      "ઠ્ઠા": 7367,
      "પીડિત": 7368,
      "જર્મની": 7369,
      "તાજા": 7370,
      "બેંગ": 7371,
      "અનુષ્": 7372,
      "સાયન્સ": 7373,
      "બધાં": 7374,
      "કોલેજમાં": 7375,
      "મુદ્દાઓ": 7376,
      "નોટબંધી": 7377,
      "સાંસદો": 7378,
      "oo": 7379,
      "અન્ન": 7380,
      "ઝની": 7381,
      "રથ": 7382,
      "વિન્": 7383,
      "મીમી": 7384,
      "પરિવારે": 7385,
      "શ્રમિ": 7386,
      "મહારાજ": 7387,
      "ec": 7388,
      "રિમાન્ડ": 7389,
      "હજારની": 7390,
      "યુવકે": 7391,
      "અટકી": 7392,
      "મસાલા": 7393,
      "હળવદ": 7394,
      "અપડેટ": 7395,
      "મૂલ્યાંકન": 7396,
      "અસં": 7397,
      "અરુ": 7398,
      "કમર": 7399,
      "વાપરી": 7400,
      "તેમનાં": 7401,
      "વચ્ચેની": 7402,
      "ચુડા": 7403,
      "ગાંધીનગરમાં": 7404,
      "અફવા": 7405,
      "ઊભો": 7406,
      "નંગ": 7407,
      "બારો": 7408,
      "સ્વર": 7409,
      "સ્તાન": 7410,
      "ઝડપે": 7411,
      "ભેળ": 7412,
      "પ્રત્યેક": 7413,
      "પાંદડા": 7414,
      "યંત્ર": 7415,
      "સુરેશ": 7416,
      "પીએફ": 7417,
      "સોનુ": 7418,
      "ફેલાઈ": 7419,
      "પ્રાય": 7420,
      "પાણીથી": 7421,
      "ક્લબ": 7422,
      "અથડામણ": 7423,
      "ગવર્": 7424,
      "વરેજ": 7425,
      "ચાંદ": 7426,
      "ટ્રસ્ટી": 7427,
      "શીપ": 7428,
      "ભૂષણ": 7429,
      "પ્રતિષ્ઠા": 7430,
      "રૂપિયામાં": 7431,
      "વિકસિત": 7432,
      "ઝમ": 7433,
      "નામો": 7434,
      "પરિવા": 7435,
      "દરેકને": 7436,
      "નદીના": 7437,
      "મંજુરી": 7438,
      "મજબુ": 7439,
      "ઉત": 7440,
      "હક": 7441,
      "સેન": 7442,
      "આરોપો": 7443,
      "આઈટી": 7444,
      "લેવાયો": 7445,
      "યોજાયેલી": 7446,
      "પંચમહા": 7447,
      "ફાઇનલમાં": 7448,
      "પ્રસ્તુત": 7449,
      "એન્ટર": 7450,
      "પઠા": 7451,
      "નાન્સ": 7452,
      "જાગ": 7453,
      "લગ્નના": 7454,
      "મમ્મી": 7455,
      "51": 7456,
      "લેવું": 7457,
      "પ્રોગ્રામ": 7458,
      "ડવાનું": 7459,
      "અર્ધ": 7460,
      "ગણાવી": 7461,
      "ગર્ભવતી": 7462,
      "પ્રદૂષણ": 7463,
      "ab": 7464,
      "ચણા": 7465,
      "હડ": 7466,
      "મહિનાના": 7467,
      "સંસ્થાના": 7468,
      "સૌરાષ્ટ્રમાં": 7469,
      "સવારના": 7470,
      "ઉપરોક્ત": 7471,
      "ઇમાર": 7472,
      "બપો": 7473,
      "તરફે": 7474,
      "વતની": 7475,
      "શક્તિશાળી": 7476,
      "57": 7477,
      "ઝરી": 7478,
      "વારની": 7479,
      "પ્રોસે": 7480,
      "પડેલા": 7481,
      "હવામાં": 7482,
      "ચૂંટા": 7483,
      "સ્ટોરી": 7484,
      "વહીવટ": 7485,
      "ડ્રાઈવર": 7486,
      "ખેડુતો": 7487,
      "ગંદકી": 7488,
      "અખિ": 7489,
      "ચળ": 7490,
      "ટનો": 7491,
      "પદા": 7492,
      "૧પ": 7493,
      "૨ા": 7494,
      "જીતુ": 7495,
      "શોષણ": 7496,
      "પુરસ્કાર": 7497,
      "ારામ": 7498,
      "ઘોડા": 7499,
      "સંબોધન": 7500,
      "ડ્યૂ": 7501,
      "માનિત": 7502,
      "વિદાય": 7503,
      "જીતે": 7504,
      "હાથી": 7505,
      "શ્વે": 7506,
      "૨૦૧૬": 7507,
      "એલર્જી": 7508,
      "સીબીઆઈ": 7509,
      "યુનિવર્સિટીના": 7510,
      "પહોંચાડ": 7511,
      "કક્ષાએ": 7512,
      "પ્રોફેસર": 7513,
      "62": 7514,
      "આશિ": 7515,
      "ઊં": 7516,
      "પંક": 7517,
      "એકઠા": 7518,
      "આપવો": 7519,
      "રાજસિંહ": 7520,
      "પડતાં": 7521,
      "કાઢવા": 7522,
      "કમિશ્નર": 7523,
      "ઓથો": 7524,
      "વનડે": 7525,
      "બુદ્ધિ": 7526,
      "ખુરશી": 7527,
      "વિસ્તારની": 7528,
      "ચૂંટણીના": 7529,
      "વર્ણન": 7530,
      "છરી": 7531,
      "છેવટે": 7532,
      "લેન્સ": 7533,
      "પોઝ": 7534,
      "પેસેન્": 7535,
      "મનીષ": 7536,
      "ડાઉનલોડ": 7537,
      "સૌરાષ્ટ્રના": 7538,
      "પરિષદ": 7539,
      "રથયાત્રા": 7540,
      "ુક": 7541,
      "કારે": 7542,
      "ડાટ": 7543,
      "પીવાના": 7544,
      "રાખવાનો": 7545,
      "વ્યાખ્યા": 7546,
      "આત્મા": 7547,
      "સ્પર્શ": 7548,
      "રાજસ્થાનના": 7549,
      "પ્રમોશન": 7550,
      "ફાઉન્ડેશન": 7551,
      "છં": 7552,
      "વળા": 7553,
      "યોમાં": 7554,
      "મળવાની": 7555,
      "કોંગ્રેસમાં": 7556,
      "તંત્રને": 7557,
      "માળખા": 7558,
      "તૂટ": 7559,
      "તસ્કરો": 7560,
      "શાર": 7561,
      "સફાઇ": 7562,
      "કરીશ": 7563,
      "ત્તર": 7564,
      "પેજ": 7565,
      "બોગ": 7566,
      "છાતી": 7567,
      "શાળાઓમાં": 7568,
      "હાર્ડ": 7569,
      "રાજયમાં": 7570,
      "ચિકન": 7571,
      "તત્વ": 7572,
      "સ્વરૂપે": 7573,
      "ઘાસ": 7574,
      "તકની": 7575,
      "કોર્પોરેટર": 7576,
      "મુલાકાતે": 7577,
      "કેજરીવાલ": 7578,
      "68": 7579,
      "નીંગ": 7580,
      "પ્રચ": 7581,
      "ન્ટેડ": 7582,
      "ટોલ": 7583,
      "બ્રાહ્": 7584,
      "સૂચવે": 7585,
      "અંકલેશ્વર": 7586,
      "કામકાજ": 7587,
      "મૅ": 7588,
      "માગી": 7589,
      "વિશ્લેષણ": 7590,
      "વાંચી": 7591,
      "કચ્છના": 7592,
      "ઉનાળામાં": 7593,
      "શણગાર": 7594,
      "ઔદ્યોગિક": 7595,
      "છિ": 7596,
      "કાચા": 7597,
      "મુળ": 7598,
      "ખેર": 7599,
      "2012": 7600,
      "બાળપણ": 7601,
      "પ્રતિભા": 7602,
      "મહિલાના": 7603,
      "બંનેએ": 7604,
      "ઇન્ડેક્સ": 7605,
      "બ્લાસ્ટ": 7606,
      "બોટાદ": 7607,
      "ઈચ્છ": 7608,
      "વિષ્ણુ": 7609,
      "ક્લાસ": 7610,
      "મેટલ": 7611,
      "ભાન": 7612,
      "દ્રારા": 7613,
      "શકતી": 7614,
      "સાંજના": 7615,
      "પરેશ": 7616,
      "ગરીબો": 7617,
      "આતંકવાદ": 7618,
      "કોન્ફરન્સ": 7619,
      "૪૨": 7620,
      "લાજ": 7621,
      "કારને": 7622,
      "પહેલ": 7623,
      "ચોરસ": 7624,
      "સંગત": 7625,
      "ગ્લે": 7626,
      "કલાકો": 7627,
      "મંડળી": 7628,
      "હથિયારો": 7629,
      "લશ્કરી": 7630,
      "દહીં": 7631,
      "હોતી": 7632,
      "તિયા": 7633,
      "કરાયેલી": 7634,
      "બાળો": 7635,
      "પાકિસ્તાને": 7636,
      "એનએસ": 7637,
      "મોરબીમાં": 7638,
      "2019માં": 7639,
      "દલીલ": 7640,
      "સિક્યોરિટી": 7641,
      "?’": 7642,
      "િયે": 7643,
      "વિતા": 7644,
      "જોડ": 7645,
      "ગોવિંદ": 7646,
      "ફોલો": 7647,
      "લોકશાહી": 7648,
      "સ્વભાવ": 7649,
      "બજેટમાં": 7650,
      "સાગ": 7651,
      "યોજી": 7652,
      "સંપા": 7653,
      "ક્ષર": 7654,
      "ડિઓ": 7655,
      "બનાવ્યું": 7656,
      "સમાજની": 7657,
      "ક્યાંય": 7658,
      "વાગ્યાથી": 7659,
      "નારાજગી": 7660,
      "SI": 7661,
      "ટેશન": 7662,
      "દરમાં": 7663,
      "જવાન": 7664,
      "નવરાત્રી": 7665,
      "પાલનપુર": 7666,
      "પૂછ્યું": 7667,
      "ફ્લોર": 7668,
      "દિવાલ": 7669,
      "ક્રમમાં": 7670,
      "પેટે": 7671,
      "તેઓની": 7672,
      "અભિગમ": 7673,
      "જીવલેણ": 7674,
      "ટાર્ગેટ": 7675,
      "નરમ": 7676,
      "હોસ્પી": 7677,
      "બાજરી": 7678,
      "બીના": 7679,
      "રાખ્યા": 7680,
      "બુલ": 7681,
      "ફાળવણી": 7682,
      "વિરૂધ્ધ": 7683,
      ":-": 7684,
      "આખું": 7685,
      "ધવ": 7686,
      "નાટ": 7687,
      "વેલ્": 7688,
      "નિલ": 7689,
      "આઈડી": 7690,
      "મંદિરની": 7691,
      "દેશોના": 7692,
      "અર્થવ્યવસ્થા": 7693,
      "રૃપિયા": 7694,
      "નફા": 7695,
      "નર્સ": 7696,
      "રાદ": 7697,
      "સિઝન": 7698,
      "મળતો": 7699,
      "ચોખા": 7700,
      "આરએસ": 7701,
      "જ્ઞાતિ": 7702,
      "ચૂક્યો": 7703,
      "૩૦૦": 7704,
      "વિઝ": 7705,
      "બીસીસી": 7706,
      "કિંમતો": 7707,
      "શરત": 7708,
      "વિધાનસભામાં": 7709,
      "અડધો": 7710,
      "પુરવઠો": 7711,
      "ચેન્જ": 7712,
      "પ્રવિણ": 7713,
      "ઇમે": 7714,
      "વિડિયો": 7715,
      "શકતો": 7716,
      "નિર્દોષ": 7717,
      "મોટાભાગની": 7718,
      "જ્વેલ": 7719,
      "ધ્યાત્": 7720,
      "બંગાળમાં": 7721,
      "MC": 7722,
      "મેળા": 7723,
      "ણીની": 7724,
      "ગુનામાં": 7725,
      "વાદળી": 7726,
      "બનાવશે": 7727,
      "ભરીને": 7728,
      "સિનેમા": 7729,
      "નિરીક્ષણ": 7730,
      "ઉછે": 7731,
      "૬૬": 7732,
      "કોઠ": 7733,
      "પ્રભારી": 7734,
      "નિશા": 7735,
      "જાણતા": 7736,
      "માર્ગદર્શિ": 7737,
      "મધ્યપ્રદેશ": 7738,
      "રાજયના": 7739,
      "ઉદ્દેશ": 7740,
      "તેટલી": 7741,
      "મનુષ્ય": 7742,
      "વાઘેલા": 7743,
      "to": 7744,
      "ત્રિક": 7745,
      "જોબ": 7746,
      "દેદારો": 7747,
      "વધ્યો": 7748,
      "કરાવ્યું": 7749,
      "સ્ટોલ": 7750,
      "મેડીકલ": 7751,
      "સોંપી": 7752,
      "સિઝનમાં": 7753,
      "લીએ": 7754,
      "ટિન": 7755,
      "કરાતા": 7756,
      "જિલ્લાઓમાં": 7757,
      "આરબી": 7758,
      "સાંભળીને": 7759,
      "પામ્યો": 7760,
      "52": 7761,
      "પાઉન્ડ": 7762,
      "લેતી": 7763,
      "હાલા": 7764,
      "ડિત": 7765,
      "ડેપ્યુ": 7766,
      "ઘટાડે": 7767,
      "સ્ટાઇલ": 7768,
      "નિયમોનું": 7769,
      "ંકર": 7770,
      "અવા": 7771,
      "એટીએમ": 7772,
      "ઘડ": 7773,
      "છેઃ": 7774,
      "રાખશે": 7775,
      "એલસીબી": 7776,
      "શરદ": 7777,
      "નેટવર્": 7778,
      "રજિસ્ટ્રેશન": 7779,
      "સતી": 7780,
      "યોગે": 7781,
      "સરમાં": 7782,
      "અધિકારીઓની": 7783,
      "ચાલશે": 7784,
      "હાર્દિ": 7785,
      "સર્જાઈ": 7786,
      "કર્ણાટક": 7787,
      "નૂ": 7788,
      "બડ": 7789,
      "નાર્": 7790,
      "વર્ગી": 7791,
      "પહેરીને": 7792,
      "2008": 7793,
      "ધર્મો": 7794,
      "પીએસઆઇ": 7795,
      "સ્વામિનારાયણ": 7796,
      "જોધ": 7797,
      "આવેલો": 7798,
      "શૈલેષ": 7799,
      "અટકાવી": 7800,
      "જગદી": 7801,
      "સ્વતંત્રતા": 7802,
      "):": 7803,
      "કાલા": 7804,
      "યાન": 7805,
      "વોર": 7806,
      "ભરવામાં": 7807,
      "જીવંત": 7808,
      "કૌશલ": 7809,
      "અઠવાડિયે": 7810,
      "બદલાવ": 7811,
      "અવારનવાર": 7812,
      "પ્રવૃ": 7813,
      "લગતી": 7814,
      "્સના": 7815,
      "ઉપરના": 7816,
      "કેન્દ્રો": 7817,
      "પ્રક્રિયામાં": 7818,
      "જીલ્લાના": 7819,
      "આશ્રમ": 7820,
      "સેવક": 7821,
      "બેઠેલા": 7822,
      "કયારે": 7823,
      "ભરૃચ": 7824,
      "um": 7825,
      "ઈશ": 7826,
      "મેરી": 7827,
      "રૂણ": 7828,
      "થેરા": 7829,
      "ઉદ્યોગપતિ": 7830,
      "બોગસ": 7831,
      "એસ્ટેટ": 7832,
      "કાવ": 7833,
      "દિવ્ય": 7834,
      "ધોરાજી": 7835,
      "લગ્નમાં": 7836,
      "બારડો": 7837,
      "દસ્તાવેજ": 7838,
      "સંસદમાં": 7839,
      "એકત્રિત": 7840,
      "આડે": 7841,
      "પછા": 7842,
      "વધ્યા": 7843,
      "ડેડ": 7844,
      "ડેમો": 7845,
      "ખેતરમાં": 7846,
      "મહિલાની": 7847,
      "જિન": 7848,
      "દૃશ્ય": 7849,
      "કોહલીએ": 7850,
      "98": 7851,
      "ખભા": 7852,
      "નૃ": 7853,
      "માએ": 7854,
      "ન્સિંગ": 7855,
      "જાતીય": 7856,
      "હોબાળો": 7857,
      "દેખરેખ": 7858,
      "ઝાં": 7859,
      "જોડાણ": 7860,
      "સભ્યોની": 7861,
      "પરીક્ષામાં": 7862,
      "ભું": 7863,
      "મરણ": 7864,
      "પ્રગટ": 7865,
      "લ્ટી": 7866,
      "રિટર્ન": 7867,
      "વ્યકત": 7868,
      "ફ્રો": 7869,
      "પતંગ": 7870,
      "યાર્ડ": 7871,
      "સનીય": 7872,
      "ચોખ્": 7873,
      "ગ્રામીણ": 7874,
      "શરીરની": 7875,
      "ભરાઈ": 7876,
      "પ્રવક્તા": 7877,
      "નિમણૂક": 7878,
      "ઝારખંડ": 7879,
      "એન્ટ": 7880,
      "ગળે": 7881,
      "રસના": 7882,
      "પ્રશાંત": 7883,
      "ખાત": 7884,
      "બંનેને": 7885,
      "લાલચ": 7886,
      "કપમાં": 7887,
      "ટાઉન": 7888,
      "રાજપૂત": 7889,
      "બપોરના": 7890,
      "સેને": 7891,
      "બીસી": 7892,
      "બ્રાન્ચ": 7893,
      "શિયાળામાં": 7894,
      "CC": 7895,
      "સાવર": 7896,
      "વર્તુ": 7897,
      "ચેમ્બર": 7898,
      "ફર્યા": 7899,
      "બાબતમાં": 7900,
      "વધારીને": 7901,
      "સહેજ": 7902,
      "નીપજ્યું": 7903,
      "અશક્ય": 7904,
      "દાણા": 7905,
      "ગાઇડ": 7906,
      "બેંકના": 7907,
      "બતાવે": 7908,
      "ઇન્ટરવ્યૂ": 7909,
      "ઉન": 7910,
      "ફગાવી": 7911,
      "કિસ": 7912,
      "ભારતનું": 7913,
      "સ્ટેડિય": 7914,
      "મેળવવામાં": 7915,
      "પ્રિન્ટ": 7916,
      "ચાલકો": 7917,
      "પંચાયતની": 7918,
      "ઉત્પાદક": 7919,
      "ડિલિવરી": 7920,
      "ઈક": 7921,
      "ઓમ": 7922,
      "ફફ": 7923,
      "જાવ": 7924,
      "મોર્ટ": 7925,
      "સેફ": 7926,
      "પિતાની": 7927,
      "વડોદરાના": 7928,
      "સિંગલ": 7929,
      "વ્રત": 7930,
      "પાર્ટનર": 7931,
      "આજી": 7932,
      "વિસર્જન": 7933,
      "દાદી": 7934,
      "વોશિ": 7935,
      "સાયણ": 7936,
      "આઇટી": 7937,
      "સ્ટોપ": 7938,
      "સ્ટેશનના": 7939,
      "જાળવણી": 7940,
      "ધૂમ": 7941,
      "પ્રાણીઓ": 7942,
      "અહ": 7943,
      "એપિ": 7944,
      "ક્ય": 7945,
      "બત": 7946,
      "વસ્ત્રો": 7947,
      "રીય": 7948,
      "નિકા": 7949,
      "સુનિશ્ચિત": 7950,
      "ડાએ": 7951,
      "સિલ": 7952,
      "ગોહિલ": 7953,
      "ગ્રાન્ટ": 7954,
      "બોર્ડના": 7955,
      "કેસોની": 7956,
      "શરુઆત": 7957,
      "ઈન્ટરનેટ": 7958,
      "વલ્લભ": 7959,
      "71": 7960,
      "સ્માર": 7961,
      "પ્રણા": 7962,
      "જીક": 7963,
      "ગુને": 7964,
      "કારોબાર": 7965,
      "એનર્જી": 7966,
      "સ્ટીલ": 7967,
      "ટાઈમ": 7968,
      "સાબરમતી": 7969,
      "CM": 7970,
      "હ્યુ": 7971,
      "વિગેરે": 7972,
      "સ્થાપક": 7973,
      "વ્યાસ": 7974,
      "લગાવવા": 7975,
      "પૂછવામાં": 7976,
      "અગ્રવાલ": 7977,
      "સંભાળી": 7978,
      "ગોઠવી": 7979,
      "૧ર": 7980,
      "નીએ": 7981,
      "લીઓ": 7982,
      "ટીપી": 7983,
      "દ્દીન": 7984,
      "સૌપ્રથમ": 7985,
      "કિંમતમાં": 7986,
      "ક્રાંતિ": 7987,
      "મંજુર": 7988,
      "ut": 7989,
      "ઓઇલ": 7990,
      "વાગ": 7991,
      "મેડ": 7992,
      "મંચ": 7993,
      "2011": 7994,
      "અહીંયા": 7995,
      "માતાના": 7996,
      "મંદિરે": 7997,
      "વેક્સિનેશન": 7998,
      "સ્ત્રોત": 7999,
      "રમેશ": 8000,
      "તુલસી": 8001,
      "શાહરૂખ": 8002,
      "ઇમરાન": 8003,
      "ેશ": 8004,
      "સમજવા": 8005,
      "વોકેટ": 8006,
      "ન્સને": 8007,
      "જરૃ": 8008,
      "બનાવવાનું": 8009,
      "સરોવર": 8010,
      "ઉછાળો": 8011,
      "ઇસ્લા": 8012,
      "રજની": 8013,
      "સગઢ": 8014,
      "સસરા": 8015,
      "દેવાની": 8016,
      "ટાંકી": 8017,
      "નેતાઓએ": 8018,
      "રાજકોટઃ": 8019,
      "કર્મચારીઓની": 8020,
      "ટેસ્ટિંગ": 8021,
      "એચડી": 8022,
      "જાન્યુઆરીએ": 8023,
      "ઝઘડો": 8024,
      "ઇં": 8025,
      "ધ્રા": 8026,
      "ચેન્ના": 8027,
      "બોર": 8028,
      "કુટું": 8029,
      "એમસી": 8030,
      "વાયદા": 8031,
      "તારીખે": 8032,
      "સ્કીમ": 8033,
      "ડિસ્કાઉન્ટ": 8034,
      "ist": 8035,
      "૭૭": 8036,
      "સેમિ": 8037,
      "થાક": 8038,
      "યુર": 8039,
      "કંઇક": 8040,
      "સ્ટેજ": 8041,
      "લાખના": 8042,
      "કાંઠે": 8043,
      "રિકવરી": 8044,
      "વિગતવાર": 8045,
      "એન્જિન": 8046,
      "ઈના": 8047,
      "ન્હો": 8048,
      "લેપ": 8049,
      "રણવીર": 8050,
      "ભેજ": 8051,
      "જિકલ": 8052,
      "કોમર્સ": 8053,
      "કાળજીપૂર્વક": 8054,
      "સઘન": 8055,
      "માથું": 8056,
      "કરની": 8057,
      "જોડે": 8058,
      "પેશા": 8059,
      "પહેરી": 8060,
      "અંધ": 8061,
      "કેરળ": 8062,
      "બહુમતી": 8063,
      "ચુડાસમા": 8064,
      "ઓરિ": 8065,
      "બસો": 8066,
      "ધાના": 8067,
      "પેનલ": 8068,
      "અમર": 8069,
      "સૂચિત": 8070,
      "લેવાશે": 8071,
      "વહેંચ": 8072,
      "ક્રોસ": 8073,
      "હટાવી": 8074,
      "ભૌતિક": 8075,
      "ઉદ્ધ": 8076,
      "એલિ": 8077,
      "કરનારી": 8078,
      "સ્કુલ": 8079,
      "પાઉ": 8080,
      "ણાંક": 8081,
      "શાસિત": 8082,
      "પરિચિત": 8083,
      "બિલાડી": 8084,
      "લુક": 8085,
      "ગ્ન": 8086,
      "મૃત્યુઆંક": 8087,
      "નિવૃત્ત": 8088,
      "ઇશ": 8089,
      "નાક": 8090,
      "રામા": 8091,
      "બોસ": 8092,
      "દ્રશ્યો": 8093,
      "બાળકોમાં": 8094,
      "બેનર્જી": 8095,
      "મુંબઈના": 8096,
      "મલ્ટી": 8097,
      "પ્રસન્ન": 8098,
      "આદર": 8099,
      "રૂટ": 8100,
      "પીવા": 8101,
      "ટાવર": 8102,
      "ગેમ": 8103,
      "જુએ": 8104,
      "પહોંચતા": 8105,
      "અવરોધ": 8106,
      "બ્રિટી": 8107,
      "જાતકો": 8108,
      "યુવાનોને": 8109,
      "માંડવી": 8110,
      "ડાંગર": 8111,
      "પેકેજ": 8112,
      "ડેપ્યુટી": 8113,
      "79": 8114,
      "ફૉ": 8115,
      "બનના": 8116,
      "મેઘા": 8117,
      "કારના": 8118,
      "દિવાલો": 8119,
      "સરકારનો": 8120,
      "પાર્ટીએ": 8121,
      "સુંદરતા": 8122,
      "ગયેલી": 8123,
      "ટાળ": 8124,
      "ચોથી": 8125,
      "પંપ": 8126,
      "ટ્રાન્સપોર્ટ": 8127,
      "પૃષ્ઠ": 8128,
      "ઉમટી": 8129,
      "ફાઇનલ": 8130,
      "ચામડી": 8131,
      "બ્રાહ્મણ": 8132,
      "AT": 8133,
      "કહો": 8134,
      "હર્": 8135,
      "નીઝ": 8136,
      "બેલ": 8137,
      "કંડ": 8138,
      "સિંહો": 8139,
      "ફ્લેટ": 8140,
      "ચાલકે": 8141,
      "ગણિત": 8142,
      "વાઈરસ": 8143,
      "ધ્વ": 8144,
      "મહામારીના": 8145,
      "ઈં": 8146,
      "પારો": 8147,
      "પપ્પા": 8148,
      "માપ": 8149,
      "નેહા": 8150,
      "હોર્મો": 8151,
      "ંગુ": 8152,
      "લેવાય": 8153,
      "દેવતા": 8154,
      "ફાઈલ": 8155,
      "સુધારવા": 8156,
      "ઉપકરણો": 8157,
      "આફ્રિકા": 8158,
      "ચુકાદા": 8159,
      "રર": 8160,
      "કાટ": 8161,
      "હેલિ": 8162,
      "મારીને": 8163,
      "પૂરતા": 8164,
      "ગાળાના": 8165,
      "હમણાં": 8166,
      "કોન્ટ્રાક્ટ": 8167,
      "પ્રતીક": 8168,
      "અદ્": 8169,
      "ઙ્": 8170,
      "પટા": 8171,
      "માથે": 8172,
      "રેગ્યુ": 8173,
      "શિખર": 8174,
      "નીકળ્યા": 8175,
      "પ્રાઇવેટ": 8176,
      "શિલ્પા": 8177,
      "સુગંધ": 8178,
      "મિલિ": 8179,
      "શામાં": 8180,
      "ખીલ": 8181,
      "હોસ્પિટલોમાં": 8182,
      "અપમાન": 8183,
      "સ્પર્ધામાં": 8184,
      "છોટાઉદેપુર": 8185,
      "કપા": 8186,
      "ધડા": 8187,
      "૯૫": 8188,
      "બેન્ડ": 8189,
      "માનવતા": 8190,
      "ખેંચા": 8191,
      "અંગેના": 8192,
      "સંબંધમાં": 8193,
      "ચૂકવવા": 8194,
      "ગૌતમ": 8195,
      "શૈલીમાં": 8196,
      "શકયતા": 8197,
      "ઓમાંથી": 8198,
      "જળા": 8199,
      "તત્કા": 8200,
      "હવાઈ": 8201,
      "૪૧": 8202,
      "રાએ": 8203,
      "ચેટ": 8204,
      "રમવા": 8205,
      "નોંધવામાં": 8206,
      "યુવકને": 8207,
      "વિકાસના": 8208,
      "વસૂલ": 8209,
      "કવાય": 8210,
      "લાવે": 8211,
      "કોપ્ટર": 8212,
      "પાચન": 8213,
      "ઉમેરી": 8214,
      "લ્સને": 8215,
      "ડિસેમ્બરે": 8216,
      "કક્ષાના": 8217,
      "ઇવેન્ટ": 8218,
      "વત્": 8219,
      "મેન્યુ": 8220,
      "મેટિક": 8221,
      "પાડોશી": 8222,
      "મોઢા": 8223,
      "સ્તન": 8224,
      "સૌર": 8225,
      "જીવનના": 8226,
      "પાડ્યો": 8227,
      "ચલાવવા": 8228,
      "ઓળખી": 8229,
      "અભ્યાસમાં": 8230,
      "મથકમાં": 8231,
      "બોલીવુ": 8232,
      "69": 8233,
      "CA": 8234,
      "વિભાગો": 8235,
      "મીઠી": 8236,
      "ટિવિ": 8237,
      "ધિરાણ": 8238,
      "મહિલાઓની": 8239,
      "તંત્રએ": 8240,
      "મિશ્રા": 8241,
      "વેચવા": 8242,
      "તુરંત": 8243,
      "ગરો": 8244,
      "ચર્સ": 8245,
      "૬૮": 8246,
      "લોકલ": 8247,
      "લેતાં": 8248,
      "ચોકલે": 8249,
      "સહયોગી": 8250,
      "સર્વોચ્ચ": 8251,
      "કેમિકલ": 8252,
      "RT": 8253,
      "આમિર": 8254,
      "ઘડી": 8255,
      "ભાષ": 8256,
      "નિવૃત્તિ": 8257,
      "એકમ": 8258,
      "કરાવે": 8259,
      "માર્ચે": 8260,
      "દેશોની": 8261,
      "ews": 8262,
      "પ્રોપર્": 8263,
      "પ્લેસ": 8264,
      "ગઢવી": 8265,
      "નિર્ધારિત": 8266,
      "ev": 8267,
      "નખ": 8268,
      "બર્થ": 8269,
      "શરમ": 8270,
      "કેલ્": 8271,
      "લોના": 8272,
      "મિટ": 8273,
      "કંપનીઓએ": 8274,
      "લેખમાં": 8275,
      "અગાઉથી": 8276,
      "ન્ટિંગ": 8277,
      "પરાજય": 8278,
      "ફેડ": 8279,
      "ધોવા": 8280,
      "ઘટાડી": 8281,
      "2018માં": 8282,
      "સરખામણીએ": 8283,
      "વિરામ": 8284,
      "રીપોર્ટ": 8285,
      "રિટેલ": 8286,
      "ડિટી": 8287,
      "ફેરી": 8288,
      "કુળ": 8289,
      "લગાવ્યા": 8290,
      "એડવોકેટ": 8291,
      "મજાક": 8292,
      "અશ્વિન": 8293,
      "ઝુંબે": 8294,
      "ઈની": 8295,
      "વંદ": 8296,
      "વનારી": 8297,
      "એકમો": 8298,
      "જીબી": 8299,
      "દીપક": 8300,
      "ગુસ્સો": 8301,
      "વોલ": 8302,
      "ફાટ": 8303,
      "પ્રેમમાં": 8304,
      "મનપા": 8305,
      "નાખ્યો": 8306,
      "ડેવલપમેન્ટ": 8307,
      "ખમ": 8308,
      "ર્ય": 8309,
      "ષો": 8310,
      "સ્કુ": 8311,
      "પ્રદીપ": 8312,
      "સંકલ": 8313,
      "અનન્ય": 8314,
      "ભગવા": 8315,
      "વાનગીઓ": 8316,
      "પાઇપ": 8317,
      "ઇલેક્ટ્રિક": 8318,
      "53": 8319,
      "ઈઝ": 8320,
      "એડી": 8321,
      "ેય": 8322,
      "વર્સ": 8323,
      "મળતું": 8324,
      "ળીમાં": 8325,
      "ધાન્ય": 8326,
      "નિયત": 8327,
      "રાજકોટની": 8328,
      "સાઈડ": 8329,
      "આવેદનપત્ર": 8330,
      "અપરા": 8331,
      "ઇટા": 8332,
      "ઉજવા": 8333,
      "પીવાથી": 8334,
      "લિયમ": 8335,
      "શોખ": 8336,
      "ig": 8337,
      "ઈઓ": 8338,
      "સ્પા": 8339,
      "ટકાના": 8340,
      "અભિપ્રાય": 8341,
      "કોલેજના": 8342,
      "દ્રષ્ટિએ": 8343,
      "ખવડા": 8344,
      "બલ્": 8345,
      "વાઘ": 8346,
      "નાનું": 8347,
      "કરાવ્યો": 8348,
      "ઉત્સા": 8349,
      "વિદ્યાર્થીઓની": 8350,
      "૧૫૦": 8351,
      "વાયરસથી": 8352,
      "નાખવાની": 8353,
      "આતો": 8354,
      "વંચ": 8355,
      "સત્": 8356,
      "કોર્સ": 8357,
      "નોર": 8358,
      "લોસ": 8359,
      "લ્મિ": 8360,
      "વાર્ય": 8361,
      "ડિપાર્ટમેન્ટ": 8362,
      "વિજયભાઇ": 8363,
      "ઝેર": 8364,
      "દર્શાવવામાં": 8365,
      "ઘૂંટ": 8366,
      "સમારંભ": 8367,
      "ઇચ્છે": 8368,
      "નહિં": 8369,
      "શૉ": 8370,
      "શકિત": 8371,
      "નારો": 8372,
      "વેળા": 8373,
      "108": 8374,
      "ભરાયા": 8375,
      "નવલ": 8376,
      "જેમની": 8377,
      "મોઢ": 8378,
      "સેમી": 8379,
      "રાજપીપ": 8380,
      "2010": 8381,
      "ંડુ": 8382,
      "વિસ્તરણ": 8383,
      "કૂતરા": 8384,
      "પાડ્યા": 8385,
      "પ્રતિબંધિત": 8386,
      "તકેદારી": 8387,
      "ડ્રાઇવર": 8388,
      "ચર્ચ": 8389,
      "રવી": 8390,
      "િકા": 8391,
      "વિભા": 8392,
      "પાકિસ્તાનને": 8393,
      "ગર્વ": 8394,
      "સંકેતો": 8395,
      "સમીક્ષાઓ": 8396,
      "જબરદ": 8397,
      "54": 8398,
      "ઈનિંગ": 8399,
      "છત્તી": 8400,
      "મજુ": 8401,
      "ુણ": 8402,
      "દાળ": 8403,
      "પીઆઇ": 8404,
      "બીએ": 8405,
      "મેળવ્યા": 8406,
      "દારોને": 8407,
      "કાયદાકીય": 8408,
      "હેતુથી": 8409,
      "મારુ": 8410,
      "નામા": 8411,
      "રીટ": 8412,
      "ન્ગ": 8413,
      "તિવારી": 8414,
      "પેક": 8415,
      "ફેલાય": 8416,
      "મેળવે": 8417,
      "નવરાત્રિ": 8418,
      "ડોલરની": 8419,
      "નિરાશા": 8420,
      "ફાંસો": 8421,
      "જું": 8422,
      "મોસમ": 8423,
      "કાયમ": 8424,
      "મહાનગર": 8425,
      "વ્યક્તિત્વ": 8426,
      "પતિની": 8427,
      "ત્રિમ": 8428,
      "દિવસોથી": 8429,
      "વધારવામાં": 8430,
      "છંટકા": 8431,
      "૪૯": 8432,
      "સ્સે": 8433,
      "દીધુ": 8434,
      "સમજૂ": 8435,
      "ડિપ્રે": 8436,
      "જવાથી": 8437,
      "પ્રોફેશન": 8438,
      "રણનીતિ": 8439,
      "મગજ": 8440,
      "અદાણી": 8441,
      "હૂં": 8442,
      "acc": 8443,
      "પંકજ": 8444,
      "ભરેલી": 8445,
      "૬૭": 8446,
      "કરન્સી": 8447,
      "કોરિ": 8448,
      "કોળી": 8449,
      "કાદ": 8450,
      "ડીવી": 8451,
      "સરની": 8452,
      "કંપનીઓના": 8453,
      "વ્યવસ્થિત": 8454,
      "પાલિકાના": 8455,
      "હાઇટ": 8456,
      "દુનિયાની": 8457,
      "ભયંકર": 8458,
      "એલાન": 8459,
      "દાગીના": 8460,
      "63": 8461,
      "આધ્યાત્": 8462,
      "તડ": 8463,
      "કાફલો": 8464,
      "હોટે": 8465,
      "ટાપુ": 8466,
      "શિય": 8467,
      "સાયબર": 8468,
      "થોડાક": 8469,
      "મૂકીને": 8470,
      "બિલ્ડીંગ": 8471,
      "ચડી": 8472,
      "રદ્દ": 8473,
      "સર્ટિફિ": 8474,
      "નોંધાયેલા": 8475,
      "સહાયક": 8476,
      "એકબીજાને": 8477,
      "એજ્યુ": 8478,
      "શ્રાવણ": 8479,
      "600": 8480,
      "થનારા": 8481,
      "રપ": 8482,
      "ટ્રેન્ડ": 8483,
      "કોઇને": 8484,
      "વાયરસને": 8485,
      "વૈજ્ઞાનિકો": 8486,
      "બર્ગ": 8487,
      "અવિ": 8488,
      "આકરા": 8489,
      "આયોગ": 8490,
      "ખળ": 8491,
      "ગાર્": 8492,
      "સોજો": 8493,
      "સૌંદર": 8494,
      "નેતાઓને": 8495,
      "વિભાગને": 8496,
      "શહેરો": 8497,
      "દુર્લભ": 8498,
      "વ્યાવસાયિક": 8499,
      "નૃત્ય": 8500,
      "અજમા": 8501,
      "કિયા": 8502,
      "૪૩": 8503,
      "૪૦૦": 8504,
      "નાટક": 8505,
      "નોના": 8506,
      "બેંકો": 8507,
      "લતા": 8508,
      "પ્રદાય": 8509,
      "ન્ક": 8510,
      "શનની": 8511,
      "ડોકટર": 8512,
      "્સને": 8513,
      "પ્રાણ": 8514,
      "જોડાઈ": 8515,
      "બ્રાંચ": 8516,
      "આવકવેરા": 8517,
      "નિષ્ણાત": 8518,
      "મેઘરાજા": 8519,
      "88": 8520,
      "ંઝ": 8521,
      "ટેકની": 8522,
      "હેમત": 8523,
      "પાસા": 8524,
      "દીકરો": 8525,
      "થાઇ": 8526,
      "સીબે": 8527,
      "સિક્કા": 8528,
      "ડિસ": 8529,
      "કૃત્રિમ": 8530,
      "est": 8531,
      "વાલીઓ": 8532,
      "250": 8533,
      "hat": 8534,
      "અસ્થિ": 8535,
      "આનં": 8536,
      "ફરે": 8537,
      "૮૫": 8538,
      "યોર્ક": 8539,
      "ટાયર": 8540,
      "ડિવિઝન": 8541,
      "પૈસાની": 8542,
      "બેંકમાં": 8543,
      "નાખવામાં": 8544,
      "અનિવાર્ય": 8545,
      "ચાંદીના": 8546,
      "સમયગાળામાં": 8547,
      "74": 8548,
      "ખાર": 8549,
      "ઘડિયા": 8550,
      "ભઠ્ઠી": 8551,
      "પાતળા": 8552,
      "યોને": 8553,
      "સેટે": 8554,
      "ધાને": 8555,
      "ગરમા": 8556,
      "એનસીપી": 8557,
      "જીત્યા": 8558,
      "એન્જી": 8559,
      "પોલિસી": 8560,
      "બજારોમાં": 8561,
      "્યે": 8562,
      "બાના": 8563,
      "પાછળના": 8564,
      "અવસર": 8565,
      "ઉદય": 8566,
      "વાઇસ": 8567,
      "અર્થમાં": 8568,
      "ડાયાબિટીસ": 8569,
      "સિદ્ધાંત": 8570,
      "જ્યા": 8571,
      "જયા": 8572,
      "મલે": 8573,
      "ષિત": 8574,
      "પરમાણ": 8575,
      "હેલ": 8576,
      "સેનાની": 8577,
      "ટ્રેનિંગ": 8578,
      "અહીંથી": 8579,
      "લખન": 8580,
      "શ્વર્યા": 8581,
      "ફેબ્રુઆરીએ": 8582,
      "ભંડ": 8583,
      "કેવા": 8584,
      "પ્રથા": 8585,
      "જેડી": 8586,
      "રેપ": 8587,
      "ડીજી": 8588,
      "પેશી": 8589,
      "ચૂંટણીની": 8590,
      "દાયકા": 8591,
      "લક્ષ્યાં": 8592,
      "ગાયબ": 8593,
      "છત્તીસગઢ": 8594,
      "સૃ": 8595,
      "નાખો": 8596,
      "નિસ": 8597,
      "મીટિંગ": 8598,
      "માનતા": 8599,
      "અનુરોધ": 8600,
      "જોવાનું": 8601,
      "મોરચા": 8602,
      "ચલાવવામાં": 8603,
      "ફર્સ્ટ": 8604,
      "for": 8605,
      "ઠાર": 8606,
      "ષડ": 8607,
      "સ્પ્રે": 8608,
      "મુદા": 8609,
      "સીરિઝ": 8610,
      "બીન": 8611,
      "છોડા": 8612,
      "પછીના": 8613,
      "ચોપરા": 8614,
      "સિંહને": 8615,
      "પ્રકારનાં": 8616,
      "નિર્ણયને": 8617,
      "પ્રમાણપત્ર": 8618,
      "બદલવા": 8619,
      "અક્ષર": 8620,
      "સાઉદી": 8621,
      "મહંત": 8622,
      "અમારે": 8623,
      "સ્ડ": 8624,
      "રાવલ": 8625,
      "કેળ": 8626,
      "સિન": 8627,
      "વોર્": 8628,
      "ત્રીજો": 8629,
      "સ્વાભાવિક": 8630,
      "સ્પોટ": 8631,
      "જ્યોતિષ": 8632,
      "નમૂના": 8633,
      "થિયેટર": 8634,
      "નાજુ": 8635,
      "કોલોની": 8636,
      "નિહા": 8637,
      "મિલા": 8638,
      "કરાવ્યા": 8639,
      "ચારિક": 8640,
      "મુખી": 8641,
      "Bh": 8642,
      "II": 8643,
      "ખલ": 8644,
      "રેટિંગ": 8645,
      "ણીયા": 8646,
      "બેસા": 8647,
      "મહામારીને": 8648,
      "અસંખ્ય": 8649,
      "વંચિત": 8650,
      "ઈલેક્": 8651,
      "બેને": 8652,
      "રિસ": 8653,
      "ડાયમંડ": 8654,
      "રસોઈ": 8655,
      "ડૂબી": 8656,
      "લોકડાઉનના": 8657,
      "ગઠબંધન": 8658,
      "જેતપુર": 8659,
      "અમારો": 8660,
      "ોના": 8661,
      "વિડિઓ": 8662,
      "મહિનો": 8663,
      "બુકિંગ": 8664,
      "મુશ્કેલીમાં": 8665,
      "રત્ન": 8666,
      "મેથી": 8667,
      "પીએ": 8668,
      "અધિકારીને": 8669,
      "પ્લસ": 8670,
      "61": 8671,
      "ફં": 8672,
      "હરાજી": 8673,
      "કેવ": 8674,
      "પ્રતાપ": 8675,
      "િયાની": 8676,
      "બેંગ્": 8677,
      "યુકત": 8678,
      "સારૂ": 8679,
      "સિંહના": 8680,
      "સ્ટ્રિ": 8681,
      "દારૂના": 8682,
      "માગતા": 8683,
      "પહેરવા": 8684,
      "અજ": 8685,
      "રેસીપી": 8686,
      "ચોંકી": 8687,
      "ચિંતિ": 8688,
      "વિસ્તારમાંથી": 8689,
      "ફેલાયો": 8690,
      "પુનરા": 8691,
      "ગુલાબી": 8692,
      "રાજકારણમાં": 8693,
      "પુછપરછ": 8694,
      "એવુ": 8695,
      "કરને": 8696,
      "મુર": 8697,
      "ફાટી": 8698,
      "કાર્યમાં": 8699,
      "નોંધાયું": 8700,
      "આઇડી": 8701,
      "ટ્રોફી": 8702,
      "પત્નીએ": 8703,
      "સ્ટિંગ": 8704,
      "સામાજીક": 8705,
      "નવેમ્બરે": 8706,
      "વિસ્ફોટ": 8707,
      "સૌંદર્ય": 8708,
      "નકારી": 8709,
      "લારી": 8710,
      "સદા": 8711,
      "ધાતુ": 8712,
      "બનાવતા": 8713,
      "ચ્છી": 8714,
      "દોડા": 8715,
      "એસઓ": 8716,
      "થઇને": 8717,
      "મોટાભાગે": 8718,
      "સિંહની": 8719,
      "સંચાલક": 8720,
      "બિલકુલ": 8721,
      "ગુલાબ": 8722,
      "ક્લાસિક": 8723,
      "બાંગ્લાદેશ": 8724,
      "જરૂરિયાતો": 8725,
      "ઘોષણા": 8726,
      "સાવધાની": 8727,
      "ચક્કર": 8728,
      "લદ્": 8729,
      "કરવાને": 8730,
      "ચિત્રો": 8731,
      "મારતા": 8732,
      "બહારના": 8733,
      "આપેલી": 8734,
      "રંગના": 8735,
      "વિશ્વભરમાં": 8736,
      "જનોને": 8737,
      "ચલાવતા": 8738,
      "પ્રોજેકટ": 8739,
      "જોગવાઇ": 8740,
      "the": 8741,
      "તમિલનાડુ": 8742,
      "વોચ": 8743,
      "કરાયેલ": 8744,
      "મેન્ટમાં": 8745,
      "સૈફ": 8746,
      "પહોંચાડવા": 8747,
      "ધોધમાર": 8748,
      "73": 8749,
      "મારૂ": 8750,
      "ર્જ": 8751,
      "વિર": 8752,
      "સંચાર": 8753,
      "પેટી": 8754,
      "ઇન્સ્ટિ": 8755,
      "મંડળના": 8756,
      "અફઘાનિસ્તાન": 8757,
      "દિવ્યાંગ": 8758,
      "ઉદ્ધવ": 8759,
      "બરી": 8760,
      "વેદ": 8761,
      "ગેલે": 8762,
      "ભાજપા": 8763,
      "મહાનુ": 8764,
      "બહારથી": 8765,
      "અહીંના": 8766,
      "વિશ્વસનીય": 8767,
      "વિચાર્યું": 8768,
      "એનડી": 8769,
      "મૂકવા": 8770,
      "સંક્રમણના": 8771,
      "ઢોર": 8772,
      "એન્જિનિય": 8773,
      "મોડાસા": 8774,
      "છંટકાવ": 8775,
      "આસા": 8776,
      "કોમ્પ્યુટર": 8777,
      "ન્યાયા": 8778,
      "ટ્વીટર": 8779,
      "કટોકટી": 8780,
      "અત્યાચાર": 8781,
      "લદ્દાખ": 8782,
      "પાયલ": 8783,
      "રહેલો": 8784,
      "ફેટે": 8785,
      "શોએ": 8786,
      "લેવાના": 8787,
      "ચલાવે": 8788,
      "વ્હાઇટ": 8789,
      "ઈન્ટરનેશનલ": 8790,
      "મોંઘી": 8791,
      "ગ્રોથ": 8792,
      "ચકા": 8793,
      "મોર્": 8794,
      "સુભાષ": 8795,
      "રહેલું": 8796,
      "યુકે": 8797,
      "ભૂતિ": 8798,
      "ટ્રેલર": 8799,
      "પર્વત": 8800,
      "સંઘના": 8801,
      "ડીઝલના": 8802,
      "જઇને": 8803,
      "ટેલિકોમ": 8804,
      "મારફત": 8805,
      "2017માં": 8806,
      "ભયાનક": 8807,
      "oc": 8808,
      "લેનાર": 8809,
      "પીછો": 8810,
      "પક્ષમાં": 8811,
      "માલિકો": 8812,
      "સફરજન": 8813,
      "ચિંતિત": 8814,
      ".(": 8815,
      "ઝ્": 8816,
      "નડિયા": 8817,
      "જોવી": 8818,
      "પીઆઈ": 8819,
      "દરજ્": 8820,
      "ખોટ": 8821,
      "ટ્રાન્": 8822,
      "મિનિટમાં": 8823,
      "સ્રો": 8824,
      "તેણીએ": 8825,
      "જાદુ": 8826,
      "ત્રુ": 8827,
      "તીઓ": 8828,
      "ટોળ": 8829,
      "ફિલ્મને": 8830,
      "બનવાની": 8831,
      "રંગની": 8832,
      "નિયામક": 8833,
      "દરોડો": 8834,
      "ફાર્મા": 8835,
      "આત્મવિશ્વાસ": 8836,
      "હૉસ્પિટ": 8837,
      "ખર્ચાળ": 8838,
      "સમર્પિત": 8839,
      "ધવન": 8840,
      "તાજી": 8841,
      "પ્રવી": 8842,
      "ગાઢ": 8843,
      "સમયા": 8844,
      "બોરે": 8845,
      "સમયના": 8846,
      "પડતું": 8847,
      "સ્ટેચ્યુ": 8848,
      "રોજિ": 8849,
      "દેખાયા": 8850,
      "ટુર્નામેન્ટ": 8851,
      "2009": 8852,
      "માળખું": 8853,
      "ચલણ": 8854,
      "Gujarati": 8855,
      "એજ્યુકેશન": 8856,
      "જહેમત": 8857,
      "ભાભી": 8858,
      "હિમ": 8859,
      "ચીમકી": 8860,
      "બિટ": 8861,
      "સ્વરાજ": 8862,
      "ર્મલ": 8863,
      "ફ્રાસ્ટ્ર": 8864,
      "બંગાળના": 8865,
      "સૂચનો": 8866,
      "વિદ્યાલય": 8867,
      "76": 8868,
      "BS": 8869,
      "ઈચ્છે": 8870,
      "રોનો": 8871,
      "ટીક": 8872,
      "ંતરે": 8873,
      "ડોને": 8874,
      "સ્થળા": 8875,
      "પહેલું": 8876,
      "કોરોનાનું": 8877,
      "ચીજો": 8878,
      "વાતનો": 8879,
      "સૂચન": 8880,
      "આરંભ": 8881,
      "મામલા": 8882,
      "કામગીરીમાં": 8883,
      "અમેરિકાએ": 8884,
      "ડ્રિ": 8885,
      "ડ્રાય": 8886,
      "રાજેન્દ્ર": 8887,
      "kar": 8888,
      "ંછ": 8889,
      "એકર": 8890,
      "રહેવાનું": 8891,
      "મ્બે": 8892,
      "જન્ય": 8893,
      "અંજામ": 8894,
      "માતાને": 8895,
      "ઘટાડા": 8896,
      "પરેશાની": 8897,
      "દિવાળીના": 8898,
      "ફસાયેલા": 8899,
      "com": 8900,
      "ઘરોમાં": 8901,
      "હાન": 8902,
      "મિડ": 8903,
      "જનતાને": 8904,
      "લગતા": 8905,
      "૨૦૧૪": 8906,
      "સભ્યોને": 8907,
      "એપ્રિલે": 8908,
      "કચેરીમાં": 8909,
      "શખ્સોએ": 8910,
      "નાઇટેડ": 8911,
      "અનુષ્કા": 8912,
      "કઢા": 8913,
      "કયાં": 8914,
      "પ૦": 8915,
      "મૉ": 8916,
      "જીયાત": 8917,
      "જૂથો": 8918,
      "લાકડા": 8919,
      "ટ્રેડિંગ": 8920,
      "ફીચર": 8921,
      "સભ્યોએ": 8922,
      "શબ્દોમાં": 8923,
      "સંતુલન": 8924,
      "અનોખી": 8925,
      "સાથોસાથ": 8926,
      "ઝલ": 8927,
      "ફતે": 8928,
      "લીટી": 8929,
      "મીટ": 8930,
      "આઈસી": 8931,
      "દુનિયાભરમાં": 8932,
      "સાંભળવા": 8933,
      "બાતમીના": 8934,
      "હડતાળ": 8935,
      "89": 8936,
      "પકા": 8937,
      "હંગા": 8938,
      "તાલ": 8939,
      "સ્મિ": 8940,
      "સામૂ": 8941,
      "પ્રવે": 8942,
      "રેસ્ટ": 8943,
      "નિયુક્ત": 8944,
      "દ્વિ": 8945,
      "સિલ્વર": 8946,
      "ખાવાનું": 8947,
      "ટાળવા": 8948,
      "રાજનાથ": 8949,
      "વરસી": 8950,
      "છોડવા": 8951,
      "ચોટી": 8952,
      "નિયમન": 8953,
      "જયેશ": 8954,
      "TV": 8955,
      "હરે": 8956,
      "નાએ": 8957,
      "લેજ": 8958,
      "મોતી": 8959,
      "ડીલ": 8960,
      "ણાના": 8961,
      "કામની": 8962,
      "બદલો": 8963,
      "પ્રતિસાદ": 8964,
      "ફ્લ્મિ": 8965,
      "મળેલા": 8966,
      "રોગપ્રતિકારક": 8967,
      "ટૂર્નામેન્ટ": 8968,
      "ડૉક્ટ": 8969,
      "તહેવા": 8970,
      "વૈજ્ઞાનિ": 8971,
      "નિરાકરણ": 8972,
      "આદુ": 8973,
      "દને": 8974,
      "સિયા": 8975,
      "ગોવા": 8976,
      "કેસનો": 8977,
      "કોર્ટની": 8978,
      "લેન્ડર": 8979,
      "સંક્રમણને": 8980,
      "વર્ગના": 8981,
      "માધ્યમ": 8982,
      "પ્રેક્ટિસ": 8983,
      "થેરાપી": 8984,
      "શનથી": 8985,
      "સુનીલ": 8986,
      "વર્તા": 8987,
      "અસરગ્રસ્ત": 8988,
      "નોંધવું": 8989,
      "ચિંતાજનક": 8990,
      "ક્ષેત્રની": 8991,
      "સ્પોર્ટ્સ": 8992,
      "કમ્પ્યુટર": 8993,
      "કાશી": 8994,
      "વિયે": 8995,
      "પીડી": 8996,
      "મિસ": 8997,
      "ડેમમાં": 8998,
      "પ્રેરિત": 8999,
      "ડિસ્ચાર્જ": 9000,
      "શ્રદ્ધાંજલિ": 9001,
      "કેનાલ": 9002,
      "રોગચાળા": 9003,
      "શૌચાલ": 9004,
      "કોઠારી": 9005,
      "આધ્યાત્મિક": 9006,
      "સગીર": 9007,
      "વાપી": 9008,
      "લોજિ": 9009,
      "સાથેનો": 9010,
      "શ્રેણીમાં": 9011,
      "વિપક્ષી": 9012,
      "બિહારના": 9013,
      "વેન્ટિલેટર": 9014,
      "પથી": 9015,
      "બસમાં": 9016,
      "ણીના": 9017,
      "સ્ટાફે": 9018,
      "ઝીણી": 9019,
      "રોગના": 9020,
      "ક્ષેત્રના": 9021,
      "ભૂતકાળમાં": 9022,
      "દરવાજો": 9023,
      "ઈજાગ્રસ્ત": 9024,
      "માઈક્રો": 9025,
      "સેન્ટરમાં": 9026,
      "માર્ગદર્શિકા": 9027,
      "જડ": 9028,
      "પગે": 9029,
      "કોન": 9030,
      "ટેન્શન": 9031,
      "પાયા": 9032,
      "કીને": 9033,
      "અધિકારો": 9034,
      "પહોંચવા": 9035,
      "ઘાતક": 9036,
      "યોજનામાં": 9037,
      "પિતાના": 9038,
      "કચરા": 9039,
      "હોટલમાં": 9040,
      "',": 9041,
      "hi": 9042,
      "ઓપ્": 9043,
      "કમો": 9044,
      "ઠુ": 9045,
      "દશા": 9046,
      "મેહુ": 9047,
      "ટીએ": 9048,
      "હાણે": 9049,
      "ખાબ": 9050,
      "ળાટ": 9051,
      "પકડવા": 9052,
      "યોજાઇ": 9053,
      "પ્રકાશમાં": 9054,
      "આર્યન": 9055,
      "પોષક": 9056,
      "પરમાણુ": 9057,
      "સીરીઝ": 9058,
      "શોભા": 9059,
      "મદદની": 9060,
      "ઠીયા": 9061,
      "રોકડા": 9062,
      "લોકસભામાં": 9063,
      "સપ્તાહે": 9064,
      "ગણતરીના": 9065,
      "અંબાજી": 9066,
      "ri": 9067,
      "કપરા": 9068,
      "હસ્તા": 9069,
      "રેડિયો": 9070,
      "લોલ": 9071,
      "નિર": 9072,
      "તોના": 9073,
      "સુપ્રિ": 9074,
      "દિપક": 9075,
      "ચાવી": 9076,
      "ફોડી": 9077,
      "સર્વા": 9078,
      "પંચે": 9079,
      "સિદ્ધાર્થ": 9080,
      "ગારો": 9081,
      "દલ": 9082,
      "કેચ": 9083,
      "કેશો": 9084,
      "દિકરી": 9085,
      "ગુડ": 9086,
      "હોસ્પિટલો": 9087,
      "આરોપીએ": 9088,
      "હિંસક": 9089,
      "બોલ્યા": 9090,
      "બાળકીને": 9091,
      "માઉન્ટ": 9092,
      "ow": 9093,
      "ંુ": 9094,
      "તળે": 9095,
      "વાસ્તુ": 9096,
      "નાસ્તો": 9097,
      "માંડીને": 9098,
      "કાઇ": 9099,
      "સિધ્ધ": 9100,
      "ફેફસા": 9101,
      "શોપિંગ": 9102,
      "ફોનની": 9103,
      "બુટલે": 9104,
      "ગાંધીની": 9105,
      "મહેમાન": 9106,
      "વિકાસની": 9107,
      "ઓળખા": 9108,
      "યુવકની": 9109,
      "2020માં": 9110,
      "ઝડપાયા": 9111,
      "op": 9112,
      "થલ": 9113,
      "રફા": 9114,
      "૯૭": 9115,
      "નાખે": 9116,
      "બાપ": 9117,
      "સેંક": 9118,
      "તમાકુ": 9119,
      "પહોંચશે": 9120,
      "ટ્રેનો": 9121,
      "તાલુકાઓ": 9122,
      "યોજાનાર": 9123,
      "અપાવી": 9124,
      "હત્યાનો": 9125,
      "સ્કૂલના": 9126,
      "રાજસ્થાનમાં": 9127,
      "નિવારણ": 9128,
      "પંચમહાલ": 9129,
      "સર્ટિફિકેટ": 9130,
      "સામૂહિક": 9131,
      "ઠરાવ": 9132,
      "રઘુ": 9133,
      "વાલમાં": 9134,
      "ભાનુ": 9135,
      "મોન": 9136,
      "પીળા": 9137,
      "જણાવતા": 9138,
      "અંકુશ": 9139,
      "ફ્લૂ": 9140,
      "ભાજપનો": 9141,
      "માતાની": 9142,
      "રસ્તામાં": 9143,
      "હળદર": 9144,
      "કુશળતા": 9145,
      "અરજદાર": 9146,
      "સાર્વ": 9147,
      "ઉચ્ચાર": 9148,
      "વતું": 9149,
      "તીર્થ": 9150,
      "યુગમાં": 9151,
      "સ્થાનો": 9152,
      "પ્રાંતિ": 9153,
      "આરોપીઓની": 9154,
      "બ્રાન્": 9155,
      "ફટકો": 9156,
      "કાપીને": 9157,
      "કાઉન્સિલ": 9158,
      "ગર્લફ્રેન્ડ": 9159,
      "માંડી": 9160,
      "્યાય": 9161,
      "લીલી": 9162,
      "િયાનમાં": 9163,
      "ખાવાની": 9164,
      "દોને": 9165,
      "જૂને": 9166,
      "ટકાની": 9167,
      "મેળવીને": 9168,
      "ધ્યાય": 9169,
      "ટ્રેક્ટર": 9170,
      "વૈકલ્": 9171,
      "મજબૂર": 9172,
      "કમાન્ડ": 9173,
      "ટ્રીક": 9174,
      "ભાવનગરમાં": 9175,
      "નાણાંકીય": 9176,
      "તજવીજ": 9177,
      "બેક્ટેરિયા": 9178,
      "ઘટે": 9179,
      "ણને": 9180,
      "ધડ": 9181,
      "મજૂરી": 9182,
      "સૉ": 9183,
      "માય": 9184,
      "સમ્": 9185,
      "ખોરી": 9186,
      "અનુપ": 9187,
      "એસબી": 9188,
      "રંગે": 9189,
      "શરદી": 9190,
      "પથારી": 9191,
      "અબ્દુલ": 9192,
      "up": 9193,
      "સ્કર્": 9194,
      "દેશા": 9195,
      "યુનાઇટેડ": 9196,
      "પ્રેક્ષ": 9197,
      "ટ્રેનમાં": 9198,
      "બંનેના": 9199,
      "સારવારમાં": 9200,
      "વિદ્યાર્થીની": 9201,
      "હેન્ડલ": 9202,
      "ખળભ": 9203,
      "આક્રો": 9204,
      "નહેર": 9205,
      "નકલ": 9206,
      "ભજન": 9207,
      "૬૪": 9208,
      "નાખ્યા": 9209,
      "કેન": 9210,
      "રેસ્ટો": 9211,
      "સેલે": 9212,
      "પેર": 9213,
      "ફેડર": 9214,
      "છોકરો": 9215,
      "બેન્કો": 9216,
      "દેવાયા": 9217,
      "રસોડામાં": 9218,
      "ha": 9219,
      "નગ": 9220,
      "પાડા": 9221,
      "ંગમાં": 9222,
      "ભાઈના": 9223,
      "બનતી": 9224,
      "તંત્રના": 9225,
      "પૂરક": 9226,
      "પોસ્ટર": 9227,
      "નમ્ર": 9228,
      "બિહારમાં": 9229,
      "ઇટ": 9230,
      "ભણા": 9231,
      "કાકા": 9232,
      "ટેન્ડર": 9233,
      "ફામ": 9234,
      "ફિટને": 9235,
      "પાર્ટીની": 9236,
      "મધ્યમાં": 9237,
      "પર્સનલ": 9238,
      "પ્રાઈવેટ": 9239,
      "નિપજ્યું": 9240,
      "જસદણ": 9241,
      "એશિયન": 9242,
      "પાકને": 9243,
      "જેકેટ": 9244,
      "જેમના": 9245,
      "લીટ": 9246,
      "રોન": 9247,
      "મુહૂ": 9248,
      "ખાઇ": 9249,
      "શાસક": 9250,
      "તેઓના": 9251,
      "માતાએ": 9252,
      "જેવાં": 9253,
      "લિસ્ટમાં": 9254,
      "થુન": 9255,
      "છુટકારો": 9256,
      "એપિસો": 9257,
      "કોસ્": 9258,
      "હોલમાં": 9259,
      "મોકલા": 9260,
      "સુખી": 9261,
      "વર્ધ": 9262,
      "ચેકિંગ": 9263,
      "પરિચય": 9264,
      "સૌને": 9265,
      "ફ્લાઇટ": 9266,
      "ઇન્સ્પે": 9267,
      "કનેક્શન": 9268,
      "હત્યાના": 9269,
      "જંગી": 9270,
      "અખબાર": 9271,
      "ંબા": 9272,
      "ચઢ": 9273,
      "નળ": 9274,
      "કોમ્યુનિ": 9275,
      "હેલ્પ": 9276,
      "મીક": 9277,
      "વર્ચ્યુઅલ": 9278,
      "બીપી": 9279,
      "પૂન": 9280,
      "સિંચાઈ": 9281,
      "શ્રીએ": 9282,
      "જીવનને": 9283,
      "મારામારી": 9284,
      "રંગા": 9285,
      "જીતવા": 9286,
      "અહેમદ": 9287,
      "જાડેજાએ": 9288,
      "નાખીને": 9289,
      "ઊંચાઈ": 9290,
      "સેંકડો": 9291,
      "GST": 9292,
      "ડભો": 9293,
      "મહેર": 9294,
      "માળીયા": 9295,
      "નાસ્તા": 9296,
      "જાપાન": 9297,
      "હોસ્ટે": 9298,
      "તોમાં": 9299,
      "ધીરજ": 9300,
      "વર્ગો": 9301,
      "ચેલેન્": 9302,
      "બ્લો": 9303,
      "સન્માનિત": 9304,
      "હાઉસિંગ": 9305,
      "ફોર્મે": 9306,
      "આકર્ષિત": 9307,
      "પ્રતિનિધિત્વ": 9308,
      "હિમાચલ": 9309,
      "ઉક": 9310,
      "એં": 9311,
      "થવો": 9312,
      "માથી": 9313,
      "જાનથી": 9314,
      "ડોલ": 9315,
      "ગ્રાફી": 9316,
      "સ્ટેડિયમ": 9317,
      "ઢાંક": 9318,
      "ઓગસ્ટે": 9319,
      "ભિન્ન": 9320,
      "સેલ્ફી": 9321,
      "મહાનુભાવો": 9322,
      "અવત": 9323,
      "દાવે": 9324,
      "રિલેશન": 9325,
      "તમામને": 9326,
      "ડેલી": 9327,
      "ચેતન": 9328,
      "પિયન": 9329,
      "પરિણ": 9330,
      "ભરવાની": 9331,
      "ફ્લાઇ": 9332,
      "કૃત્ય": 9333,
      "ચૂંટણીને": 9334,
      "અપલોડ": 9335,
      "ફરિયાદમાં": 9336,
      "લખવામાં": 9337,
      "ગણાતા": 9338,
      "ગુણધર્મો": 9339,
      "નૈતિક": 9340,
      "એમ્બ્યુલન્સ": 9341,
      "ચોકલેટ": 9342,
      "ખળભળાટ": 9343,
      "કપૂરે": 9344,
      "રખ": 9345,
      "વ્યાં": 9346,
      "વિં": 9347,
      "જાની": 9348,
      "પુર્વ": 9349,
      "રૂપિયાથી": 9350,
      "ઇનકાર": 9351,
      "નોંધાતા": 9352,
      "IPL": 9353,
      "દુકાનમાં": 9354,
      "મુદત": 9355,
      "ઉછેર": 9356,
      "વૈકલ્પિક": 9357,
      "૧૦૦૦": 9358,
      "વારિક": 9359,
      "લેબોરે": 9360,
      "દીને": 9361,
      "વધ્યું": 9362,
      "પુટ": 9363,
      "કિનારા": 9364,
      "સ્સામાં": 9365,
      "બતાવવામાં": 9366,
      "યૂઝર્સ": 9367,
      "ગુમાવ્યા": 9368,
      "કૉલ": 9369,
      "પેસેન્જર": 9370,
      "હેલિકોપ્ટર": 9371,
      "ષડયંત્ર": 9372,
      "પ્રવીણ": 9373,
      "120": 9374,
      "નરે": 9375,
      "ફરા": 9376,
      "સગર્ભા": 9377,
      "૮૮": 9378,
      "વેતન": 9379,
      "મોના": 9380,
      "જીડીપી": 9381,
      "ણીને": 9382,
      "દેશનું": 9383,
      "સરકારો": 9384,
      "લેવાયા": 9385,
      "લખ્યો": 9386,
      "અવગણ": 9387,
      "શનિવાર": 9388,
      "વાયરસનો": 9389,
      "મોકલવા": 9390,
      "સમિતિની": 9391,
      "નેતૃત્વમાં": 9392,
      "અન્વયે": 9393,
      "ટૉ": 9394,
      "ફની": 9395,
      "ટેન": 9396,
      "કિય": 9397,
      "2007": 9398,
      "ઉપાયો": 9399,
      "બિલ્ડ": 9400,
      "આશ્ચર્યજનક": 9401,
      "ફટાકડા": 9402,
      "GB": 9403,
      "ઇંગ્": 9404,
      "ઑફિ": 9405,
      "૨ી": 9406,
      "માળે": 9407,
      "સાબુ": 9408,
      "પોત": 9409,
      "લ્ટા": 9410,
      "દાની": 9411,
      "દીવાલ": 9412,
      "ન્ડ્રો": 9413,
      "સર્જાય": 9414,
      "જારા": 9415,
      "સંચાલકો": 9416,
      "ઘનશ્યામ": 9417,
      "hats": 9418,
      "રાસ": 9419,
      "શેઠ": 9420,
      "બાજ": 9421,
      "પૂરતું": 9422,
      "પ્રોત્સાહિત": 9423,
      "dia": 9424,
      "પારિવારિક": 9425,
      "he": 9426,
      "નેચર": 9427,
      "રિન": 9428,
      "પડકારો": 9429,
      "ખોટો": 9430,
      "પાછળનું": 9431,
      "હાઈકોર્ટમાં": 9432,
      "રવિવાર": 9433,
      "સોમવાર": 9434,
      "સોસાયટીના": 9435,
      "સપ્ટેમ્બરના": 9436,
      "પક્ષીઓ": 9437,
      "પ્રોપર્ટી": 9438,
      "ડન્ટ": 9439,
      "ભક્ત": 9440,
      "કિલ્લા": 9441,
      "અનંત": 9442,
      "વધુને": 9443,
      "પિયો": 9444,
      "દિવસનો": 9445,
      "ઈન્સ્ટાગ્રામ": 9446,
      "ફાઈનલ": 9447,
      "બોલીવુડ": 9448,
      "ઓક્ટોબરે": 9449,
      "ભ્રમણ": 9450,
      "નાગરિકતા": 9451,
      "વાવાઝોડા": 9452,
      "સંજોગો": 9453,
      "ક્ષેત્રોમાં": 9454,
      "ઘરો": 9455,
      "રૉ": 9456,
      "શૅ": 9457,
      "માનું": 9458,
      "પ્રસરી": 9459,
      "પીટ": 9460,
      "સીય": 9461,
      "ગુલ": 9462,
      "સૂપ": 9463,
      "સતર્ક": 9464,
      "જીત્યો": 9465,
      "ગિફ્ટ": 9466,
      "એસે": 9467,
      "બર્ડ": 9468,
      "નિરાશ": 9469,
      "બેફામ": 9470,
      "કુવા": 9471,
      "શ્રધ્ધા": 9472,
      "મારવા": 9473,
      "ભાઇએ": 9474,
      "બુમ": 9475,
      "પંદર": 9476,
      "ફીટ": 9477,
      "મનોહર": 9478,
      "૧૦૮": 9479,
      "નજીકથી": 9480,
      "તારણ": 9481,
      "હરાવી": 9482,
      "લેબોરેટરી": 9483,
      "ઝવે": 9484,
      "િતા": 9485,
      "તાન": 9486,
      "વોલ્યુ": 9487,
      "શિલા": 9488,
      "ફેમિલી": 9489,
      "અરબ": 9490,
      "રંગમાં": 9491,
      "ફાઈન": 9492,
      "વેપારીઓને": 9493,
      "રાશિફળ": 9494,
      "સાવચેત": 9495,
      "પેટર્ન": 9496,
      "ઉડી": 9497,
      "કમન": 9498,
      "ડ્યા": 9499,
      "બૌ": 9500,
      "રતન": 9501,
      "પ્રણ": 9502,
      "હેક્ટર": 9503,
      "લેવ": 9504,
      "આપતો": 9505,
      "મતદાર": 9506,
      "સંખ્યાબંધ": 9507,
      "અવકાશ": 9508,
      "ધ્વજ": 9509,
      "શાહરુ": 9510,
      "બૉલી": 9511,
      "એકાએક": 9512,
      "મેકઅપ": 9513,
      "છૂટાછેડા": 9514,
      "કસ્": 9515,
      "રન્સ": 9516,
      "રબારી": 9517,
      "યુએ": 9518,
      "રુપ": 9519,
      "માર્ચના": 9520,
      "બુલેટ": 9521,
      "ગાંધીને": 9522,
      "હાઇકોર્ટે": 9523,
      "સ્કૂલો": 9524,
      "ગોળીબાર": 9525,
      "વળાંક": 9526,
      "ક્યો": 9527,
      "પસી": 9528,
      "પડોશી": 9529,
      "૫૭": 9530,
      "માપદ": 9531,
      "રોયલ": 9532,
      "હોર": 9533,
      "ટી20": 9534,
      "નવાઈ": 9535,
      "વિસ્તારને": 9536,
      "વાયદો": 9537,
      "કેમકે": 9538,
      "ક્રિકેટમાં": 9539,
      "વિવાદમાં": 9540,
      "માથામાં": 9541,
      "પર્યાપ્ત": 9542,
      "અટકળો": 9543,
      "ક્વાર્ટરમાં": 9544,
      "કોલકાતા": 9545,
      "સ્ટેડિયમમાં": 9546,
      "ઓપ્શન": 9547,
      "શત": 9548,
      "કોસ્ટ": 9549,
      "ગાજર": 9550,
      "લગાવીને": 9551,
      "ચર્ચાઓ": 9552,
      "નીચેની": 9553,
      "યુવતીના": 9554,
      "ટ્યુબ": 9555,
      "સીઝનમાં": 9556,
      "પદાધિકારી": 9557,
      "મેહુલ": 9558,
      "800": 9559,
      "IA": 9560,
      "ment": 9561,
      "ભગત": 9562,
      "નોટીસ": 9563,
      "અનુસર": 9564,
      "શુષ્": 9565,
      "સ્વરૂ": 9566,
      "કાંઈ": 9567,
      "સિક્યુ": 9568,
      "ંગ્ટન": 9569,
      "કાયદાની": 9570,
      "વિશાલ": 9571,
      "બગડી": 9572,
      "ઝડપાયો": 9573,
      "સેક્ટરમાં": 9574,
      "ડબલ્યુ": 9575,
      "પ્રવાસે": 9576,
      "ફફડાટ": 9577,
      "નાજુક": 9578,
      "ઉતા": 9579,
      "કદી": 9580,
      "ડ્યો": 9581,
      "બરૂ": 9582,
      "૯૪": 9583,
      "લોર": 9584,
      "સોયા": 9585,
      "સોર્ટ": 9586,
      "પેરે": 9587,
      "શ્વ": 9588,
      "હોવાનુ": 9589,
      "ચિંત": 9590,
      "પહોચ": 9591,
      "દેખાતા": 9592,
      "કતાર": 9593,
      "પરિસ્થિતિને": 9594,
      "ગૃહમાં": 9595,
      "રજીસ્ટ્રેશન": 9596,
      "હરીફ": 9597,
      "કાર્યકર્તાઓ": 9598,
      "સ્ટાર્ટ": 9599,
      "ઓકટો": 9600,
      "ઓથોરિટી": 9601,
      "હાલાકી": 9602,
      "બલી": 9603,
      "મશરૂ": 9604,
      "મેષ": 9605,
      "નિશ": 9606,
      "રાખવાનું": 9607,
      "મતદા": 9608,
      "અનુસં": 9609,
      "રણબીર": 9610,
      "મનપસંદ": 9611,
      "યોજનાનો": 9612,
      "એક્સેસ": 9613,
      "યુવાને": 9614,
      "ઓગસ્ટના": 9615,
      "દોડધામ": 9616,
      "અમલીકરણ": 9617,
      "કવાયત": 9618,
      "સમયાંતરે": 9619,
      "અયોગ્ય": 9620,
      "ઇકો": 9621,
      "પ્રગ": 9622,
      "સીએલ": 9623,
      "મિલ્": 9624,
      "૨૦૧૫": 9625,
      "ine": 9626,
      "અનુભવો": 9627,
      "કાલથી": 9628,
      "લોકપ્રિયતા": 9629,
      "અલ્ટ્રા": 9630,
      "97": 9631,
      "MS": 9632,
      "નક્ષ": 9633,
      "હેમ": 9634,
      "જીવો": 9635,
      "ડાયો": 9636,
      "હાહા": 9637,
      "ખાનને": 9638,
      "પુત્રો": 9639,
      "કોઈક": 9640,
      "દુધ": 9641,
      "શ્રો": 9642,
      "મેળવવાની": 9643,
      "પતિના": 9644,
      "રાશિમાં": 9645,
      "તાજેતરના": 9646,
      "સુખદ": 9647,
      "આદત": 9648,
      "લખીને": 9649,
      "મોંઘા": 9650,
      "વસતી": 9651,
      "પામેલા": 9652,
      "ભૂકંપ": 9653,
      "લૉકડાઉન": 9654,
      "આજીવન": 9655,
      "ગુપ્તા": 9656,
      "રહેણાંક": 9657,
      "અંશે": 9658,
      "મુખ્યપ્રધાન": 9659,
      "ઘરેલુ": 9660,
      "પંજાબના": 9661,
      "બહાને": 9662,
      "હોદ્દેદારો": 9663,
      "એનિ": 9664,
      "કસો": 9665,
      "બચ્": 9666,
      "ળિયા": 9667,
      "થીમ": 9668,
      "ક્રૂડ": 9669,
      "સારુ": 9670,
      "કેસના": 9671,
      "ઘરમાંથી": 9672,
      "ન્યુઝ": 9673,
      "ચોરીના": 9674,
      "નગરપાલિકાના": 9675,
      "જીતીને": 9676,
      "ટર્મ": 9677,
      "તટ": 9678,
      "વિમાનો": 9679,
      "વર્ધન": 9680,
      "રહેવાનો": 9681,
      "પોતાનાં": 9682,
      "નિર્મલા": 9683,
      "છાયા": 9684,
      "વૈયા": 9685,
      "નવજાત": 9686,
      "યુનિટી": 9687,
      "બોલતા": 9688,
      "સલાહકાર": 9689,
      "એમ્પ્લો": 9690,
      "ચિકિત્": 9691,
      "Whats": 9692,
      "આકરી": 9693,
      "દમણ": 9694,
      "વશો": 9695,
      "છેક": 9696,
      "પાટા": 9697,
      "જાના": 9698,
      "સંપન્ન": 9699,
      "ગુપ્": 9700,
      "દરબાર": 9701,
      "કિરીટ": 9702,
      "અધિકૃત": 9703,
      "ગાંધીના": 9704,
      "બ્રાઝિ": 9705,
      "મ્યુઝિક": 9706,
      "સફળતાપૂર્વક": 9707,
      "ઉપાડ": 9708,
      "તપા": 9709,
      "થનારી": 9710,
      "૯૬": 9711,
      "કેવું": 9712,
      "મેલે": 9713,
      "પાયો": 9714,
      "વેરિય": 9715,
      "મુખે": 9716,
      "શાસ્ત્રો": 9717,
      "ફેશને": 9718,
      "કોઈના": 9719,
      "પ્રોટો": 9720,
      "નોંધાઇ": 9721,
      "સૈય": 9722,
      "રમાશે": 9723,
      "અભાવે": 9724,
      "ઈમરાન": 9725,
      "રોલમાં": 9726,
      "નિપ": 9727,
      "જોયો": 9728,
      "કિમ": 9729,
      "વરસ્યો": 9730,
      "બંનેની": 9731,
      "દાખલા": 9732,
      "ફ્રેન્ચ": 9733,
      "એનાથી": 9734,
      "સપ્ટેમ્બરે": 9735,
      "ઇતિહાસમાં": 9736,
      "જરુરી": 9737,
      "ચટણી": 9738,
      "નરો": 9739,
      "લડાઇ": 9740,
      "સસ્તી": 9741,
      "સ્કર": 9742,
      "ગુન્હો": 9743,
      "પુરો": 9744,
      "વધુની": 9745,
      "ભાઈઓ": 9746,
      "પુરવાર": 9747,
      "હોસ્પિટલની": 9748,
      "દારૂનો": 9749,
      "દેવાયો": 9750,
      "ચક્રવર્તી": 9751,
      "સ્મશાન": 9752,
      "તુલનામાં": 9753,
      "ઈતિહાસ": 9754,
      "ઉંચ": 9755,
      "સેનિ": 9756,
      "મુના": 9757,
      "ગુન્હા": 9758,
      "શીખી": 9759,
      "પ્રતિકાર": 9760,
      "રેકટર": 9761,
      "નોંધાવ્યો": 9762,
      "દાયકામાં": 9763,
      "પદ્ધતિઓ": 9764,
      "શ્રદ્ધાળુ": 9765,
      "નાઈટ": 9766,
      "સંકલન": 9767,
      "અપક્ષ": 9768,
      "પચારિક": 9769,
      "ભવી": 9770,
      "વસુલ": 9771,
      "૫૧": 9772,
      "ન્ડા": 9773,
      "ટેક્ષ": 9774,
      "પાછું": 9775,
      "ંગર": 9776,
      "રેસ્ક": 9777,
      "આપની": 9778,
      "કિશન": 9779,
      "અધિક્ષક": 9780,
      "પાર્ટ": 9781,
      "તરફી": 9782,
      "નંબરે": 9783,
      "ઇન્જેક્શન": 9784,
      "વરસાદથી": 9785,
      "વિદ્યાર્થીઓના": 9786,
      "સમર્થનમાં": 9787,
      "લડત": 9788,
      "મહુવા": 9789,
      "મોર્ટમ": 9790,
      "જબરદસ્ત": 9791,
      "ફેશનેબલ": 9792,
      "તાનું": 9793,
      "લાવ્યા": 9794,
      "ન્સર": 9795,
      "મેમો": 9796,
      "ડીગ્રી": 9797,
      "રહેશો": 9798,
      "પુણે": 9799,
      "ફિલ": 9800,
      "દિલ્લી": 9801,
      "પર્દા": 9802,
      "સ્ટોરેજ": 9803,
      "કર્મચારીઓના": 9804,
      "હાઉસમાં": 9805,
      "એજન્સીઓ": 9806,
      "મહત્ત્વની": 9807,
      "પંચાયતમાં": 9808,
      "ઙ્ગ": 9809,
      "સમજૂતી": 9810,
[...]
