{
  "version": "1.0",
  "truncation": null,
  "padding": null,
  "added_tokens": [
    {
      "id": 0,
      "content": "[UNK]",
      "single_word": false,
      "lstrip": false,
      "rstrip": false,
      "normalized": false,
      "special": true
    },
    {
      "id": 1,
      "content": "[PAD]",
      "single_word": false,
      "lstrip": false,
      "rstrip": false,
      "normalized": false,
      "special": true
    },
    {
      "id": 2,
      "content": "[BOS]",
      "single_word": false,
      "lstrip": false,
      "rstrip": false,
      "normalized": false,
      "special": true
    },
    {
      "id": 3,
      "content": "[EOS]",
      "single_word": false,
      "lstrip": false,
      "rstrip": false,
      "normalized": false,
      "special": true
    }
  ],
  "normalizer": {
    "type": "NFC"
  },
  "pre_tokenizer": {
    "type": "Whitespace"
  },
  "post_processor": null,
  "decoder": null,
  "model": {
    "type": "BPE",
    "dropout": null,
    "unk_token": "[UNK]",
    "continuing_subword_prefix": null,
    "end_of_word_suffix": null,
    "fuse_unk": false,
    "byte_fallback": false,
    "ignore_merges": false,
    "vocab": {
      "[UNK]": 0,
      "[PAD]": 1,
      "[BOS]": 2,
      "[EOS]": 3,
      "!": 4,
      "\"": 5,
      "#": 6,
      "$": 7,
      "%": 8,
      "&": 9,
      "'": 10,
      "(": 11,
      ")": 12,
      "*": 13,
      "+": 14,
      ",": 15,
      "-": 16,
      ".": 17,
      "/": 18,
      "0": 19,
      "1": 20,
      "2": 21,
      "3": 22,
      "4": 23,
      "5": 24,
      "6": 25,
      "7": 26,
      "8": 27,
      "9": 28,
      ":": 29,
      ";": 30,
      "<": 31,
      "=": 32,
      ">": 33,
      "?": 34,
      "@": 35,
      "A": 36,
      "B": 37,
      "C": 38,
      "D": 39,
      "E": 40,
      "F": 41,
      "G": 42,
      "H": 43,
      "I": 44,
      "J": 45,
      "K": 46,
      "L": 47,
      "M": 48,
      "N": 49,
      "O": 50,
      "P": 51,
      "Q": 52,
      "R": 53,
      "S": 54,
      "T": 55,
      "U": 56,
      "V": 57,
      "W": 58,
      "X": 59,
      "Y": 60,
      "Z": 61,
      "[": 62,
      "\\": 63,
      "]": 64,
      "_": 65,
      "`": 66,
      "a": 67,
      "b": 68,
      "c": 69,
      "d": 70,
      "e": 71,
      "f": 72,
      "g": 73,
      "h": 74,
      "i": 75,
      "j": 76,
      "k": 77,
      "l": 78,
      "m": 79,
      "n": 80,
      "o": 81,
      "p": 82,
      "q": 83,
      "r": 84,
      "s": 85,
      "t": 86,
      "u": 87,
      "v": 88,
      "w": 89,
      "x": 90,
      "y": 91,
      "z": 92,
      "{": 93,
      "|": 94,
      "}": 95,
      "~": 96,
      "": 97,
      "": 98,
      "": 99,
      "": 100,
      "": 101,
      "": 102,
      "£": 103,
      "¤": 104,
      "¨": 105,
      "©": 106,
      "«": 107,
      "­": 108,
      "®": 109,
      "°": 110,
      "±": 111,
      "²": 112,
      "·": 113,
      "º": 114,
      "»": 115,
      "¼": 116,
      "½": 117,
      "¾": 118,
      "Â": 119,
      "Ä": 120,
      "Æ": 121,
      "Ì": 122,
      "Î": 123,
      "×": 124,
      "Ù": 125,
      "Ú": 126,
      "Ý": 127,
      "à": 128,
      "á": 129,
      "â": 130,
      "ç": 131,
      "é": 132,
      "ê": 133,
      "ë": 134,
      "í": 135,
      "î": 136,
      "ï": 137,
      "ð": 138,
      "ò": 139,
      "ó": 140,
      "÷": 141,
      "ü": 142,
      "þ": 143,
      "č": 144,
      "ī": 145,
      "ı": 146,
      "ń": 147,
      "ő": 148,
      "ş": 149,
      "š": 150,
      "Ź": 151,
      "˗": 152,
      "˚": 153,
      "˜": 154,
      "Μ": 155,
      "ί": 156,
      "α": 157,
      "ε": 158,
      "ι": 159,
      "λ": 160,
      "μ": 161,
      "ν": 162,
      "ο": 163,
      "π": 164,
      "ρ": 165,
      "σ": 166,
      "υ": 167,
      "φ": 168,
      "а": 169,
      "б": 170,
      "в": 171,
      "е": 172,
      "к": 173,
      "л": 174,
      "н": 175,
      "о": 176,
      "п": 177,
      "с": 178,
      "т": 179,
      "у": 180,
      "ч": 181,
      "ы": 182,
      "ю": 183,
      "я": 184,
      "і": 185,
      "إ": 186,
      "ئ": 187,
      "ا": 188,
      "ة": 189,
      "د": 190,
      "ر": 191,
      "س": 192,
      "ل": 193,
      "و": 194,
      "ي": 195,
      "َ": 196,
      "ِ": 197,
      "ْ": 198,
      "ँ": 199,
      "ं": 200,
      "ः": 201,
      "अ": 202,
      "आ": 203,
      "उ": 204,
      "ऊ": 205,
      "ए": 206,
      "क": 207,
      "ख": 208,
      "ग": 209,
      "घ": 210,
      "च": 211,
      "छ": 212,
      "ज": 213,
      "झ": 214,
      "ट": 215,
      "ड": 216,
      "ण": 217,
      "त": 218,
      "थ": 219,
      "द": 220,
      "ध": 221,
      "न": 222,
      "प": 223,
      "फ": 224,
      "ब": 225,
      "भ": 226,
      "म": 227,
      "य": 228,
      "र": 229,
      "ल": 230,
      "ळ": 231,
      "व": 232,
      "श": 233,
      "ष": 234,
      "स": 235,
      "ह": 236,
      "़": 237,
      "ा": 238,
      "ि": 239,
      "ी": 240,
      "ु": 241,
      "ू": 242,
      "ृ": 243,
      "ॅ": 244,
      "े": 245,
      "ै": 246,
      "ॉ": 247,
      "ो": 248,
      "्": 249,
      "ॐ": 250,
      "।": 251,
      "॥": 252,
      "०": 253,
      "२": 254,
      "३": 255,
      "४": 256,
      "ઁ": 257,
      "ં": 258,
      "ઃ": 259,
      "અ": 260,
      "આ": 261,
      "ઇ": 262,
      "ઈ": 263,
      "ઉ": 264,
      "ઊ": 265,
      "ઋ": 266,
      "ઍ": 267,
      "એ": 268,
      "ઐ": 269,
      "ઑ": 270,
      "ઓ": 271,
      "ઔ": 272,
      "ક": 273,
      "ખ": 274,
      "ગ": 275,
      "ઘ": 276,
      "ઙ": 277,
      "ચ": 278,
      "છ": 279,
      "જ": 280,
      "ઝ": 281,
      "ઞ": 282,
      "ટ": 283,
      "ઠ": 284,
      "ડ": 285,
      "ઢ": 286,
      "ણ": 287,
      "ત": 288,
      "થ": 289,
      "દ": 290,
      "ધ": 291,
      "ન": 292,
      "પ": 293,
      "ફ": 294,
      "બ": 295,
      "ભ": 296,
      "મ": 297,
      "ય": 298,
      "ર": 299,
      "લ": 300,
      "ળ": 301,
      "વ": 302,
      "શ": 303,
      "ષ": 304,
      "સ": 305,
      "હ": 306,
      "઼": 307,
      "ા": 308,
      "િ": 309,
      "ી": 310,
      "ુ": 311,
      "ૂ": 312,
      "ૃ": 313,
      "ૄ": 314,
      "ૅ": 315,
      "ે": 316,
      "ૈ": 317,
      "ૉ": 318,
      "ો": 319,
      "ૌ": 320,
      "્": 321,
      "ૐ": 322,
      "ૠ": 323,
      "ૢ": 324,
      "૤": 325,
      "૦": 326,
      "૧": 327,
      "૨": 328,
      "૩": 329,
      "૪": 330,
      "૫": 331,
      "૬": 332,
      "૭": 333,
      "૮": 334,
      "૯": 335,
      "ச": 336,
      "ர": 337,
      "ழ": 338,
      "ோ": 339,
      "்": 340,
      "‎": 341,
      "–": 342,
      "—": 343,
      "‘": 344,
      "’": 345,
      "‚": 346,
      "“": 347,
      "”": 348,
      "•": 349,
      "…": 350,
      "‬": 351,
      "″": 352,
      "‹": 353,
      "€": 354,
      "₹": 355,
      "№": 356,
      "™": 357,
      "↑": 358,
      "→": 359,
      "−": 360,
      "√": 361,
      "▲": 362,
      "►": 363,
      "○": 364,
      "●": 365,
      "★": 366,
      "☞": 367,
      "♡": 368,
      "♲": 369,
      "✓": 370,
      "❣": 371,
      "⦁": 372,
      "⬛": 373,
      "⭕": 374,
      "、": 375,
      "㎡": 376,
      "": 377,
      "": 378,
      "": 379,
      "": 380,
      "": 381,
      "️": 382,
      "｜": 383,
      "ﾍ": 384,
      "ﾠ": 385,
      "�": 386,
      "🎹": 387,
      "🎼": 388,
      "👈": 389,
      "👉": 390,
      "👍": 391,
      "💐": 392,
      "📱": 393,
      "😋": 394,
      "મા": 395,
      "વા": 396,
      "ના": 397,
      "્ય": 398,
      "ને": 399,
      "માં": 400,
      "્ર": 401,
      "ાર": 402,
      "છે": 403,
      "ની": 404,
      "કર": 405,
      "ું": 406,
      "તા": 407,
      "તે": 408,
      "રા": 409,
      "સ્": 410,
      "ર્": 411,
      "કે": 412,
      "લા": 413,
      "થી": 414,
      "અને": 415,
      "કો": 416,
      "સા": 417,
      "નો": 418,
      "કા": 419,
      "વિ": 420,
      "રી": 421,
      "પ્ર": 422,
      "ક્": 423,
      "ન્": 424,
      "ટે": 425,
      "્યા": 426,
      "પર": 427,
      "હત": 428,
      "યા": 429,
      "વી": 430,
      "મે": 431,
      "હે": 432,
      "પા": 433,
      "કાર": 434,
      "વે": 435,
      "જે": 436,
      "લી": 437,
      "રો": 438,
      "પણ": 439,
      "જા": 440,
      "ભા": 441,
      "ત્ર": 442,
      "હો": 443,
      "ંગ": 444,
      "રે": 445,
      "શે": 446,
      "લો": 447,
      "લે": 448,
      "માટે": 449,
      "નિ": 450,
      "બા": 451,
      "કરી": 452,
      "પો": 453,
      "વામાં": 454,
      "નું": 455,
      "તો": 456,
      "લ્": 457,
      "જો": 458,
      "મો": 459,
      "તિ": 460,
      "યો": 461,
      "એક": 462,
      "ટી": 463,
      "્યો": 464,
      "જી": 465,
      "્યું": 466,
      "સે": 467,
      "તી": 468,
      "હી": 469,
      "સં": 470,
      "આવ": 471,
      "ડી": 472,
      "િયા": 473,
      "દે": 474,
      "સુ": 475,
      "ડા": 476,
      "રૂ": 477,
      "ણી": 478,
      "દા": 479,
      "હા": 480,
      "થે": 481,
      "તેમ": 482,
      "ણા": 483,
      "ક્ષ": 484,
      "બે": 485,
      "મુ": 486,
      "ધી": 487,
      "પી": 488,
      "સાથે": 489,
      "દી": 490,
      "થા": 491,
      "ારે": 492,
      "સી": 493,
      "ગા": 494,
      "દિ": 495,
      "સિ": 496,
      "દ્": 497,
      "મી": 498,
      "ત્": 499,
      "હતી": 500,
      "ચા": 501,
      "ખા": 502,
      "હિ": 503,
      "સર": 504,
      "સ્ટ": 505,
      "વધ": 506,
      "મિ": 507,
      "વર્": 508,
      "ંત": 509,
      "ણે": 510,
      "સમ": 511,
      "શા": 512,
      "ધા": 513,
      "કી": 514,
      "બી": 515,
      "સો": 516,
      "મળ": 517,
      "કરવા": 518,
      "હતા": 519,
      "ટા": 520,
      "રિ": 521,
      "આપ": 522,
      "રાજ": 523,
      "લિ": 524,
      "ટ્ર": 525,
      "હતો": 526,
      "રહ": 527,
      "નથી": 528,
      "આવે": 529,
      "ત્ય": 530,
      "ક્ર": 531,
      "શન": 532,
      "વાર": 533,
      "તમા": 534,
      "ગુ": 535,
      "પૂ": 536,
      "વો": 537,
      "આવી": 538,
      "દર": 539,
      "લોકો": 540,
      "ગ્ર": 541,
      "ષ્": 542,
      "ડિ": 543,
      "રહે": 544,
      "યુ": 545,
      "પુ": 546,
      "યે": 547,
      "પે": 548,
      "ડે": 549,
      "ારી": 550,
      "કિ": 551,
      "કરવામાં": 552,
      "ચે": 553,
      "શ્": 554,
      "પ્": 555,
      "ાર્": 556,
      "સ્ત": 557,
      "હતું": 558,
      "દેશ": 559,
      "ન્ટ": 560,
      "મં": 561,
      "માન": 562,
      "ગી": 563,
      "બં": 564,
      "ડો": 565,
      "શિ": 566,
      "ળા": 567,
      "્યુ": 568,
      "હોય": 569,
      "વર્ષ": 570,
      "બો": 571,
      "વારા": 572,
      "છી": 573,
      "ંચ": 574,
      "દ્વારા": 575,
      "ભાર": 576,
      "વું": 577,
      "અન": 578,
      "તર": 579,
      "તાં": 580,
      "ગર": 581,
      "ઉપ": 582,
      "ગે": 583,
      "િલ્": 584,
      "મ્": 585,
      "વર": 586,
      "વ્ય": 587,
      "વાની": 588,
      "વધુ": 589,
      "દ્ર": 590,
      "ત્રી": 591,
      "સુધી": 592,
      "ફે": 593,
      "પોલી": 594,
      "પિ": 595,
      "કેટ": 596,
      "બાદ": 597,
      "્રે": 598,
      "જુ": 599,
      "્યાં": 600,
      "સ્થ": 601,
      "છો": 602,
      "સરકાર": 603,
      "પોતા": 604,
      "ન્ડ": 605,
      "થઈ": 606,
      "કરે": 607,
      "દિવ": 608,
      "ચ્": 609,
      "બના": 610,
      "કરો": 611,
      "શકે": 612,
      "ખે": 613,
      "જણા": 614,
      "ટિ": 615,
      "ટર": 616,
      "સાર": 617,
      "કોઈ": 618,
      "કુ": 619,
      "પરિ": 620,
      "ંતુ": 621,
      "શો": 622,
      "ળી": 623,
      "કામ": 624,
      "હીં": 625,
      "પરંતુ": 626,
      "તમે": 627,
      "િત": 628,
      "ટો": 629,
      "પહે": 630,
      "સ્થા": 631,
      "દુ": 632,
      "રોના": 633,
      "ફા": 634,
      "ગો": 635,
      "રીતે": 636,
      "કરા": 637,
      "રહી": 638,
      "માંથી": 639,
      "દો": 640,
      "ફો": 641,
      "ચાર": 642,
      "મને": 643,
      "તેના": 644,
      "જન": 645,
      "કોરોના": 646,
      "્યારે": 647,
      "ર્ટ": 648,
      "કહ": 649,
      "20": 650,
      "રાત": 651,
      "યોગ": 652,
      "દર્": 653,
      "થવા": 654,
      "હેર": 655,
      "ધિ": 656,
      "સામે": 657,
      "બર": 658,
      "ત્યારે": 659,
      "નાં": 660,
      "લગ": 661,
      "વવા": 662,
      "..": 663,
      "પછી": 664,
      "હાર": 665,
      "રાખ": 666,
      "પોલીસ": 667,
      "નમાં": 668,
      "પૂર્": 669,
      "કં": 670,
      "િક": 671,
      "મુખ": 672,
      "ચી": 673,
      "ફર": 674,
      "ન્સ": 675,
      "મહિ": 676,
      "બંધ": 677,
      "કહ્યું": 678,
      "ારો": 679,
      "તેઓ": 680,
      "થાય": 681,
      "ચો": 682,
      "જૂ": 683,
      "સમય": 684,
      "લમાં": 685,
      "કાર્ય": 686,
      "ંક": 687,
      "ગુજ": 688,
      "ન્દ્ર": 689,
      "રહ્યા": 690,
      "સૌ": 691,
      "ભાગ": 692,
      "લુ": 693,
      "શ્ર": 694,
      "બિ": 695,
      "પડ": 696,
      "ભારત": 697,
      "જણાવ": 698,
      "યું": 699,
      "જ્યારે": 700,
      "એમ": 701,
      "વન": 702,
      "ભાઈ": 703,
      "ધો": 704,
      "કારણે": 705,
      "ચૂ": 706,
      "વાદ": 707,
      "મૂ": 708,
      "્સ": 709,
      "શી": 710,
      "ખો": 711,
      "સમા": 712,
      "કારી": 713,
      "હોવા": 714,
      "હવે": 715,
      "જવા": 716,
      "તેની": 717,
      "યર": 718,
      "તરી": 719,
      "શરૂ": 720,
      "મળી": 721,
      "દિવસ": 722,
      "ઓને": 723,
      "કાય": 724,
      "વાત": 725,
      "તેને": 726,
      "રુ": 727,
      "અં": 728,
      "મત": 729,
      "લાક": 730,
      "વારે": 731,
      "નહીં": 732,
      "અમે": 733,
      "પાસ": 734,
      "અમ": 735,
      "ચિ": 736,
      "જરૂ": 737,
      "પહેલા": 738,
      "ધાર": 739,
      "ક્તિ": 740,
      "ગુજરાત": 741,
      "બાળ": 742,
      "પાસે": 743,
      "અથવા": 744,
      "હુ": 745,
      "એસ": 746,
      "કર્": 747,
      "અનુ": 748,
      "પ્રા": 749,
      "કર્યો": 750,
      "બ્": 751,
      "આજે": 752,
      "શક": 753,
      "નિર્": 754,
      "પાણી": 755,
      "કલ": 756,
      "નગર": 757,
      "રાજ્ય": 758,
      "નોં": 759,
      "ટકા": 760,
      "00": 761,
      "જોઈ": 762,
      "નુ": 763,
      "આપી": 764,
      "પની": 765,
      "સર્": 766,
      "વિસ્ત": 767,
      "પહો": 768,
      "ઉત્": 769,
      "ંડ": 770,
      "ટના": 771,
      "જાણ": 772,
      "દરમ": 773,
      "જિલ્": 774,
      "સ્તા": 775,
      "સૂ": 776,
      "મારી": 777,
      "માર": 778,
      "ક્સ": 779,
      "મંત્રી": 780,
      "જિલ્લા": 781,
      "રૂપ": 782,
      "છા": 783,
      "દાર": 784,
      "ગ્રા": 785,
      "કહે": 786,
      "લઈ": 787,
      "આવ્યા": 788,
      "તમારા": 789,
      "િયાન": 790,
      "અંગ": 791,
      "જય": 792,
      "મના": 793,
      "સિં": 794,
      "તેમના": 795,
      "ભૂ": 796,
      "બુ": 797,
      "આવ્યો": 798,
      "ક્ષા": 799,
      "માર્": 800,
      "રમાં": 801,
      "ભાઇ": 802,
      "બ્ર": 803,
      "કારણ": 804,
      "હિત": 805,
      "કરતા": 806,
      "કેસ": 807,
      "આરો": 808,
      "જેમાં": 809,
      "ફિલ્": 810,
      "અભ": 811,
      "શું": 812,
      "ખુ": 813,
      "સ્ટે": 814,
      "એટ": 815,
      "કરીને": 816,
      "તેમણે": 817,
      "થો": 818,
      "ંટ": 819,
      "ગયા": 820,
      "મમાં": 821,
      "જણાવ્યું": 822,
      "અન્ય": 823,
      "થઇ": 824,
      "પોતાના": 825,
      "રોજ": 826,
      "ષ્ટ્ર": 827,
      "મુખ્ય": 828,
      "ખૂ": 829,
      "વચ્": 830,
      "પ્રે": 831,
      "ભાવ": 832,
      "જોવા": 833,
      "નના": 834,
      "ઠા": 835,
      "નની": 836,
      "ંદ": 837,
      "ઉપર": 838,
      "જબ": 839,
      "તથા": 840,
      "તમામ": 841,
      "ર્ડ": 842,
      "દરમિયાન": 843,
      "અધિ": 844,
      "બદ": 845,
      "સૌથી": 846,
      "તરીકે": 847,
      "દ્ધ": 848,
      "ર્સ": 849,
      "સ્થિ": 850,
      "શુ": 851,
      "પ્રતિ": 852,
      "દૂ": 853,
      "માત્ર": 854,
      "કંપની": 855,
      "ગત": 856,
      "ભાજ": 857,
      "સુર": 858,
      "પ્રો": 859,
      "થયા": 860,
      "મહા": 861,
      "ધાન": 862,
      "નામ": 863,
      "ભી": 864,
      "ક્ષણ": 865,
      "નવા": 866,
      "ત્રણ": 867,
      "વચ્ચે": 868,
      "ંગ્રે": 869,
      "ભર": 870,
      "ઉપયોગ": 871,
      "લ્લા": 872,
      "તેમજ": 873,
      "૦૦": 874,
      "ક્ત": 875,
      "વ્યા": 876,
      "રહ્યો": 877,
      "તુ": 878,
      "આવશે": 879,
      "અંગે": 880,
      "વ્યક્તિ": 881,
      "જના": 882,
      "મેળ": 883,
      "ખૂબ": 884,
      "સાં": 885,
      "ડિયા": 886,
      "મહિલા": 887,
      "વખ": 888,
      "બની": 889,
      "પાર્": 890,
      "જાય": 891,
      "હાથ": 892,
      "લું": 893,
      "પૂર્ણ": 894,
      "તરફ": 895,
      "લોક": 896,
      "આત": 897,
      "રણ": 898,
      "કોંગ્રે": 899,
      "આવ્યું": 900,
      "ફિ": 901,
      "યેલા": 902,
      "પગ": 903,
      "ઝા": 904,
      "શહેર": 905,
      "યલ": 906,
      "જાર": 907,
      "ર્થ": 908,
      "માણ": 909,
      "થશે": 910,
      "ફ્": 911,
      "નિય": 912,
      "જોઈએ": 913,
      "તેમને": 914,
      "પક": 915,
      "પુર": 916,
      "સ્વ": 917,
      "મદ": 918,
      "ત્યાં": 919,
      "વાનો": 920,
      "વવામાં": 921,
      "કરોડ": 922,
      "પહોંચ": 923,
      "થયો": 924,
      "ત્યાર": 925,
      "રૂપિયા": 926,
      "ઘટના": 927,
      "અમદા": 928,
      "લના": 929,
      "નિક": 930,
      "લાખ": 931,
      "ઘા": 932,
      "તેમની": 933,
      "આપણ": 934,
      "અમદાવાદ": 935,
      "આગ": 936,
      "હું": 937,
      "સહિત": 938,
      "મોટા": 939,
      "સ્થિતિ": 940,
      "ધ્ય": 941,
      "વિસ્તાર": 942,
      "રાષ્ટ્ર": 943,
      "સિંહ": 944,
      "તૈ": 945,
      "વિશે": 946,
      "માન્ય": 947,
      "શ્રી": 948,
      "જ્": 949,
      "ફળ": 950,
      "ફરી": 951,
      "બહાર": 952,
      "ધ્યા": 953,
      "પોર્ટ": 954,
      "આર": 955,
      "નાર": 956,
      "ખ્યા": 957,
      "ગાં": 958,
      "કોંગ્રેસ": 959,
      "ગ્યા": 960,
      "વાસ": 961,
      "ઓની": 962,
      "જિ": 963,
      "કર્યું": 964,
      "આઈ": 965,
      "મોદી": 966,
      "તું": 967,
      "કર્યા": 968,
      "કરવાની": 969,
      "આપવામાં": 970,
      "ચૂંટ": 971,
      "કુલ": 972,
      "ખી": 973,
      "પં": 974,
      "લાઈ": 975,
      "કૃ": 976,
      "સ્પિ": 977,
      "ચૂંટણી": 978,
      "મહત": 979,
      "ભાજપ": 980,
      "તમને": 981,
      "દિલ્": 982,
      "ઘણા": 983,
      "તપાસ": 984,
      "તૈય": 985,
      "ત્રો": 986,
      "ઇન": 987,
      "મેન્ટ": 988,
      "પોતાની": 989,
      "વિશ્": 990,
      "જરૂર": 991,
      "રેક": 992,
      "પતિ": 993,
      "શકો": 994,
      "કોટ": 995,
      "બેઠ": 996,
      "નવી": 997,
      "થમ": 998,
      "ભારતી": 999,
      "દિલ્હી": 1000,
      "ળો": 1001,
      "પ્રથમ": 1002,
      "10": 1003,
      "અધિકારી": 1004,
      "પટે": 1005,
      "સ્પિટ": 1006,
      "૨૦": 1007,
      "ગઈ": 1008,
      "સાદ": 1009,
      "વ્યવ": 1010,
      "મળે": 1011,
      "લાં": 1012,
      "મણ": 1013,
      "ટ્રે": 1014,
      "ત્રા": 1015,
      "જર": 1016,
      "કેટલાક": 1017,
      "કેન્દ્ર": 1018,
      "વાય": 1019,
      "ધર": 1020,
      "બન": 1021,
      "પ્રિ": 1022,
      "ચાલ": 1023,
      "જેટ": 1024,
      "વૃ": 1025,
      "ક્ટ": 1026,
      "મુજબ": 1027,
      "ર્મ": 1028,
      "ટ્": 1029,
      "ધરા": 1030,
      "હોસ્પિટ": 1031,
      "નોંધા": 1032,
      "19": 1033,
      "સંગ": 1034,
      "વાન": 1035,
      "રહ્યું": 1036,
      "રહેશે": 1037,
      "ખેડ": 1038,
      "વડા": 1039,
      "મહત્": 1040,
      "દરેક": 1041,
      "સામાન્ય": 1042,
      "સ્વા": 1043,
      "ઝડ": 1044,
      "દ્ય": 1045,
      "હાલ": 1046,
      "જાહેર": 1047,
      "ખાતે": 1048,
      "ફી": 1049,
      "પર્": 1050,
      "ગયો": 1051,
      "મૃ": 1052,
      "પરિવાર": 1053,
      "જન્": 1054,
      "સાય": 1055,
      "ગાંધી": 1056,
      "મર": 1057,
      "અલગ": 1058,
      "બંને": 1059,
      "દર્દી": 1060,
      "બીજા": 1061,
      "ક્રિ": 1062,
      "મદદ": 1063,
      "તમારી": 1064,
      "મારા": 1065,
      "શકાય": 1066,
      "કરશે": 1067,
      "ીય": 1068,
      "પ્રકાર": 1069,
      "ઘર": 1070,
      "સભ": 1071,
      "આઇ": 1072,
      "પૂર્વ": 1073,
      "લઇ": 1074,
      "ભે": 1075,
      "અહીં": 1076,
      "સભા": 1077,
      "ઓમાં": 1078,
      "પોલીસે": 1079,
      "નેતા": 1080,
      "મહે": 1081,
      "મન": 1082,
      "લોકોને": 1083,
      "બાળકો": 1084,
      "ંત્ર": 1085,
      "તાલુ": 1086,
      "ાર્થી": 1087,
      "મોત": 1088,
      "દન": 1089,
      "નં": 1090,
      "વણી": 1091,
      "મનો": 1092,
      "્યૂ": 1093,
      "ભારતીય": 1094,
      "કમાં": 1095,
      "રાંત": 1096,
      "તાલુકા": 1097,
      "અર": 1098,
      "કોઇ": 1099,
      "કરતાં": 1100,
      "આં": 1101,
      "ભો": 1102,
      "મની": 1103,
      "...": 1104,
      "એટલે": 1105,
      "લેવા": 1106,
      "ખાસ": 1107,
      "ક્ષે": 1108,
      "વતા": 1109,
      "ઇન્": 1110,
      "ઓએ": 1111,
      "નિર્ણ": 1112,
      "દવા": 1113,
      "ઉપરાંત": 1114,
      "ગ્": 1115,
      "વાયર": 1116,
      "યન": 1117,
      "કૂ": 1118,
      "નારા": 1119,
      "રાજકોટ": 1120,
      "ળે": 1121,
      "ષ્ટ": 1122,
      "ઉમે": 1123,
      "વધારે": 1124,
      "પડે": 1125,
      "વિધ": 1126,
      "ંકા": 1127,
      "ટ્રા": 1128,
      "લગ્": 1129,
      "ભગ": 1130,
      "મામ": 1131,
      "ુંબ": 1132,
      "જીવન": 1133,
      "વરસાદ": 1134,
      "ખરી": 1135,
      "અનેક": 1136,
      "ક્ટર": 1137,
      "પ્રધાન": 1138,
      "વેશ": 1139,
      "ખેડૂ": 1140,
      "તમાં": 1141,
      "ઓના": 1142,
      "લગા": 1143,
      "પક્ષ": 1144,
      "કોર્": 1145,
      "ચર": 1146,
      "ત્વ": 1147,
      "દૂર": 1148,
      "ફિલ્મ": 1149,
      "અભિ": 1150,
      "પસં": 1151,
      "વિક": 1152,
      "બીજી": 1153,
      "માતા": 1154,
      "મંદિ": 1155,
      "છેલ્લા": 1156,
      "આપે": 1157,
      "છું": 1158,
      "નાના": 1159,
      "પસંદ": 1160,
      "્રા": 1161,
      "દાન": 1162,
      "મોટી": 1163,
      "સમયે": 1164,
      "વિદ્ય": 1165,
      "બધા": 1166,
      "આવેલા": 1167,
      "જરૂરી": 1168,
      "સારવાર": 1169,
      "દેખા": 1170,
      "ઘણી": 1171,
      "બેન": 1172,
      "માહિ": 1173,
      "નિર્ણય": 1174,
      "પ્ત": 1175,
      "અમેરિ": 1176,
      "પડી": 1177,
      "લેખ": 1178,
      "ારા": 1179,
      "જેમ": 1180,
      "વતી": 1181,
      "ડવા": 1182,
      "કાસ": 1183,
      "જેના": 1184,
      "મક": 1185,
      "ચારી": 1186,
      "પત્": 1187,
      "તેણે": 1188,
      "દેશમાં": 1189,
      "માહિતી": 1190,
      "પરી": 1191,
      "બાબ": 1192,
      "લઈને": 1193,
      "તેમાં": 1194,
      "જ્ઞ": 1195,
      "ટ્રો": 1196,
      "વિદ્યાર્થી": 1197,
      "પાંચ": 1198,
      "લર": 1199,
      "એલ": 1200,
      "પૈ": 1201,
      "જોકે": 1202,
      "લ્ડ": 1203,
      "લાગ": 1204,
      "જેથી": 1205,
      "ડિયો": 1206,
      "રામ": 1207,
      "ચના": 1208,
      "મ્બર": 1209,
      "પટેલ": 1210,
      "થયું": 1211,
      "લન": 1212,
      "કમ": 1213,
      "વાહ": 1214,
      "ગ્રામ": 1215,
      "તંત્ર": 1216,
      "કર્મ": 1217,
      "તક": 1218,
      "સંખ્યા": 1219,
      "કાર્": 1220,
      "રોડ": 1221,
      "સમાં": 1222,
      "જીવ": 1223,
      "અંત": 1224,
      "પૂર": 1225,
      "અપ": 1226,
      "સત": 1227,
      "મહત્વ": 1228,
      "કોર્ટ": 1229,
      "બનાવ": 1230,
      "હશે": 1231,
      "આગળ": 1232,
      "વિવિધ": 1233,
      "તૈયાર": 1234,
      "કારો": 1235,
      "મહિના": 1236,
      "સ્તુ": 1237,
      "માંગ": 1238,
      "કરણ": 1239,
      "ફરિયા": 1240,
      "ગં": 1241,
      "મુંબ": 1242,
      "તેથી": 1243,
      "પ્લા": 1244,
      "એન": 1245,
      "સના": 1246,
      "નાગ": 1247,
      "મિક": 1248,
      "છતાં": 1249,
      "ચુ": 1250,
      "વાનું": 1251,
      "ર્ચા": 1252,
      "હજાર": 1253,
      "રંગ": 1254,
      "ક્રિયા": 1255,
      "સારી": 1256,
      "વાહી": 1257,
      "વધી": 1258,
      "લાઇ": 1259,
      "દિવસે": 1260,
      "વિચાર": 1261,
      "ન્ટર": 1262,
      "યેલી": 1263,
      "આરોપી": 1264,
      "જગ્યા": 1265,
      "ગ્ય": 1266,
      "સ્ટો": 1267,
      "ઝિ": 1268,
      "પરા": 1269,
      "કિસ્તા": 1270,
      "વિશ્વ": 1271,
      "15": 1272,
      "જ્યાં": 1273,
      "નિયા": 1274,
      "પાર": 1275,
      "નને": 1276,
      "ગીરી": 1277,
      "નજી": 1278,
      "વલ": 1279,
      "પાકિસ્તા": 1280,
      "છીએ": 1281,
      "કલાક": 1282,
      "અસર": 1283,
      "વિસ્તારમાં": 1284,
      "વર્ષે": 1285,
      "આવતા": 1286,
      "યોજના": 1287,
      "વખત": 1288,
      "આગા": 1289,
      "સમગ્ર": 1290,
      "ધારા": 1291,
      "સેવા": 1292,
      "મળશે": 1293,
      "પિતા": 1294,
      "દર્શન": 1295,
      "વિભાગ": 1296,
      "યેલ": 1297,
      "ગ્રી": 1298,
      "વાલ": 1299,
      "સ્ટા": 1300,
      "સરકારે": 1301,
      "ફૂ": 1302,
      "કને": 1303,
      "તેનો": 1304,
      "ઉં": 1305,
      "ધુ": 1306,
      "ઓફ": 1307,
      "ધન": 1308,
      "મીડિયા": 1309,
      "યોગ્ય": 1310,
      "પ્રમુખ": 1311,
      "ખાન": 1312,
      "ભારે": 1313,
      "સંબંધ": 1314,
      "હતાં": 1315,
      "મ્પ": 1316,
      "સતત": 1317,
      "બને": 1318,
      "શાળા": 1319,
      "ઘટા": 1320,
      "ત્તા": 1321,
      "ગણ": 1322,
      "શિયલ": 1323,
      "સ્યા": 1324,
      "ટીમ": 1325,
      "ટન": 1326,
      "જોડા": 1327,
      "૧૦": 1328,
      "વાના": 1329,
      "ઉલ્": 1330,
      "પાર્ટી": 1331,
      "મોર": 1332,
      "લાભ": 1333,
      "સ્ટ્ર": 1334,
      "એવી": 1335,
      "હેઠ": 1336,
      "લગ્ન": 1337,
      "વ્યો": 1338,
      "પાછ": 1339,
      "તેવી": 1340,
      "આવેલ": 1341,
      "આમ": 1342,
      "સહ": 1343,
      "ખેડૂતો": 1344,
      "12": 1345,
      "હોવાનું": 1346,
      "રસ": 1347,
      "ઘરે": 1348,
      "મુખ્યમંત્રી": 1349,
      "હેઠળ": 1350,
      "અનુસાર": 1351,
      "બલ": 1352,
      "ચર્ચા": 1353,
      "લિક": 1354,
      "ટ્સ": 1355,
      "મુદ્": 1356,
      "એક્": 1357,
      "રાખી": 1358,
      "પત્ર": 1359,
      "૧૯": 1360,
      "વધારો": 1361,
      "કર્મચારી": 1362,
      "જેવા": 1363,
      "પડશે": 1364,
      "પદ": 1365,
      "ગામ": 1366,
      "આવા": 1367,
      "બનાવી": 1368,
      "સિક": 1369,
      "જીત": 1370,
      "નવ": 1371,
      "ધું": 1372,
      "કલા": 1373,
      "જ્ઞા": 1374,
      "પહોંચી": 1375,
      "દરા": 1376,
      "કાર્યક્ર": 1377,
      "કીય": 1378,
      "હુમ": 1379,
      "શરી": 1380,
      "મિત": 1381,
      "કની": 1382,
      "રના": 1383,
      "કેવી": 1384,
      "ફરિયાદ": 1385,
      "વાળા": 1386,
      "ચાલી": 1387,
      "રમ": 1388,
      "કના": 1389,
      "લાલ": 1390,
      "વિકાસ": 1391,
      "સ્વી": 1392,
      "કત": 1393,
      "પહેલાં": 1394,
      "કાં": 1395,
      "તમ": 1396,
      "કાર્યવાહી": 1397,
      "રજૂ": 1398,
      "વાઈ": 1399,
      "વખતે": 1400,
      "એન્": 1401,
      "સફળ": 1402,
      "એવું": 1403,
      "ઝી": 1404,
      "ટમાં": 1405,
      "સમસ્યા": 1406,
      "પ્રદેશ": 1407,
      "વિરો": 1408,
      "નોંધ": 1409,
      "દેવ": 1410,
      "ટિંગ": 1411,
      "ઠી": 1412,
      "સ્મા": 1413,
      "રેન્દ્ર": 1414,
      "શક્ય": 1415,
      "ચૂક": 1416,
      "એવા": 1417,
      "લની": 1418,
      "શ્કે": 1419,
      "આયો": 1420,
      "વીડિયો": 1421,
      "દાખ": 1422,
      "આપણે": 1423,
      "કામગીરી": 1424,
      "વૈ": 1425,
      "નીય": 1426,
      "મીન": 1427,
      "વત": 1428,
      "અમેરિકા": 1429,
      "ષ્ઠ": 1430,
      "ડાઉ": 1431,
      "ટિવ": 1432,
      "કાળ": 1433,
      "ઉત્પા": 1434,
      "ત્રે": 1435,
      "પ્રયા": 1436,
      "ઈન્": 1437,
      "જનો": 1438,
      "વસ્તુ": 1439,
      "ટેસ્ટ": 1440,
      "પરિણા": 1441,
      "ચ્છ": 1442,
      "લાગે": 1443,
      "ચાલુ": 1444,
      "એર": 1445,
      "ખર્": 1446,
      "જવાબ": 1447,
      "વિષ": 1448,
      "ફ્ર": 1449,
      "કિં": 1450,
      "કપ": 1451,
      "શાન": 1452,
      "ંકી": 1453,
      "સુરત": 1454,
      "કોને": 1455,
      "સંપૂર્ણ": 1456,
      "નાણા": 1457,
      "ફોન": 1458,
      "18": 1459,
      "મેચ": 1460,
      "શેર": 1461,
      "અગા": 1462,
      "સલા": 1463,
      "જેને": 1464,
      "જાણી": 1465,
      "ષણ": 1466,
      "ંગા": 1467,
      "બનાવવા": 1468,
      "લગભગ": 1469,
      "નીક": 1470,
      "પરે": 1471,
      "લખ": 1472,
      "લાય": 1473,
      "જોઇ": 1474,
      "પાછળ": 1475,
      "ધે": 1476,
      "ભુ": 1477,
      "વુ": 1478,
      "જેવી": 1479,
      "લ્સ": 1480,
      "થતા": 1481,
      "સદ": 1482,
      "પત્ની": 1483,
      "જશે": 1484,
      "યાદ": 1485,
      "વાસી": 1486,
      "યત": 1487,
      "આપવા": 1488,
      "નાની": 1489,
      "શ્રે": 1490,
      "સપ્": 1491,
      "આગામી": 1492,
      "જઈ": 1493,
      "અર્": 1494,
      "નુક": 1495,
      "સાન": 1496,
      "વિજય": 1497,
      "અવ": 1498,
      "ટલ": 1499,
      "જાહે": 1500,
      "માણે": 1501,
      "ઢી": 1502,
      "ઇલ": 1503,
      "જિલ્લામાં": 1504,
      "હર": 1505,
      "મુંબઈ": 1506,
      "અગાઉ": 1507,
      "આરોગ્ય": 1508,
      "માર્ગ": 1509,
      "પકડ": 1510,
      "થ્": 1511,
      "પાડ": 1512,
      "ઝો": 1513,
      "ન્યુ": 1514,
      "મુશ્કે": 1515,
      "કસ": 1516,
      "પોરે": 1517,
      "કાઉ": 1518,
      "શર": 1519,
      "ગુજરાતમાં": 1520,
      "નીચે": 1521,
      "સરળ": 1522,
      "લિકા": 1523,
      "ંચા": 1524,
      "કાત": 1525,
      "ગૃ": 1526,
      "લેન્ડ": 1527,
      "30": 1528,
      "સવારે": 1529,
      "જામ": 1530,
      "હજુ": 1531,
      "શરૂઆત": 1532,
      "11": 1533,
      "ક્યારે": 1534,
      "રિક": 1535,
      "આધાર": 1536,
      "રોકા": 1537,
      "નંદ": 1538,
      "બાજુ": 1539,
      "હાલમાં": 1540,
      "હોવાથી": 1541,
      "ફેર": 1542,
      "સ્ત્રી": 1543,
      "ઉલ્લેખ": 1544,
      "ગંભી": 1545,
      "કરવાનો": 1546,
      "પાસેથી": 1547,
      "ગર્": 1548,
      "14": 1549,
      "મંદિર": 1550,
      "ધરી": 1551,
      "મુલા": 1552,
      "પ્રમાણે": 1553,
      "બ્રા": 1554,
      "રાજ્યમાં": 1555,
      "જરી": 1556,
      "અત્યાર": 1557,
      "લેટ": 1558,
      "ફાય": 1559,
      "તન": 1560,
      "ડર": 1561,
      "ગંભીર": 1562,
      "સની": 1563,
      "યોજા": 1564,
      "50": 1565,
      "યુનિ": 1566,
      "રસી": 1567,
      "ક્સિ": 1568,
      "બેઠક": 1569,
      "જાહેરાત": 1570,
      "ધ્યાન": 1571,
      "ણો": 1572,
      "દાય": 1573,
      "રોગ": 1574,
      "ડું": 1575,
      "રિપોર્ટ": 1576,
      "કેટલી": 1577,
      "આજ": 1578,
      "ક્કી": 1579,
      "ત્યુ": 1580,
      "હં": 1581,
      "હાઈ": 1582,
      "સભ્યો": 1583,
      "જન્મ": 1584,
      "ઓળ": 1585,
      "શોધ": 1586,
      "કાન": 1587,
      "સોશિયલ": 1588,
      "રહ્યાં": 1589,
      "ટુ": 1590,
      "ત્રિ": 1591,
      "હતુ": 1592,
      "સ્ટેશન": 1593,
      "કેમ": 1594,
      "રહેતા": 1595,
      "સરકારી": 1596,
      "ભારતમાં": 1597,
      "શિયા": 1598,
      "હારા": 1599,
      "આરી": 1600,
      "વીને": 1601,
      "હિં": 1602,
      "ચલા": 1603,
      "પ્રમાણ": 1604,
      "અભ્યા": 1605,
      "માલ": 1606,
      "રહેલા": 1607,
      "ઉદ": 1608,
      "પ્રિય": 1609,
      "થોડા": 1610,
      "લીધો": 1611,
      "અનુભ": 1612,
      "જતા": 1613,
      "ધ્": 1614,
      "નેટ": 1615,
      "સ્થિત": 1616,
      "કમિ": 1617,
      "ંતિ": 1618,
      "વડો": 1619,
      "શ્ય": 1620,
      "મૃત્યુ": 1621,
      "અપા": 1622,
      "નક": 1623,
      "પાલિકા": 1624,
      "સ્પે": 1625,
      "બાઈ": 1626,
      "મહારા": 1627,
      "ત્મક": 1628,
      "નર": 1629,
      "કરવું": 1630,
      "સ્ટ્રે": 1631,
      "કહી": 1632,
      "ડીને": 1633,
      "વ્યવસ્થા": 1634,
      "ઓછા": 1635,
      "નંબર": 1636,
      "બાર": 1637,
      "ટૂ": 1638,
      "મધ્ય": 1639,
      "દેશો": 1640,
      "સુધીમાં": 1641,
      "સ્પ": 1642,
      "પ્રશ્": 1643,
      "કરવો": 1644,
      "રોક": 1645,
      "રવિ": 1646,
      "નલ": 1647,
      "વર્ષની": 1648,
      "આંક": 1649,
      "ખ્": 1650,
      "ગયું": 1651,
      "નેશન": 1652,
      "નિષ્": 1653,
      "પુરા": 1654,
      "મામલે": 1655,
      "બજાર": 1656,
      "સું": 1657,
      "સભ્ય": 1658,
      "પના": 1659,
      "ચ્ચ": 1660,
      "કરવાનું": 1661,
      "પ્રી": 1662,
      "સારા": 1663,
      "વેલ": 1664,
      "સંસ્થા": 1665,
      "અંદર": 1666,
      "અલ": 1667,
      "રાષ્ટ્રીય": 1668,
      "પ્રક્રિયા": 1669,
      "આયોજન": 1670,
      "દીધી": 1671,
      "લેવામાં": 1672,
      "17": 1673,
      "સાઇ": 1674,
      "મોરબી": 1675,
      "નજીક": 1676,
      "તેનું": 1677,
      "હાઇ": 1678,
      "વિરોધ": 1679,
      "કટ": 1680,
      "આપ્યો": 1681,
      "ઉત્તર": 1682,
      "નક્કી": 1683,
      "16": 1684,
      "અર્થ": 1685,
      "સિટી": 1686,
      "કુમાર": 1687,
      "વળ": 1688,
      "શિક્ષણ": 1689,
      "થતાં": 1690,
      "સ્સા": 1691,
      "વિડ": 1692,
      "વાઇ": 1693,
      "તમારે": 1694,
      "શહેરમાં": 1695,
      "સન": 1696,
      "લીધી": 1697,
      "ખરે": 1698,
      "હોસ્પિટલમાં": 1699,
      "સમયમાં": 1700,
      "મુક": 1701,
      "બચા": 1702,
      "યુવ": 1703,
      "દારો": 1704,
      "વિસ્તારો": 1705,
      "અરજી": 1706,
      "ખર્ચ": 1707,
      "સમાવેશ": 1708,
      "આંત": 1709,
      "વડોદરા": 1710,
      "દાખલ": 1711,
      "સાઈ": 1712,
      "કિંગ": 1713,
      "એફ": 1714,
      "ધારે": 1715,
      "વગર": 1716,
      "બેન્": 1717,
      "શાહ": 1718,
      "પાટી": 1719,
      "કિંમત": 1720,
      "નરેન્દ્ર": 1721,
      "સંક્ર": 1722,
      "ડ્ર": 1723,
      "કાશ": 1724,
      "૧૫": 1725,
      "પોસ્ટ": 1726,
      "ખરા": 1727,
      "મ્યુ": 1728,
      "બ્રિ": 1729,
      "ક્રિકેટ": 1730,
      "પૈસા": 1731,
      "ન્ડિયા": 1732,
      "000": 1733,
      "સ્ક": 1734,
      "લક્ષ": 1735,
      "જૂરી": 1736,
      "પંચા": 1737,
      "ઓફિ": 1738,
      "બોલ": 1739,
      "દુનિયા": 1740,
      "દેશના": 1741,
      "ધરપકડ": 1742,
      "વિધા": 1743,
      "પ્રયાસ": 1744,
      "ગાર": 1745,
      "બોર્ડ": 1746,
      "તરફથી": 1747,
      "બહે": 1748,
      "નોકરી": 1749,
      "બાં": 1750,
      "લોકોએ": 1751,
      "કરવી": 1752,
      "13": 1753,
      "ar": 1754,
      "નીતિ": 1755,
      "રાહુ": 1756,
      "ંતા": 1757,
      "લાગી": 1758,
      "સુરક્ષા": 1759,
      "ઓનો": 1760,
      "તારી": 1761,
      "ઝડપી": 1762,
      "ટક": 1763,
      "સત્તા": 1764,
      "મતા": 1765,
      "નહો": 1766,
      "મેં": 1767,
      "21": 1768,
      "in": 1769,
      "હત્યા": 1770,
      "ત્યારબાદ": 1771,
      "પ્રાપ્ત": 1772,
      "રોકાણ": 1773,
      "રેલી": 1774,
      "ચં": 1775,
      "વહે": 1776,
      "સ્થાન": 1777,
      "પારી": 1778,
      "વાળી": 1779,
      "200": 1780,
      "સલ": 1781,
      "ડની": 1782,
      "હોઈ": 1783,
      "ભૂમિ": 1784,
      "પણે": 1785,
      "સમાજ": 1786,
      "મેળવી": 1787,
      "પ્રેમ": 1788,
      "દિવસો": 1789,
      "પરથી": 1790,
      "હાર્": 1791,
      "મેન": 1792,
      "મંગ": 1793,
      "સ્પષ્ટ": 1794,
      "પોઝિ": 1795,
      "વોર્ડ": 1796,
      "ઝે": 1797,
      "મિનિ": 1798,
      "ર્ષ": 1799,
      "અક": 1800,
      "ંભ": 1801,
      "૧૮": 1802,
      "સ્કૂ": 1803,
      "સમાચાર": 1804,
      "ખુબ": 1805,
      "લઇને": 1806,
      "સ્થાનિક": 1807,
      "વિદેશ": 1808,
      "ંગ્": 1809,
      "ચાર્": 1810,
      "ડમાં": 1811,
      "બેંક": 1812,
      "સામ": 1813,
      "વિરુ": 1814,
      "ક્રે": 1815,
      "બૂ": 1816,
      "બાકી": 1817,
      "રન": 1818,
      "ન્ન": 1819,
      "લાંબા": 1820,
      "24": 1821,
      "કોઈપણ": 1822,
      "લય": 1823,
      "સિવાય": 1824,
      "ગેરે": 1825,
      "રોમાં": 1826,
      "ખર": 1827,
      "મંડ": 1828,
      "કન": 1829,
      "પાલ": 1830,
      "પગલે": 1831,
      "નહિ": 1832,
      "વાળ": 1833,
      "શ્વર": 1834,
      "વિના": 1835,
      "કલે": 1836,
      "કોન્": 1837,
      "કાયદા": 1838,
      "ક્રો": 1839,
      "પરીક્ષા": 1840,
      "અધ્ય": 1841,
      "કરતી": 1842,
      "હોવાની": 1843,
      "આવેલી": 1844,
      "ફરજ": 1845,
      "ક્ષેત્ર": 1846,
      "૧૨": 1847,
      "વવાની": 1848,
      "રેલ": 1849,
      "દેવામાં": 1850,
      "સુવિધા": 1851,
      "કોરોનાના": 1852,
      "અભ્યાસ": 1853,
      "ક્શન": 1854,
      "ગ્રાહ": 1855,
      "ગઇ": 1856,
      "ઘે": 1857,
      "રની": 1858,
      "છૂ": 1859,
      "મેશા": 1860,
      "ખરીદી": 1861,
      "આર્થ": 1862,
      "સૈ": 1863,
      "ડાઉન": 1864,
      "મુલાકાત": 1865,
      "લાડી": 1866,
      "કરીએ": 1867,
      "ફાઈ": 1868,
      "ઓછી": 1869,
      "ગરી": 1870,
      "હન": 1871,
      "જણાવી": 1872,
      "જાણવા": 1873,
      "વાંચ": 1874,
      "મોટો": 1875,
      "જબૂ": 1876,
      "મજબૂ": 1877,
      "રસ્તા": 1878,
      "કાલે": 1879,
      "ગામમાં": 1880,
      "જમીન": 1881,
      "ગેર": 1882,
      "આધારે": 1883,
      "વિધાન": 1884,
      "દ્ધિ": 1885,
      "લોકોના": 1886,
      "ચોક્": 1887,
      "આત્": 1888,
      "25": 1889,
      "ણમાં": 1890,
      "ક્ષિ": 1891,
      "ચિંતા": 1892,
      "ભાજપના": 1893,
      "સુંદર": 1894,
      "વડાપ્રધાન": 1895,
      "પસાર": 1896,
      "વેચા": 1897,
      "ભાવના": 1898,
      "બળ": 1899,
      "યમ": 1900,
      "બતા": 1901,
      "આવતી": 1902,
      "ભાગે": 1903,
      "નિવે": 1904,
      "ન્યૂ": 1905,
      "ઘો": 1906,
      "થયેલા": 1907,
      "નિંગ": 1908,
      "લોકોની": 1909,
      "હવા": 1910,
      "રાશિ": 1911,
      "કોલે": 1912,
      "લં": 1913,
      "ષા": 1914,
      "જાત": 1915,
      "આર્થિક": 1916,
      "ઠવા": 1917,
      "ગ્રે": 1918,
      "હંમેશા": 1919,
      "મૂળ": 1920,
      "મીટર": 1921,
      "પલ": 1922,
      "યુવતી": 1923,
      "શિવ": 1924,
      "પરિસ્થિતિ": 1925,
      "લીધા": 1926,
      "ભૂત": 1927,
      "આસ": 1928,
      "),": 1929,
      "ંડી": 1930,
      "હરણ": 1931,
      "જિલ્લાના": 1932,
      "ગણા": 1933,
      "ફુ": 1934,
      "પાલન": 1935,
      "હાજર": 1936,
      "શક્તિ": 1937,
      "કોર્ટે": 1938,
      "જોઇએ": 1939,
      "પુત્ર": 1940,
      "ચોક્કસ": 1941,
      "ટું": 1942,
      "પાત્ર": 1943,
      "એન્ડ": 1944,
      "૩૦": 1945,
      "વેપારી": 1946,
      "વિરુદ્ધ": 1947,
      "માગ": 1948,
      "લિંગ": 1949,
      "ઘરમાં": 1950,
      "ઝન": 1951,
      "વ્યું": 1952,
      "સને": 1953,
      "માર્કેટ": 1954,
      "અધ્યક્ષ": 1955,
      "વાથી": 1956,
      "તૈયારી": 1957,
      "રાજ્યના": 1958,
      "રાહુલ": 1959,
      "મળ્યા": 1960,
      "કેટલીક": 1961,
      "નદી": 1962,
      "સેના": 1963,
      "ગૌ": 1964,
      "થિ": 1965,
      "ટ્રોલ": 1966,
      "જયારે": 1967,
      "સ્ટી": 1968,
      "કૃતિ": 1969,
      "કોર્પોરે": 1970,
      "લૂ": 1971,
      "જમા": 1972,
      "વીર": 1973,
      "રિયા": 1974,
      "દારૂ": 1975,
      "સિંગ": 1976,
      "ફોટો": 1977,
      "અડ": 1978,
      "મ્બ": 1979,
      "અંદા": 1980,
      "રાખવામાં": 1981,
      "તેવા": 1982,
      "કારા": 1983,
      "ડાય": 1984,
      "દબા": 1985,
      "શ્મી": 1986,
      "ડ્રા": 1987,
      "લિયા": 1988,
      "ઉન્ડ": 1989,
      "ક્યાં": 1990,
      "પ્રવેશ": 1991,
      "ઠે": 1992,
      "ઝડપ": 1993,
      "સવા": 1994,
      "બહુ": 1995,
      "શનિ": 1996,
      "રાત્રે": 1997,
      "ઉજ": 1998,
      "૧૪": 1999,
      "લીધે": 2000,
      "સહિતના": 2001,
      "કેસમાં": 2002,
      "શૈ": 2003,
      "શિક્ષ": 2004,
      "ડીયા": 2005,
      "ખાનગી": 2006,
      "an": 2007,
      "કિલો": 2008,
      "પંચ": 2009,
      "મૂક": 2010,
      "કન્": 2011,
      "હાય": 2012,
      "ચિત": 2013,
      "તસ": 2014,
      "નહી": 2015,
      "કું": 2016,
      "દર્શા": 2017,
      "ગાંધીનગર": 2018,
      "ઢા": 2019,
      "ભરા": 2020,
      "ગામના": 2021,
      "ડિંગ": 2022,
      "સિસ્ટ": 2023,
      "એના": 2024,
      "બસ": 2025,
      "વ્": 2026,
      "કોવિડ": 2027,
      "ત્તિ": 2028,
      "પરત": 2029,
      "સાંજે": 2030,
      "વિધાનસભા": 2031,
      "આદેશ": 2032,
      "કેશ": 2033,
      "યાત્રા": 2034,
      "કોંગ્રેસના": 2035,
      "દૂધ": 2036,
      "શ્રેષ્ઠ": 2037,
      "છુ": 2038,
      "ટીવી": 2039,
      "સાંભ": 2040,
      "સ્ટ્રી": 2041,
      "સ્થળે": 2042,
      "ર્ન": 2043,
      "કાર્ડ": 2044,
      "આસપાસ": 2045,
      "ફક્ત": 2046,
      "જેટલા": 2047,
      "ંડા": 2048,
      "શં": 2049,
      "હેરા": 2050,
      "વગેરે": 2051,
      "ઘટાડો": 2052,
      "ફોર્મ": 2053,
      "at": 2054,
      "ગતિ": 2055,
      "કેશન": 2056,
      "્યોગ": 2057,
      "ક્રા": 2058,
      "મહારાષ્ટ્ર": 2059,
      "ડવામાં": 2060,
      "જીના": 2061,
      "બનાવવામાં": 2062,
      "ચીન": 2063,
      "ખરાબ": 2064,
      "ગુરુ": 2065,
      "નુકસાન": 2066,
      "ખેલાડી": 2067,
      "તાલુકાના": 2068,
      "પંચાયત": 2069,
      "હોસ્પિટલ": 2070,
      "અહે": 2071,
      "er": 2072,
      "નેશનલ": 2073,
      "ટેક": 2074,
      "સામેલ": 2075,
      "કંઈ": 2076,
      "ઓન": 2077,
      "પૂછ": 2078,
      "તરમાં": 2079,
      "વિસ્તારોમાં": 2080,
      "શબ્": 2081,
      "આનંદ": 2082,
      "સફળતા": 2083,
      "સ્તી": 2084,
      "રને": 2085,
      "સમિ": 2086,
      "મંજૂરી": 2087,
      "રકમ": 2088,
      "બ્રે": 2089,
      "અકસ્મા": 2090,
      "પશ્": 2091,
      "સાત": 2092,
      "આવક": 2093,
      "એચ": 2094,
      "સોમ": 2095,
      "ખબર": 2096,
      "સંપર્": 2097,
      "કિત": 2098,
      "ન્ને": 2099,
      "ઠો": 2100,
      "તાર": 2101,
      "પ્લે": 2102,
      "પ્રકારની": 2103,
      "ગઢ": 2104,
      "પ્રાથ": 2105,
      "લાઇન": 2106,
      "૧૧": 2107,
      "જામનગર": 2108,
      "કૌ": 2109,
      "શહે": 2110,
      "રાહત": 2111,
      "પીએમ": 2112,
      "અના": 2113,
      "ડૉ": 2114,
      "કમા": 2115,
      "ગાળા": 2116,
      "પ્રોજે": 2117,
      "વાતા": 2118,
      "જોખ": 2119,
      "ઉલ્લેખનીય": 2120,
      "કાશ્મી": 2121,
      "રાજય": 2122,
      "કટર": 2123,
      "લબ્": 2124,
      "ચ્છા": 2125,
      "વાદી": 2126,
      "જેની": 2127,
      "આશ": 2128,
      "મળ્યો": 2129,
      "ખેતી": 2130,
      "પહેલી": 2131,
      "એક્સ": 2132,
      "ગિ": 2133,
      "લ્પ": 2134,
      "યોગી": 2135,
      "વર્ષના": 2136,
      "મેને": 2137,
      "ભાગના": 2138,
      "દક્ષિ": 2139,
      "વિશેષ": 2140,
      "તબ": 2141,
      "ફ્રે": 2142,
      "ણું": 2143,
      "રલ": 2144,
      "સાફ": 2145,
      "રાજ્યો": 2146,
      "ધરાવે": 2147,
      "૫૦": 2148,
      "શહેરના": 2149,
      "જન્સી": 2150,
      "પ્રાથમિક": 2151,
      "ટની": 2152,
      "મુશ્કેલી": 2153,
      "ઈન": 2154,
      "કિસ્સા": 2155,
      "મારે": 2156,
      "કાઉન્ટ": 2157,
      "ડુ": 2158,
      "બદલ": 2159,
      "તાજે": 2160,
      "કોર્ટમાં": 2161,
      "નારી": 2162,
      "બાળક": 2163,
      "ગામે": 2164,
      "ઉપલબ્": 2165,
      "દિવસમાં": 2166,
      "રોને": 2167,
      "વધુમાં": 2168,
      "આર્": 2169,
      "ધમ": 2170,
      "ચોરી": 2171,
      "પોઝિટિવ": 2172,
      "સ્ટિ": 2173,
      "ટ્રી": 2174,
      "મોદીએ": 2175,
      "ગુજરાતના": 2176,
      "કેસો": 2177,
      "જણાવ્યા": 2178,
      "મેળવવા": 2179,
      "તિહા": 2180,
      "કહેવામાં": 2181,
      "કાઢ": 2182,
      "મજબૂત": 2183,
      "ટેડ": 2184,
      "ઉચ્ચ": 2185,
      "મંગળ": 2186,
      "રાહ": 2187,
      "લ્લી": 2188,
      "ડતા": 2189,
      "કોલ": 2190,
      "ડામાં": 2191,
      "૦૦૦": 2192,
      "વ્યવસાય": 2193,
      "ઉત્પાદન": 2194,
      "ક્કા": 2195,
      "વર્ષો": 2196,
      "બોલા": 2197,
      "સંખ્યામાં": 2198,
      "હળ": 2199,
      "સ્વાસ્થ": 2200,
      "હુમલા": 2201,
      "ગૃહ": 2202,
      "ષ્ટિ": 2203,
      "આપ્યું": 2204,
      "વનગર": 2205,
      "યુનિવર્": 2206,
      "પશ્ચિ": 2207,
      "ભાગી": 2208,
      "મળ્યું": 2209,
      "ચેરી": 2210,
      "આપણા": 2211,
      "૧૭": 2212,
      "૧૬": 2213,
      "ફેલા": 2214,
      "કરનાર": 2215,
      "હ્": 2216,
      "મહામારી": 2217,
      "જાણકારી": 2218,
      "થતી": 2219,
      "રાખે": 2220,
      "ડક": 2221,
      "સહાય": 2222,
      "કોની": 2223,
      "પૂરી": 2224,
      "ભારતના": 2225,
      "સૂર": 2226,
      "તિમ": 2227,
      "વાડી": 2228,
      "વ્યક્ત": 2229,
      "સ્પર્": 2230,
      "નજર": 2231,
      "સુખ": 2232,
      "રિંગ": 2233,
      "ધ્યાનમાં": 2234,
      "સવાર": 2235,
      "પ્રજા": 2236,
      "વિશ્વાસ": 2237,
      "ઉપલબ્ધ": 2238,
      "આશા": 2239,
      "દ્ધા": 2240,
      "લાઈન": 2241,
      "ભાવનગર": 2242,
      "તાપ": 2243,
      "્યાન": 2244,
      "લક્ષણ": 2245,
      "પૈકી": 2246,
      "ઓવર": 2247,
      "થવાની": 2248,
      "મગ": 2249,
      "સંક": 2250,
      "બિન": 2251,
      "શુક્ર": 2252,
      "અંતિમ": 2253,
      "શક્યતા": 2254,
      "ઓગ": 2255,
      "શાંત": 2256,
      "વાહન": 2257,
      "દક્ષિણ": 2258,
      "વાયરસ": 2259,
      "જંગ": 2260,
      "વીજ": 2261,
      "જાળ": 2262,
      "આપતા": 2263,
      "આરોપ": 2264,
      "જની": 2265,
      "તરા": 2266,
      "બંધી": 2267,
      "જુદા": 2268,
      "ગ્રહ": 2269,
      "દીધો": 2270,
      "40": 2271,
      "અમારી": 2272,
      "વિત": 2273,
      "બાબતે": 2274,
      "ઉદા": 2275,
      "અધિકારીઓ": 2276,
      "તના": 2277,
      "સેન્": 2278,
      "પ્રકાશ": 2279,
      "નાખ": 2280,
      "ગુણ": 2281,
      "જગ્યાએ": 2282,
      "વરણ": 2283,
      "જમાં": 2284,
      "તેનાથી": 2285,
      "પાકિસ્તાન": 2286,
      "અઠવા": 2287,
      "ગુમા": 2288,
      "સ્થળ": 2289,
      "મૃત": 2290,
      "પરિણામ": 2291,
      "સામા": 2292,
      "હિન્": 2293,
      "કાર્યક્રમ": 2294,
      "ચંદ્ર": 2295,
      "સ્વાસ્થ્ય": 2296,
      "આઉ": 2297,
      "વાનગી": 2298,
      "ઉપા": 2299,
      "ન્ટિ": 2300,
      "બદલે": 2301,
      "નોંધાયા": 2302,
      "તેલ": 2303,
      "es": 2304,
      "સામનો": 2305,
      "મૂલ": 2306,
      "ત્ત": 2307,
      "મચી": 2308,
      "યુક્ત": 2309,
      "નિયમો": 2310,
      "પ્રકારના": 2311,
      "વધાર": 2312,
      "માનવામાં": 2313,
      "છોડ": 2314,
      "શકશે": 2315,
      "અફ": 2316,
      "નવે": 2317,
      "પ્રદર્શન": 2318,
      "સ્ટાફ": 2319,
      "હુમલો": 2320,
      "માની": 2321,
      "ક્ટો": 2322,
      "મિત્રો": 2323,
      "એપ્રિ": 2324,
      "વર્ષથી": 2325,
      "ઉમેદવા": 2326,
      "ન્યા": 2327,
      "સચિ": 2328,
      "દિશા": 2329,
      "યુવા": 2330,
      "પ્રતિબંધ": 2331,
      "ફેરફ": 2332,
      "મતી": 2333,
      "સમર્થ": 2334,
      "શર્": 2335,
      "વર્ગ": 2336,
      "સલાહ": 2337,
      "જવાબદ": 2338,
      "વાયરલ": 2339,
      "ડલ": 2340,
      "પહોંચા": 2341,
      "યૂ": 2342,
      "શૂ": 2343,
      "દેવા": 2344,
      "યુનિવર્સિટી": 2345,
      "ચુક": 2346,
      "ટેક્સ": 2347,
      "on": 2348,
      "અગ્ર": 2349,
      "સમી": 2350,
      "ગુનો": 2351,
      "જુઓ": 2352,
      "સમાન": 2353,
      "ડાં": 2354,
      "ધરાવતા": 2355,
      "દાવો": 2356,
      "નાથ": 2357,
      "િયાત": 2358,
      "મંત્રા": 2359,
      "ઉર્": 2360,
      "પ્રત્ય": 2361,
      "રેલવે": 2362,
      "100": 2363,
      "રૂપે": 2364,
      "ઝને": 2365,
      "રાજકીય": 2366,
      "અમારા": 2367,
      "જતાં": 2368,
      "ગાય": 2369,
      "મથ": 2370,
      "મેડિ": 2371,
      "આંદો": 2372,
      "સંક્રમણ": 2373,
      "ઘુ": 2374,
      "તૃ": 2375,
      "બધી": 2376,
      "સારું": 2377,
      "જાણો": 2378,
      "વેચાણ": 2379,
      "સાવ": 2380,
      "મેલ": 2381,
      "સંભા": 2382,
      "ઉત્પાદ": 2383,
      "વાતચી": 2384,
      "વૃત્તિ": 2385,
      "જિક": 2386,
      "શાક": 2387,
      "કરવાના": 2388,
      "22": 2389,
      "ચાર્જ": 2390,
      "સંઘ": 2391,
      "સજા": 2392,
      "રચના": 2393,
      "પ્રસંગ": 2394,
      "સપ્ટે": 2395,
      "ષિ": 2396,
      "ષ્ણ": 2397,
      "ાર્થ": 2398,
      "વર્ષમાં": 2399,
      "નિર્માણ": 2400,
      "ઝડપથી": 2401,
      "સવ": 2402,
      "સાધ": 2403,
      "ડોલર": 2404,
      "ફરીથી": 2405,
      "વિદ્યાર્થીઓ": 2406,
      "ડિસે": 2407,
      "ગુજરા": 2408,
      "પ્રાર": 2409,
      "ટાઇ": 2410,
      "ધારાસભ્ય": 2411,
      "ભરમાં": 2412,
      "સાબ": 2413,
      "હોલ": 2414,
      "લોજી": 2415,
      "દરમ્યાન": 2416,
      "પસંદગી": 2417,
      "ઉઠા": 2418,
      "ઘટ": 2419,
      "વિવાદ": 2420,
      "દર્દીઓ": 2421,
      "મુદ્દે": 2422,
      "ઓળખ": 2423,
      "હકી": 2424,
      "ટરી": 2425,
      "રૃ": 2426,
      "સૌરાષ્ટ્ર": 2427,
      "જળ": 2428,
      "પોતે": 2429,
      "ક્રી": 2430,
      "જવાબદારી": 2431,
      "બન્ને": 2432,
      "સન્": 2433,
      "માટેની": 2434,
      "વર્લ્ડ": 2435,
      "આટ": 2436,
      "કૉ": 2437,
      "રાખવા": 2438,
      "નગરપાલિકા": 2439,
      "વધારા": 2440,
      "કચ્છ": 2441,
      "પ્રય": 2442,
      ".’": 2443,
      "ફટ": 2444,
      "રમા": 2445,
      "જાન્યુ": 2446,
      "મોકલ": 2447,
      "નાગઢ": 2448,
      "સપ્તા": 2449,
      "સર્જા": 2450,
      "માર્ચ": 2451,
      "ઇન્ટર": 2452,
      "એવો": 2453,
      "વાગ્યા": 2454,
      "કેલ": 2455,
      "સુપ્રી": 2456,
      "સ્વામી": 2457,
      "પ્રયત્": 2458,
      "સ્તો": 2459,
      "કેપ્": 2460,
      "યાદી": 2461,
      "પાન": 2462,
      "ક્ષમતા": 2463,
      "આંતર": 2464,
      "ચૌ": 2465,
      "વજન": 2466,
      "કાલ": 2467,
      "ક્યારેય": 2468,
      "હૈ": 2469,
      "ટ્વિ": 2470,
      "પૂર્વક": 2471,
      "ટને": 2472,
      "મહિનામાં": 2473,
      "આઠ": 2474,
      "ગાડી": 2475,
      "થયેલ": 2476,
      "વાસ્ત": 2477,
      "દુર": 2478,
      "ન્ચ": 2479,
      "સબ": 2480,
      "લાગુ": 2481,
      "ફેબ્ર": 2482,
      "આઉટ": 2483,
      "બુધ": 2484,
      "એને": 2485,
      "તળા": 2486,
      "જનતા": 2487,
      "એડ": 2488,
      "તેજ": 2489,
      "છોડી": 2490,
      "સારો": 2491,
      "પશ્ચિમ": 2492,
      "કચેરી": 2493,
      "વાજ": 2494,
      "હાજરી": 2495,
      "ઉદ્યોગ": 2496,
      "વિગ": 2497,
      "કરવાથી": 2498,
      "લખ્યું": 2499,
      "ધર્મ": 2500,
      "ડિઝા": 2501,
      "પુરુ": 2502,
      "કાયદે": 2503,
      "શુભ": 2504,
      "મરા": 2505,
      "મણી": 2506,
      "દીપ": 2507,
      "ખોરા": 2508,
      "સ્ટર": 2509,
      "ંચી": 2510,
      "થયેલી": 2511,
      "સિવિ": 2512,
      "તાઓ": 2513,
      "શાંતિ": 2514,
      "સંગઠ": 2515,
      "મળતી": 2516,
      "આપ્યા": 2517,
      "જાન્યુઆરી": 2518,
      "પાં": 2519,
      "પુસ્ત": 2520,
      "બનાવે": 2521,
      "વણ": 2522,
      "ફ્ટ": 2523,
      "ન્સર": 2524,
      "સીબી": 2525,
      "નિયમ": 2526,
      "રહેલી": 2527,
      "રાષ્ટ્રપતિ": 2528,
      "મુદ્દા": 2529,
      "આદિ": 2530,
      "માને": 2531,
      "વેક્સિ": 2532,
      "કેટલા": 2533,
      "વપરા": 2534,
      "તેવું": 2535,
      "પોર": 2536,
      "લિત": 2537,
      "ખંડ": 2538,
      "બાબત": 2539,
      "અનિ": 2540,
      "લડ": 2541,
      "ઇડ": 2542,
      "વ્ર": 2543,
      "કોરોનાની": 2544,
      "સમિતિ": 2545,
      "તાજેતરમાં": 2546,
      "સંભ": 2547,
      "સાયટી": 2548,
      "ભોગ": 2549,
      "ઉજવણી": 2550,
      "૧૩": 2551,
      "લોકસભા": 2552,
      "જારો": 2553,
      "દય": 2554,
      "લીમ": 2555,
      "મોં": 2556,
      "અમદાવાદમાં": 2557,
      "ભય": 2558,
      "સમુ": 2559,
      "સ્સો": 2560,
      "સોસાયટી": 2561,
      "બાદમાં": 2562,
      "વાર્": 2563,
      "કારક": 2564,
      "મિશ્ર": 2565,
      "સૂત્રો": 2566,
      "પ્રોજેક્ટ": 2567,
      "ઉદાહરણ": 2568,
      "પ્રારંભ": 2569,
      "કરાઈ": 2570,
      "ખરીદ": 2571,
      "લિવ": 2572,
      "પુન": 2573,
      "પશુ": 2574,
      "હરા": 2575,
      "કર્યુ": 2576,
      "કોણ": 2577,
      "વડ": 2578,
      "ટાઈ": 2579,
      "પોતાનો": 2580,
      "ચું": 2581,
      "માળ": 2582,
      "ફિલ્મો": 2583,
      "ઇન્ડિયા": 2584,
      "કોર": 2585,
      "મ્સ": 2586,
      "ચૂંટણીમાં": 2587,
      "રાખો": 2588,
      "અમિત": 2589,
      "આકર્": 2590,
      "ઓનું": 2591,
      "ધોરણ": 2592,
      "મિનિટ": 2593,
      "નાણાં": 2594,
      "હાર્દિ": 2595,
      "આપશે": 2596,
      "સરકારની": 2597,
      "થોડી": 2598,
      "એજન્સી": 2599,
      "તાથી": 2600,
      "કોએ": 2601,
      "જનક": 2602,
      "વાહનો": 2603,
      "દારી": 2604,
      "સ્માર્ટ": 2605,
      "ભૂમિકા": 2606,
      "વિશા": 2607,
      "બોલી": 2608,
      "પિત": 2609,
      "એપ": 2610,
      "કમિશન": 2611,
      "સામગ્રી": 2612,
      "આગે": 2613,
      "સરકારના": 2614,
      "નિવેદન": 2615,
      "ફ્રા": 2616,
      "ધીમે": 2617,
      "ત્કા": 2618,
      "શરીર": 2619,
      "તબી": 2620,
      "ગરમ": 2621,
      "શંકા": 2622,
      "રાજા": 2623,
      "પાડી": 2624,
      "કેન્દ્રીય": 2625,
      "ખસે": 2626,
      "પુરુષ": 2627,
      "પોલીસને": 2628,
      "ચોક": 2629,
      "સરે": 2630,
      "વેબ": 2631,
      "કારણો": 2632,
      ".\"": 2633,
      "તૂ": 2634,
      "ફિક": 2635,
      "બિલ્": 2636,
      "વશે": 2637,
      "કરાવી": 2638,
      "રીને": 2639,
      "સંસ્": 2640,
      "વિકેટ": 2641,
      "ડાના": 2642,
      "વિગતો": 2643,
      "જલ": 2644,
      "આપવાની": 2645,
      "ઓપરે": 2646,
      "૨૧": 2647,
      "આતંક": 2648,
      "અલ્": 2649,
      "છોકરી": 2650,
      "ભોજન": 2651,
      "આંગ": 2652,
      "હજી": 2653,
      "રોની": 2654,
      "સ્થિતિમાં": 2655,
      "ઝર": 2656,
      "પંજા": 2657,
      "જેટલી": 2658,
      "અટકા": 2659,
      "અમુક": 2660,
      "શકા": 2661,
      "પૂજા": 2662,
      "ફાઇ": 2663,
      "અંતર્": 2664,
      "ંપ": 2665,
      "ડીઝ": 2666,
      "૨૫": 2667,
      "માથા": 2668,
      "યાં": 2669,
      "પાઠ": 2670,
      "હાઉ": 2671,
      "યાર": 2672,
      "સુપ્રીમ": 2673,
      "ચન": 2674,
      "શરુ": 2675,
      "લોકપ્રિય": 2676,
      "બન્યા": 2677,
      "ધ્ધ": 2678,
      "અમને": 2679,
      "બચ": 2680,
      "સીસી": 2681,
      "નાગરિ": 2682,
      "બાંધ": 2683,
      "ઈએ": 2684,
      "દંડ": 2685,
      "તાના": 2686,
      "ડના": 2687,
      "માધ્ય": 2688,
      "તાની": 2689,
      "સંચાલ": 2690,
      "નીકળ": 2691,
      "સોમવારે": 2692,
      "રૂપાણી": 2693,
      "દુર્": 2694,
      "હેલ્": 2695,
      "પ્રમાણમાં": 2696,
      "શભાઈ": 2697,
      "શખ્": 2698,
      "જીવનમાં": 2699,
      "અંતર્ગત": 2700,
      "એની": 2701,
      "રીયા": 2702,
      "પ્રવાસ": 2703,
      "તેમનો": 2704,
      "કહેવું": 2705,
      "પહોંચ્યા": 2706,
      "અનુભવ": 2707,
      "કપૂર": 2708,
      "દીધા": 2709,
      "મૂકી": 2710,
      "દેશની": 2711,
      "વિદેશી": 2712,
      "સમયથી": 2713,
      "તને": 2714,
      "લને": 2715,
      "ટ્રાન્સ": 2716,
      "અટ": 2717,
      "મિત્ર": 2718,
      "દમ": 2719,
      "મુશ્કેલ": 2720,
      "સપ્ટેમ્બર": 2721,
      "સાબિત": 2722,
      "પાટ": 2723,
      "જાણે": 2724,
      "ફેબ્રુ": 2725,
      "વસ્તુઓ": 2726,
      "લોકડાઉન": 2727,
      "વેચ": 2728,
      "કોર્ડ": 2729,
      "યુવાન": 2730,
      "બાળકોને": 2731,
      "કારાત્મક": 2732,
      "નામે": 2733,
      "નેત્રી": 2734,
      "ભાષા": 2735,
      "કલાકમાં": 2736,
      "કલી": 2737,
      "આવું": 2738,
      "તેમનું": 2739,
      "વમાં": 2740,
      "જવાનો": 2741,
      "ભગવાન": 2742,
      "વારં": 2743,
      "અભિનેત્રી": 2744,
      "લેક્": 2745,
      "પોતાનું": 2746,
      "or": 2747,
      "કંપનીઓ": 2748,
      "યી": 2749,
      "૨૪": 2750,
      "ફેબ્રુઆરી": 2751,
      "વારી": 2752,
      "બધું": 2753,
      "રજા": 2754,
      "શને": 2755,
      "જીલ્લા": 2756,
      "ક્ષિત": 2757,
      "પહેર": 2758,
      "ક્રિય": 2759,
      "ગમ": 2760,
      "કરતો": 2761,
      "તાને": 2762,
      "મ્પિ": 2763,
      "વારંવાર": 2764,
      "નાય": 2765,
      "તામાં": 2766,
      "ઉમેદ": 2767,
      "લક્ષણો": 2768,
      "જઇ": 2769,
      "દૃ": 2770,
      "ઉંમર": 2771,
      "નામાં": 2772,
      "રહેવા": 2773,
      "સપ્તાહ": 2774,
      "23": 2775,
      "અક્ષ": 2776,
      "ધં": 2777,
      "કેર": 2778,
      "દીધું": 2779,
      "મતદાન": 2780,
      "મ્યુનિ": 2781,
      "મકા": 2782,
      "કરેલ": 2783,
      "ધૂ": 2784,
      "સ્ત્ર": 2785,
      "મર્યા": 2786,
      "સપાટી": 2787,
      "સુપર": 2788,
      "તારીખ": 2789,
      "ગુજરાતી": 2790,
      "સદી": 2791,
      "યુવાનો": 2792,
      "કદા": 2793,
      "મારો": 2794,
      "સિદ્ધ": 2795,
      "આંકડા": 2796,
      "સંપર્ક": 2797,
      "બાઇ": 2798,
      "ચેર": 2799,
      "શીલ": 2800,
      "ગણતરી": 2801,
      "વર્ક": 2802,
      "ફાળ": 2803,
      "લાગણી": 2804,
      "કલ્": 2805,
      "સંબંધિત": 2806,
      "બજારમાં": 2807,
      "વ્યવહાર": 2808,
      "વહી": 2809,
      "કહ્યુ": 2810,
      "વિષ્ય": 2811,
      "પ્રત્યે": 2812,
      "મેડિકલ": 2813,
      "ભવિષ્ય": 2814,
      "કહેવાય": 2815,
      "સાહ": 2816,
      "કરાયો": 2817,
      "ઓક્ટો": 2818,
      "ળના": 2819,
      "પ્રશ્ન": 2820,
      "અદા": 2821,
      "કોના": 2822,
      "રાખીને": 2823,
      "કઈ": 2824,
      "દીકરી": 2825,
      "ખાલી": 2826,
      "વર્તન": 2827,
      "એસટી": 2828,
      "ચક": 2829,
      "મુંબઇ": 2830,
      "રજૂઆત": 2831,
      "શર્મા": 2832,
      "વાતો": 2833,
      "મોબાઈ": 2834,
      "પટેલે": 2835,
      "ત્યા": 2836,
      "ડિસેમ્બર": 2837,
      "રક્ષણ": 2838,
      "માસ્ક": 2839,
      "બુક": 2840,
      "રીઝ": 2841,
      "એટલું": 2842,
      "60": 2843,
      "ઓસ્ટ્રે": 2844,
      "બજેટ": 2845,
      "મુસ્": 2846,
      "ન્ડર": 2847,
      "ઘન": 2848,
      "તહે": 2849,
      "લોન": 2850,
      "સેક્સ": 2851,
      "સ્ટાર": 2852,
      "વર્તમા": 2853,
      "ઘટી": 2854,
      "ડ્રે": 2855,
      "વય": 2856,
      "લામાં": 2857,
      "વેસ્ટ": 2858,
      "આશરે": 2859,
      "દના": 2860,
      "લેક": 2861,
      "ફેરફાર": 2862,
      "ફાયર": 2863,
      "નામના": 2864,
      "રેકોર્ડ": 2865,
      "બનશે": 2866,
      "કદાચ": 2867,
      "પેટ્રોલ": 2868,
      "તેઓએ": 2869,
      "જથ્": 2870,
      "ણાં": 2871,
      "બારી": 2872,
      "બેડ": 2873,
      "સ્તર": 2874,
      "ડિગ્રી": 2875,
      "પેટ": 2876,
      "ટ્વી": 2877,
      "અતિ": 2878,
      "બળા": 2879,
      "રું": 2880,
      "વિષય": 2881,
      "પદ્ધ": 2882,
      "ભાગમાં": 2883,
      "ગ્રસ્ત": 2884,
      "ફેસ": 2885,
      "સ્થાને": 2886,
      "આક્ષે": 2887,
      "સવાલ": 2888,
      "કેન્સર": 2889,
      "જોર": 2890,
      "ખરેખર": 2891,
      "સમજ": 2892,
      "ડોઝ": 2893,
      "સામાજિક": 2894,
      "સ્પી": 2895,
      "સંભાવના": 2896,
      "ળામાં": 2897,
      "ધર્": 2898,
      "એકવાર": 2899,
      "આંદોલન": 2900,
      "શાકભા": 2901,
      "ટમેન્ટ": 2902,
      "ઉમેદવાર": 2903,
      "28": 2904,
      "કાઢી": 2905,
      "સાંસદ": 2906,
      "કોમ": 2907,
      "ધમકી": 2908,
      "જમ્": 2909,
      "દેવી": 2910,
      "લિયન": 2911,
      "બદલી": 2912,
      "કાંઠા": 2913,
      "પદ્ધતિ": 2914,
      "બંગા": 2915,
      "માનવ": 2916,
      "ગોમાં": 2917,
      "સિસ્ટમ": 2918,
      "અત્યારે": 2919,
      "પન": 2920,
      "વાતચીત": 2921,
      "26": 2922,
      "ળમાં": 2923,
      "કાર્યો": 2924,
      "રૂમ": 2925,
      "પ્રોડ": 2926,
      "બેઠકો": 2927,
      "મહત્વપૂર્ણ": 2928,
      "ડાની": 2929,
      "ટિક": 2930,
      "શકી": 2931,
      "લેતા": 2932,
      "બીજ": 2933,
      "ટિસ": 2934,
      "બિઝને": 2935,
      "મહિલાઓ": 2936,
      "જ્ઞાન": 2937,
      "દિવસોમાં": 2938,
      "નવેમ્બર": 2939,
      "૪૦": 2940,
      "ચાં": 2941,
      "એકાઉન્ટ": 2942,
      "વૃક્ષ": 2943,
      "સંજય": 2944,
      "કર્મચારીઓ": 2945,
      "પ્રશ્નો": 2946,
      "શનમાં": 2947,
      "પ્લાન્ટ": 2948,
      "દબાણ": 2949,
      "ડાઈ": 2950,
      "વર્ષીય": 2951,
      ".”": 2952,
      "રમત": 2953,
      "ક્રમ": 2954,
      "કિટ": 2955,
      "સૂર્ય": 2956,
      "રજુ": 2957,
      "માંડ": 2958,
      "જાડે": 2959,
      "પગલાં": 2960,
      "રવિવારે": 2961,
      "કડક": 2962,
      "તાત્કા": 2963,
      "કરાશે": 2964,
      "વવાનો": 2965,
      "યણ": 2966,
      "સાથી": 2967,
      "ખુશ": 2968,
      "en": 2969,
      "ક્સી": 2970,
      "અપી": 2971,
      "વટ": 2972,
      "ચાનક": 2973,
      "જાડેજા": 2974,
      "અચાનક": 2975,
      "ળીને": 2976,
      "ટેલ": 2977,
      "કુદર": 2978,
      "છૂટ": 2979,
      "રં": 2980,
      "સ્ના": 2981,
      "રેડ": 2982,
      "વર્તમાન": 2983,
      "70": 2984,
      "પૃ": 2985,
      "માલિ": 2986,
      "હોવાના": 2987,
      "તસવી": 2988,
      "ઓગસ્ટ": 2989,
      "નર્મ": 2990,
      "ફંડ": 2991,
      "મેરા": 2992,
      "સેન્ટર": 2993,
      "હોવાનો": 2994,
      "શુક્રવારે": 2995,
      "ઈન્ડિયા": 2996,
      "વેપાર": 2997,
      "માનસિક": 2998,
      "ચિત્ર": 2999,
      "ંચે": 3000,
      "રાશ": 3001,
      "ક્કર": 3002,
      "ભારતની": 3003,
      "કબ": 3004,
      "તની": 3005,
      "ધામ": 3006,
      "સ્વીકાર": 3007,
      "ઉપસ્થિત": 3008,
      "ંડો": 3009,
      "સંતો": 3010,
      "મોટાભાગના": 3011,
      "એરપોર્ટ": 3012,
      "ઠ્": 3013,
      "વેરા": 3014,
      "મળતા": 3015,
      "બિલ": 3016,
      "પ્રભા": 3017,
      "પ્રવાસી": 3018,
      "જીની": 3019,
      "અઠવાડિયા": 3020,
      "કાના": 3021,
      "યુદ્ધ": 3022,
      "દુકા": 3023,
      "તબક્કા": 3024,
      "al": 3025,
      "નર્મદા": 3026,
      "જૈ": 3027,
      "સક્રિય": 3028,
      "ત્રીજા": 3029,
      "as": 3030,
      "પાછા": 3031,
      "ટ્રાફિક": 3032,
      "તાપમાન": 3033,
      "વિરા": 3034,
      "ટીમે": 3035,
      "ખોરાક": 3036,
      "દ્રા": 3037,
      "દેખાય": 3038,
      "મુસ્લિ": 3039,
      "કરનારા": 3040,
      "નમ": 3041,
      "રાજી": 3042,
      "લીઝ": 3043,
      "રિઝ": 3044,
      "ગરમી": 3045,
      "ચેક": 3046,
      "2020": 3047,
      "સિવિલ": 3048,
      "ગીર": 3049,
      "બંદર": 3050,
      "બહેન": 3051,
      "ન્સી": 3052,
      "ટીના": 3053,
      "બેઠકમાં": 3054,
      "ફાયદો": 3055,
      "રત": 3056,
      "શકતા": 3057,
      "સર્વે": 3058,
      "પ્રધાનમંત્રી": 3059,
      "સંપૂર્ણપણે": 3060,
      "આથી": 3061,
      "ભ્ર": 3062,
      "ત્રણે": 3063,
      "લગાવી": 3064,
      "હૂ": 3065,
      "2019": 3066,
      "ઇજા": 3067,
      "તિક": 3068,
      "સ્થળો": 3069,
      "2021": 3070,
      "જને": 3071,
      "મરી": 3072,
      "80": 3073,
      "ંગી": 3074,
      "સમજા": 3075,
      "મંત્રાલય": 3076,
      "સંભાળ": 3077,
      "ર્તિ": 3078,
      "કોહ": 3079,
      "કેપ્ટન": 3080,
      "ન્ય": 3081,
      "મુકા": 3082,
      "દ્વાર": 3083,
      "મળીને": 3084,
      "મનાથ": 3085,
      "આતંકી": 3086,
      "જારી": 3087,
      "વિંદ": 3088,
      "તરત": 3089,
      "હવામાન": 3090,
      "માઇ": 3091,
      "ટેલિ": 3092,
      "વધે": 3093,
      "પડ્યો": 3094,
      "વિશાળ": 3095,
      "પમાં": 3096,
      "રાજે": 3097,
      "સાથ": 3098,
      "મોહ": 3099,
      "ફિલ્મમાં": 3100,
      "શનિવારે": 3101,
      "શૈલી": 3102,
      "રદ": 3103,
      "ફોર્": 3104,
      "અબ": 3105,
      "ટ્રેન": 3106,
      "શખ્સો": 3107,
      "દરવા": 3108,
      "સંબંધો": 3109,
      "હાર્દિક": 3110,
      "મોબાઈલ": 3111,
      "ાર્ડ": 3112,
      "બાળકી": 3113,
      "ભલા": 3114,
      "વં": 3115,
      "લોટ": 3116,
      "ચેત": 3117,
      "ઇન્ટ": 3118,
      "માસ": 3119,
      "રાં": 3120,
      "પ્રવૃત્તિ": 3121,
      "પરં": 3122,
      "નિધિ": 3123,
      "લોકોમાં": 3124,
      "અપીલ": 3125,
      "અંબા": 3126,
      "બુધવારે": 3127,
      "એજ": 3128,
      "ફર્": 3129,
      "રવ": 3130,
      "રાય": 3131,
      "દિવાળી": 3132,
      "ખાતરી": 3133,
      "દરરોજ": 3134,
      "શોક": 3135,
      "મદદથી": 3136,
      "સાંભળ": 3137,
      "નવો": 3138,
      "ડેટા": 3139,
      "કૃત": 3140,
      "ગ્રુ": 3141,
      "ગર્ભ": 3142,
      "કિસ્સામાં": 3143,
      "27": 3144,
      "નેતાઓ": 3145,
      "મશી": 3146,
      "પથ": 3147,
      "ભરી": 3148,
      "પાક": 3149,
      "ંગના": 3150,
      "સરકારને": 3151,
      "હિન્દુ": 3152,
      "સેટ": 3153,
      "જુલાઈ": 3154,
      "એપ્રિલ": 3155,
      "વાગ્ય": 3156,
      "્રો": 3157,
      "સ્ત્રો": 3158,
      "પામ": 3159,
      "પાણીની": 3160,
      "અલી": 3161,
      "દઈએ": 3162,
      "હદ": 3163,
      "ન્ના": 3164,
      "પુલ": 3165,
      "કલમ": 3166,
      "ત્વચા": 3167,
      "રસો": 3168,
      "વિપક્ષ": 3169,
      "હેતુ": 3170,
      "તોને": 3171,
      "માણસ": 3172,
      "ફાયદા": 3173,
      "શ્યક": 3174,
      "સંદર્": 3175,
      "સોલ": 3176,
      "વિભાગના": 3177,
      "મેચમાં": 3178,
      "પરંપરા": 3179,
      "ઘી": 3180,
      "વિસ": 3181,
      "વિધિ": 3182,
      "પુત્રી": 3183,
      "લક્ષ્": 3184,
      "કોહલી": 3185,
      "વાગ્યે": 3186,
      "વર્ણ": 3187,
      "પ્સ": 3188,
      "જૂનાગઢ": 3189,
      "ખેડૂત": 3190,
      "જમ્મુ": 3191,
      "બેસી": 3192,
      "ફ્રી": 3193,
      "થતો": 3194,
      "ક્ષી": 3195,
      "ગુરૂ": 3196,
      "સર્ચ": 3197,
      "એટલા": 3198,
      "હોમ": 3199,
      "પીએસ": 3200,
      "પકડી": 3201,
      "આંખો": 3202,
      "મંગળવારે": 3203,
      "એસો": 3204,
      "શભાઇ": 3205,
      "બીમારી": 3206,
      "પુરી": 3207,
      "દોષ": 3208,
      "આધારિત": 3209,
      "સન્માન": 3210,
      "કાયદેસર": 3211,
      "બૉ": 3212,
      "સરો": 3213,
      "સુના": 3214,
      "પ્રાણી": 3215,
      "નિયમિત": 3216,
      "સ્વરૂપ": 3217,
      "તાએ": 3218,
      "ડીયો": 3219,
      "તાલુકામાં": 3220,
      "35": 3221,
      "ધારી": 3222,
      "ઓસ્ટ્રેલિયા": 3223,
      "ઈજા": 3224,
      "માનો": 3225,
      "દરિયા": 3226,
      "ભૂલ": 3227,
      "મહાન": 3228,
      "કૃષિ": 3229,
      "નાણાકીય": 3230,
      "જમી": 3231,
      "૨૨": 3232,
      "મોટું": 3233,
      "સ્ટેટ": 3234,
      "ક્યારેક": 3235,
      "ઉના": 3236,
      "વાં": 3237,
      "ચલ": 3238,
      "મોકલી": 3239,
      "એકબીજા": 3240,
      "પ્લેટ": 3241,
      "ગોઠ": 3242,
      "નિષ્ફળ": 3243,
      "નોલોજી": 3244,
      "જેઓ": 3245,
      "અકસ્માત": 3246,
      "િંગ": 3247,
      "શ્વાસ": 3248,
      "આંખ": 3249,
      "પત્તિ": 3250,
      "29": 3251,
      "બાઇલ": 3252,
      "કિશો": 3253,
      "અભિયાન": 3254,
      "આના": 3255,
      "મોબાઇલ": 3256,
      "સરખા": 3257,
      "અમરેલી": 3258,
      "વકી": 3259,
      "રાત્રી": 3260,
      "માટેના": 3261,
      "તરણ": 3262,
      "ક્લા": 3263,
      "દિવસની": 3264,
      "ટ્ટી": 3265,
      "ડાયા": 3266,
      "ઉકેલ": 3267,
      "તત્": 3268,
      "વાલી": 3269,
      "પ્રેમી": 3270,
      "ઘણાં": 3271,
      "કડા": 3272,
      "ખિ": 3273,
      "કાળા": 3274,
      "ઓક્ટોબર": 3275,
      "બપોરે": 3276,
      "ક્લિક": 3277,
      "આવશ્યક": 3278,
      "મુક્ત": 3279,
      "મિલ": 3280,
      "પોતાને": 3281,
      "સૂચના": 3282,
      "હૃ": 3283,
      "સંતા": 3284,
      "વસ": 3285,
      "સંગી": 3286,
      "આદ": 3287,
      "તારા": 3288,
      "સીપી": 3289,
      "શોધી": 3290,
      "કર્મી": 3291,
      "માંગણી": 3292,
      "જોખમ": 3293,
      "અસરકાર": 3294,
      "ગણે": 3295,
      "વારો": 3296,
      "પરછ": 3297,
      "હોત": 3298,
      "ટીવ": 3299,
      "ઘાત": 3300,
      "ધરવામાં": 3301,
      "ચેરમેન": 3302,
      "ખત": 3303,
      "ટેક્": 3304,
      "દિલ્હીમાં": 3305,
      "આખા": 3306,
      "ગમે": 3307,
      "બરા": 3308,
      "નાખી": 3309,
      "રેન્": 3310,
      "સ્ટિક": 3311,
      "વારના": 3312,
      "જીતી": 3313,
      "ડિટ": 3314,
      "કરાયું": 3315,
      "ધોની": 3316,
      "નીકળી": 3317,
      "વાતાવરણ": 3318,
      "યાત": 3319,
      "ફૂટ": 3320,
      "સ્પર્ધા": 3321,
      "ઊં": 3322,
      "ચ્યુ": 3323,
      "જતી": 3324,
      "વડી": 3325,
      "નોંધાયો": 3326,
      "ધારાસભ્યો": 3327,
      "ફ્રિ": 3328,
      "અસરકારક": 3329,
      "ઉભી": 3330,
      "જિત": 3331,
      "દસ": 3332,
      "ભાગ્ય": 3333,
      "વ્યક્તિને": 3334,
      "ડ્રગ": 3335,
      "રાવ": 3336,
      "નિયં": 3337,
      "મૂલ્ય": 3338,
      "અફઘા": 3339,
      "કરેલા": 3340,
      "સંકળા": 3341,
      "45": 3342,
      "ફસા": 3343,
      "મોડી": 3344,
      "કરાયા": 3345,
      "ધુનિક": 3346,
      "નિયંત્રણ": 3347,
      "કયા": 3348,
      "કથા": 3349,
      "સફે": 3350,
      "પરિવારના": 3351,
      "ક્ષેત્રમાં": 3352,
      "આરામ": 3353,
      "૨૦૦": 3354,
      "કામો": 3355,
      "પોલિ": 3356,
      "દેહ": 3357,
      "ફ્લો": 3358,
      "થ્થ": 3359,
      "બેન્ક": 3360,
      "સલમાન": 3361,
      "શબ્દો": 3362,
      "દુઃ": 3363,
      "હાથમાં": 3364,
      "અગ્રણી": 3365,
      "ભલામણ": 3366,
      "એમાં": 3367,
      "ઓથી": 3368,
      "કક્ષા": 3369,
      "ન્સિ": 3370,
      "સાથેની": 3371,
      "તકલી": 3372,
      "ઓક્સિ": 3373,
      "દરો": 3374,
      "નામની": 3375,
      "મહેન": 3376,
      "કોર્પોરેશન": 3377,
      "સંકે": 3378,
      "સર્વ": 3379,
      "સ્કૂલ": 3380,
      "અહેવાલ": 3381,
      "આંતરરાષ્ટ્રીય": 3382,
      "ed": 3383,
      "સહી": 3384,
      "રીના": 3385,
      "પર્યા": 3386,
      "સેલ": 3387,
      "સંગ્ર": 3388,
      "મેનેજ": 3389,
      "આકર્ષ": 3390,
      "પજ": 3391,
      "ન્ડે": 3392,
      "સફેદ": 3393,
      "વિદ": 3394,
      "સંબો": 3395,
      "ણીએ": 3396,
      "ત્સા": 3397,
      "પાર્ક": 3398,
      "ૂડ": 3399,
      "જોગ": 3400,
      "દિવસથી": 3401,
      "ખુશી": 3402,
      "કહેવા": 3403,
      "ભાવમાં": 3404,
      "કુદરતી": 3405,
      "નિકો": 3406,
      "જ્યો": 3407,
      "સાણા": 3408,
      "જાતિ": 3409,
      "આવો": 3410,
      "શીખ": 3411,
      "ડિઝાઇન": 3412,
      "ધારો": 3413,
      "સ્ય": 3414,
      "ચોમા": 3415,
      "જોઈને": 3416,
      "ચહેરા": 3417,
      "પડા": 3418,
      "વત્તા": 3419,
      "કેમ્પ": 3420,
      "વધારી": 3421,
      "જેનો": 3422,
      "દુકાન": 3423,
      "પ્રયત્ન": 3424,
      "મજા": 3425,
      "ગ્રામ્ય": 3426,
      "ઓછું": 3427,
      "રૂમમાં": 3428,
      "સંયુક્ત": 3429,
      "ઝડપા": 3430,
      "રમી": 3431,
      "સત્ય": 3432,
      "મોડે": 3433,
      "સમક્ષ": 3434,
      "વ્યૂ": 3435,
      "રૂપિયાની": 3436,
      "ખેડૂતોને": 3437,
      "પિયા": 3438,
      "કચ": 3439,
      "બગ": 3440,
      "વિગત": 3441,
      "બાયો": 3442,
      "બેં": 3443,
      "તમારું": 3444,
      "સ્થાપિત": 3445,
      "હેલ્થ": 3446,
      "છતા": 3447,
      "બનવા": 3448,
      "જાગૃ": 3449,
      "લેવાની": 3450,
      "રિય": 3451,
      "રહેતી": 3452,
      "ગીત": 3453,
      "સૂચ": 3454,
      "સાધનો": 3455,
      "દસ્તા": 3456,
      "પાવર": 3457,
      "બદલા": 3458,
      "શ્રેણી": 3459,
      "ડિયન": 3460,
      "ગોળી": 3461,
      "ધારણ": 3462,
      "ઘરની": 3463,
      "બજા": 3464,
      "ભલે": 3465,
      "હેડ": 3466,
      "હોટ": 3467,
      "ભારતે": 3468,
      "વાયરસના": 3469,
      "વધીને": 3470,
      "31": 3471,
      "પરવાનગી": 3472,
      "કરેલી": 3473,
      "બિહાર": 3474,
      "આપણી": 3475,
      "લત": 3476,
      "સ્કી": 3477,
      "દસ્તાવે": 3478,
      "ટીંગ": 3479,
      "વિચારો": 3480,
      "કલેકટર": 3481,
      "પત": 3482,
      "અધિકાર": 3483,
      "સુરક્ષિત": 3484,
      "હૃદય": 3485,
      "is": 3486,
      "ઉભા": 3487,
      "ક્લિ": 3488,
      "નિષ્ણા": 3489,
      "અજાણ": 3490,
      "ઓફર": 3491,
      "ચારે": 3492,
      "સાહે": 3493,
      "તીવ્ર": 3494,
      "સ્ટોર": 3495,
      "90": 3496,
      "માહોલ": 3497,
      "યેલો": 3498,
      "ગામો": 3499,
      "પગાર": 3500,
      "કાળજી": 3501,
      "બિઝનેસ": 3502,
      "તાત્કાલિક": 3503,
      "ક્યુ": 3504,
      "શખ": 3505,
      "લાગ્યા": 3506,
      "બીજો": 3507,
      "ન્ડસ્ટ્રી": 3508,
      "ક્ષણિક": 3509,
      "યુવક": 3510,
      "સ્કો": 3511,
      "સાઉ": 3512,
      "નોટ": 3513,
      "ત્સવ": 3514,
      "હકીકત": 3515,
      "અત્ય": 3516,
      "નનો": 3517,
      "સણ": 3518,
      "મિશન": 3519,
      "કંઈક": 3520,
      "ર્જી": 3521,
      "રાજકોટમાં": 3522,
      "ધાર્": 3523,
      "કાપી": 3524,
      "ગુલા": 3525,
      "વૃદ્ધિ": 3526,
      "વૈજ્ઞા": 3527,
      "સુનાવણી": 3528,
      "ખં": 3529,
      "ગલ": 3530,
      "વિરૂ": 3531,
      "વેર": 3532,
      "રેજ": 3533,
      "લોહી": 3534,
      "વની": 3535,
      "હટા": 3536,
      "ખોલ": 3537,
      "ભરત": 3538,
      "કપડાં": 3539,
      "ઘૂ": 3540,
      "ભજ": 3541,
      "લોન્ચ": 3542,
      "દિત": 3543,
      "નોંધી": 3544,
      "અંગેની": 3545,
      "સ્પદ": 3546,
      "વિતરણ": 3547,
      "ક્ષમ": 3548,
      "અભિનેતા": 3549,
      "પ્રદેશના": 3550,
      "કૌભા": 3551,
      "પોરબંદર": 3552,
      "આતંકવાદી": 3553,
      "નિયર": 3554,
      "ચેપ": 3555,
      "સીએ": 3556,
      "શિયન": 3557,
      "વવાનું": 3558,
      "પાડવામાં": 3559,
      "વાસ્તવિક": 3560,
      "નજ": 3561,
      "રોએ": 3562,
      "સરદાર": 3563,
      "પાણીમાં": 3564,
      "અત્યંત": 3565,
      "ઊંચા": 3566,
      "ઢો": 3567,
      "ફત": 3568,
      "મથી": 3569,
      "મીના": 3570,
      "સોમનાથ": 3571,
      "રિટી": 3572,
      "કાર્યકરો": 3573,
      "ઓફિસ": 3574,
      "રાઈ": 3575,
      "રેક્ટર": 3576,
      "દિગ્": 3577,
      "સોના": 3578,
      "જવાબદાર": 3579,
      "it": 3580,
      "કોશિ": 3581,
      "સુરતમાં": 3582,
      "આક્ષેપ": 3583,
      "આધુનિક": 3584,
      "તણા": 3585,
      "ભંગ": 3586,
      "ળુ": 3587,
      "વળી": 3588,
      "કેમેરા": 3589,
      "દાસ": 3590,
      "શ્ચિત": 3591,
      "સહિતની": 3592,
      "ic": 3593,
      "લાખો": 3594,
      "ટોક": 3595,
      "જણાવ્યુ": 3596,
      "પ્રેસ": 3597,
      "આત્મ": 3598,
      "ગૂ": 3599,
      "ષ્ય": 3600,
      "ઉપયોગી": 3601,
      "ઉમેર": 3602,
      "લાગ્યો": 3603,
      "ઓછામાં": 3604,
      "પ્રસંગે": 3605,
      "જથ્થો": 3606,
      "મેસે": 3607,
      "દર્શ": 3608,
      "કર્તા": 3609,
      "શબ્દ": 3610,
      "આભાર": 3611,
      "નોંધાવી": 3612,
      "વડે": 3613,
      "સંપત્તિ": 3614,
      "વ્યાજ": 3615,
      "કૃષ્ણ": 3616,
      "વહેલી": 3617,
      "ગુણવત્તા": 3618,
      "ફાર્": 3619,
      "પ્રદેશમાં": 3620,
      "લેશન": 3621,
      "પગલા": 3622,
      "સ્વસ્થ": 3623,
      "ખ્યાત": 3624,
      "બન્યો": 3625,
      "વિકલ્પ": 3626,
      "આયુ": 3627,
      "સક": 3628,
      "કરશો": 3629,
      "ઘણો": 3630,
      "રિયલ": 3631,
      "વ્યક્તિગત": 3632,
      "નારાયણ": 3633,
      "બાબતો": 3634,
      "ધાર્મિક": 3635,
      "તાલીમ": 3636,
      "એકા": 3637,
      "ભવ્ય": 3638,
      "લૉ": 3639,
      "આવેલું": 3640,
      "આપીને": 3641,
      "કૂળ": 3642,
      "એન્જિ": 3643,
      "માર્ગદર્શન": 3644,
      "આખરે": 3645,
      "ખું": 3646,
      "ભિ": 3647,
      "વના": 3648,
      "૬૦": 3649,
      "કાગ": 3650,
      "અંતે": 3651,
      "જવાની": 3652,
      "ભટ્": 3653,
      "માઈ": 3654,
      "પ્રચાર": 3655,
      "ક્વો": 3656,
      "આવતાં": 3657,
      "પ્રતિનિધિ": 3658,
      "વાંચો": 3659,
      "આશ્ર": 3660,
      "શ્રદ્ધા": 3661,
      "કરોડની": 3662,
      "મામલો": 3663,
      "અમેરિકન": 3664,
      "કરાર": 3665,
      "સ્વચ્": 3666,
      "ઠું": 3667,
      "વવું": 3668,
      "પ્રદ": 3669,
      "નામું": 3670,
      "ઓક્સિજન": 3671,
      "ણંદ": 3672,
      "ૃત": 3673,
      "વાયુ": 3674,
      "રાઇ": 3675,
      "ંગ્લેન્ડ": 3676,
      "મર્યાદા": 3677,
      "વટી": 3678,
      "વિદ્યાર્થીઓને": 3679,
      "ઝોન": 3680,
      "ઓલ": 3681,
      "હાં": 3682,
      "ખાને": 3683,
      "ખુલા": 3684,
      "ડ્રો": 3685,
      "મુસ્લિમ": 3686,
      "લક્ષ્મી": 3687,
      "આકાર": 3688,
      "આપો": 3689,
      "હલ": 3690,
      "ભાવે": 3691,
      "શાળી": 3692,
      "બોલિવ": 3693,
      "ઉદ્": 3694,
      "ૈયા": 3695,
      "તેમાંથી": 3696,
      "રિલીઝ": 3697,
      "જુદી": 3698,
      "સિંહે": 3699,
      "અમેરિકાના": 3700,
      "લેશે": 3701,
      "સુરેન્દ્ર": 3702,
      "રહેવું": 3703,
      "ચર્ય": 3704,
      "ફતે": 3705,
      "સંસદ": 3706,
      "જમ": 3707,
      "ઠંડી": 3708,
      "શારી": 3709,
      "વેટ": 3710,
      "પેટ્રો": 3711,
      "બનાવ્યા": 3712,
      "જરૂરિયાત": 3713,
      "શરીરમાં": 3714,
      "નહોતી": 3715,
      "500": 3716,
      "૭૦": 3717,
      "તેવો": 3718,
      "તસવીરો": 3719,
      "રાઉન્ડ": 3720,
      "લોમાં": 3721,
      "સ્ટ્રો": 3722,
      "વાને": 3723,
      "વિડીયો": 3724,
      "બાપુ": 3725,
      "ગોલ્ડ": 3726,
      "ઠેર": 3727,
      "ન્યાય": 3728,
      "કડી": 3729,
      "નાઇ": 3730,
      "સાગર": 3731,
      "દોડ": 3732,
      "કંપનીના": 3733,
      "સ્ટેશનમાં": 3734,
      "એવોર્ડ": 3735,
      "રક્ષા": 3736,
      "સેક": 3737,
      "ટ્રમ્પ": 3738,
      "ગેસ": 3739,
      "દેખાવ": 3740,
      "આગાહી": 3741,
      "સરેરાશ": 3742,
      "પોલીસની": 3743,
      "લોકડાઉ": 3744,
      "ડૂ": 3745,
      "લીધું": 3746,
      "દુષ્": 3747,
      "ભરતી": 3748,
      "જેનાથી": 3749,
      "વેક્સિન": 3750,
      "આશ્": 3751,
      "વાવા": 3752,
      "પ્રકા": 3753,
      "ડેરી": 3754,
      "સંત": 3755,
      "તસવીર": 3756,
      "પીડા": 3757,
      "ચાલે": 3758,
      "૨૩": 3759,
      "જેલ": 3760,
      "કલાકે": 3761,
      "ઈન્ટર": 3762,
      "વિમાન": 3763,
      "અમલ": 3764,
      "અપના": 3765,
      "ગરીબ": 3766,
      "સમીક્ષા": 3767,
      "તલ": 3768,
      "તોડી": 3769,
      "વધતા": 3770,
      "મૂર્તિ": 3771,
      "ઓળખા": 3772,
      "શહેરી": 3773,
      "અપે": 3774,
      "જવામાં": 3775,
      "તમારો": 3776,
      "ડિસ્": 3777,
      "મહેસાણા": 3778,
      "વપરાશ": 3779,
      "અશ્": 3780,
      "રણા": 3781,
      "વૉ": 3782,
      "સહે": 3783,
      "સુધારો": 3784,
      "પાર્ટમેન્ટ": 3785,
      "અવાજ": 3786,
      "મૌ": 3787,
      "લવ": 3788,
      "ોમાં": 3789,
      "પરમાર": 3790,
      "ટોચ": 3791,
      "જૂથ": 3792,
      "ઓછો": 3793,
      "આવ્યુ": 3794,
      "હજારો": 3795,
      "૨૮": 3796,
      "વિંગ": 3797,
      "રીત": 3798,
      "રોગો": 3799,
      "સેસ": 3800,
      "ચાઇ": 3801,
      "દોડી": 3802,
      "ત્રણેય": 3803,
      "આશ્ચર્ય": 3804,
      "બર્": 3805,
      "વરી": 3806,
      "તોડ": 3807,
      "સમજી": 3808,
      "પુરમાં": 3809,
      "કિર્": 3810,
      "કાર્યક્રમો": 3811,
      "ઓનલાઇન": 3812,
      "ઉમ": 3813,
      "લાવી": 3814,
      "રોલ": 3815,
      "તરના": 3816,
      "જુગાર": 3817,
      "તેઓને": 3818,
      "લાંબી": 3819,
      "પરિણામો": 3820,
      "નુકશાન": 3821,
      "વિરાટ": 3822,
      "ગન": 3823,
      "લ્યુ": 3824,
      "રહેલ": 3825,
      "તં": 3826,
      "એકદમ": 3827,
      "બેક": 3828,
      "જનરલ": 3829,
      "કાર્યક્રમમાં": 3830,
      "માલિક": 3831,
      "સીએમ": 3832,
      "સિસ": 3833,
      "શાહી": 3834,
      "મળવા": 3835,
      "શારીરિક": 3836,
      "રમે": 3837,
      "વનાર": 3838,
      "પાઇ": 3839,
      "મુસાફ": 3840,
      "પ્રતિક્રિયા": 3841,
      "કંપનીએ": 3842,
      "ફાઇન": 3843,
      "લાખની": 3844,
      "૨૬": 3845,
      "રેટ": 3846,
      "નિસ્તા": 3847,
      "બાત": 3848,
      "મારું": 3849,
      "સ્વતંત્ર": 3850,
      "ટૂંક": 3851,
      "મસા": 3852,
      "વાણી": 3853,
      "સ્તે": 3854,
      "લીલા": 3855,
      "મુસા": 3856,
      "બાળકને": 3857,
      "ઉત્તમ": 3858,
      "દમાં": 3859,
      "કોઈને": 3860,
      "ક્રેડિટ": 3861,
      "કમિશનર": 3862,
      "સરખામણી": 3863,
      "ટણી": 3864,
      "રક્ત": 3865,
      "સતા": 3866,
      "કૌભાંડ": 3867,
      "99": 3868,
      "લખી": 3869,
      "સમસ્યાઓ": 3870,
      "ડુંગ": 3871,
      "પ્રિયંકા": 3872,
      "અંદાજ": 3873,
      "ગણેશ": 3874,
      "વિદ્યા": 3875,
      "ગારી": 3876,
      "નવું": 3877,
      "મકાન": 3878,
      "હર્ષ": 3879,
      "ર્વ": 3880,
      "લોડ": 3881,
      "ગામની": 3882,
      "હોઇ": 3883,
      "સંજો": 3884,
      "દિન": 3885,
      "લોકોનો": 3886,
      "જાણીતા": 3887,
      "પંજાબ": 3888,
      "વાવાઝો": 3889,
      "36": 3890,
      "પથ્થ": 3891,
      "રશિયા": 3892,
      "ન્શન": 3893,
      "ટોપ": 3894,
      "ચૂક્યા": 3895,
      "કિલોમીટર": 3896,
      "કોમાં": 3897,
      "પ્રભાવ": 3898,
      "મિતા": 3899,
      "રિત": 3900,
      "હિંસા": 3901,
      "જોતા": 3902,
      "ચાર્ય": 3903,
      "ચીફ": 3904,
      "નોંધપાત્ર": 3905,
      "રસીકરણ": 3906,
      "દેશોમાં": 3907,
      "લીપ": 3908,
      "ડીએ": 3909,
      "પરિવારજનો": 3910,
      "મહેનત": 3911,
      "જેલમાં": 3912,
      "ટ્રસ્ટ": 3913,
      "કરાવવા": 3914,
      "સ્થિર": 3915,
      "મહત્ત્વ": 3916,
      "જોડાયેલા": 3917,
      "શંકર": 3918,
      "અનામત": 3919,
      "વરિ": 3920,
      "રીમાં": 3921,
      "રાજસ્થા": 3922,
      "ઉપકરણ": 3923,
      "ગેટ": 3924,
      "કાયદો": 3925,
      "નગરમાં": 3926,
      "પહોંચ્યો": 3927,
      "રોકડ": 3928,
      "તૃત્વ": 3929,
      "ઉત્પાદનો": 3930,
      "આગેવાનો": 3931,
      "તેટ": 3932,
      "થોડો": 3933,
      "વિરોધી": 3934,
      "મિશ્રણ": 3935,
      "ઇતિહા": 3936,
      "રાત્રિ": 3937,
      "પામી": 3938,
      "સ્તરે": 3939,
      "કેસની": 3940,
      "પ્લાન": 3941,
      "શરૂઆતમાં": 3942,
      "આખી": 3943,
      "પ્રશં": 3944,
      "ળીયા": 3945,
      "ઘણીવાર": 3946,
      "લાઇટ": 3947,
      "સમર્થન": 3948,
      "ઉર્ફે": 3949,
      "તકલીફ": 3950,
      "ર્ક": 3951,
      "સેવ": 3952,
      "સંબંધી": 3953,
      "ક્રમે": 3954,
      "પેટા": 3955,
      "કર્ણા": 3956,
      "પરીક્ષણ": 3957,
      "મહત્વનું": 3958,
      "જગ": 3959,
      "વિન": 3960,
      "વિભાગે": 3961,
      "પરના": 3962,
      "પ્રાઇ": 3963,
      "મૃતક": 3964,
      "ચાંદી": 3965,
      "ોને": 3966,
      "સ્ક્રી": 3967,
      "ટીસ": 3968,
      "પીડિ": 3969,
      "ચાહ": 3970,
      "જૂના": 3971,
      "પરિણામે": 3972,
      "લાયન્સ": 3973,
      "કોલેજ": 3974,
      "શાકભાજી": 3975,
      "ઘણું": 3976,
      "વને": 3977,
      "વાડ": 3978,
      "તાલિ": 3979,
      "ખોટી": 3980,
      "પાર્ટીના": 3981,
      "ન્યૂઝ": 3982,
      "ઝુ": 3983,
      "ળની": 3984,
      "સાથેના": 3985,
      "ચામ": 3986,
      "કંઇ": 3987,
      "જૂન": 3988,
      "બ્લેક": 3989,
      "ષી": 3990,
      "૧૦૦": 3991,
      "પાઈ": 3992,
      "બ્રહ્": 3993,
      "દિશામાં": 3994,
      "પણી": 3995,
      "ફોટા": 3996,
      "અંગ્રે": 3997,
      "પૃથ્": 3998,
      "અફઘાનિસ્તા": 3999,
      "આજના": 4000,
      "જેવું": 4001,
      "જામીન": 4002,
      "વ્યકિત": 4003,
      "સ્થાપના": 4004,
      "2018": 4005,
      "જવું": 4006,
      "નારાજ": 4007,
      "જાે": 4008,
      "દોઢ": 4009,
      "પડ્યા": 4010,
      "સમાજના": 4011,
      "સર્જન": 4012,
      "નિવેદ": 4013,
      "ગયેલા": 4014,
      "લીં": 4015,
      "સીટી": 4016,
      "ડોક્ટર": 4017,
      "કરોડો": 4018,
      "2017": 4019,
      "પહોંચે": 4020,
      "પ્રોત્સા": 4021,
      "કવિ": 4022,
      "જાતે": 4023,
      "ટિકિટ": 4024,
      "સમયગાળા": 4025,
      "સાઇટ": 4026,
      "હારી": 4027,
      "રોધ": 4028,
      "વધા": 4029,
      "મ્બરે": 4030,
      "તસ્વી": 4031,
      "તોની": 4032,
      "સંવે": 4033,
      "ડીંગ": 4034,
      "દીકરા": 4035,
      "ટ્રક": 4036,
      "ફેન્સ": 4037,
      "ગુરુવારે": 4038,
      "અશોક": 4039,
      "કામાં": 4040,
      "જેમાંથી": 4041,
      "ષ્ટા": 4042,
      "પેદા": 4043,
      "મહત્યા": 4044,
      "સરળતાથી": 4045,
      "એપ્": 4046,
      "લિસ્ટ": 4047,
      "વૈશ્": 4048,
      "આત્મહત્યા": 4049,
      "ઓનલાઈન": 4050,
      "ટ્વીટ": 4051,
      "અંક": 4052,
      "મચા": 4053,
      "વવી": 4054,
      "ત્રીજી": 4055,
      "જ્જ": 4056,
      "પંથ": 4057,
      "અલબ": 4058,
      "થવું": 4059,
      "હરી": 4060,
      "વિટા": 4061,
      "રેશ": 4062,
      "શિત": 4063,
      "ફોર": 4064,
      "ડ્રાઇ": 4065,
      "પૂછપરછ": 4066,
      "૩૧": 4067,
      "આવ્યાં": 4068,
      "સીન": 4069,
      "ખાંડ": 4070,
      "રાજુ": 4071,
      "યુરો": 4072,
      "સુધીની": 4073,
      "કુશ": 4074,
      "તુલ": 4075,
      "કમાણી": 4076,
      "સરા": 4077,
      "આંતરિક": 4078,
      "પૃથ્વી": 4079,
      "આવવા": 4080,
      "ડીમાં": 4081,
      "પૂરા": 4082,
      "બન્યું": 4083,
      "ચમચી": 4084,
      "ધ્ર": 4085,
      "સ્વાદ": 4086,
      "િયાણા": 4087,
      "પીએ": 4088,
      "મંત્ર": 4089,
      "ફરાર": 4090,
      "શકાશે": 4091,
      "નોને": 4092,
      "રોહિત": 4093,
      "વરસા": 4094,
      "ચૂકી": 4095,
      "મંદિરમાં": 4096,
      "મૃતદેહ": 4097,
      "ંજ": 4098,
      "ળતા": 4099,
      "વસા": 4100,
      "સક્ષમ": 4101,
      "ટેબલ": 4102,
      "સુધાર": 4103,
      "બીજે": 4104,
      "સ્વાગત": 4105,
      "દર્દીઓને": 4106,
      "અમેરિકામાં": 4107,
      "બરાબર": 4108,
      "75": 4109,
      "ંતી": 4110,
      "ઊભા": 4111,
      "ઓટો": 4112,
      "ગું": 4113,
      "ગાઈ": 4114,
      "મિન": 4115,
      "દવાઓ": 4116,
      "નાગરિક": 4117,
      "લાવવા": 4118,
      "ફેશન": 4119,
      "ing": 4120,
      "મહો": 4121,
      "કરું": 4122,
      "રાઠો": 4123,
      "ક્લ": 4124,
      "જાન": 4125,
      "જઈને": 4126,
      "દુનિયામાં": 4127,
      "le": 4128,
      "કાની": 4129,
      "રેખા": 4130,
      "નિમણ": 4131,
      "લ્ટ": 4132,
      "ચાઈ": 4133,
      "રાજસ્થાન": 4134,
      "બોટ": 4135,
      "કલ્યા": 4136,
      "બ્રો": 4137,
      "હાલત": 4138,
      "સચિવ": 4139,
      "બાંધકામ": 4140,
      "અણ": 4141,
      "કાર્યરત": 4142,
      "આંકડો": 4143,
      "ઝર્સ": 4144,
      "મય": 4145,
      "શય": 4146,
      "માંગે": 4147,
      "પ્રવ": 4148,
      "પ્રધા": 4149,
      "દિને": 4150,
      "....": 4151,
      "શૂટિંગ": 4152,
      "આફ્રિ": 4153,
      "બાય": 4154,
      "મોહન": 4155,
      "ત્કાર": 4156,
      "સત્તાવાર": 4157,
      "ર૦": 4158,
      "મંજુ": 4159,
      "બચાવ": 4160,
      "કાશ્મીર": 4161,
      "ઉપાય": 4162,
      "દરવાજા": 4163,
      "અગ": 4164,
      "ચક્ર": 4165,
      "દની": 4166,
      "મુલાકા": 4167,
      "વૈશ્વિક": 4168,
      "આમાં": 4169,
      "હાણ": 4170,
      "મહિને": 4171,
      "વિસ્તારના": 4172,
      "ગઈકાલે": 4173,
      "અલબત્ત": 4174,
      "રસ્તો": 4175,
      "ળું": 4176,
      "વતો": 4177,
      "નેતૃત્વ": 4178,
      "લાસ": 4179,
      "ંદગી": 4180,
      "આઝા": 4181,
      "હથિ": 4182,
      "રીંગ": 4183,
      "કાર્યા": 4184,
      "લ્લે": 4185,
      "યેલું": 4186,
      "જણાવે": 4187,
      "કોરોનાથી": 4188,
      "સર્વિસ": 4189,
      "વિશ્વમાં": 4190,
      "નાયબ": 4191,
      "ધંધા": 4192,
      "ઈન્ટ": 4193,
      "વાર્ષ": 4194,
      "લાની": 4195,
      "કારકિર્": 4196,
      "સેન્ટ": 4197,
      "દેશી": 4198,
      "દાયક": 4199,
      "ઇલેક્": 4200,
      "હમ": 4201,
      "વાયા": 4202,
      "રોજગાર": 4203,
      "ર્ડર": 4204,
      "અમદાવાદના": 4205,
      "સહયોગ": 4206,
      "અર્થે": 4207,
      "કારકિર્દી": 4208,
      "ઊભી": 4209,
      "પવન": 4210,
      "વાડા": 4211,
      "લીન": 4212,
      "નિશ્ચિત": 4213,
      "બનાવો": 4214,
      "ઓપરેશન": 4215,
      "હાઉસ": 4216,
      "મેનેજમેન્ટ": 4217,
      "ch": 4218,
      "રજ": 4219,
      "ષે": 4220,
      "૨૭": 4221,
      "૩૫": 4222,
      "વાલો": 4223,
      "પાડે": 4224,
      "ગાંધીએ": 4225,
      "am": 4226,
      "આણંદ": 4227,
      "જ્ય": 4228,
      "વસ્તી": 4229,
      "૮૦": 4230,
      "હોવું": 4231,
      "એકત્ર": 4232,
      "બેઠા": 4233,
      "થઈને": 4234,
      "એટલી": 4235,
      "ઘાટ": 4236,
      "હિંમત": 4237,
      "ફ્રેન્ડ": 4238,
      "નોટિસ": 4239,
      "વિશિ": 4240,
      "ત્વે": 4241,
      "ખાણ": 4242,
      "વધશે": 4243,
      "ક્ષેત્રે": 4244,
      "નજરે": 4245,
      "અપેક્ષા": 4246,
      "તાલિબા": 4247,
      "32": 4248,
      "om": 4249,
      "તકે": 4250,
      "ભણ": 4251,
      "મલ": 4252,
      "હોવી": 4253,
      "નિરા": 4254,
      "ટીમો": 4255,
      "જૂની": 4256,
      "કોર્ટના": 4257,
      "કપાસ": 4258,
      "માછ": 4259,
      "લીક": 4260,
      "લેશ": 4261,
      "સુશાંત": 4262,
      "જૂર": 4263,
      "પડકાર": 4264,
      "ઘાયલ": 4265,
      "દર્દીઓની": 4266,
      "રસપ્રદ": 4267,
      "ડૉક્ટર": 4268,
      "કલ્યાણ": 4269,
      "જગત": 4270,
      "ઝઘ": 4271,
      "સાહિ": 4272,
      "ટીમાં": 4273,
      "સીટ": 4274,
      "સીના": 4275,
      "ંતર": 4276,
      "સોની": 4277,
      "ગોંડ": 4278,
      "કોરોનાને": 4279,
      "પડતા": 4280,
      "ગુજરાતની": 4281,
      "વલણ": 4282,
      "યાદીમાં": 4283,
      "સોલંકી": 4284,
      "એશન": 4285,
      "છત": 4286,
      "બ્યુ": 4287,
      "વીમા": 4288,
      "મોટર": 4289,
      "ટીની": 4290,
      "શાસ્ત્રી": 4291,
      "મીડિયામાં": 4292,
      "મસ": 4293,
      "ટાઉ": 4294,
      "ત્યાંથી": 4295,
      "કરોડના": 4296,
      "ખેડુ": 4297,
      "એન્ટી": 4298,
      "ટૂંકા": 4299,
      "ડ્રાઈ": 4300,
      "સંગીત": 4301,
      "ંદા": 4302,
      "કૈ": 4303,
      "૨૯": 4304,
      "મેદા": 4305,
      "રેશન": 4306,
      "ટીમના": 4307,
      "ડોક્ટ": 4308,
      "સમુદ્ર": 4309,
      ").": 4310,
      "ંસ": 4311,
      "શ્યા": 4312,
      "નાઈ": 4313,
      "રાની": 4314,
      "કારમાં": 4315,
      "ચર્ચામાં": 4316,
      "અંદાજે": 4317,
      "રાજ્યોમાં": 4318,
      "ટ્વિટર": 4319,
      "કેટલાંક": 4320,
      "સત્ર": 4321,
      "નાનો": 4322,
      "નિશાન": 4323,
      "જીએસટી": 4324,
      "કોંગ્રેસે": 4325,
      "અંતર": 4326,
      "હરિ": 4327,
      "સેક્ટર": 4328,
      "ડાઇ": 4329,
      "પીપ": 4330,
      "સીની": 4331,
      "દિલ": 4332,
      "ફળી": 4333,
      "હનુ": 4334,
      "લેવી": 4335,
      "કરાઇ": 4336,
      "ઘરના": 4337,
      "માસિક": 4338,
      "આપવાનું": 4339,
      "પેપર": 4340,
      "દિવસના": 4341,
      "નજીકના": 4342,
      "કાળમાં": 4343,
      "ચેતવણી": 4344,
      "બચ્ચ": 4345,
      "ર્વે": 4346,
      "સિત": 4347,
      "શાનદાર": 4348,
      "અથ": 4349,
      "પુરવ": 4350,
      "બ્રાન્ડ": 4351,
      "ખુલાસો": 4352,
      "ઓર્": 4353,
      "ટર્": 4354,
      "મુકી": 4355,
      "અધિકારીએ": 4356,
      "સેવાઓ": 4357,
      "કતમાં": 4358,
      "લીયા": 4359,
      "સરપંચ": 4360,
      "ભાજપે": 4361,
      "ઉપયોગમાં": 4362,
      "મહેતા": 4363,
      "બનાવવાની": 4364,
      "રંજન": 4365,
      "કસ્ટ": 4366,
      "ભરે": 4367,
      "કેના": 4368,
      "શોધન": 4369,
      "પ્રેરણા": 4370,
      "વરસાદની": 4371,
      "વલસા": 4372,
      "અક્ષય": 4373,
      "વાર્ષિક": 4374,
      "ov": 4375,
      "યથા": 4376,
      "બાગ": 4377,
      "બેસ": 4378,
      "શામેલ": 4379,
      "મહત્વની": 4380,
      "દુઃખ": 4381,
      "મુસાફરી": 4382,
      "તેણી": 4383,
      "પેશ": 4384,
      "પરિષ": 4385,
      "દિલ્હીઃ": 4386,
      "બચાવવા": 4387,
      "ક્રાઈ": 4388,
      "પ્રોડક્ટ": 4389,
      "માછલી": 4390,
      "પન્ન": 4391,
      "મલ્": 4392,
      "સંશોધન": 4393,
      "મુકેશ": 4394,
      "ન્સમાં": 4395,
      "સંક્રમિત": 4396,
      "તબીબી": 4397,
      "પંડ": 4398,
      "કોનો": 4399,
      "કાબુ": 4400,
      "સમૂ": 4401,
      "મેસેજ": 4402,
      ".'": 4403,
      "વાયું": 4404,
      "છેતર": 4405,
      "જીવી": 4406,
      "શિકાર": 4407,
      "ગ્લો": 4408,
      "પક્ષો": 4409,
      "ફૂડ": 4410,
      "st": 4411,
      "ટ્રિ": 4412,
      "પ્તિ": 4413,
      "દોર": 4414,
      "પક્ષી": 4415,
      "પરેશાન": 4416,
      "તહેવાર": 4417,
      "સંતોષ": 4418,
      "ઇચ્છા": 4419,
      "વાવે": 4420,
      "દાદા": 4421,
      "ટ્રિક": 4422,
      "પેઢી": 4423,
      "મ્પે": 4424,
      "રાખવી": 4425,
      "પ્લાસ્ટિક": 4426,
      "કોન્ટ્રા": 4427,
      "સંભવિત": 4428,
      "સાબર": 4429,
      "બેગ": 4430,
      "સિડ": 4431,
      "રંગો": 4432,
      "આજથી": 4433,
      "રોકાણકારો": 4434,
      "સંકેત": 4435,
      "ડબલ": 4436,
      "લહેર": 4437,
      "લેથી": 4438,
      "ભારતને": 4439,
      "એસપી": 4440,
      "પ્રયાસો": 4441,
      "વ્હી": 4442,
      "સુરેન્દ્રનગર": 4443,
      "અજય": 4444,
      "મેટ": 4445,
      "શાહે": 4446,
      "ડેમ": 4447,
      "એક્ટ્રે": 4448,
      "શખ્સ": 4449,
      "દૈ": 4450,
      "મું": 4451,
      "રજી": 4452,
      "સળ": 4453,
      "છેલ્લી": 4454,
      "રાના": 4455,
      "લેન્": 4456,
      "દીઠ": 4457,
      "સમાપ્ત": 4458,
      "થોડું": 4459,
      "ફૂલ": 4460,
      "જાળવી": 4461,
      "પુનઃ": 4462,
      "ગ્રુપ": 4463,
      "ડુંગળી": 4464,
      "વરિષ્ઠ": 4465,
      "છબી": 4466,
      "કેલા": 4467,
      "પાડવા": 4468,
      "દાહો": 4469,
      "ધાની": 4470,
      "રિલાયન્સ": 4471,
      "પડતી": 4472,
      "મુખ્યત્વે": 4473,
      "ચાલક": 4474,
      "દુકાનો": 4475,
      "મશીન": 4476,
      "ટ્યુ": 4477,
      "રક": 4478,
      "જોડાયા": 4479,
      "મંડળ": 4480,
      "સંગ્રહ": 4481,
      "એમ્": 4482,
      "ગાર્ડ": 4483,
      "લાશ": 4484,
      "પ્રસાદ": 4485,
      "રાખવું": 4486,
      "નિર્દેશ": 4487,
      "રાજ્યની": 4488,
      "એન્ટ્રી": 4489,
      "રોકવા": 4490,
      "ટેકનોલોજી": 4491,
      "ંટી": 4492,
      "સાચી": 4493,
      "શાસન": 4494,
      "ડિજિ": 4495,
      "ફાં": 4496,
      "આપણને": 4497,
      "ચૌધરી": 4498,
      "એસોસિ": 4499,
      "37": 4500,
      "વિજે": 4501,
      "જેવો": 4502,
      "બનાસ": 4503,
      "વુડ": 4504,
      "દર્શાવે": 4505,
      "બીજું": 4506,
      "ઇમ": 4507,
      "ઝિક": 4508,
      "ટુંબ": 4509,
      "વિત્ર": 4510,
      "ડાંગ": 4511,
      "ખાઈ": 4512,
      "પુરૂ": 4513,
      "વ્યાપક": 4514,
      "મ્પ્યુ": 4515,
      "ગ્રાહકો": 4516,
      "લીના": 4517,
      "પીએલ": 4518,
      "સિરીઝ": 4519,
      "શાની": 4520,
      "આપવાનો": 4521,
      "તપાસમાં": 4522,
      "મહત્વના": 4523,
      "ad": 4524,
      "ઇંચ": 4525,
      "ઉતર": 4526,
      "મનમાં": 4527,
      "પાણીના": 4528,
      "માત્રા": 4529,
      "ગણવામાં": 4530,
      "કર્મચારીઓને": 4531,
      "કન્ટે": 4532,
      "પુસ્તક": 4533,
      "યં": 4534,
      "માફ": 4535,
      "સીઝ": 4536,
      "અરવિંદ": 4537,
      "ચુકા": 4538,
      "વળતર": 4539,
      "અજાણ્યા": 4540,
      "કોચ": 4541,
      "હેન્ડ": 4542,
      "આવતો": 4543,
      "એમના": 4544,
      "મારફતે": 4545,
      "ખુલ્લા": 4546,
      "ચલાવી": 4547,
      "મૂકવામાં": 4548,
      "પ્રભાવિત": 4549,
      "થતું": 4550,
      "મતે": 4551,
      "સ્તિ": 4552,
      "લીમાં": 4553,
      "મીએ": 4554,
      "કીટ": 4555,
      "લિટી": 4556,
      "શ્યલ": 4557,
      "પાટીદાર": 4558,
      "વીજળી": 4559,
      "વહીવટી": 4560,
      "ol": 4561,
      "કપા": 4562,
      "દલી": 4563,
      "પ્રભુ": 4564,
      "ચાલો": 4565,
      "જુન": 4566,
      "બનેલી": 4567,
      "બાકીના": 4568,
      "કન્યા": 4569,
      "માગણી": 4570,
      "ગુમાવી": 4571,
      "ઈંચ": 4572,
      "બહા": 4573,
      "સફર": 4574,
      "લોની": 4575,
      "મોટે": 4576,
      "ખેંચ": 4577,
      "એમની": 4578,
      "re": 4579,
      "ઝૂ": 4580,
      "પર્સ": 4581,
      "ભરૂ": 4582,
      "રજિ": 4583,
      "સ્પો": 4584,
      "ટીમને": 4585,
      "પગલું": 4586,
      "પુરુષો": 4587,
      "પવિત્ર": 4588,
      "ળવા": 4589,
      "કેટે": 4590,
      "હોવ": 4591,
      "ટીન": 4592,
      "ટિલ": 4593,
      "ઉમેરો": 4594,
      "બનેલા": 4595,
      "છુપા": 4596,
      "આદિવાસી": 4597,
      "અટક": 4598,
      "ઉડા": 4599,
      "ગઠ": 4600,
      "ટર્સ": 4601,
      "મેટા": 4602,
      "જોડી": 4603,
      "ખાતા": 4604,
      "રાજકારણ": 4605,
      "દેશભરમાં": 4606,
      "ભેદ": 4607,
      "પાકિસ્તાનના": 4608,
      "મધ્યમ": 4609,
      "વધારવા": 4610,
      "ફેસબુક": 4611,
      "ઉતાર": 4612,
      "સફાઈ": 4613,
      "૯૦": 4614,
      "લ્વે": 4615,
      "મીઠું": 4616,
      "ઘટનામાં": 4617,
      "પુરાવા": 4618,
      "લૂંટ": 4619,
      "વર્ષોથી": 4620,
      "હનુમાન": 4621,
      "48": 4622,
      "મધ": 4623,
      "મનુ": 4624,
      "વિવા": 4625,
      "સેલ્": 4626,
      "આવરી": 4627,
      "દ્દ": 4628,
      "ખરીદવા": 4629,
      "ગંધ": 4630,
      "કલેક્ટર": 4631,
      "પ્રસ્તા": 4632,
      "મીઠા": 4633,
      "સોંપ": 4634,
      "પોલીસના": 4635,
      "બંધાર": 4636,
      "સ્ટ્રેશન": 4637,
      "જોરદાર": 4638,
      "પટ": 4639,
      "લભ": 4640,
      "શહી": 4641,
      "વિભા": 4642,
      "પોઇન્ટ": 4643,
      "ઉપચાર": 4644,
      "શક્યા": 4645,
      "કોઇપણ": 4646,
      "ઓફિસર": 4647,
      "આસપાસના": 4648,
      "તેજસ્વી": 4649,
      "એમને": 4650,
      "સામાન": 4651,
      "ગુના": 4652,
      "વ્યસ્ત": 4653,
      "મુદ્દો": 4654,
      "નોંધનીય": 4655,
      "નહોતો": 4656,
      "અબજ": 4657,
      "તત્વો": 4658,
      "જ્યોતિ": 4659,
      "ચોમાસા": 4660,
      "યુગ": 4661,
      "પેન": 4662,
      "ખોટા": 4663,
      "બ્લડ": 4664,
      "શહેરની": 4665,
      "અધિકારીઓએ": 4666,
      "કલાકારો": 4667,
      "રાશિના": 4668,
      "સંસ્કૃતિ": 4669,
      "ભક્": 4670,
      "પ્રવાહ": 4671,
      "સીમા": 4672,
      "ડોના": 4673,
      "પડ્યું": 4674,
      "શાળામાં": 4675,
      "ગ્રહણ": 4676,
      "ટર્ન": 4677,
      "નવાર": 4678,
      "વાણ": 4679,
      "સ્કે": 4680,
      "કેબિ": 4681,
      "તીય": 4682,
      "શાખા": 4683,
      "આવીને": 4684,
      "ચેનલ": 4685,
      "ભેટ": 4686,
      "55": 4687,
      "સાજા": 4688,
      "પ્રમો": 4689,
      "બાંગ્": 4690,
      "વર્ત": 4691,
      "પૂરો": 4692,
      "સ્વપ્": 4693,
      "ટ્વિટ": 4694,
      "લેટર": 4695,
      "તોમાં": 4696,
      "રાજધાની": 4697,
      "સુધીના": 4698,
      "પરિવારને": 4699,
      "પૂરું": 4700,
      "કોન્ફર": 4701,
      "બ્રેક": 4702,
      "ઉઠ": 4703,
      "વાયો": 4704,
      "ડીના": 4705,
      "પ્તા": 4706,
      "છોકરા": 4707,
      "પરિવર્તન": 4708,
      "2016": 4709,
      "ચીનના": 4710,
      "શ્ર્": 4711,
      "મગફળી": 4712,
      "સંગઠન": 4713,
      "સાહેબ": 4714,
      "અખ": 4715,
      "ઇન્ડસ્ટ્રી": 4716,
      "ડતી": 4717,
      "લઘુ": 4718,
      "લાના": 4719,
      "આવનાર": 4720,
      "યુએસ": 4721,
      "શકશો": 4722,
      "ગ્રાઉન્ડ": 4723,
      "માન્યતા": 4724,
      "33": 4725,
      "અવાર": 4726,
      "એક્ટ": 4727,
      "ટકી": 4728,
      "નર્": 4729,
      "સ્ફો": 4730,
      "સીબ": 4731,
      "સોં": 4732,
      "ચ્છે": 4733,
      "ન્દ્રસિંહ": 4734,
      "રાજ્યસભા": 4735,
      "બાંગ્લા": 4736,
      "આકાશ": 4737,
      "ગટ": 4738,
      "સાધન": 4739,
      "હિલ": 4740,
      "દુખા": 4741,
      "બિં": 4742,
      "ધ્યાને": 4743,
      "એક્ટિવ": 4744,
      "ઉમેદવારો": 4745,
      "મરાન": 4746,
      "વિશિષ્ટ": 4747,
      "th": 4748,
      "નબળા": 4749,
      "૪૫": 4750,
      "કરિ": 4751,
      "પ્રયોગ": 4752,
      "પુષ્": 4753,
      "ભૂલી": 4754,
      "લાખથી": 4755,
      "મોદીના": 4756,
      "સુરતના": 4757,
      "સંતુ": 4758,
      "સમૃ": 4759,
      "કામના": 4760,
      "શ્રા": 4761,
      "સ્ટાગ્રામ": 4762,
      "ચકાસ": 4763,
      "રાણી": 4764,
      "કાપ": 4765,
      "વિઝન": 4766,
      "હિસ્સો": 4767,
      "સ્ટાર્": 4768,
      "યુપી": 4769,
      "2014": 4770,
      "રોજગારી": 4771,
      "ભીડ": 4772,
      "જેટલો": 4773,
      "પત્રકાર": 4774,
      "પર્યાવરણ": 4775,
      "ઇચ્છ": 4776,
      "નીચા": 4777,
      "રહ્યુ": 4778,
      "હાઇવે": 4779,
      "શિક્ષક": 4780,
      "રજુઆત": 4781,
      "પ્લેટફોર્મ": 4782,
      "વિરૂદ્ધ": 4783,
      "બટા": 4784,
      "વસૂ": 4785,
      "તાનો": 4786,
      "મેડી": 4787,
      "આવનારા": 4788,
      "બાઇક": 4789,
      "તણાવ": 4790,
      "એનો": 4791,
      "ડ્સ": 4792,
      "સપોર્ટ": 4793,
      "માટી": 4794,
      "પ્રગતિ": 4795,
      "સંકટ": 4796,
      "સીધી": 4797,
      "ચાવડા": 4798,
      "મિંગ": 4799,
      "રાજકો": 4800,
      "ત્યારથી": 4801,
      "ાર્થના": 4802,
      "મોકલવામાં": 4803,
      "વાર્ટર": 4804,
      "ડ્રગ્સ": 4805,
      "સમૂહ": 4806,
      "આહાર": 4807,
      "ઈલ": 4808,
      "કથ": 4809,
      "માન્ડ": 4810,
      "જીને": 4811,
      "ક્ષક": 4812,
      "મીની": 4813,
      "પહેલેથી": 4814,
      "શ્રીલ": 4815,
      "ભ્રષ્ટા": 4816,
      "us": 4817,
      "અત્રે": 4818,
      "આને": 4819,
      "સરી": 4820,
      "સાર્": 4821,
      "માંગો": 4822,
      "સ્વિ": 4823,
      "લાએ": 4824,
      "કરીશું": 4825,
      "ન્ટ્સ": 4826,
      "દોરી": 4827,
      "મંદિરના": 4828,
      "ંટા": 4829,
      "ડ્": 4830,
      "વ્યુ": 4831,
      "વતાં": 4832,
      "સગી": 4833,
      "નાશ": 4834,
      "રેલ્વે": 4835,
      "કોરોનાનો": 4836,
      "ન્સના": 4837,
      "આરોપીઓ": 4838,
      "એપ્લિ": 4839,
      "વજ": 4840,
      "શાસ્ત્ર": 4841,
      "ડિય": 4842,
      "ળાની": 4843,
      "પિંગ": 4844,
      "ગ્રીન": 4845,
      "ગૌરવ": 4846,
      "મહારાષ્ટ્રમાં": 4847,
      "સંઘર્ષ": 4848,
      "સ્માર્ટફોન": 4849,
      "બનાસકાંઠા": 4850,
      "ંદર": 4851,
      "આચાર્ય": 4852,
      "કસર": 4853,
      "રણે": 4854,
      "વિચારી": 4855,
      "ન્ટે": 4856,
      "સીધા": 4857,
      "ઉત્સાહ": 4858,
      "મહાનગરપાલિકા": 4859,
      "બહેનો": 4860,
      "બાંધી": 4861,
      "કારણોસર": 4862,
      "ણની": 4863,
      "પાની": 4864,
      "હિક": 4865,
      "રિસર્ચ": 4866,
      "રહેવાની": 4867,
      "વર્ષનો": 4868,
      "૨૦૧૯": 4869,
      "નવસારી": 4870,
      "વિષે": 4871,
      "નીતિન": 4872,
      "સુવિધાઓ": 4873,
      "ગ્રાહકોને": 4874,
      "સાઉથ": 4875,
      "38": 4876,
      "એશિયા": 4877,
      "રહેતો": 4878,
      "પ્લો": 4879,
      "હોસ્પિટલના": 4880,
      "હાલતમાં": 4881,
      "લક્ષી": 4882,
      "શહેરોમાં": 4883,
      "મેનેજર": 4884,
      "કિશોર": 4885,
      "ડિજિટલ": 4886,
      "અમી": 4887,
      "જયે": 4888,
      "પ્ય": 4889,
      "પ્યુ": 4890,
      "રહો": 4891,
      "માફી": 4892,
      "જેનું": 4893,
      "પેટમાં": 4894,
      "ભરવા": 4895,
      "ફ્ટી": 4896,
      "ભેગા": 4897,
      "પ્લાય": 4898,
      "કપડા": 4899,
      "વિજેતા": 4900,
      "કબ્": 4901,
      "મેક": 4902,
      "વેક્સી": 4903,
      "ગાવી": 4904,
      "ઘટનાની": 4905,
      "પક્ષના": 4906,
      "સ્ત્રીઓ": 4907,
      "માર્કેટમાં": 4908,
      "વાર્તા": 4909,
      "માધ્યમથી": 4910,
      "અટકાય": 4911,
      "દયા": 4912,
      "વહન": 4913,
      "સેનાના": 4914,
      "મ્મદ": 4915,
      "ચીની": 4916,
      "અનુકૂળ": 4917,
      "મહાદેવ": 4918,
      "199": 4919,
      "ati": 4920,
      "પ્રશંસા": 4921,
      "34": 4922,
      "થુ": 4923,
      "લનો": 4924,
      "જીભાઈ": 4925,
      "રૂા": 4926,
      "ધીરે": 4927,
      "દિલીપ": 4928,
      "મહત્તમ": 4929,
      "લાગશે": 4930,
      "દૈનિક": 4931,
      "!!": 4932,
      "વાપર": 4933,
      "માંગી": 4934,
      "રાજીના": 4935,
      "દાતા": 4936,
      "ફેક્ટ": 4937,
      "થવાના": 4938,
      "પ્રાઈ": 4939,
      "કૃપા": 4940,
      "ઠીક": 4941,
      "હરિયાણા": 4942,
      "બતાવી": 4943,
      "આદિત્ય": 4944,
      "અમિતા": 4945,
      "જલ્": 4946,
      "લ્લો": 4947,
      "ન્દ્રા": 4948,
      "ધરાવતી": 4949,
      "વીડિયોમાં": 4950,
      "ખર્ચે": 4951,
      "અનુભવી": 4952,
      "વેપારીઓ": 4953,
      "અનિલ": 4954,
      "ઠ્ઠી": 4955,
      "સંજોગોમાં": 4956,
      "રાઠોડ": 4957,
      "લયે": 4958,
      "શ્યો": 4959,
      "રાણા": 4960,
      "ચેમ્પિ": 4961,
      "તુર": 4962,
      "મળેલી": 4963,
      "પૂરતી": 4964,
      "અપહરણ": 4965,
      "પ્રારંભિક": 4966,
      "ઊંઘ": 4967,
      "વાવેતર": 4968,
      "નીલ": 4969,
      "રાતે": 4970,
      "ભાવો": 4971,
      "ંગો": 4972,
      "પોઈન્ટ": 4973,
      "રહેવાસી": 4974,
      "અરજ": 4975,
      "લગાવ્યો": 4976,
      "પાકિસ્તાની": 4977,
      "બનાવીને": 4978,
      "હળવા": 4979,
      "ઓર્ડર": 4980,
      "સખત": 4981,
      "પામે": 4982,
      "બીએસ": 4983,
      "ળાના": 4984,
      "ભાજપની": 4985,
      "તૂટી": 4986,
      "પાટણ": 4987,
      "પ્રોત્સાહન": 4988,
      "65": 4989,
      "ઇસ": 4990,
      "મહ": 4991,
      "મેગા": 4992,
      "મહિલાને": 4993,
      "અડધા": 4994,
      "દળો": 4995,
      "મસ્": 4996,
      "કરાયેલા": 4997,
      "બાળકોના": 4998,
      "ંકાને": 4999,
      "પદાર્": 5000,
      "હાઈવે": 5001,
      "પરંપરાગત": 5002,
      "સંવેદન": 5003,
      "મ્પ્યુટર": 5004,
      "ac": 5005,
      "ઉઠી": 5006,
      "કતા": 5007,
      "જપ્ત": 5008,
      "થયુ": 5009,
      "સસ્પે": 5010,
      "રોહ": 5011,
      "નિમિ": 5012,
      "સુધારા": 5013,
      "લિન": 5014,
      "યોજાશે": 5015,
      "સંપર્કમાં": 5016,
      "રાજીનામું": 5017,
      "ti": 5018,
      "ઐતિહા": 5019,
      "સજ્જ": 5020,
      "ર્ના": 5021,
      "કેજરી": 5022,
      "પ્રવાહી": 5023,
      "ક્તા": 5024,
      "નિકલ": 5025,
      "લિમિ": 5026,
      "વોટ્સ": 5027,
      "દ્રષ્ટિ": 5028,
      "દિલ્હીના": 5029,
      "લંબ": 5030,
      "તૈયારીઓ": 5031,
      "સાહિત્ય": 5032,
      "બળો": 5033,
      "કાઈ": 5034,
      "મેયર": 5035,
      "સીડી": 5036,
      "આપને": 5037,
      "ધોરણે": 5038,
      "ખુદ": 5039,
      "ચૂકવણી": 5040,
      "ખેલાડીઓ": 5041,
      "આશી": 5042,
      "૭૫": 5043,
      "મેડલ": 5044,
      "ટીએમ": 5045,
      "દીપિ": 5046,
      "થયાં": 5047,
      "માણસો": 5048,
      "પરિવારમાં": 5049,
      "ઉંમ": 5050,
      "શોધવા": 5051,
      "નેટવર્ક": 5052,
      "બાઈક": 5053,
      "જતો": 5054,
      "હડતા": 5055,
      "વિનં": 5056,
      "હેરો": 5057,
      "ડોશી": 5058,
      "ટકાનો": 5059,
      "શુભે": 5060,
      "ફિટ": 5061,
      "જેટલું": 5062,
      "ભૂતપૂર્વ": 5063,
      "પ્રયત્નો": 5064,
      "ચય": 5065,
      "બંગ": 5066,
      "પ્રસાર": 5067,
      "સેવન": 5068,
      "સોફ્ટ": 5069,
      "રાખવાની": 5070,
      "મામલત": 5071,
      "ઝીલેન્ડ": 5072,
      "શરૃ": 5073,
      "નિમણૂ": 5074,
      "ir": 5075,
      "આખો": 5076,
      "ચિક": 5077,
      "નકારાત્મક": 5078,
      "બદ્ધ": 5079,
      "લશ્": 5080,
      "તાવ": 5081,
      "પીઠ": 5082,
      "સરસ": 5083,
      "પ્શન": 5084,
      "સ્વયં": 5085,
      "ઘટનાઓ": 5086,
      "મોદીની": 5087,
      "જેમણે": 5088,
      "વિભાગની": 5089,
      "આંગણ": 5090,
      "અગત્ય": 5091,
      "આક્ર": 5092,
      "પૌ": 5093,
      "પબ્": 5094,
      "હિતે": 5095,
      "મિલિયન": 5096,
      "બીર": 5097,
      "ચેન્": 5098,
      "ઉપરથી": 5099,
      "સંસ્થાઓ": 5100,
      "ગ્રાહક": 5101,
      "વિધાનસભાની": 5102,
      "તબક્કામાં": 5103,
      "શ્યામ": 5104,
      "રાજકોટના": 5105,
      "ભારી": 5106,
      "વાઘે": 5107,
      "બેટ્સ": 5108,
      "સરહદ": 5109,
      "લોકોનું": 5110,
      "મંજૂર": 5111,
      "જિંદગી": 5112,
      "સલામતી": 5113,
      "હિંદુ": 5114,
      "નદીમાં": 5115,
      "એક્ટર": 5116,
      "મહી": 5117,
      "ર્વાદ": 5118,
      "ડાન્સ": 5119,
      "આપઘાત": 5120,
      "્યુલ": 5121,
      "૨૦૧૮": 5122,
      "શિવસેના": 5123,
      "ખસેડવામાં": 5124,
      "રૂપાણીએ": 5125,
      "દ્વારકા": 5126,
      "વકીલ": 5127,
      "સંબોધ": 5128,
      "ઢે": 5129,
      "સન્સ": 5130,
      "પ્રખ્યાત": 5131,
      "હોદ્": 5132,
      "પોઝી": 5133,
      "વધતી": 5134,
      "જિંગ": 5135,
      "ક્યાંક": 5136,
      "હેરાન": 5137,
      "અટકાવવા": 5138,
      "સીસીટીવી": 5139,
      "દસ્તાવેજો": 5140,
      "ભરૂચ": 5141,
      "ભ્રષ્ટાચાર": 5142,
      "PM": 5143,
      "ur": 5144,
      "સ્યો": 5145,
      "સ્મ": 5146,
      "પ્રસિદ્ધ": 5147,
      "જણાવવામાં": 5148,
      "ઠાકોર": 5149,
      "હજારથી": 5150,
      "સ્ટોક": 5151,
      "જાણીએ": 5152,
      "શૈક્ષણિક": 5153,
      "સંદર્ભ": 5154,
      "ઈચ્છા": 5155,
      "એવામાં": 5156,
      "સ્કાર": 5157,
      "પ્રાર્થના": 5158,
      "રોષ": 5159,
      "ત્તી": 5160,
      "ચાલતી": 5161,
      "હકીકતમાં": 5162,
      "ચૌહાણ": 5163,
      "આંગણવાડી": 5164,
      "વિજ્ઞાન": 5165,
      "જેણે": 5166,
      "માટેનો": 5167,
      "ડોર": 5168,
      "બિગ": 5169,
      "ગ્રામજનો": 5170,
      "સંચાલન": 5171,
      "ભવિષ્યમાં": 5172,
      "ડોનાલ્ડ": 5173,
      ".)": 5174,
      "અનો": 5175,
      "આલ્": 5176,
      "ટકો": 5177,
      "નિદાન": 5178,
      "જોયું": 5179,
      "બોટલ": 5180,
      "ફોર્સ": 5181,
      "માર્ક": 5182,
      "વ્યક્તિઓ": 5183,
      "અધિકારીઓને": 5184,
      "મહિનાથી": 5185,
      "રોગચા": 5186,
      "કોર્પોરેટ": 5187,
      "જલ્દી": 5188,
      "ઐતિહાસિક": 5189,
      "ઊંચી": 5190,
      "મમતા": 5191,
      "શલ": 5192,
      "સાડા": 5193,
      "બાલ": 5194,
      "પોષણ": 5195,
      "ટીકા": 5196,
      "સુધીનો": 5197,
      "અભિનંદ": 5198,
      "ફુલ": 5199,
      "બોલાવી": 5200,
      "સવારથી": 5201,
      "નાગરિકો": 5202,
      "સંવેદનશીલ": 5203,
      "રવાના": 5204,
      "િય": 5205,
      "૩૩": 5206,
      "સ્પતિ": 5207,
      "પ્રદાન": 5208,
      "ક્વિ": 5209,
      "જાઓ": 5210,
      "નિત": 5211,
      "આવેદન": 5212,
      "ખુલ": 5213,
      "મુંબઈમાં": 5214,
      "બ્રિજ": 5215,
      "ભટ્ટ": 5216,
      "39": 5217,
      "44": 5218,
      "ST": 5219,
      "આની": 5220,
      "ઉગ્ર": 5221,
      "ગણી": 5222,
      "યહોવા": 5223,
      "રાણ": 5224,
      "ર્ણ": 5225,
      "વેચી": 5226,
      "બાબા": 5227,
      "મોડ": 5228,
      "દીન": 5229,
      "બોક્સ": 5230,
      "નાંખ": 5231,
      "ચોથા": 5232,
      "જવાનું": 5233,
      "ભાજપને": 5234,
      "કુંડ": 5235,
      "મોહમ્મદ": 5236,
      "પદાર્થો": 5237,
      "જટિલ": 5238,
      "કેને": 5239,
      "ડાને": 5240,
      "જુનાગઢ": 5241,
      "રહીને": 5242,
      "પહેલાથી": 5243,
      "મનોજ": 5244,
      "સહન": 5245,
      "અવસાન": 5246,
      "સાઈટ": 5247,
      "અંગ્રેજી": 5248,
      "ફ્યુ": 5249,
      "લડી": 5250,
      "માના": 5251,
      "રાગ": 5252,
      "સ્લા": 5253,
      "સ્પોર્ટ": 5254,
      "લાવવામાં": 5255,
      "પાય": 5256,
      "લીગ": 5257,
      "દાંત": 5258,
      "બેટિંગ": 5259,
      "બ્લા": 5260,
      "ગ્નિ": 5261,
      "ખ્ત": 5262,
      "el": 5263,
      "ચંદ": 5264,
      "લડાઈ": 5265,
      "બાથ": 5266,
      "ગાળો": 5267,
      "ગોળ": 5268,
      "લાઈટ": 5269,
      "લગાવવામાં": 5270,
      "ઉલ્લં": 5271,
      "સલામત": 5272,
      "હૈદરા": 5273,
      "સ્થળોએ": 5274,
      "અંબાણી": 5275,
      "પુરૂષ": 5276,
      "''": 5277,
      "અબ્": 5278,
      "લક": 5279,
      "ક્વાર્ટર": 5280,
      "વોટર": 5281,
      "મંદી": 5282,
      "સમારોહ": 5283,
      "મેળવો": 5284,
      "ફરજિયાત": 5285,
      "સૈન્ય": 5286,
      "સંકળાયેલા": 5287,
      "અથડા": 5288,
      "મુક્તિ": 5289,
      "સિઝ": 5290,
      "ગયાં": 5291,
      "લાગ્યું": 5292,
      "સ્વચ્છ": 5293,
      "વવો": 5294,
      "શની": 5295,
      "વાંકાને": 5296,
      "નિધન": 5297,
      "દેવું": 5298,
      "ણીય": 5299,
      "હાલના": 5300,
      "બેસ્ટ": 5301,
      "બ્લોક": 5302,
      "નિર્ભર": 5303,
      "મહિલાઓને": 5304,
      "પટેલની": 5305,
      "ફટકારી": 5306,
      "વિનંતી": 5307,
      "ઇએ": 5308,
      "ઈરા": 5309,
      "જસ્ટિ": 5310,
      "સાડી": 5311,
      "નિવૃ": 5312,
      "નિપજ": 5313,
      "આપવી": 5314,
      "તેનાં": 5315,
      "પૂર્વે": 5316,
      "આટલી": 5317,
      "અદાલ": 5318,
      "જૈન": 5319,
      "લીંબુ": 5320,
      "એન્ટિ": 5321,
      "તબિ": 5322,
      "માંસ": 5323,
      "ભાવિ": 5324,
      "સિલિ": 5325,
      "લિટર": 5326,
      "વરણમાં": 5327,
      "એમણે": 5328,
      "મૂળભૂત": 5329,
      "વરસાદી": 5330,
      "ઊર્": 5331,
      "હસ્તે": 5332,
      "લ્પો": 5333,
      "સિદ્ધિ": 5334,
      "પુરના": 5335,
      "લાઈફ": 5336,
      "વૃદ્ધ": 5337,
      "ઘટાડવા": 5338,
      "શિક્ષકો": 5339,
      "જોગવાઈ": 5340,
      "મેદાનમાં": 5341,
      "શ્રીલંકા": 5342,
      "અટકાયત": 5343,
      "અમિતાભ": 5344,
      "કતો": 5345,
      "ઘઉં": 5346,
      "જણ": 5347,
      "વેન્ટ": 5348,
      "લીને": 5349,
      "હાનિ": 5350,
      "રાજપૂ": 5351,
      "ભાગની": 5352,
      "ઘટનાસ્થળે": 5353,
      "કૃતિક": 5354,
      "છુટ": 5355,
      "il": 5356,
      "ખર્ચા": 5357,
      "ગડ": 5358,
      "મર્": 5359,
      "લાત": 5360,
      "સંશોધ": 5361,
      "મિક્સ": 5362,
      "પેકે": 5363,
      "્સમાં": 5364,
      "કારણકે": 5365,
      "મિલકત": 5366,
      "પ્રકાશિત": 5367,
      "અરે": 5368,
      "નિવાસ": 5369,
      "આપતાં": 5370,
      "શિપ": 5371,
      "ચોંકા": 5372,
      "ઉપરો": 5373,
      "૨૦૨૦": 5374,
      "આગળની": 5375,
      "જાતને": 5376,
      "ચકચાર": 5377,
      "વૃક્ષો": 5378,
      "સંદર્ભે": 5379,
      "કશન": 5380,
      "ગજ": 5381,
      "જહા": 5382,
      "તદ્": 5383,
      "માગે": 5384,
      "મેઘ": 5385,
      "લેસ": 5386,
      "ટીમમાં": 5387,
      "ગેંગ": 5388,
      "દ્રો": 5389,
      "શ્રમ": 5390,
      "સાયકલ": 5391,
      "વિશ્વના": 5392,
      "ઘોષ": 5393,
      "સમુદાય": 5394,
      "શુભેચ્છા": 5395,
      "ro": 5396,
      "ખડ": 5397,
      "મતિ": 5398,
      "મધુ": 5399,
      "ડેક્સ": 5400,
      "ખેલ": 5401,
      "ધરતી": 5402,
      "દેખાઈ": 5403,
      "ખેડૂતોના": 5404,
      "પ્રવાસીઓ": 5405,
      "ઇરા": 5406,
      "ચમ": 5407,
      "ન્ગ": 5408,
      "વેલા": 5409,
      "જોયા": 5410,
      "કુટુંબ": 5411,
      "પરિવારની": 5412,
      "માંગતા": 5413,
      "ગંગા": 5414,
      "નસ": 5415,
      "સિને": 5416,
      "ત્મા": 5417,
      "ગ્રં": 5418,
      "કામકા": 5419,
      "વવાના": 5420,
      "મહિલાએ": 5421,
      "આરતી": 5422,
      "આંચ": 5423,
      "એપાર્ટમેન્ટ": 5424,
      "થકી": 5425,
      "ભંડો": 5426,
      "વેક": 5427,
      "તોફા": 5428,
      "તબક્": 5429,
      "આકર્ષક": 5430,
      "બાતમી": 5431,
      "બીજેપી": 5432,
      "વલસાડ": 5433,
      "કળ": 5434,
      "કળા": 5435,
      "બરે": 5436,
      "ભરો": 5437,
      "દેશે": 5438,
      "દિષ્ટ": 5439,
      "ટિફિ": 5440,
      "વ્યક્તિની": 5441,
      "છેલ્લાં": 5442,
      "મંત્રાલયે": 5443,
      "મ્યુનિસિ": 5444,
      "પંથકમાં": 5445,
      "દાહોદ": 5446,
      "નૌ": 5447,
      "ભવન": 5448,
      "નારે": 5449,
      "વેદી": 5450,
      "સંરક્ષણ": 5451,
      "ક્ષ્": 5452,
      "ડિઝ": 5453,
      "બોડી": 5454,
      "દર્શકો": 5455,
      "ધિકારી": 5456,
      "બિમારી": 5457,
      "ર્સને": 5458,
      "કંપનીની": 5459,
      "ગર્ભા": 5460,
      "ઉછા": 5461,
      "જરુ": 5462,
      "ઠંડા": 5463,
      "રોકી": 5464,
      "સ્ટ્રા": 5465,
      "પ્પા": 5466,
      "થવાનો": 5467,
      "ભૂકં": 5468,
      "ખ્યાલ": 5469,
      "વડોદરામાં": 5470,
      "શંકાસ્પદ": 5471,
      "મામલતદાર": 5472,
      ".,": 5473,
      "300": 5474,
      "ઊંડા": 5475,
      "જર્મ": 5476,
      "હસ્ત": 5477,
      "વિક્રમ": 5478,
      "હોટલ": 5479,
      "મોડા": 5480,
      "જીએ": 5481,
      "આવતું": 5482,
      "સોનું": 5483,
      "ટ્રલ": 5484,
      "ક્રૂ": 5485,
      "છોડીને": 5486,
      "કંટ્રોલ": 5487,
      "બંધન": 5488,
      "અંગત": 5489,
      "ગ્ને": 5490,
      "લક્ષ્ય": 5491,
      "ચુંટણી": 5492,
      "અસ્તિ": 5493,
      "કદ": 5494,
      "મજ": 5495,
      "યાર્": 5496,
      "કરતું": 5497,
      "સીને": 5498,
      "ગુપ્ત": 5499,
      "પ્પણી": 5500,
      "સામેની": 5501,
      "બેઠે": 5502,
      "૨૦૨૧": 5503,
      "ર્નામેન્ટ": 5504,
      "ટ્યૂ": 5505,
      "તલા": 5506,
      "ફલો": 5507,
      "નોની": 5508,
      "કાબૂ": 5509,
      "વેરિ": 5510,
      "માનવું": 5511,
      "દર્શક": 5512,
      "સમાધાન": 5513,
      "પાણીનો": 5514,
      "ફિલ્મના": 5515,
      "ઠાકરે": 5516,
      "ઘટનાને": 5517,
      "સહકાર": 5518,
      "કાનૂ": 5519,
      "દારોને": 5520,
      "પંચાય": 5521,
      "સવાલો": 5522,
      "યથાવત": 5523,
      "એપ્લિકેશન": 5524,
      "id": 5525,
      "અયો": 5526,
      "રશી": 5527,
      "વલ્લી": 5528,
      "તાપી": 5529,
      "રીની": 5530,
      "જોશી": 5531,
      "સીલ": 5532,
      "રાજનીતિ": 5533,
      "વનસ્પતિ": 5534,
      "રૂપિયાનો": 5535,
      "વાંચવા": 5536,
      "ભાગીદારી": 5537,
      "તબીબો": 5538,
      "જાગૃતિ": 5539,
      "ચકાસણી": 5540,
      "47": 5541,
      "ડવાની": 5542,
      "હૉ": 5543,
      "પાંદ": 5544,
      "ડિસ્ટ": 5545,
      "ન્સની": 5546,
      "અરવલ્લી": 5547,
      "યાદવ": 5548,
      "કાઉન્સિ": 5549,
      "ગેરકાયદેસર": 5550,
      "ફોટોગ્રા": 5551,
      "કોશિશ": 5552,
      "એક્ટ્રેસ": 5553,
      "આજુ": 5554,
      "ચરણ": 5555,
      "ટેલી": 5556,
      "મિર": 5557,
      "સોશ્યલ": 5558,
      "ગ્રો": 5559,
      "થવાનું": 5560,
      "ટ્રેડ": 5561,
      "ટ્રાયલ": 5562,
      "વિચારણા": 5563,
      "પાછલા": 5564,
      "અર્પણ": 5565,
      "ઉઠાવી": 5566,
      "સ્નાન": 5567,
      "દીપિકા": 5568,
      "CB": 5569,
      "કમી": 5570,
      "ભૌ": 5571,
      "૫૦૦": 5572,
      "હિટ": 5573,
      "મંત્રણ": 5574,
      "પાસપોર્ટ": 5575,
      "શાળાના": 5576,
      "નોંધણી": 5577,
      "કચ્છમાં": 5578,
      "તંદુર": 5579,
      "મહોત્સવ": 5580,
      "આઝાદી": 5581,
      "ya": 5582,
      "ઇંગ્લેન્ડ": 5583,
      "ઓપન": 5584,
      "૪૮": 5585,
      "વિસ્ફો": 5586,
      "ત્તે": 5587,
      "રહેતાં": 5588,
      "શોમાં": 5589,
      "સમયસર": 5590,
      "આરટી": 5591,
      "સ્વાદિષ્ટ": 5592,
      "નકલી": 5593,
      "ફિલ્મોમાં": 5594,
      "બળાત્કાર": 5595,
      "ઇતિહાસ": 5596,
      "દહે": 5597,
      "ધના": 5598,
      "વનારા": 5599,
      "હાથે": 5600,
      "લાઇફ": 5601,
      "બાજુમાં": 5602,
      "ક્રાઇમ": 5603,
      "કાશ્મીરમાં": 5604,
      "વધારાની": 5605,
      "પશુપાલન": 5606,
      "\",": 5607,
      "કડ": 5608,
      "કપિ": 5609,
      "દ્યોગ": 5610,
      "મૈ": 5611,
      "મફત": 5612,
      "લખે": 5613,
      "વરા": 5614,
      "મેદાન": 5615,
      "વોટ": 5616,
      "દરખા": 5617,
      "ચેતી": 5618,
      "ફાઉ": 5619,
      "માર્ગો": 5620,
      "અર્જુન": 5621,
      "ગેરકાયદે": 5622,
      "તળાવ": 5623,
      "આશીર્વાદ": 5624,
      "મ્યુનિસિપલ": 5625,
      "અસ્તિત્વ": 5626,
      "શના": 5627,
      "નેગે": 5628,
      "ટેન્": 5629,
      "ભાઈએ": 5630,
      "ખોળ": 5631,
      "ભરના": 5632,
      "ફરીયાદ": 5633,
      "વિકસા": 5634,
      "વિકલ્પો": 5635,
      "મ્પલ": 5636,
      "કમિટી": 5637,
      "વાતાવરણમાં": 5638,
      "ઓવરમાં": 5639,
      "આદમી": 5640,
      "હાંસલ": 5641,
      "ગોંડલ": 5642,
      "શહીદ": 5643,
      "49": 5644,
      "IP": 5645,
      "et": 5646,
      "આદર્શ": 5647,
      "ઓર": 5648,
      "જ્યુ": 5649,
      "ટક્કર": 5650,
      "રશિયન": 5651,
      "૩૬": 5652,
      "કાળી": 5653,
      "પ્રહાર": 5654,
      "જેમને": 5655,
      "કરીના": 5656,
      "પ્લોટ": 5657,
      "શુદ્ધ": 5658,
      "વ્યક્તિએ": 5659,
      "નિર્ણયો": 5660,
      "એલર્ટ": 5661,
      "કલાકાર": 5662,
      "ઉદ્યો": 5663,
      "નહોતા": 5664,
      "રસ્તાઓ": 5665,
      "દૂધની": 5666,
      "સચિન": 5667,
      "ઉલ્લંઘન": 5668,
      "ઊર્જા": 5669,
      "૩૭": 5670,
      "નોમાં": 5671,
      "પ્રતી": 5672,
      "જેક્શન": 5673,
      "શેખ": 5674,
      "બેદર": 5675,
      "ખાના": 5676,
      "રુપિયા": 5677,
      "હુકમ": 5678,
      "ંડુ": 5679,
      "માર્યો": 5680,
      "ઝાલા": 5681,
      "લાયક": 5682,
      "અર્થતંત્ર": 5683,
      "સેકન્ડ": 5684,
      "ચેમ્પિયન": 5685,
      "તદ્દન": 5686,
      "અયોધ્યા": 5687,
      "85": 5688,
      "અભાવ": 5689,
      "શસ્ત્ર": 5690,
      "વાગે": 5691,
      "યાની": 5692,
      "રેસ્ટોર": 5693,
      "લ્ક": 5694,
      "મોડલ": 5695,
      "સુચના": 5696,
      "ખાં": 5697,
      "યોગદાન": 5698,
      "પ્રાંત": 5699,
      "માર્યા": 5700,
      "બાળકોની": 5701,
      "રમતા": 5702,
      "ંધ": 5703,
      "ઉભો": 5704,
      "જરા": 5705,
      "વદ": 5706,
      "તાકાત": 5707,
      "લેબ": 5708,
      "સુત્રો": 5709,
      "શાસ": 5710,
      "ખેત": 5711,
      "મોરબીના": 5712,
      "બિલ્ડિંગ": 5713,
      "iv": 5714,
      "uj": 5715,
      "ઉતરી": 5716,
      "બચી": 5717,
      "બજારો": 5718,
      "કર્સ": 5719,
      "સાવધા": 5720,
      "ન્ટા": 5721,
      "બાબુ": 5722,
      "એકમાત્ર": 5723,
      "પૂજન": 5724,
      "કંટા": 5725,
      "પાર્ટન": 5726,
      "રિપોર્ટમાં": 5727,
      "બચવા": 5728,
      "કંગના": 5729,
      "૩૮": 5730,
      "લેશ્વર": 5731,
      "તોના": 5732,
      "સંદેશ": 5733,
      "ડીઓ": 5734,
      "હાડ": 5735,
      "કીંગ": 5736,
      "ડિરેક્ટર": 5737,
      "પુછ": 5738,
      "ડોકટ": 5739,
      "જણાવાયું": 5740,
      "ખોર": 5741,
      "ભર્યા": 5742,
      "જાહેરમાં": 5743,
      "લેવાનું": 5744,
      "ભરાઈ": 5745,
      "અનાજ": 5746,
      "કિસ્સાઓમાં": 5747,
      "સેન્ટ્રલ": 5748,
      "ડ્રેસ": 5749,
      "તબિયત": 5750,
      "અહી": 5751,
      "તફા": 5752,
      "મચ્છ": 5753,
      "કેલી": 5754,
      "વેલી": 5755,
      "આપવું": 5756,
      "ચીજ": 5757,
      "ફરવા": 5758,
      "સર્જરી": 5759,
      "કેન્દ્રિત": 5760,
      "જગ્યાઓ": 5761,
      "સ્પેશિયલ": 5762,
      "ઝેરી": 5763,
      "ડીઝલ": 5764,
      "ઘટીને": 5765,
      "કાગળ": 5766,
      "અગ્નિ": 5767,
      "ઓપ": 5768,
      "ડને": 5769,
      "નૈ": 5770,
      "મજૂ": 5771,
      "લસણ": 5772,
      "વચ": 5773,
      "કેપ": 5774,
      "કાપડ": 5775,
      "મેટ્રો": 5776,
      "પાવ": 5777,
      "ખામી": 5778,
      "ચ્ચાર": 5779,
      "ખેડા": 5780,
      "જણાવેલ": 5781,
      "મકવા": 5782,
      "ગર્ભાવ": 5783,
      "આવતીકાલે": 5784,
      "ચુકવણી": 5785,
      "બોલિવૂડ": 5786,
      "ઈતિહા": 5787,
      "સગ": 5788,
      "ખાય": 5789,
      "ઉપવાસ": 5790,
      "2015": 5791,
      "નોંધાઈ": 5792,
      "મનોરંજન": 5793,
      "અંતમાં": 5794,
      "વિભાગમાં": 5795,
      "શરીરના": 5796,
      "ઉર્જા": 5797,
      "સોસાયટીમાં": 5798,
      "પંડ્યા": 5799,
      "એસિડ": 5800,
      "ખતરના": 5801,
      "ચર્": 5802,
      "ણના": 5803,
      "કેદ": 5804,
      "કેદી": 5805,
      "કાને": 5806,
      "હોટેલ": 5807,
      "ખેંચી": 5808,
      "કાયમી": 5809,
      "ટ્ટા": 5810,
      "નહોતું": 5811,
      "ગઇકાલે": 5812,
      "હંમેશાં": 5813,
      "કલ્પના": 5814,
      "ખતરનાક": 5815,
      "કહેર": 5816,
      "બળી": 5817,
      "માછી": 5818,
      "વીસ": 5819,
      "જેમા": 5820,
      "મિલના": 5821,
      "ડેવલ": 5822,
      "ટિપ્પણી": 5823,
      "પ્રાપ્તિ": 5824,
      "ફાયરિંગ": 5825,
      "શોધખોળ": 5826,
      "હિન્દી": 5827,
      "માઇક્રો": 5828,
      "કાંત": 5829,
      "પાછી": 5830,
      "વેગ": 5831,
      "શેરી": 5832,
      "નિકાલ": 5833,
      "દાવા": 5834,
      "શોભ": 5835,
      "ભાગરૂપે": 5836,
      "કર્તાઓ": 5837,
      "પટેલના": 5838,
      "આપેલ": 5839,
      "and": 5840,
      "મથકે": 5841,
      "મોંઘ": 5842,
      "દૃષ્ટિ": 5843,
      "એજન્ટ": 5844,
      "ચ્યુઅલ": 5845,
      "ag": 5846,
      "ઇન્સ": 5847,
      "ખાવા": 5848,
      "ખાદ્ય": 5849,
      "પિક": 5850,
      "ચીનની": 5851,
      "કંપનીમાં": 5852,
      "જિયો": 5853,
      "ચરબી": 5854,
      "માતાપિતા": 5855,
      "આવાસ": 5856,
      "શમાં": 5857,
      "દેવે": 5858,
      "આપતી": 5859,
      "જણાય": 5860,
      "કામમાં": 5861,
      "પહેલો": 5862,
      "સ્ટેન્ડ": 5863,
      "તુલના": 5864,
      "મહેન્દ્ર": 5865,
      "આરોપીને": 5866,
      "પાછળથી": 5867,
      "પ્રીમિ": 5868,
      "સંભળા": 5869,
      "સ્નાયુ": 5870,
      "ડાયાબિ": 5871,
      "નય": 5872,
      "લમ": 5873,
      "હકારાત્મક": 5874,
      "માણી": 5875,
      "સાચું": 5876,
      "પ્રકરણ": 5877,
      "બાલા": 5878,
      "લિમ્પિ": 5879,
      "કલર": 5880,
      "ઉત્ત": 5881,
      "આઈએ": 5882,
      "શરીરને": 5883,
      "ભાગ્યે": 5884,
      "પ્રસ્તાવ": 5885,
      "સ્વપ્ન": 5886,
      "લિમિટેડ": 5887,
      "શપથ": 5888,
      "મોલ": 5889,
      "મીણ": 5890,
      "ત્તમ": 5891,
      "ભારતીયો": 5892,
      "અમેરિકી": 5893,
      "લેખિત": 5894,
      "ટ્રાન્સફર": 5895,
      "64": 5896,
      "ચહેરો": 5897,
      "દવે": 5898,
      "દરે": 5899,
      "મતો": 5900,
      "વયે": 5901,
      "નીપજ": 5902,
      "ન્સે": 5903,
      "સીમાં": 5904,
      "સિદ્ધા": 5905,
      "દેશને": 5906,
      "બંધા": 5907,
      "કુમારે": 5908,
      "સ્થાયી": 5909,
      "બાળકના": 5910,
      "જિલ્લાની": 5911,
      "ર્સની": 5912,
      "મળેલ": 5913,
      "ંપતી": 5914,
      "ઈસ": 5915,
      "એમ્બ": 5916,
      "તસ્": 5917,
      "ળિયા": 5918,
      "શન્સ": 5919,
      "છેલ્લે": 5920,
      "સ્ને": 5921,
      "ટેકો": 5922,
      "ભાવી": 5923,
      "હાની": 5924,
      "ષ્ઠા": 5925,
      "જવાના": 5926,
      "પકડા": 5927,
      "કરોડનું": 5928,
      "ચાલતા": 5929,
      "મહિનાની": 5930,
      "બ્રિગે": 5931,
      "ઘેરા": 5932,
      "ગર્ભાવસ્થા": 5933,
      "ઔષ": 5934,
      "પમેન્ટ": 5935,
      "બરો": 5936,
      "૬૫": 5937,
      "વાલે": 5938,
      "લાદ": 5939,
      "પ્રકૃતિ": 5940,
      "રહસ્ય": 5941,
      "ચેન": 5942,
      "બોય": 5943,
      "બિર": 5944,
      "પ્રાચીન": 5945,
      "શકય": 5946,
      "સાંજ": 5947,
      "ત્રાસ": 5948,
      "બનાવ્યો": 5949,
      "પદાર્થ": 5950,
      "ઈન્ડિયન": 5951,
      "સૂત્રોના": 5952,
      "એકાદ": 5953,
      "અભિનંદન": 5954,
      "di": 5955,
      "નૂ": 5956,
      "પદે": 5957,
      "સપ્લાય": 5958,
      "ટેજ": 5959,
      "યાના": 5960,
      "બાહ": 5961,
      "પીસી": 5962,
      "સમાર": 5963,
      "નામનો": 5964,
      "ફ્લે": 5965,
      "રૂપિયાના": 5966,
      "ફળો": 5967,
      "ઇન્ડિયન": 5968,
      "ભુત": 5969,
      "મહારાષ્ટ્રના": 5970,
      "જાગૃત": 5971,
      "દુષ્કર્મ": 5972,
      "ઘ્": 5973,
      "ર્મો": 5974,
      "કિસ્સો": 5975,
      "શ્મા": 5976,
      "ઉમેદવારી": 5977,
      "લોકસભાની": 5978,
      "મોડેલ": 5979,
      "બોલિવૂ": 5980,
      "પથ્થર": 5981,
      "ujar": 5982,
      "કનો": 5983,
      "મલા": 5984,
      "વાળો": 5985,
      "પાયે": 5986,
      "લેણ": 5987,
      "લેષ": 5988,
      "પિંડી": 5989,
      "ચિકિ": 5990,
      "નિર્માતા": 5991,
      "સૂત્ર": 5992,
      "બનીને": 5993,
      "કેસોમાં": 5994,
      "હૈદરાબાદ": 5995,
      "ખતમ": 5996,
      "ગંદ": 5997,
      "વિચિત્ર": 5998,
      "લોને": 5999,
      "એકસાથે": 6000,
      "દિપ": 6001,
      "ગુન્": 6002,
      "કરાય": 6003,
      "પોલીસમાં": 6004,
      "વરસાદના": 6005,
      "જવાબમાં": 6006,
      "બચાવી": 6007,
      "અકસ્માતમાં": 6008,
      "ગૃહમંત્રી": 6009,
      "ધંધો": 6010,
      "માલિકી": 6011,
      "વિટામિન": 6012,
      "અન્": 6013,
      "આચર": 6014,
      "ઉલ": 6015,
      "જર્": 6016,
      "ભવ": 6017,
      "ક્ચર": 6018,
      "પાત": 6019,
      "બાની": 6020,
      "કેટલાય": 6021,
      "પડયો": 6022,
      "મૂકે": 6023,
      "ઉત્સવ": 6024,
      "ઉત્પન્ન": 6025,
      "જીવનની": 6026,
      "પાર્ટીમાં": 6027,
      "છૂટા": 6028,
      "ફેરફારો": 6029,
      "ઇન્ટરનેશનલ": 6030,
      "હાજરીમાં": 6031,
      "પાંડે": 6032,
      "શકીએ": 6033,
      "ap": 6034,
      "એણે": 6035,
      "ક્યા": 6036,
      "નસીબ": 6037,
      "રાકેશ": 6038,
      "કાંડ": 6039,
      "વિલંબ": 6040,
      "રેમ": 6041,
      "લેવલ": 6042,
      "નિકાસ": 6043,
      "બેક્": 6044,
      "સરકારમાં": 6045,
      "ટોળા": 6046,
      "ગતું": 6047,
      "વ્યાપી": 6048,
      "યોજનાઓ": 6049,
      "un": 6050,
      "ગળા": 6051,
      "પત્રો": 6052,
      "બ્યૂ": 6053,
      "યક": 6054,
      "યસ": 6055,
      "શણ": 6056,
      "કિમી": 6057,
      "કિડની": 6058,
      "દુબ": 6059,
      "અમલી": 6060,
      "કહેતા": 6061,
      "પ્રોફે": 6062,
      "નિયંત્ર": 6063,
      "લગ્નની": 6064,
      "શાળાઓ": 6065,
      "ગર્લ": 6066,
      "સર્જાયો": 6067,
      "ફાઉન્ડે": 6068,
      "રત્": 6069,
      "સાધારણ": 6070,
      "નિરી": 6071,
      "ખાતર": 6072,
      "શનના": 6073,
      "કિરણ": 6074,
      "પરિણી": 6075,
      "વ્યક્તિના": 6076,
      "કોંગ્રેસની": 6077,
      "પિતાએ": 6078,
      "કહીને": 6079,
      "ગ્રેડ": 6080,
      "સાંભળી": 6081,
      "દુખાવો": 6082,
      "પોઝીટીવ": 6083,
      "આમંત્રણ": 6084,
      "કૅ": 6085,
      "ફટા": 6086,
      "કર્યાં": 6087,
      "ન્ટી": 6088,
      "સીટો": 6089,
      "સિનિયર": 6090,
      "સ્ટુ": 6091,
      "ડિયમ": 6092,
      "ગ્લાસ": 6093,
      "ચુસ્ત": 6094,
      "ખેડૂતોની": 6095,
      "જાણીતી": 6096,
      "નીકળે": 6097,
      "ઝોનમાં": 6098,
      "દારૂની": 6099,
      "આશંકા": 6100,
      "પહોંચાડી": 6101,
      "બચત": 6102,
      "બેદરકારી": 6103,
      "46": 6104,
      "58": 6105,
      "ઈંગ્લેન્ડ": 6106,
      "ઋતુ": 6107,
      "જશો": 6108,
      "ઝાર": 6109,
      "નફો": 6110,
      "ભક્તિ": 6111,
      "મંત": 6112,
      "સવલ": 6113,
      "ર્ત": 6114,
      "કેરી": 6115,
      "સાની": 6116,
      "નોટો": 6117,
      "પાછો": 6118,
      "લીંગ": 6119,
      "ભાષણ": 6120,
      "શિકા": 6121,
      "ગોર": 6122,
      "હોવાને": 6123,
      "ખુલ્લી": 6124,
      "મહત્વનો": 6125,
      "લાભાર્થી": 6126,
      "ગણાય": 6127,
      "રાંધ": 6128,
      "વૈજ્ઞાનિક": 6129,
      "કણ": 6130,
      "મહુ": 6131,
      "યાએ": 6132,
      "જોષી": 6133,
      "સેક્રે": 6134,
      "હીરો": 6135,
      "વર્તી": 6136,
      "બોલમાં": 6137,
      "ગોલ": 6138,
      "રાખવો": 6139,
      "કરોડથી": 6140,
      "પર્વ": 6141,
      "પત્રમાં": 6142,
      "નીચેના": 6143,
      "ખતરો": 6144,
      "સહીત": 6145,
      "સ્ક્રીન": 6146,
      "ચાહકો": 6147,
      "કેટેગરી": 6148,
      "અસ": 6149,
      "નનું": 6150,
      "બગી": 6151,
      "સપ": 6152,
      "્રી": 6153,
      "વિનો": 6154,
      "લીટર": 6155,
      "માટેનું": 6156,
      "સંયો": 6157,
      "લોકોનાં": 6158,
      "મૂડી": 6159,
      "સાંસ": 6160,
      "સમાજમાં": 6161,
      "મુદ્દામાલ": 6162,
      "વેબસાઇટ": 6163,
      "400": 6164,
      "ઊંચ": 6165,
      "કટોક": 6166,
      "શૌ": 6167,
      "સ્ક્રિ": 6168,
      "ક્લો": 6169,
      "પાના": 6170,
      "લીડ": 6171,
      "હોળી": 6172,
      "જોવામાં": 6173,
      "સંચા": 6174,
      "ખોટું": 6175,
      "ફિલ્મની": 6176,
      "આર્ય": 6177,
      "અભિષે": 6178,
      "વિશ્વની": 6179,
      "સ્પષ્ટતા": 6180,
      "ફુટ": 6181,
      "આંગળી": 6182,
      "વયના": 6183,
      "દરખાસ્ત": 6184,
      "રેસ્ટોરન્ટ": 6185,
      "અપડે": 6186,
      "દળ": 6187,
      "શનો": 6188,
      "લાભો": 6189,
      "કાચ": 6190,
      "એકલા": 6191,
      "ટિકલ": 6192,
      "પડતો": 6193,
      "અનુમાન": 6194,
      "સર્કલ": 6195,
      "બદલાઈ": 6196,
      "ગ્ગા": 6197,
      "વાયરસની": 6198,
      "ફ્રન્ટ": 6199,
      "પરિસ્થિતિમાં": 6200,
      "મુશ્કેલીઓ": 6201,
      "ષ્ણુ": 6202,
      "પુસ્તકો": 6203,
      "ખંભા": 6204,
      "ગાઈડ": 6205,
      "પબ્લિક": 6206,
      "આનો": 6207,
      "કઇ": 6208,
      "કવર": 6209,
      "ગટર": 6210,
      "ટં": 6211,
      "ડબ્": 6212,
      "દંપતી": 6213,
      "ભયા": 6214,
      "વલ્": 6215,
      "સામાં": 6216,
      "પ્રવા": 6217,
      "વેકેશન": 6218,
      "યોજવામાં": 6219,
      "ગ્રહો": 6220,
      "શિક": 6221,
      "બોલે": 6222,
      "સૂચિ": 6223,
      "મદદરૂપ": 6224,
      "ક્ષેત્રો": 6225,
      "ફિલ્મનું": 6226,
      "ઘેર": 6227,
      "કૉંગ્રે": 6228,
      "પુરવઠા": 6229,
      "અબ્દુ": 6230,
      "72": 6231,
      "આયાત": 6232,
      "ઉતારી": 6233,
      "વરે": 6234,
      "ૂપ": 6235,
      "સ્કોર": 6236,
      "સાચ": 6237,
      "વિઝા": 6238,
      "પાથ": 6239,
      "કરીશ": 6240,
      "જોતાં": 6241,
      "કિસાન": 6242,
      "પ્લ": 6243,
      "કરાવવામાં": 6244,
      "કોંગ્રેસને": 6245,
      "સંસ્કાર": 6246,
      "ધર્મે": 6247,
      "ઉદ્યોગો": 6248,
      "મિલનાડુ": 6249,
      "આય": 6250,
      "તજ": 6251,
      "નાત": 6252,
      "તેજી": 6253,
      "ટીને": 6254,
      "સીઝન": 6255,
      "ચેન્ન": 6256,
      "બોલર": 6257,
      "જુના": 6258,
      "નિર્ધાર": 6259,
      "સ્ટેબલ": 6260,
      "૨૦૧૭": 6261,
      "મામલામાં": 6262,
      "ફૂલો": 6263,
      "આટલા": 6264,
      "ઇન્ટરનેટ": 6265,
      "આનાથી": 6266,
      "મુસાફરો": 6267,
      "કેબિનેટ": 6268,
      "આગ્રહ": 6269,
      "કશું": 6270,
      "જબર": 6271,
      "બૅ": 6272,
      "રચ": 6273,
      "મિલી": 6274,
      "શનની": 6275,
      "ડેન્ટ": 6276,
      "પ્રકારે": 6277,
      "શરતો": 6278,
      "ટુકડા": 6279,
      "ત્રિવેદી": 6280,
      "મર્યાદિત": 6281,
      "લૉક": 6282,
      "આજુબાજુ": 6283,
      "મકવાણા": 6284,
      "42": 6285,
      "ઉમર": 6286,
      "ઉશ્કે": 6287,
      "ગયુ": 6288,
      "સ્ત્રા": 6289,
      "સ્મૃ": 6290,
      "પરની": 6291,
      "પાકની": 6292,
      "રોટ": 6293,
      "રેક્ટ": 6294,
      "પોલ": 6295,
      "દેતા": 6296,
      "સમર્": 6297,
      "લિશ": 6298,
      "ગીતો": 6299,
      "વર્ષા": 6300,
      "ખેતમ": 6301,
      "ફાસ્ટ": 6302,
      "ફાઇલ": 6303,
      "જયંતિ": 6304,
      "એટલો": 6305,
      "પતિને": 6306,
      "હાઈકોર્ટે": 6307,
      "રિઝર્વ": 6308,
      "દરોડા": 6309,
      "સસ્પેન્ડ": 6310,
      "વોટ્સએપ": 6311,
      "ઈને": 6312,
      "એલા": 6313,
      "ગયેલ": 6314,
      "જયાં": 6315,
      "ઝના": 6316,
      "ણુ": 6317,
      "દલિત": 6318,
      "વસુ": 6319,
      "સનો": 6320,
      "સપના": 6321,
      "સાક્ષી": 6322,
      "રીક્ષા": 6323,
      "ડીપી": 6324,
      "રૂપા": 6325,
      "ખાનની": 6326,
      "આપના": 6327,
      "લિપ": 6328,
      "દિવ્યા": 6329,
      "દુશ્": 6330,
      "ચીને": 6331,
      "પાણીથી": 6332,
      "નગરના": 6333,
      "સ્થિતી": 6334,
      "વરસાદને": 6335,
      "જોડાયેલી": 6336,
      "જોઇને": 6337,
      "આયુર્વે": 6338,
      "કર્ણાટ": 6339,
      "હથિયાર": 6340,
      "ગ્લોબલ": 6341,
      "ભક્તો": 6342,
      "એમ્બ્યુલ": 6343,
      "66": 6344,
      "IC": 6345,
      "અદ": 6346,
      "ઇનિંગ": 6347,
      "ઇંડા": 6348,
      "પચા": 6349,
      "શર્ટ": 6350,
      "સગા": 6351,
      "વિજ": 6352,
      "લ્મિ": 6353,
      "ટ્રેક": 6354,
      "પ્રકારનું": 6355,
      "પાકિસ્તાનની": 6356,
      "રમતો": 6357,
      "લંબા": 6358,
      "અલ્પેશ": 6359,
      "જસ્ટિસ": 6360,
      "કય": 6361,
      "પૉ": 6362,
      "પદ્": 6363,
      "રખા": 6364,
      "લંડ": 6365,
      "લાક્ષણિક": 6366,
      "પ્રસ્તુ": 6367,
      "ટેમ્": 6368,
      "મોને": 6369,
      "ભાઈને": 6370,
      "અમૃત": 6371,
      "મંત્રીએ": 6372,
      "ભૂખ": 6373,
      "કંપનીઓને": 6374,
      "ઝાડ": 6375,
      "પતિએ": 6376,
      "ગામડા": 6377,
      "અપાઈ": 6378,
      "બોર્ડર": 6379,
      "કોલેજો": 6380,
      "ડાયરેક્ટર": 6381,
      "ક્રીમ": 6382,
      "નિષ્ણાતો": 6383,
      "સગીરા": 6384,
      "ભંડોળ": 6385,
      "તફાવત": 6386,
      "નિયંત્રિત": 6387,
      "સેક્રેટરી": 6388,
      "95": 6389,
      "તકો": 6390,
      "યશ": 6391,
      "૩૪": 6392,
      "વાયેલા": 6393,
      "િયાએ": 6394,
      "સીંગ": 6395,
      "મળા": 6396,
      "રાખ્યો": 6397,
      "ભરપૂર": 6398,
      "ઘાટન": 6399,
      "જરૂરિયા": 6400,
      "લાંબો": 6401,
      "દર્દીને": 6402,
      "સ્ટાઇ": 6403,
      "ખેડૂતોએ": 6404,
      "ક્રિકેટર": 6405,
      "સમાજની": 6406,
      "હાર્ટ": 6407,
      "લંબાઈ": 6408,
      "પહેલીવાર": 6409,
      "સંકલ્પ": 6410,
      "મૂલ્યાં": 6411,
      "સાવચેતી": 6412,
      "દુર્ઘટના": 6413,
      "ચારેય": 6414,
      "સ્મૃતિ": 6415,
      "નમૂ": 6416,
      "લબ": 6417,
      "માઉ": 6418,
      "બેરી": 6419,
      "સીસ": 6420,
      "વધવા": 6421,
      "શનલ": 6422,
      "પેમેન્ટ": 6423,
      "કિનારે": 6424,
      "ાર્ક": 6425,
      "શીટ": 6426,
      "ટકાથી": 6427,
      "મોદીને": 6428,
      "સભામાં": 6429,
      "સહકારી": 6430,
      "બેસીને": 6431,
      "બેક્ટે": 6432,
      "નેપા": 6433,
      "લાંચ": 6434,
      "પ્રદૂ": 6435,
      "લેવાનો": 6436,
      "એકતા": 6437,
      "ણામાં": 6438,
      "બેઝ": 6439,
      "બેટરી": 6440,
      "ગાડ": 6441,
      "વર્ડ": 6442,
      "ટાટા": 6443,
      "આપવાના": 6444,
      "શોર્ટ": 6445,
      "રાખ્યું": 6446,
      "ચોકી": 6447,
      "ગાંઠ": 6448,
      "યોજાઈ": 6449,
      "દુનિયાના": 6450,
      "વર્ષોમાં": 6451,
      "આકર્ષણ": 6452,
      "રાત્રીના": 6453,
      "વાઘેલા": 6454,
      "અવર": 6455,
      "એકે": 6456,
      "કબૂ": 6457,
      "ચડા": 6458,
      "જક": 6459,
      "ડ્યુ": 6460,
      "સોનાની": 6461,
      "વારથી": 6462,
      "પુષ્ટિ": 6463,
      "ફેંકી": 6464,
      "ચૂંટા": 6465,
      "ભાજપમાં": 6466,
      "રંગી": 6467,
      "ઓફિસમાં": 6468,
      "પંચાયતના": 6469,
      "વાતચીતમાં": 6470,
      "નાગરિકોને": 6471,
      "છેતરપિંડી": 6472,
      "બિંદુ": 6473,
      "કસરત": 6474,
      "બ્લાસ્ટ": 6475,
      "ઉપરોક્ત": 6476,
      "કપિલ": 6477,
      "In": 6478,
      "વાલા": 6479,
      "તેમા": 6480,
      "રિક્ષા": 6481,
      "માનવી": 6482,
      "મતદારો": 6483,
      "વચ્ચેના": 6484,
      "વતન": 6485,
      "બળતરા": 6486,
      "વાસ્તવમાં": 6487,
      "છોકરીઓ": 6488,
      "સપ્તાહમાં": 6489,
      "દ્યોગિક": 6490,
      "સવલતો": 6491,
      "77": 6492,
      "ay": 6493,
      "ઈશ્વર": 6494,
      "ઝું": 6495,
      "માસ્ટર": 6496,
      "વાવ": 6497,
      "રાદ": 6498,
      "રોય": 6499,
      "સંડો": 6500,
      "દાગી": 6501,
      "મુલ": 6502,
      "પેસ્ટ": 6503,
      "પ્ટર": 6504,
      "બંદો": 6505,
      "શિયમ": 6506,
      "કુર": 6507,
      "ફોનમાં": 6508,
      "્સની": 6509,
      "ભર્યું": 6510,
      "ફરિયાદી": 6511,
      "દાયી": 6512,
      "ખુબજ": 6513,
      "વધારાના": 6514,
      "પાઠવી": 6515,
      "કબજો": 6516,
      "અઠવાડિયામાં": 6517,
      "ફાયદાકારક": 6518,
      "નિવેદનમાં": 6519,
      "વાંકાનેર": 6520,
      "બાહ્ય": 6521,
      "43": 6522,
      "અછત": 6523,
      "આજનો": 6524,
      "૫૫": 6525,
      "્રિ": 6526,
      "કોડ": 6527,
      "વિજ્ઞા": 6528,
      "બેંગ": 6529,
      "રિયર": 6530,
      "પેરા": 6531,
      "પ્રાપ્ય": 6532,
      "રૂપમાં": 6533,
      "બ્રી": 6534,
      "મહાત્મા": 6535,
      "જીવનસાથી": 6536,
      "બધાને": 6537,
      "પટેલને": 6538,
      "બનાવની": 6539,
      "ન્યૂઝીલેન્ડ": 6540,
      "કોલકા": 6541,
      "જંગલ": 6542,
      "ess": 6543,
      "વપરાય": 6544,
      "અઢી": 6545,
      "આર્ટ": 6546,
      "ઉઘ": 6547,
      "ઉત": 6548,
      "પટ્ટી": 6549,
      "યજ્ઞ": 6550,
      "….": 6551,
      "તાકી": 6552,
      "લીની": 6553,
      "લોકાર્": 6554,
      "પોર્": 6555,
      "સેલિ": 6556,
      "સોનિયા": 6557,
      "મળતાં": 6558,
      "મંદ": 6559,
      "ગરબા": 6560,
      "રાખંડ": 6561,
      "સમયની": 6562,
      "પ્રેશર": 6563,
      "150": 6564,
      "આજકાલ": 6565,
      "વિરોધમાં": 6566,
      "પૈકીના": 6567,
      "અઠવાડિ": 6568,
      "ચુક્યા": 6569,
      "ફટકાર": 6570,
      "દિગ્ગજ": 6571,
      "સંદર્ભમાં": 6572,
      "of": 6573,
      "અરુ": 6574,
      "ઇઝ": 6575,
      "ઋષિ": 6576,
      "થું": 6577,
      "સકારાત્મક": 6578,
      "૯૮": 6579,
      "’,": 6580,
      "ભાડે": 6581,
      "લોગ": 6582,
      "પૂરે": 6583,
      "વિસ્તૃત": 6584,
      "સ્વામિ": 6585,
      "આપેલા": 6586,
      "ચુકી": 6587,
      "કલાકની": 6588,
      "સ્પીડ": 6589,
      "પામ્યા": 6590,
      "ટેક્નોલોજી": 6591,
      "તસ્વીર": 6592,
      "ક્રાઈમ": 6593,
      "દલીલ": 6594,
      "તંદુરસ્ત": 6595,
      "અત્યા": 6596,
      "ઑફ": 6597,
      "પતા": 6598,
      "સ્કિ": 6599,
      "નોન": 6600,
      "સંવાદ": 6601,
      "ખાતામાં": 6602,
      "આપનાર": 6603,
      "કોઈએ": 6604,
      "ગોવિંદ": 6605,
      "વાતને": 6606,
      "શકું": 6607,
      "સર્વો": 6608,
      "કરોડનો": 6609,
      "સ્થિતિને": 6610,
      "મહેમાનો": 6611,
      "વિદ્યાર્થીઓએ": 6612,
      "અડધી": 6613,
      "કુંભ": 6614,
      "સેન્સેક્સ": 6615,
      "સ્વચ્છતા": 6616,
      "કથિત": 6617,
      "મસ્જિ": 6618,
      "/-": 6619,
      "ઓક": 6620,
      "છિ": 6621,
      "બધુ": 6622,
      "રનની": 6623,
      "વટે": 6624,
      "વંત": 6625,
      "માયા": 6626,
      "વાશે": 6627,
      "પરો": 6628,
      "લોલ": 6629,
      "ટીમની": 6630,
      "ડીની": 6631,
      "િયાના": 6632,
      "પીએફ": 6633,
      "ટ્રસ્ટી": 6634,
      "રહયા": 6635,
      "ગુમ": 6636,
      "યુનિય": 6637,
      "શિલ્": 6638,
      "કેટલું": 6639,
      "અમદાવાદની": 6640,
      "દિલ્હીની": 6641,
      "સાયન્સ": 6642,
      "લગ્નમાં": 6643,
      "પારિ": 6644,
      "કાશ્મીરના": 6645,
      "હુમલામાં": 6646,
      "ભાષામાં": 6647,
      "ગામોમાં": 6648,
      "નેગેટિવ": 6649,
      "લોકાર્પણ": 6650,
      "થનાર": 6651,
      "કોફી": 6652,
      "વિઝ": 6653,
      "નિલ": 6654,
      "િયામાં": 6655,
      "પહેરે": 6656,
      "બરફ": 6657,
      "પોલીસકર્મી": 6658,
      "ચીનમાં": 6659,
      "ચિહ્": 6660,
      "ધારણા": 6661,
      "સિંહો": 6662,
      "પ્રેક્": 6663,
      "ર્સના": 6664,
      "મહેશ": 6665,
      "મોતને": 6666,
      "ધ્ધા": 6667,
      "મુકવામાં": 6668,
      "બંગાળ": 6669,
      "બ્રહ્મ": 6670,
      "પ્રધાને": 6671,
      "કાર્યાલય": 6672,
      "એસોસિએશન": 6673,
      "સોંપવામાં": 6674,
      "પ્રોફેસર": 6675,
      "અસરો": 6676,
      "આરા": 6677,
      "એનું": 6678,
      "દં": 6679,
      "બસ્ત": 6680,
      "સાંક": 6681,
      "કાએ": 6682,
      "મિલિ": 6683,
      "કામદારો": 6684,
      "ધોધ": 6685,
      "પ્રતિમા": 6686,
      "પરીત": 6687,
      "કારોબારી": 6688,
      "ભુજ": 6689,
      "શાકભાજીના": 6690,
      "મુકાબ": 6691,
      "ફાર્મ": 6692,
      "દિનેશ": 6693,
      "ઓડિ": 6694,
      "મકી": 6695,
      "યારો": 6696,
      "લતા": 6697,
      "લડવા": 6698,
      "સસ્તા": 6699,
      "વામા": 6700,
      "નાનક": 6701,
      "છેડા": 6702,
      "છેવટે": 6703,
      "કોમ્": 6704,
      "વિપરીત": 6705,
      "લિંક": 6706,
      "બોમ્બ": 6707,
      "જુલાઇ": 6708,
      "પરિવહન": 6709,
      "અંડર": 6710,
      "બાળો": 6711,
      "દર્દીના": 6712,
      "મનસુખ": 6713,
      "ફરિયાદો": 6714,
      "એક્શન": 6715,
      "પત્રકારો": 6716,
      "આટલું": 6717,
      "88": 6718,
      "ઓલિમ્પિ": 6719,
      "૩૨": 6720,
      "કેમિ": 6721,
      "કેદાર": 6722,
      "ણીની": 6723,
      "બેટ": 6724,
      "મુદ": 6725,
      "સોને": 6726,
      "પેડ": 6727,
      "સ્કૂલમાં": 6728,
      "પહોંચાડ": 6729,
      "સમિતિના": 6730,
      "વેબસાઈટ": 6731,
      "સ્વરૂપમાં": 6732,
      "કમ્": 6733,
      "પનો": 6734,
      "શકિત": 6735,
      "કરના": 6736,
      "તેવામાં": 6737,
      "કોરિયા": 6738,
      "હાલની": 6739,
      "ઇન્સ્ટાગ્રામ": 6740,
      "અભિનય": 6741,
      "સિક્યો": 6742,
      "જાણીને": 6743,
      "પરેશ": 6744,
      "મથક": 6745,
      "આંદોલ": 6746,
      "દૃશ્ય": 6747,
      "મકાનમાં": 6748,
      "ગુરૂવારે": 6749,
      "ઉંમરે": 6750,
      "1000": 6751,
      "ak": 6752,
      "અસામાન્ય": 6753,
      "બારો": 6754,
      "ુક": 6755,
      "૩૯": 6756,
      "રામાં": 6757,
      "સાચા": 6758,
      "કારની": 6759,
      "નિવાર": 6760,
      "નિફ્ટી": 6761,
      "દેપુર": 6762,
      "મિની": 6763,
      "ઉપપ્રમુખ": 6764,
      "ફેંક": 6765,
      "અનુષ્": 6766,
      "બુદ્ધિ": 6767,
      "મહામંત્રી": 6768,
      "રણવીર": 6769,
      "ફ્લ્મિ": 6770,
      "કોંગ્રેસમાં": 6771,
      "નવીન": 6772,
      "બધાં": 6773,
      "મહારાજ": 6774,
      "માર્કેટિંગ": 6775,
      "ચોકડી": 6776,
      "ઉમેર્યું": 6777,
      "ચુકાદો": 6778,
      "બંદોબસ્ત": 6779,
      "જજ": 6780,
      "ટનો": 6781,
      "ટલે": 6782,
      "વચન": 6783,
      "નામો": 6784,
      "રાજીવ": 6785,
      "કાઓ": 6786,
      "જેત": 6787,
      "ભાવિક": 6788,
      "સિઝન": 6789,
      "ટ્રમ્પે": 6790,
      "ટોચના": 6791,
      "ભરૃ": 6792,
      "લાખનો": 6793,
      "દર્દીઓના": 6794,
      "હજારની": 6795,
      "ઘરેથી": 6796,
      "જ્ઞાતિ": 6797,
      "ઘોડા": 6798,
      "ગૌતમ": 6799,
      "ઓળખવામાં": 6800,
      "પ્રત્યેક": 6801,
      "સરખામણીમાં": 6802,
      "આક્રમક": 6803,
      "ઉત્તરાખંડ": 6804,
      "ખેતમજૂરી": 6805,
      "41": 6806,
      "ઔદ્યોગિક": 6807,
      "દઇએ": 6808,
      "નબળી": 6809,
      "પક્ષે": 6810,
      "મમ્": 6811,
      "હસ": 6812,
      "હ્યુ": 6813,
      "ેશ": 6814,
      "૪૭": 6815,
      "વાપરી": 6816,
      "વિદાય": 6817,
      "જાં": 6818,
      "રેન": 6819,
      "શેટ્ટી": 6820,
      "બીમાર": 6821,
      "કેટલો": 6822,
      "અમલમાં": 6823,
      "જયંતી": 6824,
      "નામથી": 6825,
      "આરોપીની": 6826,
      "મુખ્યમંત્રીએ": 6827,
      "કાંઈ": 6828,
      "વાળું": 6829,
      "રૃપિયા": 6830,
      "પાવડર": 6831,
      "મોંઘવારી": 6832,
      "સંચાલિત": 6833,
      "એન્ટર": 6834,
      "મૅ": 6835,
      "સાથો": 6836,
      "પરમ": 6837,
      "વેન્ટિ": 6838,
      "હોસ્પી": 6839,
      "રેસ": 6840,
      "લેવો": 6841,
      "તેમનાં": 6842,
      "ડેટ": 6843,
      "સર્વિ": 6844,
      "ખુરશી": 6845,
      "કાઉન્ટર": 6846,
      "જામનગરમાં": 6847,
      "રાખેલ": 6848,
      "વાગ્યાથી": 6849,
      "શર્માએ": 6850,
      "પીએસઆઇ": 6851,
      "ફાઇનલમાં": 6852,
      "કરિયર": 6853,
      "):": 6854,
      "68": 6855,
      "os": 6856,
      "ઓફી": 6857,
      "ફ્યૂ": 6858,
      "મકર": 6859,
      "કોર્સ": 6860,
      "પર્ય": 6861,
      "જાપા": 6862,
      "જાતીય": 6863,
      "લ્વર": 6864,
      "સુશોભ": 6865,
      "શ્વે": 6866,
      "બોર્": 6867,
      "બોટા": 6868,
      "બોલિંગ": 6869,
      "ગોપાલ": 6870,
      "શક્યો": 6871,
      "પાર્કિંગ": 6872,
      "ભેળ": 6873,
      "પડેલા": 6874,
      "એનએસ": 6875,
      "શરત": 6876,
      "બ્રાહ્": 6877,
      "આજરોજ": 6878,
      "ખરેખ": 6879,
      "યુવકે": 6880,
      "ગાળામાં": 6881,
      "સવારના": 6882,
      "આગેવાની": 6883,
      "ઉંમરના": 6884,
      "રેન્જ": 6885,
      "ઓળખાય": 6886,
      "કોન્ફરન્સ": 6887,
      "વિનોદ": 6888,
      "અભિષેક": 6889,
      "59": 6890,
      "ઇમરાન": 6891,
      "ક્ય": 6892,
      "કડો": 6893,
      "ખ્ય": 6894,
      "ઘડ": 6895,
      "પને": 6896,
      "માળા": 6897,
      "કોન્સ": 6898,
      "કાલા": 6899,
      "પ્રસ": 6900,
      "વીએ": 6901,
      "જીભાઇ": 6902,
      "હિમા": 6903,
      "પુખ્ત": 6904,
      "પેન્શન": 6905,
      "ફોલો": 6906,
      "રાખતા": 6907,
      "ચોર": 6908,
      "વાતની": 6909,
      "માર્ગે": 6910,
      "અમદાવાદઃ": 6911,
      "મરજન્સી": 6912,
      "પિતાને": 6913,
      "વાઇરસ": 6914,
      "બોર્ડની": 6915,
      "એક્સપ્રેસ": 6916,
      "યુનિવર્સિટીના": 6917,
      "જથ્થા": 6918,
      "ફ્લોર": 6919,
      "ડ્રાઈવર": 6920,
      "78": 6921,
      "79": 6922,
      "ઓમ": 6923,
      "કઠો": 6924,
      "ચળ": 6925,
      "વેલ્": 6926,
      "હોબાળો": 6927,
      "લેન્સ": 6928,
      "સંપા": 6929,
      "ક્ષર": 6930,
      "ગુણો": 6931,
      "ગીતા": 6932,
      "બોલિ": 6933,
      "કોઈની": 6934,
      "પરિવારો": 6935,
      "પરિબળો": 6936,
      "શોષણ": 6937,
      "મતલબ": 6938,
      "પ્રોગ્રામ": 6939,
      "વોર્ડમાં": 6940,
      "જાતકો": 6941,
      "ચોક્કસપણે": 6942,
      "રાજેશ": 6943,
      "ફર્નિ": 6944,
      "જમીનમાં": 6945,
      "ધ્રુ": 6946,
      "સાબરકાંઠા": 6947,
      "62": 6948,
      "આખું": 6949,
      "રચા": 6950,
      "ન્ડિંગ": 6951,
      "મેના": 6952,
      "કારને": 6953,
      "સેમ્પલ": 6954,
      "રિમાન્ડ": 6955,
      "યુઝર્સ": 6956,
      "બંન્ને": 6957,
      "ફાળો": 6958,
      "રાજ્યપાલ": 6959,
      "સિંઘ": 6960,
      "વ્યાવ": 6961,
      "સ્વભાવ": 6962,
      "સ્વરૂપે": 6963,
      "આઈટી": 6964,
      "પ્રકારનો": 6965,
      "ભેર": 6966,
      "અભિગમ": 6967,
      "મૂક્યો": 6968,
      "ગાંધીનગરમાં": 6969,
      "જોખમી": 6970,
      "આર્મી": 6971,
      "માંડવી": 6972,
      "નિમિત્તે": 6973,
      "ચિકન": 6974,
      "સાંસદો": 6975,
      "કયારે": 6976,
      "મૂલ્યાંકન": 6977,
      "51": 6978,
      "અન્ન": 6979,
      "ઊભો": 6980,
      "ગમત": 6981,
      "ચઢા": 6982,
      "જળા": 6983,
      "બપોર": 6984,
      "૪૬": 6985,
      "નોના": 6986,
      "આવવાની": 6987,
      "બેસે": 6988,
      "મીર": 6989,
      "ખાવાથી": 6990,
      "પેટે": 6991,
      "દ્રશ્ય": 6992,
      "ટિન": 6993,
      "2013": 6994,
      "વનડે": 6995,
      "મૂકો": 6996,
      "સાંસ્": 6997,
      "ચૂંટણીના": 6998,
      "મણિ": 6999,
      "દરેકને": 7000,
      "ટેસ્ટિંગ": 7001,
      "બ્રિટ": 7002,
      "દર્શાવી": 7003,
      "પૂછ્યું": 7004,
      "કાઢવામાં": 7005,
      "કચ્છના": 7006,
      "અટકી": 7007,
      "વાંધો": 7008,
      "આરામદાયક": 7009,
      "રાજસ્થાનના": 7010,
      "મચાવી": 7011,
      "બચ્ચન": 7012,
      "બેટ્સમેન": 7013,
      "Gujar": 7014,
      "ગળે": 7015,
      "ઝમાં": 7016,
      "પલા": 7017,
      "ળિ": 7018,
      "લાજ": 7019,
      "સાસુ": 7020,
      "વિન્": 7021,
      "વિડિયો": 7022,
      "યાત્રી": 7023,
      "મેર": 7024,
      "હીરા": 7025,
      "બીસીસી": 7026,
      "ડેપ્યુ": 7027,
      "2000": 7028,
      "બાળકની": 7029,
      "રૂપિયાનું": 7030,
      "ઝડપે": 7031,
      "પર્વત": 7032,
      "સ્વીકારી": 7033,
      "જન્મદિવસ": 7034,
      "નેટવર્": 7035,
      "આત્મા": 7036,
      "પંચાયતઘર": 7037,
      "જલદી": 7038,
      "કાયદેસરની": 7039,
      "જવર": 7040,
      "જંતુ": 7041,
      "જાગ": 7042,
      "લોખંડ": 7043,
      "લેવું": 7044,
      "સેમ": 7045,
      "સીધો": 7046,
      "દિક": 7047,
      "વધ્યો": 7048,
      "ક્રુ": 7049,
      "ચેમ્બર": 7050,
      "ળીમાં": 7051,
      "થવાથી": 7052,
      "તેઓની": 7053,
      "કાર્યકર્તા": 7054,
      "આરોપો": 7055,
      "દેખાશે": 7056,
      "આજની": 7057,
      "સંતાન": 7058,
      "માત્રામાં": 7059,
      "મજબુ": 7060,
      "av": 7061,
      "ચણા": 7062,
      "સાસ": 7063,
      "વિતા": 7064,
      "રીક": 7065,
      "પ્રવિ": 7066,
      "પ્રગટ": 7067,
      "મેળા": 7068,
      "હોવો": 7069,
      "જોબ": 7070,
      "દેદારો": 7071,
      "સુરેશ": 7072,
      "નિર્દોષ": 7073,
      "૨૦૧૬": 7074,
      "ારામ": 7075,
      "ડવાનું": 7076,
      "ચુડા": 7077,
      "માર્ગદર્": 7078,
      "કમિશ્": 7079,
      "નદીના": 7080,
      "કૌશલ": 7081,
      "હળવદ": 7082,
      "કબજે": 7083,
      "બજાવતા": 7084,
      "અથડામણ": 7085,
      "અખિ": 7086,
      "આલિયા": 7087,
      "ઈન્ડસ્ટ્રી": 7088,
      "ખની": 7089,
      "ઝની": 7090,
      "ભડ": 7091,
      "વસવા": 7092,
      "માધ": 7093,
      "માસમાં": 7094,
      "નાસી": 7095,
      "રાતો": 7096,
      "સાધુ": 7097,
      "તિઓ": 7098,
      "સરહ": 7099,
      "બીસી": 7100,
      "ટિશ": 7101,
      "ફોડ": 7102,
      "ચોરસ": 7103,
      "અમેરિકાની": 7104,
      "સાઇડ": 7105,
      "અર્થવ્યવસ્થા": 7106,
      "ઝેશન": 7107,
      "કચરો": 7108,
      "સ્વતંત્રતા": 7109,
      "ew": 7110,
      "ઈચ્છ": 7111,
      "એસી": 7112,
      "ગ્યુ": 7113,
      "જં": 7114,
      "હવામાં": 7115,
      "૯૯": 7116,
      "સ્માર": 7117,
      "લાગતું": 7118,
      "કાટ": 7119,
      "પેજ": 7120,
      "ફેલ": 7121,
      "એમએસ": 7122,
      "્સના": 7123,
      "ખોલી": 7124,
      "ચિંગ": 7125,
      "લેખક": 7126,
      "જીવલેણ": 7127,
      "આરોપીઓને": 7128,
      "પાકિસ્તાને": 7129,
      "બનાવવાનો": 7130,
      "વિજયભાઈ": 7131,
      "સ્ટેશનના": 7132,
      "શક્તિશાળી": 7133,
      "પંચમહા": 7134,
      "માધ્યમિક": 7135,
      "વધારીને": 7136,
      "વ્યાવસાય": 7137,
      "BI": 7138,
      "ઈશ": 7139,
      "જું": 7140,
      "ટાર્": 7141,
      "પંક": 7142,
      "મંગા": 7143,
      "વખાણ": 7144,
      "હક": 7145,
      "ોની": 7146,
      "ક્લે": 7147,
      "સોનુ": 7148,
      "પુર્ણ": 7149,
      "રાખશે": 7150,
      "શીપ": 7151,
      "મહિલાના": 7152,
      "રૂપિયામાં": 7153,
      "યોજાયો": 7154,
      "સૈનિકો": 7155,
      "યુવતીએ": 7156,
      "પાલનપુર": 7157,
      "તૂટ": 7158,
      "પ્રવૃત્તિઓ": 7159,
      "કક્ષાએ": 7160,
      "હટાવી": 7161,
      "અંકલેશ્વર": 7162,
      "વસાવા": 7163,
      "સમૃદ્ધ": 7164,
      "તબક્કે": 7165,
      "મોડાસા": 7166,
      "56": 7167,
      ":-": 7168,
      "એડિ": 7169,
      "છરી": 7170,
      "ફગાવી": 7171,
      "બડ": 7172,
      "૪૪": 7173,
      "માનિત": 7174,
      "કોઠ": 7175,
      "વિષ્ણુ": 7176,
      "ત્રુ": 7177,
      "રેતી": 7178,
      "સેન": 7179,
      "સ્થાપ": 7180,
      "કરાતા": 7181,
      "પડયા": 7182,
      "કેન્દ્રમાં": 7183,
      "લગ્નના": 7184,
      "તંત્રને": 7185,
      "તકની": 7186,
      "કોલેજમાં": 7187,
      "શૂટ": 7188,
      "અટકાવી": 7189,
      "મંત્રાલયના": 7190,
      "મસાલા": 7191,
      "કાનૂની": 7192,
      "ઓઇલ": 7193,
      "ચર્સ": 7194,
      "છં": 7195,
      "થવી": 7196,
      "વળા": 7197,
      "વરેજ": 7198,
      "ન્સિંગ": 7199,
      "હેલિ": 7200,
      "જાવ": 7201,
      "લેતી": 7202,
      "લેષણ": 7203,
      "તિયા": 7204,
      "કરવામા": 7205,
      "રાજસિંહ": 7206,
      "વારની": 7207,
      "પ્ટ": 7208,
      "લગતી": 7209,
      "ચોખ્": 7210,
      "ભારતનું": 7211,
      "પ્રાય": 7212,
      "બ્લે": 7213,
      "લેવાશે": 7214,
      "જોડાયેલ": 7215,
      "કલાકો": 7216,
      "પ્રક્રિયામાં": 7217,
      "કોર્પોરેટર": 7218,
      "ers": 7219,
      "ઘટકો": 7220,
      "ગર્ભવતી": 7221,
      "કર્ણાટક": 7222,
      "ઇલેક્ટ્રો": 7223,
      "કબ્જે": 7224,
      "ડેવલપમેન્ટ": 7225,
      "અસં": 7226,
      "ડ્યૂ": 7227,
      "યંત્ર": 7228,
      "૬૬": 7229,
      "વિપુલ": 7230,
      "વિસર્જન": 7231,
      "હાથી": 7232,
      "લિયો": 7233,
      "ચેન્ના": 7234,
      "તરફે": 7235,
      "ગેમ": 7236,
      "નાંખી": 7237,
      "ભારતનો": 7238,
      "જન્મે": 7239,
      "વિદ્યાર્થીની": 7240,
      "સ્ટોલ": 7241,
      "અહેવાલો": 7242,
      "આફ્રિકા": 7243,
      "ફર્નિચર": 7244,
      "ot": 7245,
      "અહ": 7246,
      "ઇમાર": 7247,
      "એમે": 7248,
      "કમર": 7249,
      "ખભા": 7250,
      "બસો": 7251,
      "રથ": 7252,
      "ર્સે": 7253,
      "યોગે": 7254,
      "સેમિ": 7255,
      "ગુનામાં": 7256,
      "વોર": 7257,
      "બોર": 7258,
      "પહેરી": 7259,
      "કરાયેલી": 7260,
      "બાબતમાં": 7261,
      "તંત્રએ": 7262,
      "અભ્યાસમાં": 7263,
      "સ્પેસ": 7264,
      "ગણાવી": 7265,
      "સેનાએ": 7266,
      "ઇન્ટરવ્યૂ": 7267,
      "સૂત્રોએ": 7268,
      "વેચવા": 7269,
      "ent": 7270,
      "પ્રાણીઓ": 7271,
      "તુલસી": 7272,
      "મુલાકાતે": 7273,
      "ટંકારા": 7274,
      "ઈમાં": 7275,
      "ગયેલી": 7276,
      "નહિં": 7277,
      "ભું": 7278,
      "વસંત": 7279,
      "શાર": 7280,
      "હની": 7281,
      "૨ા": 7282,
      "નીંગ": 7283,
      "તાજા": 7284,
      "કેપિ": 7285,
      "પ્રણા": 7286,
      "મેચો": 7287,
      "ભાગો": 7288,
      "ત્રિક": 7289,
      "ંગુ": 7290,
      "બાજી": 7291,
      "જોડ": 7292,
      "દેવાની": 7293,
      "ધીમી": 7294,
      "બીના": 7295,
      "પરિવારે": 7296,
      "પડતાં": 7297,
      "વ્યાપાર": 7298,
      "તુર્": 7299,
      "લોકશાહી": 7300,
      "આઈપીએલ": 7301,
      "પાકિસ્તાનમાં": 7302,
      "સ્ટાઇલ": 7303,
      "ચૂક્યો": 7304,
      "મંદિરની": 7305,
      "ફાળવણી": 7306,
      "નોટબંધી": 7307,
      "હથિયારો": 7308,
      "અવારનવાર": 7309,
      "બેઠેલા": 7310,
      "એટીએમ": 7311,
      "સદા": 7312,
      "૪૨": 7313,
      "નાખો": 7314,
      "નીઝ": 7315,
      "સ્વર": 7316,
      "પ્રભારી": 7317,
      "પાતળા": 7318,
      "લીઓ": 7319,
      "પોષ": 7320,
      "સેમી": 7321,
      "સુભા": 7322,
      "મળવાની": 7323,
      "ગુસ્સો": 7324,
      "પ્રતિભા": 7325,
      "શરીરની": 7326,
      "વાઈરસ": 7327,
      "પત્નીને": 7328,
      "બારડો": 7329,
      "વડોદરાના": 7330,
      "યુવાનોને": 7331,
      "કોમર્સ": 7332,
      "વર્ણન": 7333,
      "વેક્સીન": 7334,
      "પાર્ટનર": 7335,
      "ભરૃચ": 7336,
      "સાંસ્કૃતિક": 7337,
      "67": 7338,
      "69": 7339,
      "આડ": 7340,
      "એન્ટ": 7341,
      "ઓથો": 7342,
      "ણ્ય": 7343,
      "બહુમ": 7344,
      "રસના": 7345,
      "શરમ": 7346,
      "વિરામ": 7347,
      "લીએ": 7348,
      "ભાગોમાં": 7349,
      "શાસિત": 7350,
      "સોનાના": 7351,
      "આપવો": 7352,
      "ડિલિવ": 7353,
      "યુઝ": 7354,
      "છોટાઉ": 7355,
      "પરિચિત": 7356,
      "રાખ્યા": 7357,
      "શકતી": 7358,
      "પ્રતિકારક": 7359,
      "આરએસ": 7360,
      "અપાશે": 7361,
      "કોન્સ્ટેબલ": 7362,
      "સૈનિ": 7363,
      "ગરીબો": 7364,
      "સર્જાઈ": 7365,
      "આતંકવાદ": 7366,
      "સંબોધન": 7367,
      "પરિષદ": 7368,
      "રજિસ્ટ્રેશન": 7369,
      "કેજરીવાલ": 7370,
      "પ્રસ્તુત": 7371,
      "ડેપ્યુટી": 7372,
      "ID": 7373,
      "ંકર": 7374,
      "એલિ": 7375,
      "કિયા": 7376,
      "તત્વ": 7377,
      "પદા": 7378,
      "મેઘા": 7379,
      "કારે": 7380,
      "ંગે": 7381,
      "લેતાં": 7382,
      "એકઠા": 7383,
      "મુળ": 7384,
      "પીવાના": 7385,
      "ત્તર": 7386,
      "ખાત": 7387,
      "સરમાં": 7388,
      "બીચ": 7389,
      "વોલ": 7390,
      "પહેલ": 7391,
      "બુલ": 7392,
      "અધિક": 7393,
      "વિસ્તારની": 7394,
      "મામલા": 7395,
      "વિકસિત": 7396,
      "ટેસ્ટમાં": 7397,
      "બનાવવાનું": 7398,
      "સંભાળી": 7399,
      "બજેટમાં": 7400,
      "આક્ષેપો": 7401,
      "રાજપૂત": 7402,
      "જર્મની": 7403,
      "બગીચા": 7404,
      "સિક્યોરિટી": 7405,
      "CC": 7406,
      "આશિ": 7407,
      "ઇમે": 7408,
      "ઉદ્ધ": 7409,
      "લખા": 7410,
      "ષભ": 7411,
      "વિદેશમાં": 7412,
      "હોર્મો": 7413,
      "મોર્ટ": 7414,
      "યોજી": 7415,
      "બોન્ડ": 7416,
      "ખેતરમાં": 7417,
      "રાખવાનો": 7418,
      "જવાન": 7419,
      "સૂચિત": 7420,
      "પ્રતિષ્ઠા": 7421,
      "ચાલકો": 7422,
      "સંગત": 7423,
      "આઇટી": 7424,
      "આંધ્ર": 7425,
      "યુનિટ": 7426,
      "વાંચી": 7427,
      "યુવતીને": 7428,
      "મૂકવા": 7429,
      "બંગાળમાં": 7430,
      "હમણાં": 7431,
      "નિરાશા": 7432,
      "સોંપી": 7433,
      "બ્રાહ્મણ": 7434,
      "me": 7435,
      "આડે": 7436,
      "ગસ": 7437,
      "ગવર્": 7438,
      "પારો": 7439,
      "સફાઇ": 7440,
      "૬૮": 7441,
      "રૂખ": 7442,
      "થેરા": 7443,
      "મીઠી": 7444,
      "પરિવા": 7445,
      "ગોહિલ": 7446,
      "સ્ટેજ": 7447,
      "પ્રોટીન": 7448,
      "મહિલાની": 7449,
      "ઉમેરી": 7450,
      "લાગતા": 7451,
      "લાલચ": 7452,
      "આયોજિત": 7453,
      "મુંબઈના": 7454,
      "યોજાયેલી": 7455,
      "સંસ્થાના": 7456,
      "ડાઉનલોડ": 7457,
      "ગાયક": 7458,
      "મુદ્દાઓ": 7459,
      "ઠ્ઠા": 7460,
      "સાઉદી": 7461,
      "આશ્રમ": 7462,
      "નારાજગી": 7463,
      "ંજલિ": 7464,
      "વસૂલ": 7465,
      "લશ્કરી": 7466,
      "ચેન્જ": 7467,
      "સિનેમા": 7468,
      "નિર્ધારિત": 7469,
      "ઉછે": 7470,
      "એસ્ટેટ": 7471,
      "ઝરી": 7472,
      "પઠા": 7473,
      "કરની": 7474,
      "લાવે": 7475,
      "પ્રચ": 7476,
      "હોટે": 7477,
      "બાજરી": 7478,
      "એકમો": 7479,
      "ડાટ": 7480,
      "વર્તુ": 7481,
      "બીએ": 7482,
      "ટાંકી": 7483,
      "પેશા": 7484,
      "ખેર": 7485,
      "ટિક્સ": 7486,
      "ફરતા": 7487,
      "શ્રમિ": 7488,
      "વચ્ચેની": 7489,
      "ઘાસ": 7490,
      "સ્ટોપ": 7491,
      "કપમાં": 7492,
      "લખન": 7493,
      "દેશોની": 7494,
      "સ્પર્શ": 7495,
      "સૌરાષ્ટ્રમાં": 7496,
      "સંસદમાં": 7497,
      "ડિસ્કાઉન્ટ": 7498,
      "સેવક": 7499,
      "શણગાર": 7500,
      "પ્રદૂષણ": 7501,
      "પ્રવિણ": 7502,
      "ul": 7503,
      "આદર": 7504,
      "બપો": 7505,
      "સાગ": 7506,
      "કામે": 7507,
      "હોતી": 7508,
      "પોઝ": 7509,
      "દેખરેખ": 7510,
      "સુનિશ્ચિત": 7511,
      "બેન્ડ": 7512,
      "ચાંદ": 7513,
      "વર્ગી": 7514,
      "રિટર્ન": 7515,
      "ડિત": 7516,
      "ફેલાઈ": 7517,
      "ટોલ": 7518,
      "દુધ": 7519,
      "2012": 7520,
      "પુરસ્કાર": 7521,
      "જ્વેલ": 7522,
      "અધિકારીઓની": 7523,
      "રાજકોટઃ": 7524,
      "અગાઉથી": 7525,
      "સાંભળીને": 7526,
      "કેસોની": 7527,
      "કક્ષાના": 7528,
      "પ્રાઇવેટ": 7529,
      "પ્રતીક": 7530,
      "CM": 7531,
      "કહો": 7532,
      "ઙ્": 7533,
      "ધમા": 7534,
      "ભરીને": 7535,
      "સગઢ": 7536,
      "નામા": 7537,
      "કરનારી": 7538,
      "કાળો": 7539,
      "પ્રવૃ": 7540,
      "લ્ટી": 7541,
      "જીતે": 7542,
      "સેને": 7543,
      "દાળ": 7544,
      "ણાંક": 7545,
      "સીઆર": 7546,
      "દિવાલો": 7547,
      "સિક્": 7548,
      "ધાના": 7549,
      "મળતો": 7550,
      "ક્રમમાં": 7551,
      "અંધ": 7552,
      "પ્રોસે": 7553,
      "વ્યાખ્યા": 7554,
      "આગમન": 7555,
      "બંનેએ": 7556,
      "નેતાઓએ": 7557,
      "નવરાત્રી": 7558,
      "૧૫૦": 7559,
      "આર્કિ": 7560,
      "વેક્સિનેશન": 7561,
      "ટ્રાન્સપોર્ટ": 7562,
      "જીલ્લાના": 7563,
      "વહીવટ": 7564,
      "સૂચવે": 7565,
      "પાંદડા": 7566,
      "57": 7567,
      "?’": 7568,
      "oo": 7569,
      "ગભરા": 7570,
      "બત": 7571,
      "બનના": 7572,
      "કરૂ": 7573,
      "ટેક્ટ": 7574,
      "યાન": 7575,
      "એકમ": 7576,
      "જીતુ": 7577,
      "દેસાઈ": 7578,
      "સોદા": 7579,
      "વોકેટ": 7580,
      "સૌપ્રથમ": 7581,
      "છાતી": 7582,
      "મેળવ્યો": 7583,
      "198": 7584,
      "અર્ધ": 7585,
      "વાનગીઓ": 7586,
      "ધૂમ": 7587,
      "જગદી": 7588,
      "મનુષ્ય": 7589,
      "અપડેટ": 7590,
      "વસવાટ": 7591,
      "દસ્ત": 7592,
      "વનારી": 7593,
      "કેક": 7594,
      "કાચા": 7595,
      "ટેશન": 7596,
      "ગોધરા": 7597,
      "કાયમ": 7598,
      "જાણતા": 7599,
      "સ્તાન": 7600,
      "ભૂષણ": 7601,
      "લાખના": 7602,
      "જિન": 7603,
      "લગાવ્યા": 7604,
      "જીવંત": 7605,
      "સ્ટોરી": 7606,
      "અગાઉના": 7607,
      "શરદ": 7608,
      "ક્યાંય": 7609,
      "વિધાનસભામાં": 7610,
      "પંચાયતની": 7611,
      "એચડી": 7612,
      "નિયમોનું": 7613,
      "જાન્યુઆરીએ": 7614,
      "શરુઆત": 7615,
      "ગોઠવી": 7616,
      "એકત્રિત": 7617,
      "ઓર્ગે": 7618,
      "સિઝનમાં": 7619,
      "કામકાજ": 7620,
      "ગંદકી": 7621,
      "ટાર્ગેટ": 7622,
      "ra": 7623,
      "અશક્ય": 7624,
      "બલી": 7625,
      "રદ્દ": 7626,
      "વસ્ત્રો": 7627,
      "હડ": 7628,
      "માગી": 7629,
      "કોપ્ટર": 7630,
      "કાદ": 7631,
      "ન્ટેડ": 7632,
      "નિવાસી": 7633,
      "રૂણ": 7634,
      "ડિઓ": 7635,
      "ગરમા": 7636,
      "છાપ": 7637,
      "વ્યક્તિત્વ": 7638,
      "પહોંચતા": 7639,
      "બનતા": 7640,
      "વિદ્યાર્થીઓની": 7641,
      "રાજયના": 7642,
      "ઉદ્યોગપતિ": 7643,
      "સરોવર": 7644,
      "ફાઇનલ": 7645,
      "ઝઘડો": 7646,
      "ફાંસો": 7647,
      "52": 7648,
      "અવિ": 7649,
      "ઇશ": 7650,
      "ખળ": 7651,
      "ઝમ": 7652,
      "પછા": 7653,
      "૩૦૦": 7654,
      "સ્ડ": 7655,
      "કેવ": 7656,
      "જોધ": 7657,
      "થાઇ": 7658,
      "ખાવાનું": 7659,
      "ટાવર": 7660,
      "સરકારનો": 7661,
      "કરાવ્યું": 7662,
      "વિસ્તરણ": 7663,
      "ઉપરના": 7664,
      "થયાત્રા": 7665,
      "વાયરસને": 7666,
      "લગાવવા": 7667,
      "પત્નીએ": 7668,
      "રાજયમાં": 7669,
      "નાખવાની": 7670,
      "સૌરાષ્ટ્રના": 7671,
      "સીબીઆઈ": 7672,
      "વ્રત": 7673,
      "ટાઈમ": 7674,
      "તેટલી": 7675,
      "અફઘાનિસ્તાન": 7676,
      "પેકેજ": 7677,
      "અદ્": 7678,
      "એડવા": 7679,
      "ઓરિ": 7680,
      "કવાય": 7681,
      "મજૂરી": 7682,
      "રપ": 7683,
      "૧પ": 7684,
      "નાર્": 7685,
      "છેઃ": 7686,
      "પાલી": 7687,
      "રેસીપી": 7688,
      "નિશા": 7689,
      "તિવારી": 7690,
      "ટીએ": 7691,
      "િયાં": 7692,
      "દિવ્ય": 7693,
      "દિવાલ": 7694,
      "યુર": 7695,
      "પહેરીને": 7696,
      "ફર્યા": 7697,
      "ચોખા": 7698,
      "વાદળી": 7699,
      "ભરવામાં": 7700,
      "ટ્રેનિંગ": 7701,
      "કેન્દ્રો": 7702,
      "અહીંના": 7703,
      "ઇન્ડેક્સ": 7704,
      "તંત્રની": 7705,
      "કાંઠે": 7706,
      "નોંધવામાં": 7707,
      "મધ્યપ્રદેશ": 7708,
      "મંડળી": 7709,
      "પરીક્ષામાં": 7710,
      "બતાવે": 7711,
      "સ્ટિંગ": 7712,
      "કાઢવા": 7713,
      "સંગઠનો": 7714,
      "જીલ્લામાં": 7715,
      "પામ્યો": 7716,
      "ક્લાસ": 7717,
      "ભજવી": 7718,
      "સ્વામિનારાયણ": 7719,
      "AM": 7720,
      "II": 7721,
      "ઠંડ": 7722,
      "દહીં": 7723,
      "સતી": 7724,
      "કોમ્પ્યુટર": 7725,
      "કાશી": 7726,
      "લેપ": 7727,
      "જીક": 7728,
      "ગાઇડ": 7729,
      "પેનલ": 7730,
      "બોસ": 7731,
      "બોલ્ડ": 7732,
      "સૌર": 7733,
      "અમર": 7734,
      "ધાન્ય": 7735,
      "મેળવવામાં": 7736,
      "ભેજ": 7737,
      "મંદિરે": 7738,
      "ગણિત": 7739,
      "ફ્રો": 7740,
      "હિંસક": 7741,
      "સુંદરતા": 7742,
      "જાળવણી": 7743,
      "વેરાવળ": 7744,
      "પ્રવક્તા": 7745,
      "મંજુરી": 7746,
      "71": 7747,
      "ut": 7748,
      "અવા": 7749,
      "૪૯": 7750,
      "મેરી": 7751,
      "મોઢ": 7752,
      "હાલા": 7753,
      "યુકત": 7754,
      "બોગસ": 7755,
      "દ્રશ્યો": 7756,
      "કુળ": 7757,
      "ન્સને": 7758,
      "મહિનાના": 7759,
      "જિલ્લાઓમાં": 7760,
      "માર્ચે": 7761,
      "ધ્યાત્": 7762,
      "હોસ્પિટલોમાં": 7763,
      "લેવાયો": 7764,
      "પૂરતા": 7765,
      "બનાવશે": 7766,
      "પાકિસ્તાનને": 7767,
      "પ્રમાણપત્ર": 7768,
      "દુનિયાની": 7769,
      "2008": 7770,
      "દિવસોથી": 7771,
      "બેંકના": 7772,
      "ડીઝલના": 7773,
      "સ્ત્રોત": 7774,
      "સહેજ": 7775,
      "બર્ગ": 7776,
      "ટાઉન": 7777,
      "ડાંગર": 7778,
      "સેલ્ફી": 7779,
      "મહંત": 7780,
      "નિમણૂક": 7781,
      "ઉછાળો": 7782,
      "કમિશ્નર": 7783,
      "આનં": 7784,
      "જસદ": 7785,
      "થનારા": 7786,
      "મજુ": 7787,
      "માએ": 7788,
      "મેન્યુ": 7789,
      "દાણા": 7790,
      "સીબે": 7791,
      "દિપક": 7792,
      "સોન": 7793,
      "ગુને": 7794,
      "શિંગ": 7795,
      "બોરે": 7796,
      "વ્યકત": 7797,
      "કંડ": 7798,
      "પ્રાણ": 7799,
      "ગ્લે": 7800,
      "કર્મચારીઓની": 7801,
      "પૈસાની": 7802,
      "સિંગલ": 7803,
      "અફવા": 7804,
      "પ્રતિબંધિત": 7805,
      "જિકલ": 7806,
      "પાઇપ": 7807,
      "ઉપકરણો": 7808,
      "નિરીક્ષણ": 7809,
      "ઇસ્લા": 7810,
      "ડમ": 7811,
      "ધડા": 7812,
      "રજની": 7813,
      "વટા": 7814,
      "શૉ": 7815,
      "શત્રુ": 7816,
      "૪૦૦": 7817,
      "માથે": 7818,
      "સ્કુલ": 7819,
      "રીય": 7820,
      "વેળા": 7821,
      "મોઢા": 7822,
      "ડાએ": 7823,
      "થાક": 7824,
      "રિટેલ": 7825,
      "દરજ્": 7826,
      "તેઓના": 7827,
      "લુક": 7828,
      "ઝાં": 7829,
      "વિશ્લેષણ": 7830,
      "જરૃ": 7831,
      "સહયોગી": 7832,
      "વિકાસના": 7833,
      "શિયાળામાં": 7834,
      "ધ્વ": 7835,
      "બ્રિટિશ": 7836,
      "નીકળ્યા": 7837,
      "ગુલાબી": 7838,
      "પીડિત": 7839,
      "ક્લબ": 7840,
      "ઇલેક્ટ્રિક": 7841,
      "પ્રસન્ન": 7842,
      "નંગ": 7843,
      "રવી": 7844,
      "સનીય": 7845,
      "મેટલ": 7846,
      "પાયલ": 7847,
      "પાઉન્ડ": 7848,
      "પાચન": 7849,
      "વર્સ": 7850,
      "વાર્ય": 7851,
      "શકતો": 7852,
      "ચાલકે": 7853,
      "ગ્ન": 7854,
      "કારોબાર": 7855,
      "મોરચા": 7856,
      "અવસર": 7857,
      "તારીખે": 7858,
      "હાર્ડ": 7859,
      "કોલેજના": 7860,
      "મહામારીને": 7861,
      "બિલ્ડીંગ": 7862,
      "શૈલીમાં": 7863,
      "પતંગ": 7864,
      "કાળજીપૂર્વક": 7865,
      "ડ્રાઇવર": 7866,
      "મંજુર": 7867,
      "પુરવઠો": 7868,
      "કોન્ટ્રાક્ટ": 7869,
      "વલ્લભ": 7870,
      "દાગીના": 7871,
      "54": 7872,
      "73": 7873,
      "આજી": 7874,
      "આમિર": 7875,
      "ગાર્": 7876,
      "છત્તી": 7877,
      "જયા": 7878,
      "નફા": 7879,
      "પરાજય": 7880,
      "ફૉ": 7881,
      "રથયાત્રા": 7882,
      "વત્": 7883,
      "નાક": 7884,
      "પીવા": 7885,
      "સિલ": 7886,
      "સિક્કા": 7887,
      "ટાળ": 7888,
      "પૂન": 7889,
      "કિસ": 7890,
      "દ્રારા": 7891,
      "પ્રેમમાં": 7892,
      "પ્રોપર્": 7893,
      "મોટાભાગની": 7894,
      "આરબી": 7895,
      "બંનેને": 7896,
      "બનાવ્યું": 7897,
      "પિતાની": 7898,
      "ઘટાડે": 7899,
      "જીત્યા": 7900,
      "અવરોધ": 7901,
      "થિયે": 7902,
      "ફર્સ્ટ": 7903,
      "એન્જિન": 7904,
      "ઉદ્દેશ": 7905,
      "તકેદારી": 7906,
      "આવેદનપત્ર": 7907,
      "છંટકા": 7908,
      "બપોરના": 7909,
      "ab": 7910,
      "ઇંગ": 7911,
      "નર્સ": 7912,
      "નરમ": 7913,
      "માથું": 7914,
      "નારો": 7915,
      "કેલ્": 7916,
      "મોની": 7917,
      "ખાડા": 7918,
      "ચોથી": 7919,
      "ધોરાજી": 7920,
      "ઉત્સા": 7921,
      "વાયદા": 7922,
      "પ્રિન્ટ": 7923,
      "ચાલશે": 7924,
      "કોઇને": 7925,
      "મનીષ": 7926,
      "લેખમાં": 7927,
      "રંગના": 7928,
      "જોડાણ": 7929,
      "ચૂકવવા": 7930,
      "હાઇટ": 7931,
      "કિંમતમાં": 7932,
      "મહામારીના": 7933,
      "એડવોકેટ": 7934,
      "ફાઇના": 7935,
      "કેરળ": 7936,
      "ટેલિકોમ": 7937,
      "સ્કીમ": 7938,
      "વિરૂધ્ધ": 7939,
      "ઉમટી": 7940,
      "સરખામણીએ": 7941,
      "ઈં": 7942,
      "એપિ": 7943,
      "ગરો": 7944,
      "વંચ": 7945,
      "્યે": 7946,
      "તાજી": 7947,
      "જેમની": 7948,
      "યોમાં": 7949,
      "સિન્": 7950,
      "રાજપીપ": 7951,
      "ડેડ": 7952,
      "મંચ": 7953,
      "શિખર": 7954,
      "ટિવિ": 7955,
      "રહીશો": 7956,
      "જવાથી": 7957,
      "મારીને": 7958,
      "ભાજપા": 7959,
      "ફ્લેટ": 7960,
      "વ્યવસ્થિત": 7961,
      "પક્ષમાં": 7962,
      "રમવા": 7963,
      "ક્રોસ": 7964,
      "ગાળાના": 7965,
      "નાખવામાં": 7966,
      "શખ્સોએ": 7967,
      "ઉનાળામાં": 7968,
      "પ્રમોશન": 7969,
      "હડતાળ": 7970,
      "ભૌતિક": 7971,
      "સિદ્ધાંત": 7972,
      "ફાઉન્ડેશન": 7973,
      "મમ્મી": 7974,
      "63": 7975,
      "em": 7976,
      "અસ્થિ": 7977,
      "અજમા": 7978,
      "આકરા": 7979,
      "ઉન": 7980,
      "ચમક": 7981,
      "રર": 7982,
      "રઘુ": 7983,
      "તાજ": 7984,
      "સાના": 7985,
      "પાડોશી": 7986,
      "લીટ": 7987,
      "રેપ": 7988,
      "લોકલ": 7989,
      "સેનાની": 7990,
      "દાદી": 7991,
      "ણાના": 7992,
      "બેલ": 7993,
      "પીઓ": 7994,
      "રાજનાથ": 7995,
      "સ્તન": 7996,
      "માનવતા": 7997,
      "કુટું": 7998,
      "સ્ટેડિય": 7999,
      "ખીલ": 8000,
      "નોંધવું": 8001,
      "વતની": 8002,
      "વિજયભાઇ": 8003,
      "રોગના": 8004,
      "શહેરો": 8005,
      "અગ્રવાલ": 8006,
      "ટાઇમ": 8007,
      "માળખા": 8008,
      "નમ્ર": 8009,
      "2019માં": 8010,
      "દસ્તાવેજ": 8011,
      "ચાંદીના": 8012,
      "ખેડુતો": 8013,
      "ઈલેક્": 8014,
      "નૃ": 8015,
      "પટા": 8016,
      "બલ્": 8017,
      "લદ્": 8018,
      "સત્": 8019,
      "૭૭": 8020,
      "વાગ": 8021,
      "વાસ્તુ": 8022,
      "સ્કુ": 8023,
      "પાઉ": 8024,
      "નિવૃત્તિ": 8025,
      "દેવતા": 8026,
      "સુગંધ": 8027,
      "પીવાથી": 8028,
      "દીપક": 8029,
      "દ્દીન": 8030,
      "પેન્દ્ર": 8031,
      "ફેડ": 8032,
      "મહિનો": 8033,
      "કંપનીઓના": 8034,
      "અંગેના": 8035,
      "વિભાગને": 8036,
      "શાળાઓમાં": 8037,
      "નવરાત્રિ": 8038,
      "ચલાવતા": 8039,
      "ક્રાંતિ": 8040,
      "હૂં": 8041,
      "લોકડાઉનના": 8042,
      "કંઇક": 8043,
      "ડાયાબિટીસ": 8044,
      "ચુડાસમા": 8045,
      "છત્તીસગઢ": 8046,
      "kar": 8047,
      "ઈડ": 8048,
      "ઈનિંગ": 8049,
      "ખલ": 8050,
      "યાર્ડ": 8051,
      "ષડ": 8052,
      "૮૫": 8053,
      "માપ": 8054,
      "નાનું": 8055,
      "ભાન": 8056,
      "લોના": 8057,
      "નિહા": 8058,
      "મોસમ": 8059,
      "ડીજી": 8060,
      "બેસા": 8061,
      "સીમ": 8062,
      "વધ્યા": 8063,
      "દરમાં": 8064,
      "પેક": 8065,
      "શિય": 8066,
      "છોડા": 8067,
      "સ્થાપક": 8068,
      "2010": 8069,
      "ચોંકી": 8070,
      "ગ્રામીણ": 8071,
      "મેળવ્યા": 8072,
      "જારા": 8073,
      "મનપા": 8074,
      "પાડ્યો": 8075,
      "યુવકને": 8076,
      "બોર્ડના": 8077,
      "વહેંચ": 8078,
      "ંગ્લો": 8079,
      "શૈલેષ": 8080,
      "ડોલરની": 8081,
      "રમેશ": 8082,
      "સુધારવા": 8083,
      "તસ્કરો": 8084,
      "ભયાનક": 8085,
      "શિલ્પા": 8086,
      "બહુમતી": 8087,
      "ઉદ્ધવ": 8088,
      "લદ્દાખ": 8089,
      "98": 8090,
      "ઇચ્છે": 8091,
      "મૉ": 8092,
      "કાફલો": 8093,
      "પ્રદીપ": 8094,
      "લેજ": 8095,
      "સંકલ": 8096,
      "આવેલો": 8097,
      "ડિસ": 8098,
      "ડિવિઝન": 8099,
      "જુએ": 8100,
      "ફાટ": 8101,
      "કરાવ્યો": 8102,
      "ચીજો": 8103,
      "બાળપણ": 8104,
      "ટકાના": 8105,
      "કંપનીને": 8106,
      "કંપનીઓએ": 8107,
      "એનસીપી": 8108,
      "સંબંધમાં": 8109,
      "લ્સને": 8110,
      "ઓળખી": 8111,
      "ફાઈલ": 8112,
      "સ્ટીલ": 8113,
      "દર્શાવવામાં": 8114,
      "મગજ": 8115,
      "પૃષ્ઠ": 8116,
      "રાજેન્દ્ર": 8117,
      "રસોઈ": 8118,
      "એકબીજાને": 8119,
      "ઘૂંટ": 8120,
      "મલ્ટી": 8121,
      "શકયતા": 8122,
      "માર્ગદર્શિકા": 8123,
      "ડિલિવરી": 8124,
      "AT": 8125,
      "PS": 8126,
      "ખમ": 8127,
      "નક્ષ": 8128,
      "નવલ": 8129,
      "બદા": 8130,
      "સઘન": 8131,
      "માંડીને": 8132,
      "રાએ": 8133,
      "વિગેરે": 8134,
      "લોસ": 8135,
      "ટીક": 8136,
      "સેફ": 8137,
      "મળતું": 8138,
      "ડિપાર્ટમેન્ટ": 8139,
      "ડેમો": 8140,
      "મેળવે": 8141,
      "સ્વરાજ": 8142,
      "સિંહના": 8143,
      "તૈનાત": 8144,
      "નોંધાયેલા": 8145,
      "વિચાર્યું": 8146,
      "આરોપીઓની": 8147,
      "દાયકા": 8148,
      "સૈફ": 8149,
      "ફાઈનલ": 8150,
      "અડધો": 8151,
      "ગઢવી": 8152,
      "ન્ટિંગ": 8153,
      "વૈજ્ઞાનિકો": 8154,
      "અશ્વિન": 8155,
      "મેડીકલ": 8156,
      "સાવધાની": 8157,
      "ચર્ચ": 8158,
      "અઠવાડિયે": 8159,
      "ઘડી": 8160,
      "ુણ": 8161,
      "નીએ": 8162,
      "કાઇ": 8163,
      "જાદુ": 8164,
      "ટીપી": 8165,
      "લિય": 8166,
      "ડિપ્રે": 8167,
      "પેશી": 8168,
      "2011": 8169,
      "ફિલ્મને": 8170,
      "વ્યાસ": 8171,
      "સ્વાભાવિક": 8172,
      "નિર્ણયને": 8173,
      "લક્ષ્યાં": 8174,
      "બોલ્યા": 8175,
      "માગતા": 8176,
      "પ્લેસ": 8177,
      "અદાણી": 8178,
      "ક્લાસિક": 8179,
      "ઈન્ટરનેટ": 8180,
      "સફરજન": 8181,
      "RT": 8182,
      "એવુ": 8183,
      "ચઢ": 8184,
      "ઠરાવ": 8185,
      "તડ": 8186,
      "ફરે": 8187,
      "૪૧": 8188,
      "કાવ": 8189,
      "પ્રવે": 8190,
      "પીઆઇ": 8191,
      "મિટ": 8192,
      "ટાયર": 8193,
      "યુકે": 8194,
      "ચેટ": 8195,
      "કામની": 8196,
      "દોડા": 8197,
      "્સને": 8198,
      "સાંજના": 8199,
      "બહારના": 8200,
      "ચૂંટણીની": 8201,
      "અપરા": 8202,
      "અમેરિકાએ": 8203,
      "પાડ્યા": 8204,
      "મોરબીમાં": 8205,
      "નાખ્યો": 8206,
      "મથકમાં": 8207,
      "ફ્રાસ્ટ્ર": 8208,
      "જઇને": 8209,
      "સિદ્ધાર્થ": 8210,
      "સમીક્ષાઓ": 8211,
      "ચુકાદા": 8212,
      "સંતુલન": 8213,
      "ઘોષણા": 8214,
      "રત્ન": 8215,
      "ધોધમાર": 8216,
      "અનુષ્કા": 8217,
      "આતો": 8218,
      "આયોગ": 8219,
      "એકર": 8220,
      "કમ્પ્યુટર": 8221,
      "ફફ": 8222,
      "ફાર": 8223,
      "૧ર": 8224,
      "માય": 8225,
      "મારુ": 8226,
      "નાટ": 8227,
      "મેષ": 8228,
      "કારના": 8229,
      "મોક": 8230,
      "સંચાર": 8231,
      "દીધુ": 8232,
      "સમજવા": 8233,
      "સોજો": 8234,
      "ફેરી": 8235,
      "ચ્છી": 8236,
      "ખેંચા": 8237,
      "શ્રીએ": 8238,
      "મેન્ટમાં": 8239,
      "ટ્રેન્ડ": 8240,
      "નેતાઓને": 8241,
      "ઇન્સ્ટિ": 8242,
      "રાજકોટની": 8243,
      "અપમાન": 8244,
      "સ્ટ્રિ": 8245,
      "જેવાં": 8246,
      "બ્રાંચ": 8247,
      "ચલાવે": 8248,
      "સાઈડ": 8249,
      "ઓગસ્ટે": 8250,
      "ઉત્પાદક": 8251,
      "ડિસેમ્બરે": 8252,
      "બોલીવુ": 8253,
      "એન્જિનિય": 8254,
      "ડૂબી": 8255,
      "રાજકારણમાં": 8256,
      "જ્યોતિષ": 8257,
      "ઝારખંડ": 8258,
      "સમર્પિત": 8259,
      "છોટાઉદેપુર": 8260,
      "ec": 8261,
      "ri": 8262,
      "ઉજવા": 8263,
      "ઘરોમાં": 8264,
      "ભક્ત": 8265,
      "સિયા": 8266,
      "સસરા": 8267,
      "હંગા": 8268,
      "રોનો": 8269,
      "રેટિંગ": 8270,
      "નિરાશ": 8271,
      "મોર્": 8272,
      "મોનિ": 8273,
      "પીછો": 8274,
      "ટાપુ": 8275,
      "રિસો": 8276,
      "ળાટ": 8277,
      "સૌંદર": 8278,
      "મહિલાઓની": 8279,
      "આઈડી": 8280,
      "૨૦૧૪": 8281,
      "સાયણ": 8282,
      "અહીંયા": 8283,
      "ટ્રાન્": 8284,
      "માતાના": 8285,
      "પાર્ટીએ": 8286,
      "સભ્યોએ": 8287,
      "સભ્યોની": 8288,
      "દેશોના": 8289,
      "દુનિયાભરમાં": 8290,
      "કાયદાકીય": 8291,
      "વ્હાઇટ": 8292,
      "પહોંચાડવા": 8293,
      "અનિવાર્ય": 8294,
      "વિપક્ષી": 8295,
      "જોગવાઇ": 8296,
      "ઢોર": 8297,
      "નિવૃત્ત": 8298,
      "નમૂના": 8299,
      "સુભાષ": 8300,
      "છંટકાવ": 8301,
      "વંચિત": 8302,
      "lo": 8303,
      "અમારો": 8304,
      "ઇવેન્ટ": 8305,
      "કમન": 8306,
      "દશા": 8307,
      "દત્ત": 8308,
      "વંદ": 8309,
      "હરે": 8310,
      "ોના": 8311,
      "નાખે": 8312,
      "સ્સે": 8313,
      "સ્પ્રે": 8314,
      "હેમત": 8315,
      "જાપાન": 8316,
      "લેનાર": 8317,
      "બાના": 8318,
      "મોના": 8319,
      "યોને": 8320,
      "જીયાત": 8321,
      "રૂટ": 8322,
      "સીરિઝ": 8323,
      "મિલા": 8324,
      "ડોકટર": 8325,
      "ફેલાય": 8326,
      "કરાવે": 8327,
      "બિલાડી": 8328,
      "એમસી": 8329,
      "છાયા": 8330,
      "ગ્રાન્ટ": 8331,
      "જીવનના": 8332,
      "આપેલી": 8333,
      "ઉદય": 8334,
      "ક્ષેત્રની": 8335,
      "ભયંકર": 8336,
      "બિલકુલ": 8337,
      "વિગતવાર": 8338,
      "ist": 8339,
      "માઈક્રો": 8340,
      "નાઈટ": 8341,
      "જયેશ": 8342,
      "કોઠારી": 8343,
      "બોરેટરી": 8344,
      "ઇક": 8345,
      "ઓમાંથી": 8346,
      "કદી": 8347,
      "કયાં": 8348,
      "ખવડા": 8349,
      "ચકા": 8350,
      "રૉ": 8351,
      "હવાઈ": 8352,
      "૯૫": 8353,
      "નેહા": 8354,
      "રાવલ": 8355,
      "ટેન્શન": 8356,
      "વીમો": 8357,
      "જોડે": 8358,
      "દેશા": 8359,
      "સિન": 8360,
      "ંતરે": 8361,
      "ગેહ": 8362,
      "ચીમકી": 8363,
      "થઇને": 8364,
      "ફિટને": 8365,
      "પ્રકારનાં": 8366,
      "ઘટાડી": 8367,
      "ત્રિમ": 8368,
      "મૃત્યુઆંક": 8369,
      "પૂછવામાં": 8370,
      "ગાયબ": 8371,
      "નગરપાલિકાના": 8372,
      "માધ્યમ": 8373,
      "સાંભળવા": 8374,
      "સાબરમતી": 8375,
      "વિભાગો": 8376,
      "600": 8377,
      "ંઝ": 8378,
      "આધ્યાત્": 8379,
      "ઈના": 8380,
      "દમણ": 8381,
      "બરી": 8382,
      "૬૭": 8383,
      "માંડી": 8384,
      "સાવર": 8385,
      "રેગ્યુ": 8386,
      "જોવી": 8387,
      "દ્વિ": 8388,
      "ચાવી": 8389,
      "ધાને": 8390,
      "સારૂ": 8391,
      "જન્ય": 8392,
      "મુખી": 8393,
      "પડતું": 8394,
      "મારફત": 8395,
      "મહાનુ": 8396,
      "આઈસી": 8397,
      "બાળકોમાં": 8398,
      "અભિપ્રાય": 8399,
      "એલર્જી": 8400,
      "નિયામક": 8401,
      "પાછળના": 8402,
      "ગર્વ": 8403,
      "યોજાનાર": 8404,
      "થોડાક": 8405,
      "રમાશે": 8406,
      "મૂકીને": 8407,
      "પથારી": 8408,
      "મજાક": 8409,
      "નિષ્ણાત": 8410,
      "સ્પોર્ટ્સ": 8411,
      "સમારંભ": 8412,
      "બોટાદ": 8413,
      "GB": 8414,
      "hat": 8415,
      "કઢા": 8416,
      "નમા": 8417,
      "પથી": 8418,
      "રથી": 8419,
      "સગીર": 8420,
      "સ્પા": 8421,
      "કેવું": 8422,
      "વિડિઓ": 8423,
      "લેવાય": 8424,
      "લેબોરેટરી": 8425,
      "નિર": 8426,
      "મોન": 8427,
      "ગાઢ": 8428,
      "સિલ્વર": 8429,
      "રહેલું": 8430,
      "અનન્ય": 8431,
      "ત્રીજો": 8432,
      "ફેડર": 8433,
      "પછીના": 8434,
      "નિયત": 8435,
      "વિસ્તારમાંથી": 8436,
      "સિંહને": 8437,
      "ર્મલ": 8438,
      "નોંધાયું": 8439,
      "દેખાયા": 8440,
      "જોડાઈ": 8441,
      "બેન્કો": 8442,
      "સહાયક": 8443,
      "સાવચેત": 8444,
      "બેંકો": 8445,
      "ચામડી": 8446,
      "સેન્ટરમાં": 8447,
      "કેનાલ": 8448,
      "હેન્ડલ": 8449,
      "બાંગ્લાદેશ": 8450,
      "નીપજ્યું": 8451,
      "ફટાકડા": 8452,
      "ઝુંબે": 8453,
      "કેમિકલ": 8454,
      "ળિયે": 8455,
      "ખળભ": 8456,
      "has": 8457,
      "ઈમરાન": 8458,
      "ચડી": 8459,
      "નખ": 8460,
      "નટ": 8461,
      "ફં": 8462,
      "શનથી": 8463,
      "વાઘ": 8464,
      "કેશો": 8465,
      "રીટ": 8466,
      "મેટિક": 8467,
      "વેદ": 8468,
      "લીલી": 8469,
      "ડાનો": 8470,
      "ણીને": 8471,
      "પીળા": 8472,
      "દીકરો": 8473,
      "મીમી": 8474,
      "બીન": 8475,
      "ટાળવા": 8476,
      "દરબાર": 8477,
      "ફેટે": 8478,
      "પરિચય": 8479,
      "શોખ": 8480,
      "બુમ": 8481,
      "ફીચર": 8482,
      "મદદની": 8483,
      "મારામારી": 8484,
      "રંગા": 8485,
      "પરેશાની": 8486,
      "રિકવરી": 8487,
      "નજીકથી": 8488,
      "શાહરૂખ": 8489,
      "ડાયમંડ": 8490,
      "નવેમ્બરે": 8491,
      "મોંઘી": 8492,
      "ફેબ્રુઆરીએ": 8493,
      "ટ્વીટર": 8494,
      "માલિકો": 8495,
      "વસતી": 8496,
      "પોલિસી": 8497,
      "2017માં": 8498,
      "સમયગાળામાં": 8499,
      "ગઠબંધન": 8500,
      "વેન્ટિલેટર": 8501,
      "પંકજ": 8502,
      "થેરાપી": 8503,
      "',": 8504,
      "--": 8505,
      "250": 8506,
      "ઉચ્ચાર": 8507,
      "વશો": 8508,
      "મારૂ": 8509,
      "કરન્સી": 8510,
      "કોલોની": 8511,
      "નોર": 8512,
      "ટેન્ડર": 8513,
      "જેડી": 8514,
      "હોલમાં": 8515,
      "બેને": 8516,
      "શાસક": 8517,
      "પિયો": 8518,
      "સ્થળા": 8519,
      "સમયના": 8520,
      "સર્ટિફિ": 8521,
      "સ્ટેચ્યુ": 8522,
      "અધિકારો": 8523,
      "નિયમન": 8524,
      "મોટાભાગે": 8525,
      "સિંહની": 8526,
      "પતિની": 8527,
      "આઇડી": 8528,
      "મનપસંદ": 8529,
      "લેવાયા": 8530,
      "એનર્જી": 8531,
      "જીતવા": 8532,
      "ચિંતાજનક": 8533,
      "રાશિફળ": 8534,
      "ભરાયા": 8535,
      "વધારવામાં": 8536,
      "પુનરા": 8537,
      "હરાજી": 8538,
      "ધર્મો": 8539,
      "તાત્કાલીક": 8540,
      "અંબાજી": 8541,
      "વિસ્ફોટ": 8542,
      "પુછપરછ": 8543,
      "અબ્દુલ": 8544,
      "અસંખ્ય": 8545,
      "સૌંદર્ય": 8546,
      "IA": 8547,
      "ઉક": 8548,
      "ઘડિયા": 8549,
      "તમિલનાડુ": 8550,
      "સ્રો": 8551,
      "િકા": 8552,
      "પ્રતાપ": 8553,
      "પરમાણ": 8554,
      "ગાજર": 8555,
      "દિકરી": 8556,
      "ધાતુ": 8557,
      "ડિફેન્સ": 8558,
      "વરસી": 8559,
      "કોરોનાનું": 8560,
      "કાર્યમાં": 8561,
      "મતગણતરી": 8562,
      "જોવાનું": 8563,
      "ધ્યાય": 8564,
      "ભાજપનો": 8565,
      "બીજાને": 8566,
      "બ્રાન્ચ": 8567,
      "ટુર્નામેન્ટ": 8568,
      "2009": 8569,
      "ટ્રીક": 8570,
      "લોકસભામાં": 8571,
      "તહેવા": 8572,
      "એજ્યુ": 8573,
      "સંકેતો": 8574,
      "પર્યાપ્ત": 8575,
      "ઝડપાયા": 8576,
      "બદલાવ": 8577,
      "રાજસ્થાનમાં": 8578,
      "એલાન": 8579,
      "હેલિકોપ્ટર": 8580,
      "ખળભળાટ": 8581,
      "53": 8582,
      "61": 8583,
      "to": 8584,
      "ંછ": 8585,
      "આક્રો": 8586,
      "કસો": 8587,
      "ઠુ": 8588,
      "ઠાર": 8589,
      "પડોશી": 8590,
      "ભંડ": 8591,
      "મલે": 8592,
      "મરણ": 8593,
      "ર્ય": 8594,
      "શૅ": 8595,
      "ષો": 8596,
      "ષિત": 8597,
      "૪૩": 8598,
      "નાખ્યા": 8599,
      "નાટક": 8600,
      "તાણ": 8601,
      "સ્મિ": 8602,
      "રેડિયો": 8603,
      "રેસ્ટો": 8604,
      "સેટે": 8605,
      "કરવાને": 8606,
      "વોલ્": 8607,
      "ડિટી": 8608,
      "બનાવતા": 8609,
      "સ્થાનો": 8610,
      "ખોટો": 8611,
      "એસઓ": 8612,
      "બુલેટ": 8613,
      "આરંભ": 8614,
      "કૃત્રિમ": 8615,
      "બનવાની": 8616,
      "એનડી": 8617,
      "હાઈકોર્ટમાં": 8618,
      "બ્રિટી": 8619,
      "ઝેર": 8620,
      "મુશ્કેલીમાં": 8621,
      "ન્યાયા": 8622,
      "સન્માનિત": 8623,
      "સપ્તાહે": 8624,
      "હરાવી": 8625,
      "કોહલીએ": 8626,
      "સૂચનો": 8627,
      "ઊંચાઈ": 8628,
      "સાર્વ": 8629,
      "તુરંત": 8630,
      "ખર્ચાળ": 8631,
      "ફોટોગ્રાફ": 8632,
      "શૌચાલ": 8633,
      "સર્વોચ્ચ": 8634,
      "પ્રેક્ટિસ": 8635,
      "વ્યાવસાયિક": 8636,
      "97": 8637,
      "અમારે": 8638,
      "ઇં": 8639,
      "ઝવે": 8640,
      "તળે": 8641,
      "તત્કા": 8642,
      "બર્થ": 8643,
      "વ્યાં": 8644,
      "૭૮": 8645,
      "નાસ્તા": 8646,
      "વિયે": 8647,
      "ધીરજ": 8648,
      "સિધ્ધ": 8649,
      "સમયા": 8650,
      "શાસ્ત્રો": 8651,
      "લિયમ": 8652,
      "શિલા": 8653,
      "ફેફસા": 8654,
      "પરિણ": 8655,
      "કરાવ્યા": 8656,
      "કાર્યકર": 8657,
      "ધોવા": 8658,
      "શુષ્": 8659,
      "નવાઈ": 8660,
      "અધિકારીને": 8661,
      "ટ્રેનો": 8662,
      "અહીંથી": 8663,
      "એન્જી": 8664,
      "ઠીયા": 8665,
      "અનુભવો": 8666,
      "યુવકની": 8667,
      "વિનાશ": 8668,
      "ડ્રાય": 8669,
      "વાયરસથી": 8670,
      "માળખું": 8671,
      "સંચાલક": 8672,
      "દુર્લભ": 8673,
      "દરવાજો": 8674,
      "હેતુથી": 8675,
      "બિહારના": 8676,
      "થુન": 8677,
      "ચિકિત્": 8678,
      "કટોકટી": 8679,
      "આર્યન": 8680,
      "સાથોસાથ": 8681,
      "એં": 8682,
      "એશિયન": 8683,
      "કપરા": 8684,
      "ખાર": 8685,
      "થવો": 8686,
      "દને": 8687,
      "નરે": 8688,
      "રખ": 8689,
      "વિર": 8690,
      "પ્રશાંત": 8691,
      "પાસા": 8692,
      "પાછું": 8693,
      "જેમના": 8694,
      "ડીવી": 8695,
      "દીવાલ": 8696,
      "ખાઇ": 8697,
      "સરસ્વ": 8698,
      "પેરે": 8699,
      "ડોને": 8700,
      "કોઈના": 8701,
      "કરાયેલ": 8702,
      "ખોટ": 8703,
      "ચિત્રો": 8704,
      "સૂચન": 8705,
      "સાયબર": 8706,
      "ઘરમાંથી": 8707,
      "મહેમાન": 8708,
      "ન્યુઝ": 8709,
      "નીચેની": 8710,
      "સભ્યોને": 8711,
      "ચલાવવા": 8712,
      "રોકડા": 8713,
      "બેંકમાં": 8714,
      "ડૉલર": 8715,
      "પહેરવા": 8716,
      "ગુલાબ": 8717,
      "મૃતકના": 8718,
      "ઈતિહાસ": 8719,
      "માઉન્ટ": 8720,
      "અત્યાચાર": 8721,
      "ne": 8722,
      "અયોગ્ય": 8723,
      "ચક્કર": 8724,
      "ધ્રા": 8725,
      "ભરેલી": 8726,
      "રૈયા": 8727,
      "લારી": 8728,
      "વાલમાં": 8729,
      "કોરિ": 8730,
      "વીણ": 8731,
      "પાટા": 8732,
      "બાપ": 8733,
      "ડાયો": 8734,
      "મીટ": 8735,
      "મીટિંગ": 8736,
      "કીને": 8737,
      "ગુપ્": 8738,
      "પેસેન્": 8739,
      "મ્બે": 8740,
      "શોભા": 8741,
      "કરાવવાની": 8742,
      "ફોરે": 8743,
      "અનુપ": 8744,
      "પ્રાંતિ": 8745,
      "પ્રેમિ": 8746,
      "ફ્લાઇ": 8747,
      "રેકટર": 8748,
      "ટ્રેલર": 8749,
      "હોસ્પિટલો": 8750,
      "નોંધાઇ": 8751,
      "કામગીરીમાં": 8752,
      "પાલિકાના": 8753,
      "ગિફ્ટ": 8754,
      "ફેલાયો": 8755,
      "અક્ષર": 8756,
      "2020માં": 8757,
      "ઈજાગ્રસ્ત": 8758,
      "શહેરીજનો": 8759,
      "ઇતિહાસમાં": 8760,
      "બંધારણ": 8761,
      "ation": 8762,
      "દ્રષ્ટિએ": 8763,
      "યાર્ડમાં": 8764,
      "કાઉન્સિલ": 8765,
      "બજારોમાં": 8766,
      "પ્રવાસે": 8767,
      "બેક્ટેરિયા": 8768,
      "પંચમહાલ": 8769,
      "ષડયંત્ર": 8770,
      "74": 8771,
      "ik": 8772,
      "આસા": 8773,
      "ઓપ્શન": 8774,
      "જડ": 8775,
      "ઠરા": 8776,
      "બર્ડ": 8777,
      "બસમાં": 8778,
      "શત": 8779,
      "૬૩": 8780,
      "તાઈ": 8781,
      "કોળી": 8782,
      "રીપોર્ટ": 8783,
      "પ્રદાય": 8784,
      "પાયો": 8785,
      "હાન": 8786,
      "મુખે": 8787,
      "પહેલું": 8788,
      "ચારિક": 8789,
      "સર્વા": 8790,
      "મારતા": 8791,
      "ભૂતિ": 8792,
      "કેસનો": 8793,
      "સ્ટેડિયમ": 8794,
      "ર્સમાં": 8795,
      "પ્રોગ્રા": 8796,
      "પહોંચવા": 8797,
      "પંદર": 8798,
      "પંચે": 8799,
      "હોસ્પિટલની": 8800,
      "કોર્ટની": 8801,
      "રંગની": 8802,
      "વિશ્વસનીય": 8803,
      "સિક્યુ": 8804,
      "અવગણ": 8805,
      "લેન્ડર": 8806,
      "ડ્રિ": 8807,
      "પોસ્ટર": 8808,
      "મંડળના": 8809,
      "મજબૂર": 8810,
      "દારૂના": 8811,
      "અહેમદ": 8812,
      "પ્રોજેકટ": 8813,
      "સુખદ": 8814,
      "સામાજીક": 8815,
      "સંક્રમણને": 8816,
      "નાખીને": 8817,
      "શબ્દોમાં": 8818,
      "કહેવાયું": 8819,
      "ભિન્ન": 8820,
      "સેક્ટરમાં": 8821,
      "ડબલ્યુ": 8822,
      "પામેલા": 8823,
      "આધ્યાત્મિક": 8824,
      "એજ્યુકેશન": 8825,
      "ઇકો": 8826,
      "ઈઓ": 8827,
      "કમો": 8828,
      "જહેમત": 8829,
      "ડ્યો": 8830,
      "નળ": 8831,
      "નકારી": 8832,
      "નકલ": 8833,
      "ભજન": 8834,
      "સૃ": 8835,
      "ેય": 8836,
      "વારિક": 8837,
      "કેચ": 8838,
      "કેળ": 8839,
      "કેવો": 8840,
      "લાવવાની": 8841,
      "કાકા": 8842,
      "જીબી": 8843,
      "તીર્થ": 8844,
      "ણીના": 8845,
      "હિમ": 8846,
      "સરની": 8847,
      "ગુપ્તા": 8848,
      "ચેતન": 8849,
      "માનતા": 8850,
      "અન્યા": 8851,
      "ફાટી": 8852,
      "ચોપરા": 8853,
      "પ્રોફેશન": 8854,
      "મળેલા": 8855,
      "ટ્રેક્ટર": 8856,
      "એલસીબી": 8857,
      "યોજનાનો": 8858,
      "કતાર": 8859,
      "ક્ષેત્રના": 8860,
      "યુવતીના": 8861,
      "હળદર": 8862,
      "પ્રકાશમાં": 8863,
      "દેવાયા": 8864,
      "સંક્રમણના": 8865,
      "સંઘના": 8866,
      "ગણતરીના": 8867,
      "દરોડો": 8868,
      "આત્મવિશ્વાસ": 8869,
      "નેતૃત્વમાં": 8870,
      "પ્રાઈવેટ": 8871,
      "હિમાચલ": 8872,
      "ews": 8873,
      "નૃત્ય": 8874,
      "એડી": 8875,
      "ઘર્": 8876,
      "ધડ": 8877,
      "મિયા": 8878,
      "સૉ": 8879,
      "હર્": 8880,
      "રાને": 8881,
      "ન્ક": 8882,
      "શેઠ": 8883,
      "નિયુક્ત": 8884,
      "સિડેન્ટ": 8885,
      "તમાકુ": 8886,
      "વોલ્યુ": 8887,
      "શિક્ષા": 8888,
      "દોને": 8889,
      "હોવાનુ": 8890,
      "વાતનો": 8891,
      "પ્રતિસાદ": 8892,
      "મહાનગર": 8893,
      "તુલા": 8894,
      "108": 8895,
      "ફીટ": 8896,
      "ગાંધીના": 8897,
      "તાલુકાઓ": 8898,
      "કૂતરા": 8899,
      "ભગવા": 8900,
      "અંતરે": 8901,
      "સતર્ક": 8902,
      "માંગરો": 8903,
      "દારૂનો": 8904,
      "એપ્રિલે": 8905,
      "મિશ્રા": 8906,
      "બાળકીને": 8907,
      "આદત": 8908,
      "ડિસ્ચાર્જ": 8909,
      "સંજોગો": 8910,
      "લિસ્ટમાં": 8911,
      "પક્ષીઓ": 8912,
      "અન્વયે": 8913,
      "જબરદસ્ત": 8914,
      "પારિવારિક": 8915,
      "સંકલન": 8916,
      "સરસ્વતી": 8917,
      "?”": 8918,
      "um": 8919,
      "૫૪": 8920,
      "નાસ્તો": 8921,
      "નીપ": 8922,
      "કેવા": 8923,
      "પ્રણ": 8924,
      "મેડ": 8925,
      "ભાભી": 8926,
      "જોયો": 8927,
      "ડીલ": 8928,
      "સુખી": 8929,
      "મુદા": 8930,
      "હિદ": 8931,
      "ગુડ": 8932,
      "છોડવા": 8933,
      "લગતા": 8934,
      "ંકડો": 8935,
      "અંકુશ": 8936,
      "મારવા": 8937,
      "સિંધ": 8938,
      "પંપ": 8939,
      "ઇન્સ્પે": 8940,
      "સારવારમાં": 8941,
      "વિચારધારા": 8942,
      "નવજાત": 8943,
      "લખવામાં": 8944,
      "અર્થમાં": 8945,
      "વાઇસ": 8946,
      "આવકવેરા": 8947,
      "ડૉક્ટ": 8948,
      "જંગલમાં": 8949,
      "વર્ગના": 8950,
      "ચોકલેટ": 8951,
      "દિવાળીના": 8952,
      "સ્પર્ધામાં": 8953,
      "આકર્ષિત": 8954,
      "2018માં": 8955,
      "પર્સનલ": 8956,
      "અખબાર": 8957,
      "હોદ્દેદારો": 8958,
      "જેતપુર": 8959,
      "પરમાણુ": 8960,
      "ઉતા": 8961,
      "ઝલ": 8962,
      "નગ": 8963,
      "પપ્પા": 8964,
      "૦૧": 8965,
      "કેન": 8966,
      "કોણે": 8967,
      "મેથી": 8968,
      "પાડીને": 8969,
      "જોવું": 8970,
      "દાવે": 8971,
      "સાથેનો": 8972,
      "દીને": 8973,
      "શાલ": 8974,
      "આપતો": 8975,
      "ગુલ": 8976,
      "ચેલેન્": 8977,
      "ચ્છો": 8978,
      "કુવા": 8979,
      "ગોવા": 8980,
      "જૂથો": 8981,
      "મતદાર": 8982,
      "ગ્રાફી": 8983,
      "બુકિંગ": 8984,
      "ટ્રોફી": 8985,
      "સંખ્યાબંધ": 8986,
      "રંગે": 8987,
      "પિતાના": 8988,
      "ચલાવવામાં": 8989,
      "રવિવાર": 8990,
      "રસ્તામાં": 8991,
      "તારક": 8992,
      "વાયરસનો": 8993,
      "ઉપાયો": 8994,
      "મોંઘા": 8995,
      "પંજાબના": 8996,
      "સંચાલકો": 8997,
      "ઘનશ્યામ": 8998,
      "પદ્ધતિઓ": 8999,
      "આતંકીઓ": 9000,
      "નાઇટેડ": 9001,
      "હરીફ": 9002,
      "શ્રાવણ": 9003,
      "અનોખી": 9004,
      "ગર્ભાશય": 9005,
      "ભૂકંપ": 9006,
      "કવાયત": 9007,
      "પ્રોપર્ટી": 9008,
      "CA": 9009,
      "ter": 9010,
      "ંદે": 9011,
      "ઑફિ": 9012,
      "કપૂરે": 9013,
      "જતું": 9014,
      "ડન્ટ": 9015,
      "રબારી": 9016,
      "વસે": 9017,
      "રાશી": 9018,
      "સ્કર્": 9019,
      "પરસે": 9020,
      "પાકને": 9021,
      "વેરો": 9022,
      "રોયલ": 9023,
      "નિસ": 9024,
      "ટી20": 9025,
      "જીનો": 9026,
      "તીઓ": 9027,
      "વર્ધ": 9028,
      "તમામને": 9029,
      "રહેવાનું": 9030,
      "પુર્વ": 9031,
      "છોકરો": 9032,
      "ધિરાણ": 9033,
      "ભાઈના": 9034,
      "મતદા": 9035,
      "સૂકા": 9036,
      "મેળવીને": 9037,
      "રણનીતિ": 9038,
      "રૂપિયાથી": 9039,
      "નોંધાતા": 9040,
      "લેવાના": 9041,
      "માતાએ": 9042,
      "તાજેતરના": 9043,
      "માથામાં": 9044,
      "ઇજાગ્રસ્ત": 9045,
      "બૉલી": 9046,
      "કાપીને": 9047,
      "કુશળતા": 9048,
      "સ્ટાર્ટ": 9049,
      "પ્રીમિયમ": 9050,
      "દરજ્જો": 9051,
      "નક્ષત્ર": 9052,
      "ગેહલો": 9053,
      "ઘર્ષણ": 9054,
      "700": 9055,
      "SS": 9056,
      "ev": 9057,
      "અવત": 9058,
      "આજીવન": 9059,
      "ઘટે": 9060,
      "જ્યા": 9061,
      "ઝ્": 9062,
      "નડિયા": 9063,
      "મહેર": 9064,
      "૧૦૦૦": 9065,
      "નાજુ": 9066,
      "સ્કર": 9067,
      "જાની": 9068,
      "જાનથી": 9069,
      "સેંકડો": 9070,
      "હાણે": 9071,
      "પેટી": 9072,
      "એસબી": 9073,
      "સર્જાય": 9074,
      "સિંધુ": 9075,
      "બુટલે": 9076,
      "રોજિ": 9077,
      "પ્રેક્ષ": 9078,
      "પ્રેરિત": 9079,
      "ફ્લાઇટ": 9080,
      "ટ્રેડિંગ": 9081,
      "બંનેના": 9082,
      "પૂરતું": 9083,
      "યુનિટી": 9084,
      "ફાઈન": 9085,
      "યુવતીઓ": 9086,
      "કમાન્ડ": 9087,
      "માનીએ": 9088,
      "અલ્ટ્રા": 9089,
      "વેસ્ટમેન્ટ": 9090,
      "નિષ્ફળતા": 9091,
      "નિરાકરણ": 9092,
      "અટકળો": 9093,
      "ભરોસો": 9094,
      "ગ્રોથ": 9095,
      "IPL": 9096,
      "નૈતિક": 9097,
      "જરૂરિયાતો": 9098,
      "Gujarati": 9099,
      "BS": 9100,
      "ઘરો": 9101,
      "ધવન": 9102,
      "બૌ": 9103,
      "ભઠ્ઠી": 9104,
      "રસ્તે": 9105,
      "વાવણી": 9106,
      "તાલ": 9107,
      "કેમે": 9108,
      "થીમ": 9109,
      "પ્રગ": 9110,
      "ટેકની": 9111,
      "ભાનુ": 9112,
      "નિકા": 9113,
      "સુપ્રિ": 9114,
      "દીકરીને": 9115,
      "સીમમાં": 9116,
      "મીક": 9117,
      "વધ્યું": 9118,
      "વર્થ": 9119,
      "ગ્રસ્તો": 9120,
      "ડેન": 9121,
      "ડેમમાં": 9122,
      "કિનારા": 9123,
      "વધુને": 9124,
      "પિયન": 9125,
      "ફોનની": 9126,
      "જૂને": 9127,
      "પડકારો": 9128,
      "ઉત્તે": 9129,
      "રોજના": 9130,
      "પહોંચશે": 9131,
      "બેનર્જી": 9132,
      "આરોપીએ": 9133,
      "ફરિયાદમાં": 9134,
      "વૈયા": 9135,
      "ધ્વજ": 9136,
      "ટૂર્નામેન્ટ": 9137,
      "ક્રિકેટમાં": 9138,
      "સૈય": 9139,
      "પ્રત્યક્ષ": 9140,
      "રૃા": 9141,
      "કૉલ": 9142,
      "બિલ્ડ": 9143,
      "બિલ્ડર": 9144,
      "નાયક": 9145,
      "પેટર્ન": 9146,
      "વાલીઓ": 9147,
      "આવશ્યકતા": 9148,
      "સંકળાયેલ": 9149,
      "લખીને": 9150,
      "વ્હીલર": 9151,
      "સ્પોટ": 9152,
      "સમારોહમાં": 9153,
      "તલાટી": 9154,
      "પ્લસ": 9155,
      "દિવ્યાંગ": 9156,
      "એમ્બ્યુલન્સ": 9157,
      "મહાનુભાવો": 9158,
      "શુષ્ક": 9159,
      "89": 9160,
      "ઇટા": 9161,
      "દંત": 9162,
      "પકા": 9163,
      "પગે": 9164,
      "રન્સ": 9165,
      "રતન": 9166,
      "હસ્તા": 9167,
      "૮૪": 9168,
      "માપદ": 9169,
      "તેણીએ": 9170,
      "રાઉ": 9171,
      "ર્જ": 9172,
      "હેમ": 9173,
      "જાડા": 9174,
      "હોસ્ટે": 9175,
      "લોજિ": 9176,
      "સેલ્સ": 9177,
      "ગાંગુ": 9178,
      "આપની": 9179,
      "વોર્": 9180,
      "ડેલી": 9181,
      "કિલ્લા": 9182,
      "ફોડી": 9183,
      "ચીઝ": 9184,
      "શ્રધ્ધા": 9185,
      "ભાઈઓ": 9186,
      "બ્લુ": 9187,
      "ભૂલો": 9188,
      "ઘાતક": 9189,
      "મેન્ટિક": 9190,
      "તંત્રના": 9191,
      "કનેક્શન": 9192,
      "ચર્ચાઓ": 9193,
      "જીત્યો": 9194,
      "લખ્યો": 9195,
      "રોગપ્રતિકારક": 9196,
      "નંબરની": 9197,
      "એફઆઈ": 9198,
      "મ્યુઝિક": 9199,
      "બાકીની": 9200,
      "સૈનિક": 9201,
      "વેપારીઓને": 9202,
      "મોકલવા": 9203,
      "નાણાંકીય": 9204,
      "ઓગસ્ટના": 9205,
      "રસોડામાં": 9206,
      "ફસાયેલા": 9207,
      "હોટલમાં": 9208,
      "બાતમીના": 9209,
      "એમ્પ્લો": 9210,
      "અગત્યનું": 9211,
      "ક્વાર્ટરમાં": 9212,
      "રેમડે": 9213,
      "ગર્લફ્રેન્ડ": 9214,
      "બેંગલુ": 9215,
      "મુદત": 9216,
      "નિવારણ": 9217,
      "એપિસો": 9218,
      ".(": 9219,
      "har": 9220,
      "છવાઈ": 9221,
      "ટૉ": 9222,
      "ટર્મ": 9223,
      "દશ": 9224,
      "પસી": 9225,
      "બલિ": 9226,
      "બાર્": 9227,
      "બારા": 9228,
      "મશરૂ": 9229,
      "૬૪": 9230,
      "છેક": 9231,
      "રામા": 9232,
      "સ્થી": 9233,
      "કોપ": 9234,
      "મેલે": 9235,
      "હેલ": 9236,
      "પાયા": 9237,
      "પાત્રો": 9238,
      "વેતન": 9239,
      "પોત": 9240,
      "મોતી": 9241,
      "સંપન્ન": 9242,
      "ડીસા": 9243,
      "ખાનને": 9244,
      "શ્વ": 9245,
      "જુની": 9246,
      "ટોળ": 9247,
      "મહિન્દ્રા": 9248,
      "જણાવતા": 9249,
      "દિવસનો": 9250,
      "છાલ": 9251,
      "અધિનિયમ": 9252,
      "ફ્લૂ": 9253,
      "આપણું": 9254,
      "માતાની": 9255,
      "અપલોડ": 9256,
      "પાર્ટીની": 9257,
      "સ્સામાં": 9258,
      "કાયદાની": 9259,
      "ઠેકા": 9260,
      "કચેરીમાં": 9261,
      "સોસાયટીના": 9262,
      "વિશાલ": 9263,
      "કેરળમાં": 9264,
      "મકાનો": 9265,
      "ફાળવવામાં": 9266,
      "દુકાનમાં": 9267,
      "ચલણ": 9268,
      "જીતીને": 9269,
      "પ્રતિનિધિત્વ": 9270,
      "નાઇટ": 9271,
      "દોડધામ": 9272,
      "મેકઅપ": 9273,
      "અરજદાર": 9274,
      "રોગચાળા": 9275,
      "ડોકટરો": 9276,
      "ઉછેર": 9277,
      "લખનઉ": 9278,
      "hi": 9279,
      "ઓપ્": 9280,
      "નશા": 9281,
      "કોસ્ટ": 9282,
      "મેહુ": 9283,
      "જાના": 9284,
      "યોર્ક": 9285,
      "દેવો": 9286,
      "બેંગ્લો": 9287,
      "પેર": 9288,
      "વરસ્યો": 9289,
      "પિયર": 9290,
      "છોડવામાં": 9291,
      "પાસેના": 9292,
      "અનુરોધ": 9293,
      "સ્વૈ": 9294,
      "સ્ટોરેજ": 9295,
      "વિશ્વભરમાં": 9296,
      "ઘટાડા": 9297,
      "લાયસન્સ": 9298,
      "ફેરવી": 9299,
      "મ્યુચ્યુઅલ": 9300,
      "નોકરીમાં": 9301,
      "સમાજને": 9302,
      "ભૂતકાળમાં": 9303,
      "ગણાતા": 9304,
      "એનાથી": 9305,
      "બદલવા": 9306,
      "કાલથી": 9307,
      "સપ્ટેમ્બરના": 9308,
      "મુંબઇમાં": 9309,
      "બગડી": 9310,
      "શ્રદ્ધાળુ": 9311,
      "આશ્ચર્યજનક": 9312,
      "મચાવ્યો": 9313,
      "સિલિન્ડર": 9314,
      "પદાધિકારી": 9315,
      "ંદી": 9316,
      "આઘાત": 9317,
      "ઈચ્છે": 9318,
      "થયેલો": 9319,
      "પલ્": 9320,
      "ફના": 9321,
      "મસ્તી": 9322,
      "રડ": 9323,
      "વતું": 9324,
      "૫૨": 9325,
      "માનું": 9326,
      "માળીયા": 9327,
      "વાપી": 9328,
      "પ્રવીણ": 9329,
      "ન્ડી": 9330,
      "ટેન": 9331,
      "જેકેટ": 9332,
      "જેઠા": 9333,
      "લીટી": 9334,
      "સેલે": 9335,
      "ડીગ્રી": 9336,
      "મુર": 9337,
      "સીય": 9338,
      "રહેવાનો": 9339,
      "રહેણાંક": 9340,
      "યુનાઇટેડ": 9341,
      "શોપિંગ": 9342,
      "ફામ": 9343,
      "અંજામ": 9344,
      "પાસના": 9345,
      "અનુસર": 9346,
      "નિર્મલા": 9347,
      "અધિક્ષક": 9348,
      "બદલો": 9349,
      "વચ્ચેનો": 9350,
      "આઇપીએલ": 9351,
      "વિદ્યાર્થીઓના": 9352,
      "અવકાશ": 9353,
      "રસીના": 9354,
      "અપાઇ": 9355,
      "વળવા": 9356,
      "હત્યાના": 9357,
      "ઢાંક": 9358,
      "ગતિવિધિ": 9359,
      "વ્યવસાયમાં": 9360,
      "બોલાવવામાં": 9361,
      "યુવાને": 9362,
      "પ્રસંગો": 9363,
      "દ્રાક્ષ": 9364,
      "શ્રેણીમાં": 9365,
      "ટોચની": 9366,
      "મુસાફરોને": 9367,
      "કવિતા": 9368,
      "ભરેલા": 9369,
      "ટ્યુબ": 9370,
      "છુટકારો": 9371,
      "મેઘરાજા": 9372,
      "dia": 9373,
      "ચેન્નઈ": 9374,
      "અરુણ": 9375,
      "કાલાવડ": 9376,
      "સમયાંતરે": 9377,
      "he": 9378,
      "અગિ": 9379,
      "આક": 9380,
      "ઓડિયો": 9381,
      "ચશ્મા": 9382,
      "ડભો": 9383,
      "તપ": 9384,
      "મ્યૂ": 9385,
      "સભર": 9386,
      "૫૬": 9387,
      "૭૯": 9388,
      "ટેલા": 9389,
      "હેલ્પ": 9390,
      "જાપ": 9391,
      "મોકલા": 9392,
      "તીન": 9393,
      "મુકત": 9394,
      "ખાબ": 9395,
      "હિસા": 9396,
      "ફરજીયાત": 9397,
      "જોવાશે": 9398,
      "પ્રતિકાર": 9399,
      "વ્યક્તિનું": 9400,
      "પુરવાર": 9401,
      "સ્વરૂ": 9402,
      "બનતી": 9403,
      "આંશિક": 9404,
      "પડેલી": 9405,
      "દેખાતા": 9406,
      "અસરગ્રસ્ત": 9407,
      "પત્નીની": 9408,
      "જઈએ": 9409,
      "સ્કૂલો": 9410,
      "બતાવવામાં": 9411,
      "ગ્રેજ્યુ": 9412,
      "સબસ્": 9413,
      "જનતાને": 9414,
      "કાર્યોમાં": 9415,
      "ફાર્મા": 9416,
      "મહત્ત્વની": 9417,
      "બહાને": 9418,
      "નર્સિંગ": 9419,
      "વળાંક": 9420,
      "શૅર": 9421,
      "ઈઝ": 9422,
      "ક્યો": 9423,
      "છલ": 9424,
      "દારે": 9425,
      "વડતા": 9426,
      "સથી": 9427,
      "નાકા": 9428,
      "કોસ્": 9429,
      "સાકાર": 9430,
      "પ્રથા": 9431,
      "ટેક્ષ": 9432,
      "રોન": 9433,
      "હીલ": 9434,
      "િયાનમાં": 9435,
      "સુનીલ": 9436,
      "સુનિલ": 9437,
      "ણીયા": 9438,
      "ણાની": 9439,
      "મિડ": 9440,
      "સમજૂ": 9441,
      "રિલેશન": 9442,
      "ગુફા": 9443,
      "રહેલો": 9444,
      "પુરો": 9445,
      "તરની": 9446,
      "સ્થામાં": 9447,
      "સામેના": 9448,
      "ફરતી": 9449,
      "સૌને": 9450,
      "સૂક": 9451,
      "હિતમાં": 9452,
      "મુખ્યપ્રધાન": 9453,
      "અધિકૃત": 9454,
      "રણબીર": 9455,
      "બહારથી": 9456,
      "ટ્રેનમાં": 9457,
      "ગાંધીની": 9458,
      "ચરલ": 9459,
      "વિકાસની": 9460,
      "કુમારની": 9461,
      "બોલતા": 9462,
      "સ્કૂલના": 9463,
      "તારણ": 9464,
      "સંભવ": 9465,
      "બંગાળના": 9466,
      "વંશી": 9467,
      "ગોળીઓ": 9468,
      "પ્રોડક્ટ્સ": 9469,
      "નિપજ્યું": 9470,
      "હાનિકારક": 9471,
      "જરુરી": 9472,
      "800": 9473,
      "MS": 9474,
      "ંતો": 9475,
      "આચાર": 9476,
      "ઉપાડ": 9477,
      "થલ": 9478,
      "નહેર": 9479,
      "બત્તી": 9480,
      "રડી": 9481,
      "સસ્તી": 9482,
      "માથી": 9483,
      "કેળા": 9484,
      "કોમ્યુનિ": 9485,
      "મેરે": 9486,
      "રોલમાં": 9487,
      "રોમેન્ટિક": 9488,
      "નિપ": 9489,
      "આવકમાં": 9490,
      "બેફામ": 9491,
      "મુહૂ": 9492,
      "યુક્તિ": 9493,
      "પુત્રો": 9494,
      "શિષ્ય": 9495,
      "અનંત": 9496,
      "ચોટી": 9497,
      "ટકાની": 9498,
      "મનાય": 9499,
      "પ્રોટો": 9500,
      "પકડવા": 9501,
      "મનોહર": 9502,
      "સહભાગી": 9503,
      "કર્મચારીઓના": 9504,
      "દાખલા": 9505,
      "દાયકામાં": 9506,
      "મધ્યમાં": 9507,
      "એફસી": 9508,
      "2007": 9509,
      "શ્વર્યા": 9510,
      "કાયદાના": 9511,
      "પરિસ્થિતિને": 9512,
      "જંગી": 9513,
      "દેવાયો": 9514,
      "ફટકો": 9515,
      "વાજબી": 9516,
      "ફેસબુ": 9517,
      "વૈજ્ઞાનિ": 9518,
      "પેટ્રોલિંગ": 9519,
      "ઈન્ટરનેશનલ": 9520,
      "માફક": 9521,
      "સમૃદ્ધિ": 9522,
      "પંચાયતમાં": 9523,
      "તજવીજ": 9524,
      "ઓથોરિટી": 9525,
      "મોર્ટમ": 9526,
      "01": 9527,
      "TV": 9528,
      "આદુ": 9529,
      "ચણ": 9530,
      "ચટણી": 9531,
      "જસ": 9532,
      "પું": 9533,
      "પકો": 9534,
      "ફરા": 9535,
      "સગર્ભા": 9536,
      "૫૭": 9537,
      "રીનો": 9538,
      "નિગ": 9539,
      "તિજો": 9540,
      "પીઆઈ": 9541,
      "બીલ": 9542,
      "સોયા": 9543,
      "રિસ": 9544,
      "કિય": 9545,
      "બાદથી": 9546,
      "કહું": 9547,
      "શ્રો": 9548,
      "રાજ્યભરમાં": 9549,
      "કેસના": 9550,
      "ખુલી": 9551,
      "નિકળ": 9552,
      "ચૂંટણીને": 9553,
      "ખાતેથી": 9554,
      "ઝીણી": 9555,
      "યોજાઇ": 9556,
      "ત્રિમાસિક": 9557,
      "માલ્યા": 9558,
      "પ્રીત": 9559,
      "હત્યાનો": 9560,
      "સફળતાપૂર્વક": 9561,
      "ઓક્ટોબરે": 9562,
      "પ્રોડક્શન": 9563,
      "ટેલિગ્રામ": 9564,
      "ઝડપાયો": 9565,
      "આત્મનિર્ભર": 9566,
      "યુગમાં": 9567,
      "acc": 9568,
      "મહુવા": 9569,
      "ઓકટો": 9570,
      "સુશોભન": 9571,
      "બારડોલી": 9572,
      "આશિષ": 9573,
      "કેવડિયા": 9574,
      "અદ્ભુત": 9575,
      "હાલાકી": 9576,
      "સર્ટિફિકેટ": 9577,
      "અન્યાય": 9578,
      "અવતાર": 9579,
      "81": 9580,
      "અતુલ": 9581,
      "ઇમ્": 9582,
      "ઉડ": 9583,
      "ગિત": 9584,
      "ગારો": 9585,
      "તપા": 9586,
      "નરો": 9587,
      "ફની": 9588,
      "ભણા": 9589,
      "ભગત": 9590,
      "૯૭": 9591,
      "માજી": 9592,
      "વાહિ": 9593,
      "તેનુ": 9594,
      "સ્પર": 9595,
      "લાંગ": 9596,
      "લાબેન": 9597,
      "સામૂ": 9598,
      "સાબુ": 9599,
      "રીઓ": 9600,
      "પ્રસરી": 9601,
      "ક્કો": 9602,
      "રોઝ": 9603,
      "જીવો": 9604,
      "સીએસ": 9605,
      "સિદ્": 9606,
      "મિલ્": 9607,
      "ક્રમાં": 9608,
      "વોચ": 9609,
      "પુણે": 9610,
      "ડેવિડ": 9611,
      "વધુની": 9612,
      "ગુજાર": 9613,
      "અનુસં": 9614,
      "ભાઇએ": 9615,
      "પ્રતિષ્ઠ": 9616,
      "ઇન્જેક્શન": 9617,
      "જગ્યામાં": 9618,
      "નોંધ્યું": 9619,
      "કિંગ્સ": 9620,
      "ભાગીદાર": 9621,
      "ભાવનગરમાં": 9622,
      "બોલીવ": 9623,
      "બોલીવુડ": 9624,
      "શખ્સે": 9625,
      "સ્પીકર": 9626,
      "જાડેજાએ": 9627,
      "રસોઇ": 9628,
      "અગ્રણીઓ": 9629,
      "વાવાઝોડા": 9630,
      "અફઘાનિસ્તાનમાં": 9631,
      "છેતરપી": 9632,
      "રજીસ્ટ્રેશન": 9633,
      "કપાત": 9634,
      "સાર્વજ": 9635,
      "સોફ્ટવેર": 9636,
      "સગવડ": 9637,
      "અમલીકરણ": 9638,
      "થિયેટર": 9639,
      "ફ્રાસ્ટ્રક્ચર": 9640,
      "આક્રોશ": 9641,
      "Bhas": 9642,
      "અથા": 9643,
      "ઈક": 9644,
      "ઉડી": 9645,
      "બૈ": 9646,
      "’.": 9647,
      "નાબેન": 9648,
      "નીચલા": 9649,
      "કેલિ": 9650,
      "કોમન": 9651,
      "વીડ": 9652,
      "મેનો": 9653,
      "ટીમનો": 9654,
      "જીવતા": 9655,
      "સંકુ": 9656,
      "ધીશો": 9657,
      "વર્ગો": 9658,
      "વર્ધન": 9659,
      "સમ્": 9660,
      "પેકેટ": 9661,
      "દેશનું": 9662,
      "છોટા": 9663,
      "પડવાની": 9664,
      "ચિંતિ": 9665,
      "ખુલ્": 9666,
      "તપાસની": 9667,
      "દર્દીની": 9668,
      "મનમોહન": 9669,
      "યોજનામાં": 9670,
      "એક્સેસ": 9671,
      "રાખીએ": 9672,
      "કહીએ": 9673,
      "શાહરુ": 9674,
      "ડ્રી": 9675,
      "શનિવાર": 9676,
      "સ્ટ્રીટ": 9677,
      "બ્રેડ": 9678,
      "જામનગરના": 9679,
      "એપ્રિલના": 9680,
      "ઉમેદવારોને": 9681,
      "સમિતિની": 9682,
      "યુવાનને": 9683,
      "સિદ્ધુ": 9684,
      "ફોર્મે": 9685,
      "વંશ": 9686,
      "ગૂગલ": 9687,
      "સીઝનમાં": 9688,
      "તોફાની": 9689,
      "લૉકડાઉન": 9690,
      "મજબુત": 9691,
      "ટિવિટી": 9692,
      "ફેડરલ": 9693,
      "\".": 9694,
      "84": 9695,
      "ંુ": 9696,
      "અમારું": 9697,
      "ખણ": 9698,
      "ગને": 9699,
      "ગારે": 9700,
      "ધનુ": 9701,
      "નળી": 9702,
      "ફકત": 9703,
      "િતા": 9704,
      "વિખ્યાત": 9705,
      "મેમો": 9706,
      "ંગર": 9707,
      "બાજ": 9708,
      "સંજીવ": 9709,
      "િયાની": 9710,
      "સુસંગત": 9711,
      "દાવ": 9712,
      "સીરીઝ": 9713,
      "રહેશો": 9714,
      "પુટ": 9715,
      "પેન્ટ": 9716,
      "ડોલ": 9717,
      "પોતાનાં": 9718,
      "રાખવાનું": 9719,
      "રુપ": 9720,
      "જયપુર": 9721,
      "કૃત્ય": 9722,
      "ઇનકાર": 9723,
      "ધરણા": 9724,
      "ટ્ટો": 9725,
      "પાંચમા": 9726,
      "પૂરક": 9727,
      "વાલય": 9728,
      "ઈન્સ્ટાગ્રામ": 9729,
      "વિષયો": 9730,
      "હાઈટ": 9731,
      "અપાવી": 9732,
      "ંગ્ટન": 9733,
      "રાશિમાં": 9734,
      "રાજ્યોના": 9735,
      "ચોરીના": 9736,
      "આપણાં": 9737,
      "શક્યતાઓ": 9738,
      "ગુમાવ્યા": 9739,
      "પુલવામા": 9740,
      "વિપક્ષના": 9741,
      "ગોળીબાર": 9742,
      "ખોલવા": 9743,
      "દાસજી": 9744,
      "કસ્ટમ": 9745,
      "ઇચ્છતા": 9746,
      "ગાઈડલાઈન": 9747,
      "પરિવારોને": 9748,
      "સ્ટેડિયમમાં": 9749,
      "ફફડાટ": 9750,
      "પ્રતિષ્ઠિત": 9751,
      "Bhaskar": 9752,
      "Div": 9753,
      "GST": 9754,
      "અન્ડર": 9755,
      "ઇટ": 9756,
      "ચડ": 9757,
      "પૅ": 9758,
[...]
